{"\u00ff": 0, "\u00a7": 1, "\u00fa": 2, "\u00e7": 3, "\u00bf": 4, "_": 5, "\u00f5": 6, "\u00e8": 7, "=": 8, "\u00af": 9, "\u00eb": 10, "\u00f4": 11, "\u00be": 12, "\u007f": 13, "<": 14, "9": 15, "\u00fe": 16, "\u00d7": 17, "\u00fd": 18, "\u00f7": 19, "z": 20, "\u00cf": 21, ":": 22, "\u009c": 23, "\u00ef": 24, "S": 25, "\u00f3": 26, "x": 27, "\u009e": 28, "\u00f9": 29, "\u00f2": 30, "\u001e": 31, "s": 32, "\u00f0": 33, "\u00df": 34, "\u008f": 35, "N": 36, "t": 37, "}": 38, "\u00c3": 39, "\u00e9": 40, "y": 41, "\u00e0": 42, "\u00e4": 43, "\u00e1": 44, "\u00fb": 45, "\u00ea": 46, "\u00fc": 47, "C": 48, "|": 49, "\u009d": 50, "\u00ab": 51, "\u00ba": 52, "\u00d1": 53, "\u00b7": 54, ")": 55, "\u00d5": 56, "\u00ee": 57, "u": 58, "\u0014": 59, "\u00bc": 60, "\u0086": 61, "*": 62, "\u00de": 63, "U": 64, "{": 65, "\u0087": 66, "\u00e3": 67, "\u00b5": 68, "\u00a2": 69, "\u00a8": 70, "W": 71, "o": 72, "T": 73, "\u00ce": 74, "p": 75, "\u008a": 76, "\u00f1": 77, "\u001d": 78, "\u00d0": 79, "/": 80, "k": 81, "\u00ae": 82, "w": 83, "+": 84, "8": 85, "\u009f": 86, "\u00a1": 87, "\u000e": 88, ">": 89, "\u00bd": 90, "V": 91, "\n": 92, "\u00d3": 93, "\u00aa": 94, "O": 95, "\u0015": 96, "\u00c7": 97, "\u00f8": 98, "\u00dd": 99, "^": 100, "Y": 101, "\u00ac": 102, "\u0095": 103, "\u00e6": 104, "\u00a3": 105, "\u00f6": 106, "\u00e5": 107, "r": 108, "\u0082": 109, "\u00a5": 110, "\r": 111, "\u001a": 112, "Q": 113, "5": 114, "\u00c1": 115, "\u0018": 116, "g": 117, "E": 118, "j": 119, "G": 120, "\u00ad": 121, "\u00ed": 122, "J": 123, "b": 124, "\u00b3": 125, "\u0088": 126, "\u0097": 127, "\u00ec": 128, "Z": 129, "\u00ca": 130, "\u00cd": 131, "\u001c": 132, "\u0019": 133, "#": 134, "A": 135, ";": 136, "\u00b9": 137, "\u0004": 138, "\u00dc": 139, "\u0083": 140, "\u00c4": 141, "\u0005": 142, "\f": 143, "\u0012": 144, "~": 145, "D": 146, "\u00d4": 147, "\u0017": 148, "\u0002": 149, "\u00c0": 150, "\u0081": 151, "1": 152, "4": 153, "\u009b": 154, "]": 155, "\u00a9": 156, "\u0089": 157, "?": 158, "n": 159, "K": 160, "\u0091": 161, "\u00da": 162, "\u00c8": 163, "6": 164, "\u001f": 165, "\u00bb": 166, "\u00d2": 167, "\u00a0": 168, "\u0094": 169, "\\": 170, "\t": 171, "\u00c5": 172, "\u00d6": 173, "7": 174, "P": 175, "\u00b2": 176, "M": 177, "!": 178, "\u0010": 179, "\u00db": 180, "\u008c": 181, "\u00b1": 182, "i": 183, "R": 184, "e": 185, "3": 186, "h": 187, "%": 188, "[": 189, "q": 190, "\u009a": 191, "\u00b8": 192, "\u000f": 193, "\u0090": 194, "\u008b": 195, "\u00cb": 196, "\u00c9": 197, "\u0011": 198, " ": 199, "B": 200, "F": 201, "H": 202, "\u00d9": 203, "\u00b4": 204, "\"": 205, "\u00e2": 206, "\u0007": 207, "'": 208, "2": 209, "m": 210, "\u0013": 211, "\u0084": 212, "\b": 213, "a": 214, "\u00b0": 215, "0": 216, "(": 217, "\u00d8": 218, "\u00a6": 219, "$": 220, "`": 221, ".": 222, "\u008e": 223, "\u00cc": 224, "\u008d": 225, "f": 226, "X": 227, "\u0099": 228, "\u00c2": 229, "\u00c6": 230, "\u0093": 231, "@": 232, "\u0001": 233, ",": 234, "\u0006": 235, "\u001b": 236, "v": 237, "c": 238, "\u0080": 239, "\u000b": 240, "\u00a4": 241, "\u0096": 242, "d": 243, "\u0000": 244, "\u0085": 245, "\u0098": 246, "-": 247, "&": 248, "I": 249, "\u0092": 250, "\u0016": 251, "\u0003": 252, "L": 253, "\u00b6": 254, "\u00a6\u00dd": 255, "\u00d3n": 256, "l": 257, "M\u00bb": 258, "\u009bv": 259, "\u00e9\u00b7": 260, "i\u00b7": 261, "9\u00c3": 262, "\u009c\u00e1": 263, "s\u0086": 264, "\u00cep": 265, "#o": 266, "F\u00de": 267, "\u00ca\u00d6": 268, "6\u00ec": 269, "\u00e78": 270, "+Z": 271, "6\u00ed": 272, "\u0095\u00ad": 273, "m\u00da": 274, "t\u00db": 275, "\u00f4\u00db": 276, "\u009b<": 277, "\u0092S": 278, "\u0011\u00b7": 279, "\u00a6\u00dc": 280, "s\u009c": 281, "\u00e7\r": 282, "\u009a_": 283, "ek": 284, "\u0092\u009b": 285, "m\u00d9": 286, "4\u00db": 287, "\u0091\u00b7": 288, "Ns\u0086": 289, "6y": 290, "4\u00bf": 291, "M\u00df": 292, "\u00cd/": 293, "i\u007f": 294, "\u00e5k": 295, "n\u00fe": 296, "g8": 297, "\u00b7\u007f": 298, "l\u00f3": 299, "\u00a79\u00c3": 300, "\u00ce\u001a": 301, "\u008d\u00bc": 302, "\u00d9\u00e7": 303, "M\u009e": 304, "G\u00aa": 305, "\u00e7\f": 306, "\u008d\u00bd": 307, "\u0099p": 308, "\u00b1\u0006": 309, "2\u00e1": 310, "M\u00b8": 311, "\u00e4\u0094": 312, "y%": 313, "\u00cc\u00b8": 314, "\u00c9)": 315, "\u00c9M": 316, "\u00d2\u00ff": 317, "%6": 318, "M\u00da": 319, "\u0010\u00af": 320, "\u00c9\u00bb": 321, "e\u00c3": 322, "\u0093v": 323, "\u00a7T": 324, "\u00ce\u0019": 325, "\u00f2J": 326, "6\u00ef": 327, "\u00d2\u00ba": 328, "\u00b4\u00db": 329, "\u00cb\u0086": 330, "\u0088\u00db": 331, "m\u00df": 332, "&\u00ed": 333, "\u001bz": 334, "\u0010\u0093": 335, "\u0095\u00ac": 336, "\u00c4z": 337, "2\u00b5": 338, "\u00ad\u00df": 339, "\u0010\u00aa": 340, "\u00f5\u00e4": 341, "\u009bw": 342, "\u00c4m": 343, "\u00ce\u0018": 344, "\b\u00db": 345, "\u00a5\u00fe": 346, "7i": 347, "G\u00af": 348, "\u00b2\u00b5": 349, "H\u00db": 350, "\u00f0B": 351, "\u00fdn": 352, "m\u00d8": 353, "S\u009c\u00e1": 354, "$\u00a6": 355, "V\u00b4\u00db": 356, "I|": 357, "\f\u00ad": 358, "\u008fU": 359, "$\u00dd": 360, "Z\u00d3n": 361, "$\u00be": 362, "\u00d3g": 363, "\u009c\u00e7\r": 364, "\u00d6\u00ef": 365, "z\u00f2": 366, "\u009e1": 367, "\u001by": 368, "\u00f5\u00bb": 369, "\u008fT": 370, "\u009c5": 371, "\u008f_": 372, "\u0092_": 373, "\u00cb\u00e4": 374, "\u00e4\u00dd": 375, "IO": 376, "V\u00b5": 377, "F!": 378, "m\u00db": 379, "$m": 380, "\u00d6 ": 381, "/\u0093": 382, "$\u00a7": 383, "\u0097\u00c9": 384, "\u00cd\u00bb": 385, "S\u00aa": 386, "\u0099)\u00b6": 387, "\u0092\u009e": 388, "\u009bq": 389, "\u0097\f": 390, "\u0092\u00f9": 391, "_\u000e": 392, "\u00f5\u001e": 393, "\u00be\b": 394, "\u00c8\u00db": 395, "X\u0083": 396, "r\u00b5": 397, "[\u00bf": 398, "_#": 399, "\u00e6\u0097": 400, "\u00be9": 401, "\u00beF": 402, "i]": 403, "9\u00ce\u001a": 404, "\u00ebv": 405, "\u009b\u00bf": 406, "\u00cc\u0094\u00db": 407, "d\u00a6": 408, "\u00c9/": 409, "\u00ac\u00f0": 410, "\u00de\u00bc": 411, "&\u00ef": 412, "\u00cf\u0018": 413, "\u00f7\u00de": 414, "\u00eb\u00da": 415, "|\u008c": 416, "\u00be\u001c": 417, "T\u00dd": 418, "\u00bdy": 419, "\u0093w": 420, "#\u00d5": 421, "\u00acA": 422, "\u009c\u00ad": 423, "\u009c3": 424, "\u009bp": 425, "\u009c\u00e7\f": 426, "~\u00b7": 427, "I\u00bb": 428, "\u009e\u0086": 429, "\u00c1\n": 430, "\u00e0\u0085": 431, "6\u00f3": 432, "\u009b\u00b4": 433, "n\u00d3": 434, "\u00a6\u00cf": 435, "\u00db\u00bf": 436, "\u00d3b": 437, "x\u00c7": 438, "\u00c3+": 439, "f\\": 440, "u\u00ed": 441, "f\u00dd": 442, "b\u0015": 443, "4\u00ae": 444, "!_": 445, "\u00a6\u00ef": 446, "9Z": 447, "\u00de\u00bb": 448, "\u0082\u0015": 449, "\u00d7\u0091": 450, "\u008cB": 451, "\u00cf\u007f": 452, "\u00d6x": 453, "\u00b9k": 454, "b=": 455, "N\u00a8": 456, "\u0019Z": 457, "\u00ca\u00d6\u009bv": 458, "\u001e\u00bf": 459, "$\u00e5": 460, "\u00af\u008e": 461, "\u00ad\u00cf": 462, "\u008fM\u00bb": 463, "\u00e9]": 464, "\u00a3\u00d7": 465, "\u0088W": 466, ":\u00f6": 467, "\u00f20": 468, "y\u001d{": 469, ";\u00d7": 470, "\u001b\u00d7": 471, "sK": 472, "Y\u00e1": 473, "<c": 474, "\u0092n": 475, "1\n": 476, "\u009b\u00be": 477, "\u00d6\u00ed": 478, "\u00ec\u00ad": 479, "\u00a3\u00d5": 480, "\u00df\u0004": 481, "\u00dbm\u00b6": 482, ".p": 483, "\u00aeZ": 484, "\u00d3\u00aa": 485, "\u00a9\u00bb": 486, "\u00bf\u0090": 487, "\u00b3\u00c3": 488, ":\u00a4": 489, "\u009d6": 490, "\r+": 491, "\u00aeS": 492, "_\u001c": 493, "\u00b3.": 494, "\u009d\u00eb": 495, "+Y": 496, "\u008dg": 497, "\u001a\u00ce": 498, "\u0004m": 499, "\u00d3\u009c\u00e1": 500, "\u00aa\u0006": 501, "%\u00f3": 502, "\u00ebw": 503, "\\\u00b5": 504, "\u0082\u00dd": 505, "\u00d7)": 506, "_'": 507, "\u001aW": 508, "s\u0080": 509, "\u001e\u00ab": 510, "\u00eb\u00c8": 511, "\u00ea\u0093": 512, "w\u00ae": 513, "\u001e\u009bv": 514, "X\u00ab": 515, "!\u00df": 516, "\u00180": 517, "\u00f1\u008e": 518, "m\u00c2": 519, ")\u00d5": 520, "\u00afo": 521, "\u009dQ": 522, "]\u00e4": 523, "\u009e\u00fe": 524, "\u00d7/": 525, "\u00d6\u00ec": 526, "-}": 527, "\u00c8\u00c3": 528, "\u00e6\\": 529, "\u00dd\u007f": 530, "\u0088\u00f4\u00db": 531, "\u00859": 532, "\u00af#": 533, "\u00ef]": 534, "\u00ea=": 535, "\u00c4\u001a": 536, "\u00bd\u00a2": 537, "\u00fb\u00cf": 538, "\u000e\u0086": 539, "\u008f\u0004": 540, "\u00ae\u00f2": 541, "A\u00ff": 542, "f\u0097": 543, "Np": 544, "\u00f5\u00df": 545, "\u00f4\u00ae": 546, "=\u00fe": 547, "\u00dbm\u00b6\u00dbm\u00b6": 548, "\fG": 549, "\u00be\u00f3": 550, "\u00acU": 551, "#\u00d3n": 552, "\u00f3\u001e": 553, "\u00beN": 554, "(\u00f5": 555, "\b\u00f5": 556, "\u00178": 557, "\u00eb\u0010": 558, "\u00b3\u00ce": 559, "uI": 560, "\u00fa\u00dd": 561, "Sw": 562, "\u00cf:": 563, "\u00f0\u00e1": 564, "\u00c4\u0019": 565, "\\\u00e1": 566, "t\u00dd": 567, "\u00bd%": 568, "\u00f4\u0096": 569, "N\u00a9": 570, "3\u00df": 571, "\u008f'": 572, "\u00af'": 573, "M\u0088": 574, "\u00dbm": 575, ")\u00cep": 576, "\u00e1\u00c3": 577, "\u00dfy": 578, "\u00ed\u00bc": 579, "g\u0086": 580, "\u00e6l": 581, "\u00cc\u00d9": 582, "7\u007f": 583, "\u00f8\u00dd": 584, "\u00d6*": 585, "\u00ba\u00fe": 586, "Q\u00ea": 587, "\u00f1\u00bb": 588, "\u00e3v": 589, "k<": 590, "\u00ad\u00da": 591, "\u00f6\u00de": 592, "\u00a5u": 593, "b\f": 594, "3g": 595, "b\r": 596, "k\u00c8": 597, "\u0086W": 598, "\u00d7\u007f": 599, "\u00c6\u00b3": 600, "V\u00b7": 601, "\u00d9Z": 602, "\u001d{": 603, "V\u00b3": 604, "zK": 605, "\u00cd\u008a": 606, "\u00f2\u00b5": 607, "\u009c7": 608, "_\u00f6": 609, "\u001e\u00a8": 610, "6\u00e1": 611, "m\u00b6": 612, "\u00026": 613, "K\u00fd": 614, "\u001e\bI": 615, "\u00fa\u008f": 616, "s.": 617, "\u00be\u00b5": 618, "}\u00e7": 619, "|s": 620, "=\r": 621, "\u009e\u00ff": 622, "\\\u00ff": 623, "A\u007f": 624, "\u00b4\u00ae": 625, "\u0091\u0086": 626, "\u0011\u00ea": 627, "\u009cG": 628, "\u00a5N": 629, "dm": 630, "\u00e9\u00d5": 631, "kw": 632, "\u00de\u0092": 633, "g\u00bf": 634, "\u00c1n": 635, "\u00cd\u009e": 636, "_\u00c8": 637, "\u00ef\u00bc": 638, "o]": 639, "CJ": 640, "\u0011\u00e9\u00b7": 641, "3n": 642, ":n": 643, "EE": 644, "\u00b9\u00ff": 645, "9\u00c0": 646, "Sn": 647, "\u00cc\u00af": 648, "#n": 649, "e\u00d2": 650, "\u00d5\u00af": 651, "Wy": 652, "\u00e0\u0084\u009c": 653, "z\u00fb": 654, "K\u00e6": 655, "!\u00fe": 656, "_\u001b": 657, "\u00f0BN": 658, "^I": 659, "\u00d2\u00b9": 660, "\u0018\u0085": 661, "\u00f8!": 662, "_Z": 663, "[\u00b5": 664, "\u00d8\u0083": 665, "rn": 666, "C\u008e": 667, "\u0099\u00ef": 668, "\u00f9\u00fe": 669, "\u0088I": 670, "{o": 671, "^G": 672, "\u0004z": 673, "r\u00d7": 674, "\u00e8o": 675, "\u0092\u0098": 676, "\u008f\r": 677, "\u00d6\u00e7": 678, "\u0014\u00e78": 679, "\u00f7\u00f7": 680, "\u0005\u00bb": 681, "\u0083\u00fe": 682, "-u": 683, "\u00c7\u00aa": 684, "|\u00ff": 685, "\u00ef\u00bd": 686, "\u0086\u0095": 687, "fl": 688, "\u00d7\u00d6": 689, "\u00bc\u008e": 690, "\u009c\u00e0": 691, "1\u00ea": 692, "\u00fdw": 693, "\u00c6\u00ed": 694, "\u00b5\u00bb": 695, "\u00cb\u00a4": 696, "F<": 697, "\u00a9\u00d5": 698, "b\u0096": 699, "I)": 700, "kv": 701, "\u00f9\u0018": 702, "!\u00f5": 703, "\u00cf\u00fe": 704, "\u00fa\u00dc": 705, "C\u00bf": 706, "\u00b3\u00a6": 707, "\u00ce\u001b": 708, "[\u009e": 709, "\u008b\u009c": 710, "x!'": 711, "\u00f7\u009e": 712, "\u00e9\u00b3\u00ce": 713, "2Sm": 714, "fJm": 715, "t\u00ae": 716, "|r": 717, "\u00cc\u00d8": 718, "\u00a7\u000e": 719, ">\u007f": 720, "6\u00e3": 721, "C\u00fc": 722, "\u00e2=": 723, "\u00b3\u009c": 724, "#\u00d7": 725, ";\u00bb": 726, "\n<": 727, "\u009e9": 728, "O\u007f": 729, "\u009dR": 730, "\u00e1\u0095": 731, "7}": 732, "\u00a2\u00a2": 733, "^\u00d1": 734, ":W": 735, "\u00ef\u00ef": 736, "c\u00c3": 737, "\u00e4z": 738, "\u00f8e": 739, "\u00d5\u00b9": 740, "\u009br": 741, "\u00af\u00ad": 742, "(\u00c7": 743, "\u00ca1": 744, ")\u00b7": 745, "\u00bdv": 746, "\u009d+": 747, "lA": 748, "\u00a6\u00cf:": 749, "`\u00c2": 750, "\u00f6\u00fe": 751, "\u008aZ": 752, "u\u00bb": 753, "|8": 754, "\u008fP": 755, "%\u0018": 756, "\u00de\u00be": 757, "\u00d1\u00ea": 758, "\u00f0'": 759, " \u00ff": 760, "\u0090\u00fa": 761, "\u00ff<": 762, "\u00f1\u00ce": 763, "\u008f\u000e": 764, "b6": 765, "\u0085:": 766, "\ns\u009c": 767, "\u0094z": 768, "\u00f0\u00ca": 769, "M\u00b9": 770, "\u00bf\u00be": 771, "\u00a5\u00ab": 772, "\u0092\u008c": 773, "\u00e4\u0097": 774, "\u0094b": 775, "\u008aY": 776, "\u00fb\u00fb": 777, "U\u00f6": 778, "\u00ce\u0002": 779, "\u00f2:\u00f6": 780, "\u00e7\u008c": 781, "\u0005\u00af": 782, "\u00f3\u009c": 783, "#l": 784, "\r\u00eb": 785, "\u00de\u00ba": 786, "\u009b\u0010": 787, "\u000bv": 788, "uF": 789, "\u009dn": 790, "i\\": 791, "a\u00ab": 792, "\u00b36": 793, "\u00ae\u007f": 794, "\u00d3g\u009c": 795, "\u00f8p": 796, "\u0087\u001c": 797, "\u00af#\u00afh": 798, "\u00bd\u00b7": 799, "\u009d7": 800, "\u0014\u00db": 801, "\u00f1\u00c8": 802, "\u00b3\u0086": 803, "\u00d2\u00fe": 804, "\u0007\u00fc": 805, "\u00e0\u00a7": 806, "\u00d5'": 807, "\u00cc\u00db": 808, "F\u00d8": 809, "\u00d57": 810, "\u00d7\u0091\u00d7\u00b4": 811, "\u0095\u00ad6\u00ed": 812, "\u0087\u00b7": 813, "f\u00cf": 814, "J1": 815, "\u000b_": 816, "\u00c8\u00f5": 817, "\u00aex": 818, "\u00e7\u0001": 819, "\u00e1\u00d4": 820, "\u00b9\u00e3": 821, "wv": 822, "\u001eN": 823, "\u00df{": 824, "\u000f.": 825, "\u0090\u007f": 826, "\u00d2\u00bb": 827, "\u00c5-": 828, "z\u001a": 829, "K\u00fc": 830, "=\f": 831, "m\u00c9": 832, "\u00fa\u00ef": 833, "\u00b1W": 834, "\u00cc\u0094": 835, "\u00c1N": 836, "\u00c4+": 837, "\u00eb\u00db": 838, "\u00e4u\u00ed": 839, "{\u007f": 840, "\u00be\u00fe": 841, "h\u00f5": 842, "KV": 843, "\u00cf\u009f": 844, "\u009f?": 845, "\u00ffg": 846, "\u00c5,": 847, "\u00f43": 848, "1\u001e": 849, "+\u00ad": 850, "\u00d7\u00c7": 851, "i\u00b3\u00ce": 852, "\u00aa3": 853, "\u009a\u00fa\u00d7": 854, "\u0087C": 855, "\u0014b": 856, "\u00aan": 857, "\u00aes": 858, "$\u009b": 859, "m\u00c7": 860, "\u00af\u000f": 861, "\u00a5\u00ff": 862, ")\u00f6": 863, "\u00eb\u0096": 864, "\u00bau": 865, "\u00de\u00db": 866, "\u0085\u001e": 867, "S\u0087": 868, "\u00eb\u00bf": 869, "\u00c8w": 870, "k\u0010": 871, "\u00cb\u00fe": 872, "\u00ad\u00d9": 873, "\u009f>": 874, "\u0090\u00ef": 875, "\u00926": 876, "\u00dbx": 877, "\u00a3\u00c3": 878, "cY": 879, "\u00bc\u008e\u00bd\u00a2": 880, "\u00e6Jm": 881, "\u00d5\u0003": 882, "\u0092\u00af": 883, "\u00c1\t9": 884, "\u00e6<": 885, "d\u0097": 886, "\u00a1\u00a5": 887, "\u0082\u0012r": 888, "W\u00c7": 889, "\u009d6\u00ed": 890, "I7": 891, "\u0082=": 892, "\u000b\u00f9": 893, "\u0090\u00ff": 894, "\u009b}": 895, "%_": 896, "'\u008e": 897, "\u00bf\u00e1": 898, "\u00a9\u00cep": 899, "\u001e]": 900, "t\u00ea": 901, "1K": 902, "N\u0095": 903, ":\u00e5": 904, "\u00a5\u00fd": 905, "k\u00eb^": 906, "7\u00ae": 907, "\u00cfC": 908, "\u00aa\u00fb": 909, "\u00cc\u00f7": 910, "\u00caz": 911, "G\u0093": 912, "\u0097\r": 913, "\u00e8\u00f5": 914, "c\u00d5": 915, "\u00afh": 916, "\u00abK": 917, "\u0087\u00f8": 918, "\u001e\u001b": 919, "\u00a2\u0096": 920, "\u0016\u00be": 921, "\u00f5\u0088": 922, "\u00bf]": 923, "\u00e7\u00ff": 924, "}\u00fd": 925, "\u00cd}k": 926, "\u0014\u00ea": 927, "\u00cd\u00b8": 928, "\u00cf\u001c": 929, "\u00fa\u001a": 930, "\u00d7\u00fd": 931, "(\u00c4": 932, "3\u009c": 933, "n\u00fd": 934, "\u0005\u000e": 935, "\u00d9|": 936, "\u00e2\u0096": 937, "\u0011\u00dd": 938, "\u0088U": 939, "\u00a7U": 940, "\u0006\f": 941, "\u009f\u00fd": 942, "s\u00c6": 943, "V\u00e7": 944, "\u00f9N": 945, "\u00c4y": 946, "\u00fb\u00fb\u00fb": 947, "\u001bx": 948, "\u0087\u0091": 949, "}\u00fd\u00fd": 950, "\u00db\u00ef": 951, "\u00f9\u000e": 952, "IW": 953, "d\u00dd": 954, "\u00e9\u00cep": 955, "\u00bd}": 956, "\u00cf\u00f0": 957, "\u0091\u00ea": 958, "g\u008c": 959, "M\u00ba": 960, "\u00adn": 961, "0a": 962, "\\\u00a6": 963, "\u00f7\u00f7\u00f7": 964, "^G^\u00d1": 965, "\u00d7?": 966, "5\u00f5\u00af": 967, "\u00f0\u00ea": 968, "2Sl": 969, "VO": 970, "_\u0003": 971, "9\u00ce\u0019": 972, "\u00dcz": 973, "Q\u008e": 974, "\u00ef^N": 975, "\u007f\u00c3": 976, "ekM\u00bb": 977, "\u00b9\u00dd": 978, "=Q": 979, ">\u00fe\u00fe": 980, "l\u00be": 981, "\u00e7\u00f8": 982, "\u00f3\u00fc": 983, "\u00ac\u00e9\u00bb": 984, "G\u00a6\u00dd": 985, "IL": 986, "\u00a7'": 987, "}\u00ef": 988, "\u0006<": 989, "\u00d7\u0085": 990, "W<": 991, "\u0087\u007f": 992, "xu": 993, "\u00bd\u00bd\u00f7": 994, "d\u00a6\u00da": 995, "fW": 996, "\u00d7\u00b4": 997, "\f\u0018": 998, "W[": 999, "\u0005\u00fc": 1000, "\u0099\u00b1]": 1001, "\u00b9\u00c3": 1002, "\u00ccz": 1003, "{\u00fb": 1004, "\u008a\u008a": 1005, "\u00c8}": 1006, "{\u00fd": 1007, "\u00b9\u00fe": 1008, ":\u00dd": 1009, "\u00a3\u0012S": 1010, "0\u00d5": 1011, "\u008d\u00ba": 1012, "\u00f8\u00e7": 1013, "\u008e\u00ee": 1014, "\u00beQ": 1015, "4z": 1016, "/\u009f": 1017, "\u00adi\u00b7": 1018, "\u00e9-": 1019, "\u001bt": 1020, "\u0092\u009d": 1021, "\u001eE": 1022, "\u000fo": 1023, "\u00bdw": 1024, "\u00d7\u00f2": 1025, "\u000f\u00f9": 1026, "\u00bfN": 1027, "e\u00f2": 1028, "\u0096\u00ad": 1029, "\u00eb\u0094": 1030, "\u0087|": 1031, "\u00e7w": 1032, "\u00e7\u00fb": 1033, "6\u00ef\u00f6": 1034, "\u00b9|": 1035, "{\u0086": 1036, "\u00ca\u00f9\u0018": 1037, "\u00e7\u00af": 1038, "\u00e1\u00c8": 1039, "!^": 1040, "\u00eb\u0015": 1041, "\u0086\u00af": 1042, "F\u00dd": 1043, "\u0081\u00ca": 1044, "\u00d7\u009a": 1045, "\u0007(": 1046, "\u00a4\u00ab": 1047, "\u00fb\u00c7": 1048, "\u00a7_": 1049, "k\u00fe": 1050, "\u00db\u00d7": 1051, "8w": 1052, "\u00ed\u00fc": 1053, "\u007f\u00f6": 1054, "\u0098\u00f5": 1055, "\u00a1\u00f7": 1056, "\bW": 1057, "6\u00e4": 1058, "\u00a6\u00df": 1059, "\u009b\u0015\u00d6": 1060, "\u00f4c": 1061, "z\u00e9": 1062, "Q\u0089)": 1063, "^\u00de\u00fb": 1064, "\u00aaN": 1065, "\u0081k": 1066, "b<": 1067, "y\u0017": 1068, "\u00d6s": 1069, "\u00a78": 1070, "\u00d2\u00f9": 1071, "5\u00bb": 1072, "\u00a7J": 1073, "\u00ef\u00ef\u00ef": 1074, "\u00a8G": 1075, "\u00ca}": 1076, "\u009b/": 1077, "3b\u00ba": 1078, "\\\u00f1": 1079, "\u0097\u00fa": 1080, "V\u00bf": 1081, "\u0003\u0094": 1082, "\u00d4{": 1083, "\u0013\u00df": 1084, "+X": 1085, "\u00e6=": 1086, "\u001b\u00d2": 1087, "\u00b2\u00f9": 1088, "\u0097H": 1089, "\u0096m\u00df": 1090, "%:": 1091, "\u0015\u0015": 1092, "\u00d2\u00b8": 1093, "\u00b7\u00ae": 1094, "=}": 1095, "9\u00ef": 1096, "\u00ab\u00e3": 1097, "\u0011\u00b6": 1098, "\u009bw\u00fb": 1099, "\u0005:": 1100, "E,": 1101, "o\u00bc": 1102, "\u00ff\u0086": 1103, "\u00b8f": 1104, "\u00e4a": 1105, "\u00cd\u00fd": 1106, "\u00cf\f": 1107, "\u00bb\u00c9": 1108, "\u001d\u00dd": 1109, "\u009d6\u00ec": 1110, "O\u001c": 1111, "\u00d1\u00eb": 1112, "\u0099\u00b2": 1113, "F!'": 1114, "T\r": 1115, "\u0018\u0084\u009c": 1116, "\u00bdt": 1117, "\u00f3\u00fd": 1118, "k\u0097": 1119, "\fz": 1120, "\u00c7\u0087": 1121, "\u0018j": 1122, "\u0094\u00fb": 1123, "\u00f7\u008e": 1124, "\u0083\u001e": 1125, "\u009e\u00f9": 1126, "Y\u00d3v": 1127, "\u00b7<": 1128, "\u0085}": 1129, "\u00a9\u00c3": 1130, "\u000e\u00fe": 1131, "\u0002\u00d7": 1132, "]g": 1133, "6\u00e2": 1134, "o_": 1135, "\u00a0\u00ac": 1136, "\u00c8\u007f": 1137, "\u0006=": 1138, "\u00b7\u00de": 1139, "`\u00c1\u0083\u0006\f\u00180`\u00c1\u0083\u0006\f\u00180`\u00c1\u0083\u0006\f\u00180`\u00c1\u0083\u0006\f\u00180": 1140, "{\u00ef|": 1141, "\u00daW": 1142, "\u00ed+": 1143, "s6": 1144, "s\u00ff": 1145, "\u00eau": 1146, "\u00a3\u0015": 1147, "/=": 1148, "\u009d\u00dd": 1149, "\u008cBN": 1150, "\u00eb\u00c9": 1151, "C\u00eb": 1152, "Jl": 1153, "\u00c0\u00e5": 1154, "!\u00c7": 1155, "\u00a7\u00df\u00df": 1156, "\nu": 1157, "?\u00a5": 1158, "\u00b2\u00e9": 1159, "\u00a6\u00dd\u00fe": 1160, "\u0095}": 1161, "\u007fK": 1162, "m\u00d5": 1163, "\u00d3nK": 1164, "m\u00c5": 1165, "So": 1166, "~\u009c": 1167, "\u00d0\u00a7": 1168, "\u008a1": 1169, "{\u00ef": 1170, "e\u00ff": 1171, "\u0011\u00eb": 1172, "\u00f47": 1173, "\u00f2\u00eb": 1174, "\u00fdG": 1175, "\u00d7\u00b7\u00be\u00f7": 1176, "f\u00c5u": 1177, "\u00b3N": 1178, "_?": 1179, "\u000f\u00f0": 1180, "J\u00be": 1181, "F$\u00a7": 1182, "E\u00ce": 1183, "M\u00d9": 1184, "T\f": 1185, "tZ": 1186, "O\u009f": 1187, "\u00ea<": 1188, "\u00ce\u009b": 1189, "\u00e3\u001d": 1190, "\u0088\u00f3": 1191, "\u00e9|": 1192, "1\u00e4": 1193, "O\u00bf": 1194, "[\u009f": 1195, "\u00e8g": 1196, "G\u0086": 1197, "\u0005\u001e": 1198, "\u009f\u007f\u007f": 1199, "\u007f\u00d9": 1200, "s\u00fe": 1201, "\u00a9\u00b7": 1202, "m\u00e7": 1203, "\u00c1\u0085": 1204, "\u00abx": 1205, "\u00d7\u00c3": 1206, "\u0082\u00fe": 1207, "\u00c0\u00b5": 1208, "\u00aa\u008c": 1209, "\\\u00e0": 1210, "V\u00b4": 1211, "\u009c\u00cb\u0086": 1212, "W\u0087": 1213, "\u00f8\u0013": 1214, "\u00f6u": 1215, "/\u0087": 1216, "\u000eP": 1217, "\u00df\u00df": 1218, "(\u00c4\u0094": 1219, "\u00a1N": 1220, "\u0018\u008f": 1221, "\u000b\u0012": 1222, "6 ": 1223, "\u0012r": 1224, "!'": 1225, "\u0099)": 1226, "\t9": 1227, "\u001e\b": 1228, "`\u00c1": 1229, "2S": 1230, "f\u00c5": 1231, "3b": 1232, "\u00fe\u00fe": 1233, "\u0099\u00b1": 1234, "`\u00c1\u0083\u0006\f\u00180`\u00c1\u0083\u0006\f\u00180": 1235, "\u00bd\u00bd": 1236, "\u00a3\u0012": 1237, "\u00ef^": 1238, "\u00ac\u00e9": 1239, "\u00de\u00fb": 1240, "Q\u0089": 1241, "\u00d7\u00b7": 1242, "\u00be\u00f7": 1243, "k\u00eb": 1244, "\u009a\u00fa": 1245, "`\u00c1\u0083\u0006\f\u00180": 1246, "5\u00f5": 1247, "Jm": 1248, "\u007f\u007f": 1249, "Y\u00d3": 1250, "`\u00c1\u0083\u0006\f": 1251, "\u0083\u0006\f": 1252, "}k": 1253, "\u0015\u00d6": 1254, "\u0084\u009c": 1255}