{"S": 0, "\u00a7": 1, ")": 2, "x": 3, "\u00ff": 4, "_": 5, "\u00fa": 6, "\u00f9": 7, "\u00cf": 8, "\u00e0": 9, "\u00e8": 10, "\u00e7": 11, "\u00f1": 12, "\u00bf": 13, "\u00f4": 14, "\u00af": 15, "9": 16, "\u00be": 17, "=": 18, ":": 19, "\u001a": 20, "N": 21, "\u00e9": 22, "U": 23, "\u00f0": 24, "|": 25, "\u0014": 26, "<": 27, "\u000e": 28, "\u00f7": 29, "s": 30, "\u0005": 31, "\u00aa": 32, "\u0002": 33, "\u00f5": 34, "\u00f3": 35, "\n": 36, "\u009e": 37, "\u00c3": 38, "\u0015": 39, "\u00a3": 40, "}": 41, "z": 42, "\u0082": 43, "\u00d0": 44, "\u00fd": 45, "t": 46, "\u00ab": 47, "\u00e1": 48, "\u009f": 49, "\u00ea": 50, "\u001e": 51, "\u009c": 52, "y": 53, "\u00d3": 54, "\u00a8": 55, "\u008f": 56, "\u00b5": 57, "\u008a": 58, "\u0086": 59, "T": 60, "\r": 61, "8": 62, "\u00fe": 63, "W": 64, "\u007f": 65, "g": 66, "^": 67, "\u00e6": 68, "/": 69, "Q": 70, "\u00b7": 71, "\u00e2": 72, "\u00fb": 73, ">": 74, "A": 75, "\u00f8": 76, "4": 77, "j": 78, "i": 79, "\u00a9": 80, "J": 81, "\u00e4": 82, "\u00e3": 83, "\u00c1": 84, "\u00fc": 85, "\u00ef": 86, "\u00d7": 87, "G": 88, "\u0018": 89, "\u00ee": 90, "C": 91, "\u00df": 92, "\u0087": 93, "\u00eb": 94, "\u009d": 95, "\u00f2": 96, "*": 97, "p": 98, "\u0083": 99, "\t": 100, "\u00a1": 101, "\u0012": 102, "+": 103, "O": 104, "\u00d5": 105, "\u00a2": 106, "\u0004": 107, "\u00d1": 108, "D": 109, " ": 110, "\u001d": 111, "\u0017": 112, "\u00a0": 113, "\u0095": 114, "\u0011": 115, "\u00bc": 116, "H": 117, "\u0010": 118, "{": 119, "o": 120, "\u0088": 121, "Z": 122, "\u00c0": 123, "r": 124, "\u00ba": 125, "h": 126, "\u0080": 127, "\u0091": 128, "\u00ed": 129, "\u0090": 130, "V": 131, "5": 132, "Y": 133, "\u00ad": 134, "\u00ce": 135, "b": 136, "k": 137, "w": 138, "u": 139, "\u0001": 140, "#": 141, "\b": 142, "\u00ac": 143, "\u0013": 144, "\u00c4": 145, "\u0006": 146, "(": 147, "E": 148, "7": 149, "\u000b": 150, ";": 151, "\u00d4": 152, "\u00f6": 153, "\u001c": 154, "\u009b": 155, "\u00da": 156, "\u00a5": 157, "\u00b4": 158, "\u00dd": 159, "\u0019": 160, "F": 161, "\"": 162, "n": 163, "\u00b0": 164, "1": 165, "\u0081": 166, "\f": 167, "a": 168, "~": 169, "\u0094": 170, "\u00c8": 171, "\u00c7": 172, "\u00c2": 173, "\u00ec": 174, "\u0089": 175, "\u009a": 176, "\u0007": 177, "\u00de": 178, "\u00ca": 179, "\u00d2": 180, "\u00cd": 181, "\u0085": 182, "\u00e5": 183, "$": 184, "\u00b2": 185, "%": 186, "\u0097": 187, "K": 188, "P": 189, "\u00bd": 190, "\u00dc": 191, "\u000f": 192, "&": 193, "`": 194, "\u00d6": 195, "\u00c5": 196, "\u00b3": 197, "\u001f": 198, "M": 199, "\u00c9": 200, ".": 201, "\u00d8": 202, "0": 203, "q": 204, "R": 205, "\u00b1": 206, "!": 207, "\u0084": 208, "3": 209, "?": 210, "\u00db": 211, "\u00a4": 212, "@": 213, "e": 214, "\u008d": 215, "\u0000": 216, "\u00b9": 217, "]": 218, "\u00c6": 219, "\u00b8": 220, "\\": 221, "'": 222, "\u001b": 223, "\u008c": 224, "\u008e": 225, "6": 226, "\u008b": 227, "\u00d9": 228, "\u00bb": 229, "\u0092": 230, "\u00cc": 231, "\u00cb": 232, "X": 233, "\u00ae": 234, "\u0016": 235, "I": 236, "\u00a6": 237, "f": 238, "m": 239, "c": 240, "d": 241, ",": 242, "l": 243, "\u0098": 244, "2": 245, "\u0099": 246, "\u0003": 247, "-": 248, "B": 249, "\u0093": 250, "[": 251, "L": 252, "v": 253, "\u0096": 254, "\u00d3n": 255, "M\u00bb": 256, "\u00a6\u00dd": 257, "\u009c\u00e1": 258, "\u00b6": 259, "s\u0086": 260, "#o": 261, "\u00ca\u00d6": 262, "\u009bv": 263, "\u00cep": 264, "9\u00c3": 265, "F\u00de": 266, "Ns\u0086": 267, "\u0095\u00ad": 268, "\u00a79\u00c3": 269, "ek": 270, "\u0011\u00b7": 271, "\u009b<": 272, "\u0091\u00b7": 273, "+Z": 274, "\u00e7\r": 275, "g8": 276, "i\u007f": 277, "m\u00da": 278, "\u00e9\u00b7": 279, "\u00e7\f": 280, "\u0099p": 281, "6\u00ec": 282, "i\u00b7": 283, "\u00e5k": 284, "\u0095\u00ac": 285, "6y": 286, "6\u00ed": 287, "\u00b7\u007f": 288, "\u00ad\u00df": 289, "\u009a_": 290, "4\u00bf": 291, "G\u00aa": 292, "2\u00e1": 293, "S\u009c\u00e1": 294, "M\u009e": 295, "\u00d2\u00ba": 296, "\u00b1\u0006": 297, "e\u00c3": 298, "m\u00d9": 299, "\u008fT": 300, "2\u00b5": 301, "\u00ce\u001a": 302, "l\u00f3": 303, "H\u00db": 304, "I|": 305, "\u00e78": 306, "\u00cc\u00b8": 307, "[\u00bf": 308, "\u008d\u00bc": 309, "\u00a6\u00dc": 310, "\u00b2\u00b5": 311, "\u00d6 ": 312, "$m": 313, "\u00a7T": 314, "\u008d\u00bd": 315, "M\u00b8": 316, "\u00cd/": 317, "\u00d6\u00ef": 318, "\b\u00db": 319, "\u009c\u00e7\r": 320, "\u00acA": 321, "\u00c8\u00db": 322, "\u00ce\u0019": 323, "\u00cb\u0086": 324, "n\u00fe": 325, "X\u0083": 326, "9Z": 327, "\u00d6x": 328, "\u0092S": 329, "V\u00b5": 330, "m\u00d8": 331, "N\u00a8": 332, "\u00ca\u00d6\u009bv": 333, "\f\u00ad": 334, "\u00cf\u0018": 335, "$\u00be": 336, "\u0093v": 337, "\u00d2\u00ff": 338, "\u009e1": 339, "\u00a3\u00d5": 340, "\u008fU": 341, "\u00d3\u00aa": 342, "\u009e\u0086": 343, "\u0099)\u00b6": 344, "\u00ac\u00f0": 345, "\u00ce\u0018": 346, "+Y": 347, "\u009c\u00e7\f": 348, "\u0092\u00f9": 349, "9\u00ce\u001a": 350, "m\u00db": 351, "\u00d3\u009c\u00e1": 352, "\u00aa\u0006": 353, "\u00c4z": 354, "#\u00d5": 355, "\u0092\u009b": 356, "<c": 357, "\u0019Z": 358, "\u00f5\u00bb": 359, "\u00fdn": 360, "\u009dQ": 361, "\u00b3\u00c3": 362, "Y\u00e1": 363, "\u00c9\u00bb": 364, "/\u0093": 365, "\u008f_": 366, "\u001bz": 367, "&\u00ed": 368, "r\u00b5": 369, "\u00ea=": 370, "\r+": 371, "\u0010\u00af": 372, "\u008dg": 373, "m\u00df": 374, "\u009bp": 375, "\b\u00f5": 376, "\u00f5\u001e": 377, "\u0097\f": 378, "\u001aW": 379, ")\u00cep": 380, "\u00f5\u00e4": 381, "\u0082\u00dd": 382, "\u00ebv": 383, "\u009bq": 384, "\u00d7)": 385, "\u00cf\u007f": 386, "\u0088\u00db": 387, "Q\u00ea": 388, "\u00e9]": 389, "\u00a5u": 390, "b\f": 391, "\u00c6\u00b3": 392, "\u001by": 393, "\u00d9Z": 394, "\u00f1\u008e": 395, "\u00aeS": 396, "\u009bw": 397, "\u00cc\u0094\u00db": 398, "x\u00c7": 399, "\u00f4\u00db": 400, "\u001e\u00a8": 401, "\u00a5\u00fe": 402, "\u0004m": 403, "\u009c\u00ad": 404, "\u000e\u0086": 405, "\u00a3\u00d7": 406, "t\u00db": 407, "\u00b9k": 408, "\u00a5N": 409, "dm": 410, "#\u00d3n": 411, "X\u00ab": 412, "\u00c1n": 413, "$\u00dd": 414, "CJ": 415, "\u0011\u00e9\u00b7": 416, "(\u00f5": 417, "m\u00c2": 418, "$\u00a7": 419, "Sn": 420, "S\u00aa": 421, "4\u00db": 422, "\u0082\u0015": 423, "\u00d2\u00b9": 424, ".p": 425, "\u00ad\u00cf": 426, "\u00af\u008e": 427, "\fG": 428, "\u001b\u00d7": 429, "\u00c4m": 430, "\u00859": 431, "f\\": 432, "\u001a\u00ce": 433, "\u008f\r": 434, "\u0014\u00e78": 435, "\u00d6\u00ed": 436, "\u00eb\u0010": 437, "\u0005\u00bb": 438, "b\u0015": 439, "M\u00da": 440, "\u00fa\u00dd": 441, "\\\u00e1": 442, "\u00f4\u00ae": 443, "\u00c3+": 444, "\u0086\u0095": 445, "\u009c3": 446, "\u008cB": 447, "\u009c\u00e0": 448, "6\u00ef": 449, "\u00178": 450, "\u00d3g": 451, "\u00b5\u00bb": 452, "\u001e\u00bf": 453, "\u00a9\u00d5": 454, "b\u0096": 455, "kv": 456, "V\u00b3": 457, "V\u00b7": 458, "b\r": 459, "\u00d6*": 460, "\u00e9\u00b3\u00ce": 461, "\u00fa\u008f": 462, "\u0097\u00c9": 463, "t\u00ae": 464, "\u00ad\u00da": 465, "\u00ed\u00bc": 466, "\u009e\u00fe": 467, "-}": 468, "=\r": 469, "G\u00af": 470, "!\u00df": 471, "\u009c5": 472, "\u00a7\u000e": 473, "1\n": 474, "\u00b3\u009c": 475, "g\u0086": 476, "\u00ec\u00ad": 477, "\n<": 478, ";\u00d7": 479, "\u0011\u00ea": 480, "\u009cG": 481, "\u00ebw": 482, "\u00a2\u00a2": 483, "\u00b4\u00ae": 484, "!_": 485, "c\u00c3": 486, "\u00026": 487, "\u00ae\u00f2": 488, ")\u00b7": 489, "s\u0080": 490, "#n": 491, "lA": 492, "\u00c4\u0019": 493, "\u00a6\u00cf:": 494, "`\u00c2": 495, "\u008aZ": 496, "u\u00bb": 497, "rn": 498, "g\u00bf": 499, "\u00d1\u00ea": 500, "\u00cf:": 501, "\u0010\u00aa": 502, "\u008f\u000e": 503, "\u00c4\u001a": 504, "b6": 505, "6\u00e1": 506, "\u0085:": 507, "\u00be9": 508, "\u0094z": 509, "\u00a5\u00ab": 510, "\u00f2\u00b5": 511, "M\u00df": 512, "\u00f4\u0096": 513, "\u00d8\u0083": 514, "\u00e4\u0094": 515, "4\u00ae": 516, "\u00cb\u00e4": 517, "z\u00f2": 518, "\u00e7\u008c": 519, "\u001e\u00ab": 520, "\u0018\u0085": 521, "\u00c9M": 522, "\u009b\u0010": 523, "uF": 524, "I\u00bb": 525, "\u00b4\u00db": 526, "\u0092\u009e": 527, "zK": 528, "\u00acU": 529, "\u008fM\u00bb": 530, "\u00d3g\u009c": 531, "\u00f1\u00c8": 532, "\u00b3\u0086": 533, "\u00e0\u00a7": 534, "\u00b9\u00ff": 535, "\u0095\u00ad6\u00ed": 536, "i]": 537, "9\u00c0": 538, "T\u00dd": 539, "\u00c8\u00f5": 540, "Np": 541, "\u001eN": 542, "\u00c7\u00aa": 543, "\u00bdy": 544, "z\u001a": 545, "6\u00f3": 546, "\u008f'": 547, "\u00d6\u00ec": 548, "\\\u00ff": 549, "\u00dd\u007f": 550, "=\f": 551, "\u00f7\u00f7": 552, "m\u00c9": 553, "\u00b1W": 554, "\u00c1N": 555, "\u00c4+": 556, "s\u009c": 557, "\u00e4\u00dd": 558, "h\u00f5": 559, "KV": 560, "6\u00e3": 561, "fJm": 562, "\u00ffg": 563, "I)": 564, "\u00fa\u00dc": 565, "[\u009e": 566, "\u00f2J": 567, ":W": 568, "\u0092n": 569, "$\u00a6": 570, "\u00ef]": 571, "\u00f0B": 572, "i\u00b3\u00ce": 573, "F!": 574, ")\u00d5": 575, "\u0087C": 576, "\u00c1\n": 577, ")\u00f6": 578, "\u00d5\u00b9": 579, "\u00bau": 580, "\u00ce\u001b": 581, "\u0085\u001e": 582, "e\u00d2": 583, "k\u0010": 584, "\u00926": 585, "\u00a3\u00c3": 586, "cY": 587, "\u00ef\u00ef": 588, "\u00e6Jm": 589, "\u00e9\u00d5": 590, "\u00a1\u00a5": 591, "W\u00c7": 592, "\u009d6\u00ed": 593, "V\u00b4\u00db": 594, "\u00bd%": 595, "\u009e9": 596, "\u008fP": 597, "\u009d\u00eb": 598, "\u00d7\u0091": 599, "\u00bdv": 600, "'\u008e": 601, "\u009d+": 602, "\u00a9\u00cep": 603, "t\u00ea": 604, "1K": 605, "\u00de\u00bc": 606, "\u0004z": 607, ":\u00e5": 608, "kw": 609, "&\u00ef": 610, "\u00cfC": 611, "\u00e6\u0097": 612, "\u00f1\u00ce": 613, "\u00e4z": 614, "\u0092\u008c": 615, "\u00e8\u00f5": 616, "c\u00d5": 617, "k<": 618, "1\u00ea": 619, "\u00a2\u0096": 620, "}\u00fd": 621, "\u0014\u00ea": 622, "_'": 623, "\u00cd\u00b8": 624, "w\u00ae": 625, "\u00fa\u001a": 626, "\u00fb\u00fb": 627, "(\u00c4": 628, "\u009e\u00ff": 629, "|s": 630, "\u00ba\u00fe": 631, "\u00cd\u00bb": 632, "\u0093w": 633, "\u00a7U": 634, "a\u00ab": 635, "\u009f\u00fd": 636, "s\u00c6": 637, "V\u00e7": 638, "\u00c4y": 639, "\u00cf\u00fe": 640, "#\u00d7": 641, "b=": 642, "_\u001c": 643, "Sw": 644, "o]": 645, "\u000bv": 646, "\u00e9\u00cep": 647, "{o": 648, "\u00e1\u0095": 649, "k\u00c8": 650, "\u00de\u00bb": 651, "g\u008c": 652, "\u008aY": 653, "]\u00e4": 654, "\u00af#": 655, "\u009c7": 656, "2Sl": 657, "9\u00ce\u0019": 658, "A\u00ff": 659, "ekM\u00bb": 660, "=Q": 661, "\u008b\u009c": 662, "\u0014\u00db": 663, "\u00ac\u00e9\u00bb": 664, "G\u00a6\u00dd": 665, "\u00a7'": 666, "\u0092_": 667, "\u0006<": 668, "\u00f3\u009c": 669, "\u0005\u00af": 670, "d\u00a6\u00da": 671, "\u00a9\u00bb": 672, "3\u00df": 673, "\u00de\u0092": 674, "\u00b9\u00c3": 675, "\u00ccz": 676, "\u008a\u008a": 677, "\u00be\u00fe": 678, "0\u00d5": 679, "IO": 680, "\u008d\u00ba": 681, "\u00f8\u00e7": 682, "4z": 683, "\u00e7\u0001": 684, "#l": 685, "\\\u00b5": 686, "\u001bt": 687, "EE": 688, "\u000b_": 689, "\u00bd\u00a2": 690, "\u00f7\u00de": 691, "\u0087|": 692, "\u00e7w": 693, "\u00e7\u00fb": 694, "6\u00ef\u00f6": 695, "\u00ca\u00f9\u0018": 696, "\u00e7\u00af": 697, "!^": 698, "\u00eb\u0015": 699, "1\u001e": 700, "F\u00d8": 701, "\u00f3\u001e": 702, "\u00a7_": 703, "\u00f6\u00de": 704, "\u007f\u00f6": 705, "\u0007\u00fc": 706, "6\u00e4": 707, "\u009b\u0015\u00d6": 708, "\u00f43": 709, ";\u00bb": 710, "[\u00b5": 711, "b<": 712, "5\u00bb": 713, "\u00ca}": 714, "\u00c5-": 715, "\u00aan": 716, "i\\": 717, ":\u00a4": 718, "%\u0018": 719, "\\\u00f1": 720, "\u00cc\u00d9": 721, "\u00d5\u0003": 722, "+X": 723, "3g": 724, "\u00cd\u009e": 725, "S\u0087": 726, "O\u007f": 727, "\u00d7\u007f": 728, "\u0092\u00af": 729, "%\u00f3": 730, "\u00ad\u00d9": 731, ":\u00f6": 732, "\u0015\u0015": 733, "\u00d2\u00b8": 734, "\u00ab\u00e3": 735, "\u009a\u00fa\u00d7": 736, "\u009bw\u00fb": 737, "\u0005:": 738, "r\u00d7": 739, "\u00ff<": 740, "\u00b8f": 741, "\u00cf\f": 742, "\u009d6\u00ec": 743, "\u00dbx": 744, "\u00d1\u00eb": 745, "\u00f5\u00df": 746, "N\u0095": 747, "C\u00bf": 748, "T\r": 749, " \u00ff": 750, "\u00f3\u00fd": 751, "\u00ae\u007f": 752, "\u0094\u00fb": 753, "\u00c5,": 754, "\u00aes": 755, "Y\u00d3v": 756, "\u0016\u00be": 757, "\u00b7<": 758, "\u00a9\u00c3": 759, "\u00be\u00f3": 760, "\u00f0\u00ca": 761, "]g": 762, "\u0082=": 763, "\u00daW": 764, "\u00ed+": 765, "s\u00ff": 766, "\u00a3\u0015": 767, "/=": 768, "\u009d\u00dd": 769, "\u00eb\u00c9": 770, "\u00f9N": 771, "\u001bx": 772, "3n": 773, "\nu": 774, "\u00a6\u00dd\u00fe": 775, "\u0095}": 776, "}\u00e7": 777, "m\u00d5": 778, "\u00beN": 779, "f\u0097": 780, "\u00caz": 781, "\u00d3nK": 782, "\u00d0\u00a7": 783, "\u0088W": 784, "\u001d{": 785, "\u001e\u001b": 786, "\u00c9)": 787, "\u00fdG": 788, "f\u00c5u": 789, "|\u00ff": 790, "\u0088\u00f4\u00db": 791, "\u0097\r": 792, "\u0091\u00ea": 793, "\u00b3N": 794, "J\u00be": 795, "%_": 796, "\u00d2\u00fe": 797, "T\f": 798, "\u00e7\u00ff": 799, "\u00ea<": 800, "\u00e0\u0085": 801, "\u00e3\u001d": 802, "\u0088\u00f3": 803, "1\u00e4": 804, "m\u00c7": 805, "\u00e8g": 806, "G\u0086": 807, "\u0005\u001e": 808, "\u00bf\u00e1": 809, "\u00b9\u00e3": 810, "\u00c1\u0085": 811, "\u00aex": 812, "J1": 813, "\u00de\u00be": 814, "\r\u00eb": 815, "\u00de\u00ba": 816, "V\u00b4": 817, "\u00a1N": 818, "z\u00fb": 819, "\u00bf\u0090": 820, "\u0018\u008f": 821, "\u000b\u0012": 822, "6 ": 823, "!\u00fe": 824, "\u0095\u00ad6\u00ec": 825, "\u00cd\u008a\u00eb": 826, "\u009dn": 827, "\\\u00a7": 828, "~\u00b7": 829, "\u00a6\u00dc\u0096": 830, "\u00ea\u00dc": 831, "\u00cf\u001c": 832, "\u009b\u00b4": 833, "\u00e8\u00c7": 834, "\u00c2\u009c": 835, "\u00eb\u0096": 836, "G\u0093": 837, "\u00ef\u00bc": 838, "\u00abs": 839, "2\u00beF": 840, "\ns\u009c": 841, "\u00de\u00a2": 842, "_\u000e": 843, "8j": 844, "d>": 845, "\u0095\u00f20": 846, "t3": 847, "\u00ce\u00ee": 848, "\u00abK": 849, "\u0097\u00f9": 850, "\u00d6\u00e7": 851, "\u00ce\u0002": 852, "\u00f4T": 853, "\\\u00e7": 854, "\u00bdE": 855, "\u00f44": 856, "\u0014y": 857, "q\u001e": 858, "\u00cb_": 859, "\u00e2<": 860, "\u00e1N": 861, ">\u007f": 862, "wv": 863, "\t\u00ef": 864, "\r_": 865, "\u00e6\\": 866, "\u00bc<": 867, "=\u00fe": 868, "\u00a7M\u00bb": 869, "\u00aa3": 870, "\u0096\u00ad": 871, ":\u00dd": 872, "\u009c\u00f5": 873, "W<": 874, "\u00e9\\": 875, "\u00b9\u00dd": 876, "\u00eb\u0094": 877, "\u00a8Q": 878, "\u00f9\u00fe": 879, "<\u00ff": 880, "\u00d7\u009a": 881, "1\u00ac": 882, "\u00eb<": 883, "B\u00be": 884, "F\u00dd": 885, "C\u00be": 886, "\u00adi\u00b7": 887, ".\u0019": 888, "\u008f9\u00c3": 889, "\u00f5:": 890, "\u0005\u000e": 891, "\u00beQ": 892, "\u00a3\u00cep": 893, "\u00fb\u00cf": 894, "\u00c1\u00dd": 895, "e|\u008c": 896, "\u00fe\u0097\u00c9": 897, "\u00059": 898, "!\u00f5": 899, "\u00edy": 900, "\u00d57": 901, "\u009b\u00be": 902, "7\u00ae": 903, "\u00e6l": 904, "%<": 905, "\u00d3n\u00ff": 906, "N\u00a9": 907, "\u00f5\u0088": 908, "\u0098\u00f5": 909, "+Zm\u00da": 910, "t\u00d9\u00e7": 911, "\u00d6s": 912, "\u00a3\u00d4": 913, "\u00d6t\u00dd": 914, "\u0091\u00b6": 915, "/\u009f": 916, "zW": 917, "\u009b\u00bf": 918, "s\u00bb": 919, "\u00fb\u00c7": 920, "\u009dR": 921, "\u0093\u00c7": 922, "6\u00ea": 923, "\u00cb6\u00ef": 924, "{\u00fb": 925, "k\u00fe": 926, "9\u00ef": 927, "\u00af\u00adz": 928, "V\u0096": 929, "\u00a7J": 930, "\u00a1\u00f7": 931, "\u00a1\u00a2": 932, "\u00dfy": 933, "\u00d3n\u00d5": 934, "\u00d4{": 935, "\u0013\u00df": 936, "\u00faY": 937, "\u00e1\u00d4": 938, "\u0083\u00fe": 939, "\bW": 940, "\u0096m\u00df": 941, "\u0081\u00ca": 942, "\f\u00a7": 943, "V\u00b0": 944, "_\u00f0": 945, "\u0003\u0094": 946, "\u00f2\u009d": 947, "\u0099\u00b2": 948, "`\u00b7": 949, "\u00e2=": 950, "_\u0003": 951, "N)": 952, "\u00e7\u00a1": 953, "\u00c5^": 954, "\u00d7\u00dd": 955, "\u00a8\u001a": 956, ")\u00e9\u00b7": 957, "G\u009c\u00e1": 958, "\u00b7\u00ae": 959, "\u00ea\u0093": 960, "\u0097\u00fa": 961, "\u00cfu": 962, "\n=": 963, "I7": 964, "\u0086W": 965, "\u00e6=": 966, "\u001c\u00f7": 967, "\u0018\u0084\u009c": 968, "\u00e1\u00c3": 969, "\u00d3\u00af": 970, "N\u009bv": 971, "\u0097\u00c0": 972, "\u00dd\u00fd": 973, "\u00a7P": 974, "\u0010\u0086": 975, "d\u00dd": 976, "\u00beS": 977, "\u00d2\u00ac": 978, "\u00ba\u001a": 979, "\u00fa\u00b2": 980, "\u00a5t\u00db": 981, "\u00eb\u00fa": 982, "/\u0081": 983, "\u009e\u00f9": 984, "2Sm": 985, "\u00e8S": 986, "fl": 987, "o\u000e": 988, "\u00ab\u007f": 989, "\u0086\u00af": 990, "#\u00c3": 991, "\u00b7?": 992, "\u00a6\u00ef": 993, "C\u00ea": 994, "\u00cb\u00fe": 995, "\u00b3.": 996, "7i": 997, "\u00cd9": 998, "\u00d5\u001a": 999, "B\u009c": 1000, "\u00bf\u00d7": 1001, "[\u00b0": 1002, "\u00c7\u0087": 1003, "(\u00c7": 1004, "\u00dbm": 1005, "d\u00a6\u00d9": 1006, "K\u00fc": 1007, "\u008cBN": 1008, "\u0014z": 1009, "\u00f45": 1010, "\u00eau": 1011, "\u00e1\u00c8": 1012, "X\u00c3": 1013, "\u00b5\u00ff": 1014, "\u0018j": 1015, "^j": 1016, "\u00e0\u00b7": 1017, "\u008e\u00ee": 1018, "\u0085x": 1019, "\u00a1\u001f": 1020, "$\u009b": 1021, "s%6": 1022, "\u0082\u00b2": 1023, "\u00d5\u00af": 1024, "\u00a6\u00dc_": 1025, "\u00bd+": 1026, "\u00e5kM\u00bb": 1027, "e\u00f2": 1028, "\u00e8\u00a8": 1029, "T\u00ea": 1030, "\u00d9\u00e7": 1031, "\u0099\u00ef\u00f6": 1032, "\nr": 1033, "&\u00ec": 1034, "Wy": 1035, "k\u00eb^": 1036, "=}": 1037, "k\u00cd": 1038, "\u0007(": 1039, "Hg": 1040, "\\\u00a6": 1041, "\u00c4!": 1042, "U\u00f6": 1043, "\u00e8\u00f3": 1044, "\u00d7?": 1045, "(\u00f0": 1046, "\u009dZ": 1047, "\u00e59": 1048, "%:": 1049, "\u00bdt": 1050, "\u00d4\u00e78": 1051, "B\u00bc": 1052, "\u00a8G": 1053, "k\u0015": 1054, "Z\u00d3n": 1055, "!N": 1056, "K\u00fd": 1057, "f\u00dd": 1058, "8\u008f": 1059, "\u00bcC": 1060, "\u00a6\u00cf9": 1061, "M\u0088": 1062, "IL": 1063, "\u00ca\u009b\u00bf": 1064, "V\u00bf": 1065, "\u00a3\u00da": 1066, "\u0015\u00ed": 1067, "U\u0003": 1068, "\u00cd}k": 1069, "\u00ce\u009b": 1070, "?\u00fb": 1071, "\u00b1\u001b": 1072, "E,": 1073, "\u0090\u00ff": 1074, "\u0092\u009d": 1075, "DD": 1076, "\u0002\u00f9": 1077, "}\r": 1078, "\u00bd\u00fd": 1079, "\u00ad\u00d8": 1080, "|r": 1081, "\u00a78": 1082, ">\u0086": 1083, "QQ": 1084, "\u00af\u000f": 1085, "J\u009d": 1086, "\f\u00e7\r": 1087, "\u0014b": 1088, "\u00e1\u00d0": 1089, "\u00ca\u00d0": 1090, "\u00cf\r": 1091, "0`": 1092, "\u0011\u00eb": 1093, "o_": 1094, "\u00b9\u00ce": 1095, "S\u00d3n": 1096, ":\u0019": 1097, "\u00be\u001c": 1098, "[\u00c3": 1099, "\u0005d": 1100, "5\u00f5\u00af": 1101, "\u00eb\u00da": 1102, "\u00e5:": 1103, "5\u009c": 1104, "C\u00fc": 1105, "V\u00f1": 1106, "UF": 1107, "\u00f7\u009e": 1108, "t\u00dd": 1109, "j\u00dc": 1110, "\u00ef\u0010": 1111, "\u009c\u00cb\u0086": 1112, "\u00d7\u00df": 1113, "\u0095\u00a1": 1114, "\u009d_": 1115, "\u00d9\u00c3": 1116, "YY": 1117, "=\u00f3": 1118, "\u00b1\u001e": 1119, "M\u00c7": 1120, "\u00c4*": 1121, "\u00eb\u00be": 1122, "s\u009e": 1123, "\u00d4\u00ea": 1124, "\u0095:": 1125, "\u00d7\u009f": 1126, "\u007f\u00c3": 1127, "\u008fC": 1128, "sK": 1129, "\u008f\u0004": 1130, "{\u007f": 1131, "\u00a7\u0014": 1132, "e\u00ff": 1133, "E-": 1134, "\u00a6\u00dd\u00ab": 1135, "\u00b3\u00ce": 1136, "\u00fd/\u0093": 1137, "[\u00b3": 1138, "\u00e8h": 1139, "\u00d7/": 1140, "\u00c8w": 1141, "g\f": 1142, "\u00ef^N": 1143, "\u0006=": 1144, "\u00ffC": 1145, "\u00ab\u00ec": 1146, "_\u00c8": 1147, "x\u0086": 1148, "\u0085}": 1149, "\u00f1\u001e": 1150, "\u00c5!": 1151, "z1": 1152, "\u00f7\u008e": 1153, "\u00a1b": 1154, "tZ": 1155, "\u007f\u00a5": 1156, "s\u009c3": 1157, "\u00e4;": 1158, "\u00f8e": 1159, "\u007f\u00d9": 1160, "\u00dd\u00fc": 1161, "|\u00a3": 1162, "\u001d\r": 1163, "\u0094b": 1164, "\u00ca\u00d3": 1165, "J\u00e9\u00b7": 1166, "\u0083\u00cf": 1167, "\u00e3Y": 1168, "\u00de!": 1169, "\u0087\u00d5": 1170, "\u00d7\u00fd": 1171, "\u00b9N": 1172, "\u0090\u00fa": 1173, "\u008aX": 1174, "\u00f2n": 1175, "\u0088C": 1176, "\u009d6y": 1177, "?\u00a5\u00f2": 1178, "\u00aa\u00fb": 1179, "E\u00ce": 1180, "\u00f3\u00fc": 1181, "\u009c\u00bf": 1182, "\u00f0\u0006": 1183, "\u00b9\u00cf": 1184, "\u00a6\u00dd\u0099": 1185, "\u00126": 1186, "o\u0010": 1187, "\u00d5\u0019": 1188, "\u00d1\u00e7": 1189, "\fz": 1190, "_\u00f6": 1191, "26": 1192, "1\t9": 1193, "\u001d\u00dd": 1194, "\u00e5\u00fe": 1195, "\u00f3\u00d0": 1196, "\u00ca=": 1197, "\u00a5s": 1198, "\u000eP": 1199, "z\u008f": 1200, "\u00eb\u00ef": 1201, "\u0011\u00b6": 1202, "\u009e\u008c": 1203, "\u0093w\u00d2": 1204, "z\u0019": 1205, "O\u001c": 1206, "\u00d6p": 1207, "\u00bd}": 1208, "\u00b9|\u008c": 1209, "\u008a\u009b": 1210, "\u00c8}": 1211, "V\u0084": 1212, "\u00c59": 1213, "*+": 1214, "+[": 1215, "\u00cd:": 1216, ":\u00f5": 1217, "b\u00af": 1218, "=\u0018": 1219, "i\u00cep": 1220, "\u00cc\u00d8\u00ae\u00b6": 1221, "\u00bfN": 1222, "\u0087\u007f": 1223, "\u00c1?": 1224, "\u00af\u00bf": 1225, "OC": 1226, "\u00a5p": 1227, "\u009au": 1228, "\u0088U": 1229, "\u00cb\u00fc": 1230, "\u00afQ": 1231, "\u000e\u00f8": 1232, "\u007f\u009e": 1233, "\u00a5t": 1234, "F*": 1235, "}N": 1236, "\u00d7\u00d6\u00bd": 1237, "n\u00d3": 1238, "\u00e5\u00f20": 1239, ">\u0000": 1240, "r\u00f9\u0018": 1241, "\u00c0\u00e5": 1242, ":\u001a": 1243, "c\u00d4": 1244, "\u0090\u00ef": 1245, "\u0084=": 1246, "\u00d7\u0085": 1247, "\u00fe\u0086": 1248, "\u00f59": 1249, "\u0095\u00d3n": 1250, "\u00f0\u00a7": 1251, "\u00f7\u00a2": 1252, "\u009cR": 1253, "!\r": 1254, "\u0012%": 1255, "0a": 1256, "\\\u00beF": 1257, "\u0093q": 1258, "\u00e5\u00af": 1259, "\u0018\u00f5": 1260, "\u00ad\u00e3": 1261, "\u009bu": 1262, "w\u00af'": 1263, "m\u00df\u00ec": 1264, "5\u00e4": 1265, "\u00ae\u00ff": 1266, "\u00abx": 1267, "\u00ba\u0019": 1268, "\u00f6\u00bc": 1269, "\u00db\u00d7": 1270, "<r": 1271, "\u00d2\u00a7": 1272, "k\u0094": 1273, "\u0002S": 1274, "<s": 1275, "\u008cU": 1276, "\u00a7\u00a1": 1277, "\u00df\u00df": 1278, "\u00df\u0004": 1279, "\u00a6\u00dd\u009a": 1280, "\u00cf9": 1281, "f\u00be\u00b5": 1282, "h\u00f3": 1283, "4\u00ea": 1284, "Z\u00ff": 1285, "\u0092\u0098": 1286, "\u007fK\u00e4": 1287, "\u00cb\u00a4": 1288, "\n\u001d": 1289, "\u0094\u00ea": 1290, "\u0088\u00f5": 1291, "F<": 1292, "tz": 1293, "\u009d6": 1294, "yZ": 1295, "\u00db\u00bf": 1296, "\u00a6\u00cf": 1297, "\u00c8\u007f": 1298, "\u00d2\u00bb\u00d7": 1299, "\u009d\u00eb\u00c9": 1300, "\u008dY": 1301, "\u008a\u0089": 1302, "\u001dz": 1303, "u\u00ed": 1304, "\u0004\u00f7": 1305, "\u00b8\u00ce": 1306, "\u00b7\u0087": 1307, "\u00f5\u00d3": 1308, "\u00883": 1309, "\u0014x": 1310, "3\u009c": 1311, "\u00fa\u0019": 1312, "\u00d0\u00d1": 1313, "m\u00b6": 1314, "\u009b9": 1315, "\u00ba\u00dd": 1316, "\u00b36": 1317, "s.": 1318, "\u00d7\u00c3": 1319, "&\u00e3": 1320, "pS": 1321, "V\u009a": 1322, "So": 1323, "\u00f4\u00db\u00b5": 1324, "\u00c9\u00bb\u00e9": 1325, "\u00b9\u00fe": 1326, "O|": 1327, "W\u00da": 1328, "\u00980": 1329, "V\u00b2": 1330, "\u00f26": 1331, "=\u00fd": 1332, "\u009d7": 1333, "V\u00b4\u00db\u00b5": 1334, "\u00bf\u00d0": 1335, "\u00cf_": 1336, "\u00ff\u0086": 1337, "\u00d7E": 1338, "qN": 1339, "\u00ee\u00ed": 1340, "7\u00f7": 1341, "\u00bb\u00c9": 1342, "\u00cc\u00f7\u00fb": 1343, "uI": 1344, "\u00e2\u0096": 1345, "\u00b5\t": 1346, "+\u009e": 1347, "\u00afo": 1348, "\u00f8\u00dd": 1349, "\u00a7\u00a2": 1350, "+\u00e4a": 1351, "\u008b\u00d9": 1352, "\u0013v": 1353, "\u00e4m": 1354, "_Z": 1355, "d;": 1356, "]\u00fe": 1357, ",H": 1358, "2\u00e9": 1359, ":\u00a3": 1360, "\u00dc3": 1361, "\u00fe\u00ce": 1362, "+\u0086": 1363, "\u00de\u00b8": 1364, "M\u00dfK": 1365, "%\u00f0": 1366, "\u00d9Z\u00d3n": 1367, "~\u009c": 1368, "\u00b9\u00c0": 1369, "\u00b3n\u00fe": 1370, "\u00c9/": 1371, "\u00eb\u00cd": 1372, "\u00be\u0019": 1373, "\u0093\u00d1": 1374, "\u001a\u00bf": 1375, "2\u00bf": 1376, "m\u00e7": 1377, "i\u00d5": 1378, "^,": 1379, "\u00af5": 1380, "\u00cb\u0018": 1381, "\u008a\u00b4": 1382, "\u00148": 1383, "\u00e8i\u00b7": 1384, "5\u009e": 1385, "\u00dfx": 1386, "\u0004*": 1387, "\u0084m": 1388, "\u00c4\u0018": 1389, "\u00de\u00d7": 1390, "\u00af\u00e4": 1391, "\u001e\u009bv": 1392, "\u00a7z": 1393, "\u00fe\u00fe": 1394, "O\u001f": 1395, "\u00a5\u00ff": 1396, "O\u001d": 1397, "9C": 1398, "Z\u00f8": 1399, "\u0011\u00dd": 1400, "IW": 1401, "\u00c6\u00ac": 1402, "\u008a\u00f6": 1403, "\u00ef\u00ec": 1404, "\u00fdw": 1405, "\u001d\u00f0": 1406, "\u00cf|": 1407, "\u00fa_'": 1408, "\u00d3\u00dd": 1409, "\u00f4c": 1410, "\u00ea*": 1411, "f\u00cf\u001e": 1412, "\u00858": 1413, "\u00ea\u0081": 1414, "\u00cc\u00f6": 1415, "\u009fC": 1416, "N\u00bf": 1417, "{\u0086": 1418, "\u00d0\u00fb": 1419, "\u00f4z": 1420, "\u00cc\u00ba": 1421, "x\u0082": 1422, "\u009e\u00fd": 1423, "k9": 1424, "\u0099\u00e3": 1425, "Ob": 1426, "\u00b1\"": 1427, "\u00ab#": 1428, "A\u007f": 1429, "\u00a8\u0019": 1430, "VO": 1431, "\u009dV": 1432, "\u0099\u00ef": 1433, "\u0082\u00c4": 1434, "\u0019\u00ce\u001a": 1435, "u\u009c": 1436, "\u009c\u00d2": 1437, "\u009b}": 1438, "\u00cf\u00f6": 1439, "R\u00d5": 1440, "\u00a6\u00c4m": 1441, "$3": 1442, "\u00b7\u00af": 1443, "\u0082\u009c": 1444, "4\u000f": 1445, "\u00f5\u00b9": 1446, "\u0086s\u0086": 1447, "\u00d1K": 1448, "=~\u00b7": 1449, "\u00a1\u00bd": 1450, "\u00eb\u00d4": 1451, "e\u00fe": 1452, "l\u00e7": 1453, "K\u00e7": 1454, "\u00ef\u00f3": 1455, "\u00f0\u00e1": 1456, "\u0088\u00e5": 1457, "\u00ca1": 1458, "\u00e8o": 1459, "\u0084+": 1460, "X\u0090": 1461, "\u00adn": 1462, "\u00b3%6": 1463, "\u00a4\u00ab": 1464, "\u001e\u00aa": 1465, "\u00f4\u00ea": 1466, "\u00e4>": 1467, "\u00a6\u00dd\u00bd": 1468, "=\u00fc": 1469, "i\u00ff": 1470, "G\u00a8": 1471, "k:n": 1472, "\u009bq\u007f": 1473, "\u00aaN": 1474, "\u00f5\u00dc": 1475, "\u00f9p": 1476, "f\u00cb": 1477, "\u009e\u009bv": 1478, "\u00ee\u00ec": 1479, "C\u00a1": 1480, "\u00da\u00ac": 1481, "P\u008f": 1482, "\u00c7w": 1483, "`\u00c1": 1484, "OD": 1485, "\u00be\u0006": 1486, "6\u00e2\u00fe": 1487, "+B": 1488, "w\u00f9": 1489, "\u009c\u00f3": 1490, "\\3": 1491, "r\u00ff": 1492, "s\u009c5": 1493, "\u00e9\u00b7`": 1494, "\u00c8E": 1495, "\u00fc\u00db": 1496, "\u001ez": 1497, "8w": 1498, "g\r": 1499, "\u00d7\u00c7": 1500, "\u00e7\u00be": 1501, "1\u00e1": 1502, "s\u00df": 1503, "=~": 1504, "M\u00bb\u00fd": 1505, "\u00c8?": 1506, "6s": 1507, "\u008d\u00b1": 1508, "*\u00d0": 1509, "\u0082\u00fe": 1510, "j\u0081": 1511, "\u00d7\u00c0": 1512, "xS": 1513, "\u00b8e": 1514, "\u00b1\u0086": 1515, "\u00b2\u00f9": 1516, "\u00ab\u00ed": 1517, "\bC": 1518, "\u00ac\u00e7": 1519, ">\u0089": 1520, "\u00a7\r": 1521, "7}": 1522, "4\u00db\u00b5": 1523, "h\u00ae": 1524, "G\u0087": 1525, "\u00e9,": 1526, "s6": 1527, "\u00d0\u00d3n": 1528, "\u00cc{": 1529, "\u00f7[": 1530, "]\u001e": 1531, "\u00df\u00d9": 1532, "\u00e7\u008e": 1533, "\u00f47": 1534, ";\u00d7\u0093": 1535, "\u0098\u00a5": 1536, "\u00cb]": 1537, "\u00e9-": 1538, "\u0014\u00e6": 1539, "\u00d3g\u009d": 1540, "\u00a5\u00fd": 1541, "\u001dR": 1542, "Y\u00ce": 1543, "A\u00be": 1544, "\u00eb\u00c8": 1545, "\u00eb\u00c8\u00eb\u00da": 1546, "\u00ffK": 1547, "\u00ba1": 1548, "\u00f21": 1549, "\u00c9\u00b8": 1550, "\u0010\u00ef": 1551, "k\u0096": 1552, "D\u0086v": 1553, "\u00d3\u00c7": 1554, "f\u00dc": 1555, "\u00ef\\": 1556, "\u00d79": 1557, "M\u0088\u00db": 1558, "\u0089\u00bb": 1559, "\u00bb\u00ee": 1560, "\u00b9\u00eb": 1561, ">\u00fe\u00fe": 1562, "M\u0015": 1563, "\u0082{": 1564, "ty": 1565, "\n\u00c9": 1566, "\u00a6\u00dd\u00aa": 1567, "\u00c6:": 1568, "\u00c4\u0014": 1569, "\u00e1\u00df": 1570, "\u0007H": 1571, "m\u00e3": 1572, "\u00e5\u001e": 1573, "\u00fa\u00ef": 1574, "\u00e3\u00bb": 1575, "\u00c5Z": 1576, "\u00c0\u00e9": 1577, "\u000f\u00f0": 1578, "s\u00c7": 1579, "\u00e3\u001c": 1580, "\u0097\u0092S": 1581, "\u00bd\u00d1": 1582, "\u00f8!": 1583, "-y": 1584, "\u007f\u00dd": 1585, "\n1": 1586, "[\u0086": 1587, "K\u00e0": 1588, "\u00e1\u0099": 1589, "M\u00b8\u00bf": 1590, "\u00af>": 1591, "r\u009c": 1592, "4y": 1593, "N\u00ab": 1594, "ED": 1595, "\u00c3W": 1596, "\u0091\u00eb": 1597, "\u0016$": 1598, "\u00b2\u00ff": 1599, "\u00ba\u00ce": 1600, "\f\u00c9M": 1601, "\f\u00e7\f": 1602, "\u00d0<": 1603, "|8": 1604, "\u00b2\u00e9": 1605, "\u00ed\u00f6": 1606, "\u00db\u00ef": 1607, "\u00960": 1608, "\u00fa\u00be": 1609, "Y\u00b7\u007f": 1610, "\u00f7v": 1611, "\u00fa\u009c": 1612, "IF": 1613, "C\u00ee": 1614, "\u00f8'": 1615, "xu": 1616, "\u0083\n": 1617, "\u00c26": 1618, "\u00c0\u0087": 1619, "\u008f\u0000": 1620, "\ns": 1621, "\u00d1\u007f": 1622, "e>": 1623, ",\u00db\u00bf": 1624, "\u008a1": 1625, "\u00b5\u00e6": 1626, "\u0089\u0012": 1627, "`\u00ee": 1628, "\u0004:": 1629, "b\u0012r": 1630, "t\u00db\u00b5": 1631, "y\u00e8": 1632, "\u00eb\u00ac": 1633, "\u0018F\u00de": 1634, "\u00a0\u00ac": 1635, "\u00d4z": 1636, "N#": 1637, "\u008a\u00b3": 1638, "\u00f0\u00ea": 1639, "\u00cd\u00fd": 1640, "\u0083}": 1641, "\u00bd\u00bd": 1642, "\u0016\u00ed": 1643, "\u00c9\u00e3": 1644, "\u0095\u00cf": 1645, "\u0002\u0087": 1646, "\u00f7\u00ae": 1647, "9\u00ce\u0018": 1648, "z\u00ec": 1649, "\u00e2x": 1650, "^G": 1651, "AY": 1652, "\u00a8\u00f6": 1653, "+'": 1654, "\bw": 1655, "e=": 1656, "\u00da\u00f3": 1657, "\u0011\u00e7": 1658, "|\u0001": 1659, "3e": 1660, "\u009e\u00f8": 1661, "\u0087\u00b7": 1662, "\u00b1{": 1663, "\u00b6\u00dbm\u00b6\u00dbm\u00b6": 1664, "\u001bb": 1665, "\u0097\u0006": 1666, "\u00faZ": 1667, "\u00cey": 1668, "<p": 1669, "{\u00d7": 1670, "n\u00fd": 1671, "\u00d5\u0091": 1672, "h}": 1673, "\u0099t": 1674, "\u00e6\f": 1675, "\u00fb\u00d1": 1676, "YF$\u00a7": 1677, "\u0002\u00d7": 1678, "\u00ab_": 1679, "\u0018\u00a5": 1680, "\u00be\u0086": 1681, "\u00d3n\u00cd": 1682, "\u00b9\u00c2": 1683, "\u00e78i\u00b7": 1684, "\u00df\u00e7": 1685, "\u0095\u00a6": 1686, "{\u00fd": 1687, "\u00d5'": 1688, "\u00cc\u00af\u0091\u0086": 1689, "\u00e9\u00b7%": 1690, "\u001f\u00e0": 1691, "\u000b\u00f9": 1692, "+Zm\u00d9": 1693, "\u0014\u00b5": 1694, ",a": 1695, "\u00ae_": 1696, "Jl": 1697, "\u00a7z\u00f2": 1698, "\u0091\u00e6": 1699, "\u009f>": 1700, "\u009fD": 1701, "\u00f1\u00c3": 1702, "\u00180": 1703, "\u00a5w": 1704, "\u00ae\u00b3": 1705, "\u00ec\u00adi\u00b7": 1706, "\\\u00e0": 1707, "\u001c\u00a1": 1708, "\u0005\u00fc": 1709, "\np": 1710, "\u00a3\u0012": 1711, "\u008a\u00ba": 1712, "\u00cb\u00e7": 1713, "\u009d\u001b": 1714, "8r": 1715, "3\u00c7": 1716, "\u00de\u0095": 1717, "\u00a3\u001d": 1718, "p\u00ca": 1719, "\u00d2J": 1720, "\u00bb\u008e": 1721, "\u0004\u00fd": 1722, "M\u00b9,": 1723, "\u00e9\u00ef": 1724, "\"\u0096": 1725, "1{": 1726, "\u008a\u008b": 1727, "{\u00ef": 1728, "\u00ab\u00e7": 1729, "\u00ad\u00e1": 1730, "4W": 1731, "\u0097\u00cf": 1732, "\u00a4\u0094": 1733, "\u00dbm\u00b6": 1734, "\u00d4'": 1735, "\u00f5}": 1736, "\u00cb\u00fd": 1737, "\u00cc\u00d9\u00e3": 1738, "k:": 1739, "\u0005\u00f3": 1740, "v\u00fb": 1741, "\u00a4y": 1742, "\u008cR": 1743, "f\u00cf": 1744, "6#o": 1745, "Q\u00eb": 1746, "u:": 1747, "\u00a72\u00e1": 1748, "\u0011\u00ca": 1749, "c\u00d7": 1750, "\u00d7}": 1751, "5@": 1752, "\u00d7<": 1753, "\u00a3\u00c9": 1754, "\u00dd\u001e": 1755, "\u0010\u0098": 1756, "\u0017\u00b3": 1757, "o\u00f3": 1758, "\u00fc\u00ba": 1759, "\u0088I": 1760, "A\u00c0": 1761, "\u00e5=": 1762, "U_": 1763, "q\u0006": 1764, "]\u00f2": 1765, "\u00ab(\u00c4\u0094": 1766, "_\u00fd": 1767, "\u00e3v": 1768, "\u0011\u00c3": 1769, "\u00e1\u009d": 1770, "\u00d7Y": 1771, "\u0006\f": 1772, "\u00bf\u00b3": 1773, "\u0084\u00c3": 1774, "4\u00d9\u00e7": 1775, "s\u00fe": 1776, "\u00d9\u00cf": 1777, "\u00e50": 1778, "\u00be\u00a7": 1779, "$\u00dc": 1780, "\u00c9/\u009a": 1781, "\u00f8\u00e4": 1782, "w\u0093": 1783, "\u000e\u00fe": 1784, "\u00f4\u00b0": 1785, "\u00feR": 1786, "\u00c8y": 1787, "N\u001d": 1788, "\u00e6<": 1789, "^G^\u00d1": 1790, "\u00a8\u00a8": 1791, "\u00fa<": 1792, "u\u0088": 1793, "\u009fz": 1794, "\u0005\u0089": 1795, "7~": 1796, ">|": 1797, "iV": 1798, "\u008cW": 1799, "\u009a\u00a0": 1800, "\u00f4\u00b3": 1801, "\u0014\u00b3": 1802, "\u00e9\u00c3": 1803, "\u00d7|": 1804, "]\u00c7": 1805, "o\u00ee": 1806, "\u00a1D": 1807, "\u0087\u00d6\u001e]": 1808, "\u00ac\u00a3\u0012S": 1809, "3g\u008f": 1810, "\u00e8\u00f0": 1811, "\u00b5\u009e": 1812, "\u00de\u00c5": 1813, "_)": 1814, "\u00f9\u00f3": 1815, "S\u00ec": 1816, "d\u00a6": 1817, "oI": 1818, "\u00e6\u0096": 1819, "\u00b9L": 1820, "\u00af\u00d7\u007f": 1821, "T\u00db": 1822, "\u00ef^": 1823, "\u00e8oI": 1824, "\u00d5\u00a5": 1825, "9\u00a5": 1826, "\u00d4x": 1827, "\u001e\u00df": 1828, "\u00fa\u00e9": 1829, "*u": 1830, "\u00d0 ": 1831, "\u001f\u0000": 1832, "u\u00fc": 1833, "\u0090p": 1834, "\u00beM": 1835, "\u00d6t": 1836, "&\u00ef\u00a5": 1837, "\u00e9\u00b7\u007f": 1838, "\u0087\u0091": 1839, "\u00fd\u00fd": 1840, "\u00d0\u00a2": 1841, "\u00c4x": 1842, "\u00d7\u0087": 1843, "\u00bb\u00fc": 1844, "\u00bf\u00a7": 1845, ".\u007f": 1846, "\u00c4\u00d6": 1847, "\u0098\u00f0": 1848, "\u00a7{": 1849, "\u00ab\u00bc": 1850, "\u00f4)": 1851, "(\u00f3": 1852, "\u00eb\u00bf": 1853, "\u00cau": 1854, "\u001fD": 1855, "W\f": 1856, "\u00a9\u007f": 1857, "\u0012n": 1858, "\u00c4\u00f1": 1859, "\u0081\u00d2": 1860, "\u00d7\u00c6\u00ed": 1861, "~\u0096": 1862, ":-": 1863, "\r6\u00ed": 1864, "\u00e5\u0018": 1865, "\ry": 1866, "\u00cf^": 1867, "J\u009c": 1868, "\u0004+": 1869, "\u00f7\u00b4": 1870, "\u00a6\u00c4": 1871, "\u00dd\u00fe": 1872, "\u00af\u0081": 1873, "\u00f9\u00b6": 1874, "\u00ae\u0019": 1875, "rK\u00e6": 1876, "2\u009e": 1877, "\u00cb\u00e4a": 1878, "\u0017\t": 1879, "H\u00f3": 1880, "\u00e5M\u00df": 1881, "_?": 1882, "\u0092\u00e0": 1883, "OE": 1884, "O\u00f7": 1885, "\u001eE": 1886, "q\u00ce": 1887, "_\u00ae\u00fe": 1888, "\u00d7\u008b": 1889, "S\u0093": 1890, "\u0082~": 1891, "w\u00de": 1892, "\u00ee9": 1893, "Tf": 1894, "\u00b1V": 1895, "\u00a3\u0010": 1896, "\u00bb\u00ea": 1897, "\u00d6\u00e8": 1898, "U\u00de": 1899, "\u0081\u000e": 1900, "*\u00a3": 1901, "\u00fd,": 1902, "o\u00f2": 1903, "\u00a1\u00c7": 1904, "\u00e3\u009d": 1905, "\u00bdb": 1906, "|2": 1907, "VQ\u0089)": 1908, ".\u0086": 1909, "\u00c4$\u00e5": 1910, "\u0014\u00b4": 1911, "\u009e\u00e9": 1912, "N\u00f5\u00e4": 1913, "o\\": 1914, "\u00a3\u001c": 1915, "\u00a3\u00c0": 1916, "x\u00e7": 1917, "\u00aa\u00ef": 1918, "\u00e1\u00ab": 1919, "B=": 1920, "\u00cb\u00a5": 1921, "\u00dcz": 1922, "\u0099\u00b3\u00ce": 1923, "\u00d1t": 1924, "\u00d7\u00f2": 1925, "9\u0092\u009b": 1926, "\u00ccy": 1927, "^\u00ce": 1928, "\t\u0086": 1929, "y\u00fe": 1930, "\u0088\u00c5": 1931, "\u00cd\u0097": 1932, "r\u00d6": 1933, "\u00a7\u00bf": 1934, "\u00d3n\u00c1": 1935, "%=": 1936, "\u00ac\u00e9": 1937, "\u00e5>": 1938, "6\u00fb": 1939, "\u001e\u007f": 1940, "\u00c0P": 1941, "r\u00f9": 1942, "oQ": 1943, "\u008f^": 1944, "\u009cA": 1945, "\f\u00adi\u00b7": 1946, "\f\u00af": 1947, "/\u00f4": 1948, "\u0098\u0091": 1949, "\u00f1\u00bb": 1950, "\u00cc\u00d9\u00e7": 1951, "#m": 1952, "\u00f4\u00bf": 1953, "|\u00f9": 1954, "\u00fa\u00a0": 1955, "M\u00d9": 1956, "\u0082\u009d": 1957, "\u00fa\u0014": 1958, "\u00f2\u00b4": 1959, "\u009c\u00a7": 1960, "\u00a7\u00fb": 1961, "\u00d3\u00fe": 1962, "\u0081C": 1963, "9Z\u00d3n": 1964, "\u00ab\u00c3": 1965, "\u00eb\u00b8": 1966, "\u000e\u00a9": 1967, "\u00f9\u00eb": 1968, "_\u007f": 1969, "k\u00ac": 1970, "\u0094\u00f4\u00db": 1971, "q<": 1972, "W\u0087": 1973, "\u009d\u001e": 1974, "\u00e9\u00e8": 1975, "\u0016\u00ec": 1976, "-\u00da": 1977, "\u00b1\u00ea": 1978, "\u00ff\u0000": 1979, "\u00b7C": 1980, "8\u0083": 1981, "\u0085~": 1982, "w\u001c": 1983, "\u00e9\u00b7f": 1984, "Z\u00dd": 1985, "\u00b7\u0088": 1986, "\u00e9S": 1987, "\u00fb\u00ef": 1988, "C\u00ae": 1989, "/\u00f5": 1990, "u\u00ca": 1991, "\u0090\u007f": 1992, "_&": 1993, "2\u00ff": 1994, "{\u00fc": 1995, ";\u00d8": 1996, "\u0014\u00b0": 1997, "\u00ccx": 1998, "\u00c9\u00d1": 1999, "\u00de\u00fb": 2000, "\u0092\u00f8": 2001, "\u001fb": 2002, "\u00d2\u00bb": 2003, "\u00e6lW[": 2004, "\u00f2\u00eb": 2005, "v\u00dc": 2006, "\u00f3\u00ff": 2007, "\u00a2C;": 2008, "r\u0098": 2009, "\u00a0A": 2010, "M\u0097\u00c6\u00ed": 2011, "\u00bdG": 2012, "Ne\u00c3": 2013, "F!_": 2014, "\u001a\u0007": 2015, "C\u00c9": 2016, "\u00e4\u00ae": 2017, "\u00aa0": 2018, "\u009f\u00f9": 2019, "\u00ff\u00ce": 2020, "\u00cdy": 2021, "\u00aau": 2022, "O\u00a2": 2023, "\fy": 2024, "\u0087{": 2025, "\u0088~": 2026, "p\u00e4": 2027, "y\u001d{": 2028, "C\u008e": 2029, "T\u00bf": 2030, "\u0081\u0005": 2031, "Y\u007f": 2032, "k\u00c2": 2033, "\u009e\u00be": 2034, "l\u00e1": 2035, "\u00a0\u00ff": 2036, "\u00ef\u00a6": 2037, ";\u00fc": 2038, "\u00b2\u00c6": 2039, "\u00a0P": 2040, "\u00df\u00e0": 2041, "C\u00c8": 2042, "\u00e8\u00b4": 2043, "\u00bc\u008e": 2044, "OM\u00bb": 2045, "\fx": 2046, "g\u00ff": 2047, "\u00a7^": 2048, "\u008f\u00a2": 2049, "\u00eb\u00c2": 2050, "\u00a1E": 2051, "\u00a2\u000b": 2052, "\u00e78f": 2053, "\u00cei": 2054, "O\u00de": 2055, "\u00d3\u009c": 2056, "\u00d8\u00f5": 2057, "\u00e6{": 2058, "\u008a[": 2059, "+M": 2060, "\u001e\u00be": 2061, "\u00f2\u00e0": 2062, "\u00ed\u00fc": 2063, "\u00a8\u00f5": 2064, "NN": 2065, "\u00ad\u00ce": 2066, "\u00d5\u0094bJ": 2067, "/\u00f3": 2068, "6+\u00ad": 2069, "q\u00c3": 2070, "\u001c;": 2071, "<\u00c7": 2072, "\u00dbm\u00b6\u00db": 2073, "U\u00bc": 2074, "#\u0015": 2075, "\u0094c": 2076, "\u009b\u00be\u0096": 2077, "\u00bf]": 2078, "7\u00af": 2079, "\u00d4y": 2080, "\u00a6\u00cb\u00e3v": 2081, "s\u00fd": 2082, "B\u009d": 2083, "\u00ad-": 2084, "\u00cf\u0004": 2085, "\u00e5h": 2086, "\u001d\u0016": 2087, "\u00f4b": 2088, "\u00d3b6": 2089, "\u00b7\u00f9": 2090, "]:": 2091, "K\u00fe": 2092, "\u009dP": 2093, "\u00cc\u0018": 2094, "\u008f\"": 2095, "\u00b2\u00b3": 2096, "\u00d2Z": 2097, "\u00b7\u00a5": 2098, "\u00e8\u0091": 2099, "\u00b2\u00b5\u00a6\u00dd": 2100, "\u009f\u00ef": 2101, "%\u00c1": 2102, "W\u00d9": 2103, "A\u00d2": 2104, "\u00bf\u00c1": 2105, "k\u009c": 2106, "*n\u00fe": 2107, "6\u00ab": 2108, "(\u00f2": 2109, "F$": 2110, "\u00b9\u00cc": 2111, "\u00ac\u00e1": 2112, "\u0087\u00dd": 2113, "i\u00ee": 2114, "!\u00e4": 2115, "B\u00c5": 2116, "\u0098\u00f2": 2117, "\u00e5\u00c3": 2118, "\u00bf[": 2119, "\u00d5\u00af\u00fb": 2120, "\u00c9F": 2121, "g\u008e": 2122, "\u009f?": 2123, "\u0087~": 2124, "\u00e6\u00df": 2125, "\u00d3\u00df": 2126, "r\u00b4": 2127, "\u009c\u00adi\u00b7": 2128, "%6": 2129, "\u00c5:": 2130, "\u00a8N": 2131, "\u00adB": 2132, "\u00f5\u00f5": 2133, "z\u00f3": 2134, "\u00c2\u009d": 2135, "\u00e6\u00be\u00b5": 2136, "J\u00e0": 2137, "\u00b5X": 2138, "\u008d\u00bd+": 2139, "\u008b\u00dd": 2140, "\f\u00d2\u00ff": 2141, "\u001b{": 2142, "\u000f\u00f9": 2143, "*\u00fb": 2144, "\u00ef\u00f4": 2145, "so": 2146, "\u00dc\u00ff": 2147, "\u00bcX": 2148, "C\u00ef": 2149, "K\u00fa": 2150, "H\u00f5": 2151, "LQ": 2152, "\u00d3b": 2153, "\u00c1*": 2154, "b\u00ac": 2155, "J\u00d6": 2156, "\u0088I\u00ca": 2157, "\u00aa\u0081": 2158, "nx": 2159, "\u00e7=": 2160, "U\u0019": 2161, "\u00cez": 2162, "\u00ea/": 2163, "j\u008c": 2164, "\u00845": 2165, "\f\u0018": 2166, "{D": 2167, "*m": 2168, "t)": 2169, "\u00d5@": 2170, "\u0014;": 2171, "\u00a3\u00cd": 2172, "\u00cf}": 2173, "\u001e\u00ab\u00bc": 2174, "\u00e1\u009a": 2175, "VQ": 2176, "\u00a2M": 2177, "Ot": 2178, "\u00f6i": 2179, "w\u00af": 2180, "mV": 2181, "\u00d5\u00bc": 2182, "\u00ea\u00fa": 2183, "\u00c3\u0091": 2184, "Q\u00e4": 2185, "1\u00e0\u0084\u009c": 2186, "\u009dx": 2187, "\u008f\u000f": 2188, "\u00bf\u00bd": 2189, "\u00d44": 2190, "\"\"": 2191, "**": 2192, " \u00b6": 2193, "z\u00ff": 2194, "YZ": 2195, "(\u00c5": 2196, "gM": 2197, ".\u0096": 2198, "\u0085\"": 2199, "\u00a6\u00de": 2200, "\u00bd\u00ae": 2201, "=\u00fa": 2202, "\u00957\u007f": 2203, "k\u00be": 2204, "\u0090\u00a7": 2205, "\u0094x": 2206, "\u00d4^": 2207, "p\u00cc": 2208, "\u00ef\u00bd": 2209, "\u00ba\u00e5": 2210, "s\u009c0": 2211, "\u00f5\u009e": 2212, "\u001f\u00f7": 2213, "\u00885": 2214, "xp": 2215, "k\u009f": 2216, "U7": 2217, "\u00d5W": 2218, "Ba": 2219, "\u00156": 2220, "gC": 2221, "Z\u0084": 2222, "U}": 2223, "\u00eb\u00e3v": 2224, "`t": 2225, "!\u00d7": 2226, "\u00f4\u00af": 2227, "\u001f\u00e9": 2228, "\u001d\u00ef": 2229, "\u00f7\u00a5": 2230, "\u00ad,": 2231, "9\u00e7": 2232, "?\u00ee": 2233, "\u00a6\u00cf8": 2234, "j\u00ce": 2235, "\u00de\u0007": 2236, "\u0003\u00a4": 2237, "\u00bd\u00aa": 2238, "\u0018\u00d6": 2239, ".\u0013": 2240, "\u00ca<": 2241, "\u00f9]": 2242, "\u00f7\u0000": 2243, "%v": 2244, "\u00979": 2245, "\u00f7\u00f6": 2246, "\u00f6\u00fe": 2247, "\u0019Z\u00d3n": 2248, "e\u008c": 2249, "F+": 2250, "\u00aa\u00af": 2251, "q\u009d": 2252, "[\u00b3.": 2253, "\u0010\u0093\u0095": 2254, "\u0090[": 2255, "\u00b7\f": 2256, "Q\u0089": 2257, "/\u00fe": 2258, "y%": 2259, "\fS": 2260, "] ": 2261, "\r6\u00ec": 2262, "V\u00f0": 2263, "zu": 2264, "O\u009f": 2265, "5\u00df": 2266, "\u00ea\u00fb": 2267, "\u00a5w\u00ae": 2268, "\u00bf\u0002": 2269, "\u00c3\rY": 2270, "t5": 2271, "o\u0003": 2272, "\u008b\u00d7": 2273, "\u00a0\u00df": 2274, "\u00f7\u00f9": 2275, "&$": 2276, "\u00d1Q": 2277, "j\u000f": 2278, "\u008f5": 2279, "\u008d\u00b0": 2280, "\u00d1P": 2281, "\u00a1\u00df": 2282, "\u008a\u00a8": 2283, "\u0015Q": 2284, "]\u00f7": 2285, "f\\3": 2286, "\u00d5\u00f6": 2287, "\u00c1\b": 2288, "\u00eb\u00a7": 2289, "\u00eb\u00fc": 2290, "\u00d8\u008f": 2291, "\u00f4Q": 2292, "\u00bf\u00ba": 2293, "\u00f8\u00e5": 2294, "Z\u00b6": 2295, "\u0010\u00fd": 2296, "\u00ae\u00b7": 2297, "T\u00b5": 2298, "LW": 2299, "\u0014\u00e2": 2300, "\u00cf\u00f0": 2301, "\u008au": 2302, "\u00af\u00e9": 2303, "*n": 2304, "\u00e8i]": 2305, "5\u009d": 2306, "9\u007f": 2307, "\u0012n\u00d3": 2308, "\u0097#": 2309, "\u0099\u00b7\u001e": 2310, "=\u007f": 2311, "\u00ee\u00e0": 2312, "o^": 2313, "V\u0085": 2314, "\u0019\u00d0": 2315, "\u00ad\u00fe": 2316, "f\u009c": 2317, "{\u00fa": 2318, "\u00cc\u0094": 2319, "\u009ar": 2320, "\u00f5\u00cd": 2321, "\u00e9\u00b1\u0006": 2322, "\u00c1/": 2323, "\u00ce\u00df": 2324, "\u00ed\u00b9": 2325, "\u00ad\u007f": 2326, "\u00efI": 2327, "\u00e4\u00e5": 2328, "\u0097H": 2329, "\u009d\u00bf": 2330, "\u00f0\u00ef": 2331, "\u00af7": 2332, "\u00c7\u00a8": 2333, "\u00f7\u0088": 2334, "\u00bd\u00b7": 2335, "\u00ad\u00db": 2336, "\u001a5": 2337, "\u00c4zm\u00da": 2338, "t;": 2339, "9\u00b7": 2340, "\u0012\u00b5": 2341, "\u000f>": 2342, "\u00f9\u0018": 2343, "$\u0016": 2344, "\u00f4\u00d9\u00e7": 2345, "\u009f\u00b9": 2346, "\u00e4\u00b8": 2347, "\u00faX": 2348, "\u00d7-": 2349, "\u00f4y": 2350, "\u00df\u00de": 2351, "\u0099_": 2352, "\u00f1\u0004": 2353, "\u00d3\u00bd": 2354, "\u0018\u00f0BN": 2355, "6_": 2356, "8u": 2357, "\u008aB": 2358, "\u0095\u00f8": 2359, "G\u0098": 2360, "\u0097\u008e": 2361, "\u0003\u001e": 2362, "\u00f5\u00e6": 2363, "1\"": 2364, "\u00ff\u00ba": 2365, "*\u0011": 2366, "\u00b6\u00f1": 2367, "\u00f1\u00dd": 2368, "hG": 2369, "\u00ad|": 2370, "F!'": 2371, "\u009br": 2372, "\u00a6\u00df": 2373, "\u00b3\u00cd": 2374, "\u001es\u0086": 2375, "\u00b5\u00e4": 2376, "\u00f5\u00da": 2377, "\u00b6\u00f3": 2378, "\u00d1!\u009d": 2379, "\u0092\u00bb": 2380, "\u0015\u0093": 2381, "],": 2382, "&\u00e8": 2383, "}\u0012": 2384, "\u00d7\u009b": 2385, "\u00c4\u009e": 2386, "\u00f6u": 2387, "\u00b6\u00f0": 2388, "\u0086\u009bv": 2389, "\u001a{": 2390, ".3": 2391, "Y\u00c3": 2392, "Z\u00fa": 2393, "\u00bf\u00e0": 2394, "\u00d3e\u00f1\u00bb": 2395, "\u00fa_": 2396, "Y|": 2397, "\u00cf\u00fa": 2398, "\u00d9|": 2399, "M\u00b9-": 2400, "+\u00f8": 2401, "!'": 2402, "k8": 2403, ":\u00be": 2404, "\u00f3\u00ef": 2405, "\u00f4\u00f7": 2406, "_#": 2407, "^\u00a2": 2408, "\u00df)": 2409, ":\u0085": 2410, "\u00d1\"": 2411, "P5": 2412, "G\u00af\u00d6": 2413, "\u00bf\u00ce": 2414, "\u00cex": 2415, "\u00e9\u00e3": 2416, "\u00b4\u00db\u00b5": 2417, "\u009f\u00f5": 2418, "\u00caqK": 2419, "\u00de\u009e": 2420, "n\u0086": 2421, "\u0014\u00e4": 2422, "\u00c5Y": 2423, "\u00f3\u00e7": 2424, "\u009cS": 2425, "\u00ae\u00fb": 2426, "\u00efQ": 2427, "]\u0018": 2428, "\u00859\u00ce\u001a": 2429, "V\u00ff": 2430, "\u0010\u0093": 2431, "p\u00d5": 2432, "\u00e9\u00d7": 2433, "\u0017\u00f2": 2434, "^\u00d1": 2435, "|\u0010\u00aa": 2436, "\u0093\u00a3": 2437, "Zu": 2438, "&\u001a": 2439, "\u00f5\u0015": 2440, "u~": 2441, "\u00f5@": 2442, "\u00de\u00b9": 2443, "R\u0096": 2444, "\u0017\u00fb": 2445, "\u00b97": 2446, "?\u00eb": 2447, "u9": 2448, "/\u00f8": 2449, "\u00fe\u0095": 2450, "\u00b8\u00a5": 2451, "\u00eb\u00a2": 2452, "\u00c8\u00c3": 2453, "\u00897i": 2454, "\u00ba<": 2455, "4\u00ab": 2456, "\u00ae\u00e3": 2457, "\u00ec\u00ba": 2458, "\u0095\u00da": 2459, "\u008f\u008e": 2460, "\u0083\u001e": 2461, "O\u00bd": 2462, "`\u00c0": 2463, "\u00f4Q\u0089)": 2464, "\u0087^": 2465, "S\u00c7": 2466, "\u00eb\u00fe": 2467, "\b\u00f0": 2468, "\u000fo": 2469, "\u00dbm\u00b6\u00dbm\u00b6": 2470, "/\u00f0": 2471, "f\u0097\u00fa": 2472, "\u000e\u008b": 2473, "\u00ff\u009e": 2474, "\u00af\u0087": 2475, "\u00aa\u008c": 2476, "f{\u00fd": 2477, "j\u0013": 2478, "\u00e8b": 2479, "\u009c;": 2480, "t\u00db\u00bf": 2481, "\u00ff)": 2482, "\u00aeZ": 2483, "\u00ad\u00e7": 2484, "\u00ae\u008f": 2485, "\u00d7/\u0091\u0086": 2486, "\u00fdy": 2487, "\u00a9\u00ba": 2488, "\u00c3V": 2489, "\u00be\b": 2490, "k\u00a2": 2491, "\u00d5\u00bf": 2492, "T\u009c": 2493, "\u00d7\u00b7": 2494, "\u000b\u00da": 2495, "\u00f6u\u00e4u\u00ed": 2496, "\u0097C": 2497, "W}": 2498, "\u00a8\u00af": 2499, "\u0001C": 2500, "Q\u00e1": 2501, "\u009brY": 2502, "\u00c0\u00b5\u00f6": 2503, "\u00cc\u00f7": 2504, "\u0081k": 2505, "\u00d7y": 2506, "\u00d0\u00de\u0092": 2507, "\u00f3\u00c1": 2508, ".s": 2509, "F\u00de\u0095": 2510, "\u001a\u00f2": 2511, "\u00e9\u00b7h": 2512, "\u00ea\u00d2": 2513, "h\u0014": 2514, "fW": 2515, "\u00df\u00dd": 2516, "/\u00f6": 2517, "z\u00ed": 2518, ":l\u00f3": 2519, "\u00d2\u00a2": 2520, "[\u00b4": 2521, "\\\u00e6": 2522, "k\u00ee": 2523, "\nt": 2524, "\u00ee\u00b6": 2525, "\u00f9G": 2526, ">\u008a": 2527, "\u00fb\u00fb\u00fb": 2528, "\u000e\u00bd\u00a2": 2529, "!0": 2530, ":\u00f2:\u00f6": 2531, "\u00db\u00f9": 2532, "x\u00f6": 2533, "\u0086#": 2534, "oJ": 2535, "\u00c6)": 2536, "\u00ce\u0082": 2537, "\u00fb\u00c9": 2538, "\u00c5\u0018": 2539, "^F": 2540, "\n\u00a0": 2541, "n\u007f": 2542, "\rn": 2543, "V\u00a1": 2544, "\u00fa\u00f8p": 2545, "\u00ab\u00ee": 2546, "\u00ea\u008c": 2547, "\u00b7|": 2548, "\u008a\u00bc": 2549, "\u00a6\u00dd\u0090": 2550, "\u00fa$": 2551, "\u00ab\u00fc": 2552, "\u00ba*": 2553, "\u000f\u00aa": 2554, "\u00c1e": 2555, "#\u0010\u00aa": 2556, "\n\u00f0": 2557, "\u00f8\u0003": 2558, "\u009f\u00ec": 2559, "\u00b9|": 2560, "1\u00ef": 2561, "\u0089=": 2562, "Q\"": 2563, "\u008f\u00fb": 2564, "\u0087^\u00d1": 2565, "\u00fe\u00e8": 2566, "4\u00db\u00b0": 2567, "\u0084!": 2568, "\u00a3\u001e": 2569, "\u00aao": 2570, "Dm": 2571, "\u00adj": 2572, "\u001c?": 2573, "\u001e\u00bf[": 2574, "\u00d1\u00e6": 2575, "\u0099)": 2576, "\u00af\u00bb": 2577, "\u00d3\u00f7": 2578, "\u00cc\u00af": 2579, "\u00f7p": 2580, "}\u00e8": 2581, "\u00a0\u00e9": 2582, "B\u00bf": 2583, "\f\u00ae": 2584, "\u009c9": 2585, "<b": 2586, "\u00aby": 2587, "\u00c88": 2588, "\u00959": 2589, "\u00e4\u00dd\u00f4": 2590, "\u0097\u0019": 2591, "[\u009f": 2592, "\u001b\u00d2": 2593, "\u00e9\u00b7j": 2594, "\u0097\u00fc": 2595, "\u00cc\u00b8g": 2596, "\u00eas": 2597, "D\u009b\u00b4": 2598, "EY": 2599, "\u00dcs": 2600, "\\\u00bf": 2601, "\u00c9/\u0099": 2602, "\u00ea\u008d": 2603, "\u007fQ": 2604, "\u00f97i": 2605, "\u0012z": 2606, "\u00f2\u00ba": 2607, "\u00de\u0096": 2608, "N\u00b7": 2609, "[\u00b5\u009e": 2610, "\u00ca\u00fc": 2611, "{\u00f9": 2612, "\u00bdD": 2613, "U\u00b9": 2614, "D?": 2615, "\u00af\u0016": 2616, "\u0094\u00d8": 2617, "\u00e0N": 2618, "e\u0018": 2619, "\u00cd,": 2620, "F\u00de\u009bv": 2621, "\u0099\u00b1]m": 2622, "\u00ff\u00ec": 2623, ">\u0088": 2624, "/\u00e7": 2625, "\u00a3\u001a": 2626, "4A": 2627, "\u00e5\u00f2": 2628, "\u009b/": 2629, "L\u00f7": 2630, "\u001e\u001d": 2631, "=+": 2632, "\u00a9\u00f7": 2633, "\u009c\u00d2\u00ff": 2634, "t\u00db\u00b4": 2635, "\u00b3\u007f": 2636, "\u00d0(": 2637, "\u00a6\u00dd\u00a2": 2638, "M\u00bbz": 2639, "\u008f\u00a1": 2640, "\u00b5F": 2641, "\u00d9\u00e6": 2642, "\u0087S": 2643, "\u0002s": 2644, "\u008f{": 2645, "?\u00e0": 2646, "\u00f6>": 2647, "\u009f\u00bc": 2648, "\u00dd:": 2649, "\u00b7\u008f": 2650, "\u00dc}": 2651, "c\u00c8": 2652, "\u00a8\u0091": 2653, "O\u00bf\u00bf\u00be": 2654, "\u007fg": 2655, "\u0013\r": 2656, "\u007f\u00a1": 2657, "\u00bf\u00ec": 2658, "\u00ee\u0019": 2659, "\u00df\u00e9": 2660, "/\u0087": 2661, "b=6\u00ed": 2662, "i\u00b7`": 2663, "\u008cx": 2664, "\u00f8p": 2665, "\u00d6\u007f": 2666, "\u00aa5": 2667, "\u00de\u00bc\u009c": 2668, "e\u007f": 2669, "M\u00db": 2670, "J\u00e8": 2671, "\u00e1\u0094": 2672, "\u000e\u00fd": 2673, "{\u00ad": 2674, "\u00ff\u0002": 2675, "\u00f5\u00b8": 2676, "eh": 2677, "y%<": 2678, "\u0011\u008a": 2679, "\u008as": 2680, "\u00d3b\f": 2681, "=V": 2682, "@\u00a1": 2683, "\u00ce\u0086": 2684, "O\u00dc": 2685, "VG": 2686, "\r6y": 2687, "\u00bdw\u001e": 2688, "\u00cc\u00db\u008f": 2689, "\u0014\u00eb": 2690, "\u001bzW": 2691, "(v": 2692, "\u008aC": 2693, "\u00ea\u00a0": 2694, " \u00bf": 2695, "\u008cx!'": 2696, "\u00a6\u00e3": 2697, "z\u00e9": 2698, "}\u00fd\u00fd": 2699, "\u00f7}": 2700, "\u00e1\u00ed": 2701, "\u00a7\u00df\u00df\u00df": 2702, "\u00fb\u0080": 2703, "\u00a7\u00de": 2704, "/g": 2705, "\u00af#\u00afh": 2706, "\u00f5\u00e4u\u00ed": 2707, "T#": 2708, "\u00de\u00db\u00c2": 2709, "\u00e7\u00f8": 2710, "~\\": 2711, ":n": 2712, "\u00d3n/": 2713, "\u00af\u00a1": 2714, "i\u00b7%": 2715, "Z\u00fb": 2716, "\u00bb\u00fd": 2717, "aN": 2718, "@\u0082": 2719, "\u00f5\u00cf": 2720, "\u00ce\u00db\u0091": 2721, "%\u00f2": 2722, ":\b": 2723, "\u00cd=": 2724, "\u0094\u00e2\u0096": 2725, "fW\u00c8\u00c3": 2726, "\u000e\u0096": 2727, "sK\u00fd": 2728, "{\u00da": 2729, "\u001fT": 2730, "\u00f5\u0012": 2731, "3b\u00ba": 2732, "\u00bd\u008f": 2733, "\u00de\u00d5": 2734, "\u00afG": 2735, "\u00ef\u00bd\u00f0B": 2736, "D+": 2737, "\u00aa\u00be": 2738, "\u0097\u00fd": 2739, "\u009f\u00f3": 2740, "\u00fap": 2741, "\u0010\u0093\u0097": 2742, "\u00a8\u00f0": 2743, "\u00fc\u00a5": 2744, ")K": 2745, "\u00f2x": 2746, "\u00bf\u00cd": 2747, "\u001dt": 2748, "R<": 2749, "\u00d5\u00f1": 2750, "\u00dcp": 2751, "\u00eb:n": 2752, "w\u0088": 2753, "\u00d4\u0017": 2754, "\u00e4\u0097\u00cc": 2755, "\u00ff]": 2756, "\u00b4\u00d9\u00e7": 2757, ".\u001a": 2758, "\u00b8\u00e7": 2759, "\u00f5d": 2760, "\u00ab_\u00f6": 2761, "\u00b3\u00a6\u00ec": 2762, "\u00d0VO": 2763, "!\u00c7": 2764, "b\u00ae": 2765, "\u00de|": 2766, "\u001e\b": 2767, "xx!'": 2768, "\u008f\u0004$\u00e5": 2769, "D\u0089": 2770, "\u00cf\u001e": 2771, "\u00a9j": 2772, "\u00d1\u008a": 2773, "M\u00d0": 2774, "\u009c\u00f1": 2775, "\u00f1\u0005": 2776, "\u00be\u00f1": 2777, "\u00f2I\u00bb": 2778, "ks": 2779, "\u00b1\u0018": 2780, "\u00e7\u00ba": 2781, "\u0095X": 2782, "\u00ce\u009bv": 2783, "\u00df\u00e6": 2784, "\u0083\u00ca": 2785, "#\u00c9": 2786, "\"\u00e7": 2787, "IN": 2788, "\u00e8\u00b5": 2789, "\u000b/": 2790, "#oM\u00bb": 2791, "G\u009a": 2792, "\u00d1\u00e4": 2793, "\u00abr": 2794, "u\u00ea": 2795, "\u00edU": 2796, "=U": 2797, "\u00fa1": 2798, "\u00d9\u0092\u009b": 2799, "\u007f\u00ae": 2800, "t\u0010": 2801, "\u009a\u00ef": 2802, "\t8": 2803, "t\u00e78": 2804, "\u008fj": 2805, "\u0080\u00a1": 2806, "qJ": 2807, "\u0014\u00e6\\": 2808, "\u008as.": 2809, "\u00f5\u00d6": 2810, "\u00e8j": 2811, "\u00c1b": 2812, "\u00af\u00c0": 2813, "\u008fU\u00de": 2814, "2\u00f9": 2815, "K\u009c": 2816, "#\u0087": 2817, "tx": 2818, "\u0092M": 2819, "z\u008b": 2820, "M\u00ba": 2821, "1P": 2822, "\u009dS": 2823, "\u000eb": 2824, ":7": 2825, "\u00b7\u00f8": 2826, "'8": 2827, "\u00c4$": 2828, "\u00de\u001d": 2829, "\u009d\u0004": 2830, "\u00cc\u00db": 2831, "{\u00bb": 2832, "\u00dc\u00f0": 2833, "\u0017\u00f3": 2834, "3b\u00ba\u00da": 2835, "\u0005S": 2836, "\u001d\u00fd": 2837, "\u001d\u00d5": 2838, "\u00b26": 2839, "\u00fcR": 2840, "f\u00dd\u00fc": 2841, "\u00eas\u009c": 2842, "<\u009c": 2843, "K\u009f": 2844, "pJ": 2845, "w\u00d3": 2846, "\u009d6\u00e4": 2847, "\u00bds": 2848, "\u00d3\u00d1": 2849, "\u00f4\u00a9": 2850, "\u0007v": 2851, "\u00ee\u008f": 2852, "\u008b\u00ff": 2853, "`r\u0086": 2854, "\u00ce_": 2855, "\u00b8\u009e": 2856, "IM": 2857, "\u00a1\u00e4": 2858, "\u00f0\u00a6": 2859, "\u00afh": 2860, "\u001fE": 2861, "'\u00a2": 2862, "^G^\u00de\u00fb\u00df\u0004": 2863, "\u0019^": 2864, "\u00df\u00e8": 2865, "\u00d0t": 2866, "\u00e8\u0014": 2867, "\u00ef\u00f0": 2868, "\u00ecG": 2869, "\u00f7\f": 2870, "\u00b3\u00a6\u00ed": 2871, ":\u001d": 2872, "-[": 2873, "\u00be\u00ed": 2874, "\\g": 2875, ";\u00ba": 2876, "[\u00fc": 2877, "xw": 2878, "p\u00cd": 2879, "\u0005\u00fe": 2880, "\r*": 2881, "\u0082\u0012": 2882, "\t\u00ff": 2883, "\u0087\u001c": 2884, "\u00f2/": 2885, "o\u001e": 2886, "[\u00be": 2887, "\u00ca\u00d6\u00a9": 2888, "a\u0095": 2889, "\u00bc\u0092\u0098": 2890, "K\u00e5": 2891, "\u00fft": 2892, "x\u00e4": 2893, "\u00e3\u0087": 2894, "\u001c\u00c5": 2895, "\u0010\u00e4": 2896, "\u008a\u0085": 2897, "\u001c\u00c4": 2898, "\u00d7\u0092Sx": 2899, "\u00be\bU": 2900, "\u00ad\u00c2": 2901, ".\u0090": 2902, "\u00fa\u00f2": 2903, "\u00ff\u00e7": 2904, "\u00d7-u": 2905, "\u00fe\u0096": 2906, "\u00a4W": 2907, "\u008f<": 2908, "\u00eb\u00bc": 2909, "7\u007f": 2910, "\u009brZ": 2911, "\u00a7\u008f": 2912, "\u009c\u0087": 2913, "\u009f\u00d2\u00f9": 2914, "\u00a7\u00fe": 2915, "\u00d1)\u0098\u00f6": 2916, "w\u00dd": 2917, "\u00efE": 2918, "\nq": 2919, "\u00a7M\u009e": 2920, "K+": 2921, "\u00ffq": 2922, "\u00aeZ\u00fb": 2923, "\u00ae_#": 2924, "\u00f0\u00f0BN": 2925, "\u00c97": 2926, "\u00c0\u0082": 2927, "\u00c4b": 2928, "\u009a+": 2929, "b\u00ad": 2930, "=N": 2931, "~\u00a9": 2932, "\u008d:": 2933, "\u0004!": 2934, "\u009dU": 2935, "\u008cIN": 2936, "1\u00e3": 2937, "\u0013\u0015": 2938, "\u00e4\u0094\u00de": 2939, "\u00dfy\u00e6<": 2940, "\u00f0\u00b5": 2941, "\u00f5\u00f7": 2942, "b\u00e6": 2943, "\u00c4\u00dd": 2944, "\u00f8w": 2945, "H\u00aa": 2946, "\u00fd\u00c7": 2947, "o\u00f4": 2948, "B.": 2949, "\u00eb\u009b": 2950, "6p": 2951, "_C": 2952, "\u0083\u0006": 2953, "%0": 2954, "_Z\u00f4\u00db": 2955, "\u00df\u00e4": 2956, "\u00e4?": 2957, "\u00eb9": 2958, "k\u0097": 2959, "\u00c1\u00e7": 2960, "\u0087<": 2961, "/\u001c": 2962, "S\u00bd": 2963, "\u00a3\u00cf": 2964, "\u00fd\u00c0": 2965, "B\u00a8": 2966, "\u00e8\u0094": 2967, "\u00f8\u0013": 2968, "TT": 2969, "{\u00ec": 2970, ";\u00e0": 2971, "\u001e\u00aa\u00fb": 2972, "1\u001e\u009bv": 2973, "\u00c9M\u00b3": 2974, "1N": 2975, "\u00f9Z": 2976, "TW": 2977, "\u00f5\u00d1": 2978, "\u0007\u009f": 2979, "\u00e5\u009bw": 2980, "!\u00f2": 2981, "\"\u00ff": 2982, "\u00d9t": 2983, "\u00cfF": 2984, "\u0007\u009e": 2985, "\u0088\u00f0": 2986, "\u00a7\u008e": 2987, "s\u00cd": 2988, "J\u00e6": 2989, "]n": 2990, "o]\u00c7": 2991, "\u009b.": 2992, "\u00fc\u0013": 2993, "\u00d5\u00fa\u00ef": 2994, "\u00eb\u00c5": 2995, "y$\u00dd": 2996, "\u0013\u00c7": 2997, "S\u00af": 2998, "W9": 2999, "\u00fa*": 3000, "\n\u00fa": 3001, "B>": 3002, "\u00ea\u00ca1": 3003, "\u00f2:\u00f6": 3004, "\u00d3\u00ff": 3005, "\u009a#": 3006, "\u00a6\u00c4\u001a": 3007, "f\u00dd\u00fe": 3008, "\u00ed_": 3009, "\u0092\u00e7\u00f8": 3010, "\u00fd-": 3011, "\u0014\u00e0": 3012, "\u00fd:": 3013, "\u00e5i": 3014, "g\u00be": 3015, "\u0011\u00e0": 3016, "\u00f0\u00e1\u00df": 3017, "\u0005\u00f2": 3018, "}\f": 3019, "=6\u00ed": 3020, "\\2": 3021, "\u00c1\u00e5\u00d6": 3022, "\u00aeZ\u00d0": 3023, "W\u0087\u0082\u0012r": 3024, "\u009c\u0092\u00f9": 3025, "\nD": 3026, "\u00f7\u00af": 3027, "\u00fc\t": 3028, "\u007f\u0080": 3029, "\u00fex": 3030, "k\u00bf": 3031, "\u00cd/\u00f3": 3032, "Q\u00e78": 3033, "8%": 3034, "\u0001N": 3035, "G\u0080": 3036, "\u00af\u009e": 3037, "\t:": 3038, "$\u00c5": 3039, "\u0002\u0015": 3040, "\"\u0015": 3041, "\u00fau": 3042, "\u00d5-": 3043, "\u009f\u00ee": 3044, "\u00f4H": 3045, "\u00bc\u00fb": 3046, "\u00bc\u0092\u009b": 3047, "C\u00ec": 3048, "\u00e3;": 3049, "W\u00cf": 3050, "qK": 3051, "n\u00fa": 3052, "}\u00fc": 3053, "\u00d5\u0018": 3054, "\u00ef_": 3055, "z\u008a": 3056, "\u009ap": 3057, "\u009b\u0011\u00b7": 3058, "r\u00f8s": 3059, "\u00cd/\u00f4\u00db": 3060, "\u00df\u00dc": 3061, "\u00bb\u00c8": 3062, "\u00dd\u0018": 3063, "<7": 3064, "\u00cd\u00bb\u00fd": 3065, "\u009d\u00b7#": 3066, "g\u009d": 3067, "\u0084z": 3068, "\u001e\u0000": 3069, ",J": 3070, "G\u009c": 3071, "A\u00fe": 3072, "j\u009b": 3073, "\u00b5\u00f2": 3074, "\b\u00a5": 3075, "\u00d5a": 3076, "\u00af\u000f\u0004$\u00e5": 3077, "8\u00a5": 3078, "\u00fdt": 3079, "\u0015\u00f4": 3080, "\u00ca\u00c9": 3081, "\u0095\u00adS": 3082, "\u0095|": 3083, "\u008f\u007f": 3084, "mg": 3085, "\u0083\u000b": 3086, "ev": 3087, "9%\u00f3": 3088, "\u000e\u00a2": 3089, "\u0088}": 3090, "\u0090\u00fa\u00c3\u00cb\u00a4": 3091, "\u00c0\u00c7": 3092, "Q\u0088": 3093, "D\u0016": 3094, "O\u00fc": 3095, "BN": 3096, "\u0019\u00ce\u0019": 3097, "\u00cdw": 3098, "[\u008c": 3099, "\u000e9": 3100, "\u00f4R": 3101, "\u0088\u00c4": 3102, "\u00d7\u0093": 3103, "~\u0004": 3104, "\u00dc\u00ee": 3105, "o\u00f5": 3106, "\u00ff.": 3107, "\u001a\u00b3": 3108, "\u00ef\u000e": 3109, "\u00ab\u00da": 3110, "\u0084R": 3111, "\u0087\u0093": 3112, "\u000f\"": 3113, "\u00d1&": 3114, "\u00d6V": 3115, "b\u0010": 3116, "\u00cc\u00d8": 3117, "4\u00e78": 3118, "!\u0017": 3119, "\u008b\u0084": 3120, "\u00e7<": 3121, "\u00ab ": 3122, "\u00f3%6": 3123, "\u00f0\u00e0": 3124, "/Q": 3125, "\u00dft": 3126, "=\u00f0": 3127, "\u00bc\u00f6": 3128, "_\u00a5": 3129, "\u00fb\u00dd": 3130, "?\u00f9": 3131, "\bU": 3132, "B\u001b": 3133, "T\u0015": 3134, "\u00c2\u0015": 3135, "~\u00e0": 3136, "-\u00d9": 3137, "\u00b2\u001d": 3138, "\u0099\u00b1]l": 3139, "\u009c0": 3140, "\u00ca\u00ce": 3141, "\u00e8\u00f2": 3142, "\u00af\u00fb": 3143, "\u0087\u00c7": 3144, "\u00b3\u00ff": 3145, "\u00d5w": 3146, "=\u0001": 3147, "\u00bc8w": 3148, "\u00a6\u00dd\u0082": 3149, "\u0095\u00fc": 3150, "\u00e9\u00b1": 3151, "^{": 3152, "\u00abB": 3153, "\u001a\u00ce\u009b": 3154, "8)": 3155, "\u00bdq": 3156, "z\u00fa": 3157, "\u00eb\u009f": 3158, "\u00fd\u00d6": 3159, "G\u00aa\u00ef'": 3160, "k\u00cf": 3161, "eM\u00df": 3162, "\u00cd\u00ac": 3163, "\u00f9\u000e": 3164, "\u001e\u00a9": 3165, "b\u00e7": 3166, ",z": 3167, "?\u00d9": 3168, "\u00b7\u00df": 3169, "\u0017\u00bd": 3170, "\u0013\u0012": 3171, "\u0088r": 3172, "\u0089\u0011": 3173, "\u008e\u00f7": 3174, "\u00d7\u0091\u00d7\u00b4": 3175, "y\u001d{E{": 3176, "K\u008c": 3177, "\u00e7\u009b": 3178, "\u00e2\u009c": 3179, "\u00af\u00a7": 3180, "\u000b\u00e4": 3181, "\u00ad\u00c8": 3182, "3%6": 3183, "\u00f7\u00af'": 3184, "=Wy": 3185, "q\u00dd": 3186, "\u00eb\u00e3": 3187, "\u00e6)": 3188, "j\u008d": 3189, "n\u00d2": 3190, "\u001d\f": 3191, "\u00c4\u001b": 3192, "\u00fc\u00b8": 3193, "\u00c7\u0082\u0012r": 3194, "\u0018\u00a7": 3195, "r\u00f8": 3196, "\u00f5\u00f0\u00e1": 3197, "G\u00bdy": 3198, "\u0093\u0014": 3199, "\u0012\u00e7": 3200, "\u001b\u00d2Z": 3201, ">\u00fe": 3202, "\u0000\u00be": 3203, "m\u00c5\u00fc": 3204, "\u00b4\u00ea": 3205, "H-": 3206, "Yx": 3207, "\u00a7\"": 3208, "=t": 3209, "c\u00c9": 3210, "\u0083\u0001": 3211, "E\u00ee": 3212, "k\u00e0": 3213, "G\u00aa\u00be": 3214, "%k": 3215, "[\u00cf": 3216, "\u008aT": 3217, "\u000f\u00bb": 3218, "\u00a9\u00b7": 3219, "\u000e\u0090": 3220, "\u0005_": 3221, "\u0099\u00b3\u00c7": 3222, "\u00faW": 3223, "j\u00c8": 3224, "\u00bd\u00f7": 3225, "\u00f36": 3226, "\u00baW": 3227, "7[": 3228, "\u001al\u00f3": 3229, "\u00ac\u00ac": 3230, "[\u00c7": 3231, "j\u00b0": 3232, "\u00f2n\u00fe": 3233, "\u001f&\u00ef": 3234, "\u000f=": 3235, "\u00d1\u00e0": 3236, "ET": 3237, "\u00b1\u0000": 3238, "M\u00c1": 3239, "S\u00ed": 3240, "\u00caW": 3241, "\u0083\u00cb\u00ad": 3242, "\u00ac\u00ff": 3243, "\u001e]": 3244, "\u0017\u00b8": 3245, "\u00cd\u00a9": 3246, ":\u00a0": 3247, "k\u00ae": 3248, "\u0085\u0018": 3249, "\u0087E": 3250, "|\u009b\u00bf": 3251, "\u009e8": 3252, "]\r": 3253, "S\u0086": 3254, "}\u00e3": 3255, "^}": 3256, "X\u0091": 3257, "\u00e8\u00a3\u0012S": 3258, "\u00e1k": 3259, "p\u00ef": 3260, "\u00fe\u00ac": 3261, "\u008eW": 3262, "\u00ebt": 3263, "\u00d9\u007f": 3264, "\u00c1\u00ce": 3265, "\u001c\u0088": 3266, "n\u00bf\u0090": 3267, "G\u00a1": 3268, "\u00da\u009e\u00fe": 3269, "\u00ae\u008b": 3270, "/\u0092": 3271, "\u009b\u00e9": 3272, "\b\u00f6": 3273, "\u00d0\u00e0": 3274, "\u00f44\u00ae": 3275, "OF": 3276, "k\u0097\u00c8\u00c3": 3277, "\u0011s": 3278, "\u00c9M\u00b5": 3279, "\u00f6\u00b9": 3280, "z{\u0086": 3281, "lF\u00de": 3282, "|\u0082": 3283, "4\u00db\u00b4": 3284, "\u0013\u00f7": 3285, "5\u00d1": 3286, "\u001d ": 3287, "eg": 3288, "K\u00c9)": 3289, "\u008fU}": 3290, "\u00c3R": 3291, "\u00f0\u00e4": 3292, "\u00be\u00f7": 3293, "Y\u00e7": 3294, "{T": 3295, "\u00b1\u00ef": 3296, "\u001c\u008b": 3297, "\u000f\u00a2": 3298, "\u000f\u00ac<\u00ba": 3299, "_\u00eb": 3300, "\u009b\u00fb": 3301, "\u001b\u00da": 3302, "\u00cc\u0094c": 3303, "\u00ebs": 3304, "(\u00f6": 3305, "\u001e\u00a0": 3306, "\u00ad\u00c3": 3307, "\u00c4zm\u00d9": 3308, "\u00ccR": 3309, "\u009f ": 3310, "N\u00af": 3311, "\u00de\u00bb\u008f": 3312, ">A": 3313, "i\u00b7f": 3314, "\u0081\u008f": 3315, "5g": 3316, "\u0099\u00b7": 3317, "\u00f6\u00ba": 3318, "\u00bf\u00be": 3319, "y\u00ff": 3320, "\u0015h": 3321, "z\u00e8": 3322, "\u00a1\u00f2": 3323, "W\u00eb\u00bf": 3324, "w\u00fa": 3325, "\u00de\u00db\u00ce": 3326, "\u0097\u00c3": 3327, "\t\u007f": 3328, "P\u00a2": 3329, "\u00aet": 3330, "\u00c4wG\u00c8": 3331, "\u00e8\u0093": 3332, "\u00bd}\u00ce\u00eb": 3333, "\u00a0j": 3334, "\u00f2\u00f9": 3335, "\u0014c": 3336, "e\u009bw": 3337, "\u00bdw": 3338, "\u0000_": 3339, "\u0081\u0004": 3340, "\u00c9s\u00fc": 3341, "=P": 3342, "R\u00ff": 3343, "d\u001c": 3344, "\u00c9]": 3345, "9O": 3346, "\u00d2\u00f8p": 3347, "B\u008f": 3348, "\"6": 3349, "P\u00ec": 3350, "\u00e5\u00f3": 3351, "\u00e2\u001a": 3352, "\u009d\u00a9\u00ef": 3353, "4\u00ff": 3354, "\u00cf\u00e9|": 3355, "-u": 3356, "\u009b\u008f": 3357, "\u00ac\u00f3": 3358, "8\u00a7": 3359, "\u00bc)": 3360, "@\u0017": 3361, "\u00a6\u00e8": 3362, "\u00eb\u00ee": 3363, "\u0007\u0095": 3364, "\u0087\u00d1": 3365, "b\u00a2": 3366, "S\u00ef": 3367, "\u001fXyt": 3368, "\u00bc\u008e\u00bd\u00a2\u00bd": 3369, "\u00a0R": 3370, "\u00b5\u00e2": 3371, "6\u00ff": 3372, "c\u00c1": 3373, "\u00b4z": 3374, "\u00d3b\r": 3375, "\u00d4R": 3376, "\u0007\u0097[": 3377, "\u0004\u00a7": 3378, "\u00a4U": 3379, "\u008f\u0093w": 3380, "7|": 3381, ";\u00b8": 3382, ">M\u00df": 3383, "Q_": 3384, "\u0092_3": 3385, "\u00c7\u00c9\u00bb": 3386, "\u00f4\u00e7": 3387, "=6\u00ec": 3388, "\u00a0\u00ac\u009e": 3389, "\u00db\u00ea": 3390, "\u0007C": 3391, "\u00beF": 3392, "~\u00bb": 3393, "Y\u00fe": 3394, "s\u0006": 3395, "\u00ab\u00c3\u00c1\t9": 3396, "\t\u00fb": 3397, "\u00dby": 3398, "\u00e0t": 3399, "\u00cf\u00f8": 3400, "~\u00ef": 3401, "\u00be7": 3402, "M\u009c": 3403, "\u00e9~": 3404, "\u00e9_": 3405, "\u00a1\u00a1": 3406, "\u009f\u007f\u007f": 3407, "C\u00e5": 3408, "S\u00d1": 3409, "\u00d1{": 3410, "Lz": 3411, "\u00e4\u00f1": 3412, "\u00de\u00c7": 3413, "P\u00fb": 3414, "\u00d4(": 3415, "\u00bd\u0014bJ": 3416, "V\u00b1": 3417, "\u00bd\u00b7\u0085": 3418, "EB": 3419, "\u008a\u0084": 3420, "\u008a\u009f": 3421, "u@": 3422, "\u008f8": 3423, "\u00c4p": 3424, "\u00c9/\u009f": 3425, "d\u008e": 3426, "\u00dd\u00fa": 3427, "\u0014\u00a9": 3428, "\u00d7-}": 3429, "\u00fb\u00d7": 3430, "\u00b3\u00a6": 3431, "\u00eb\u00f9": 3432, "\u0097\u00ff": 3433, "\u00f0:": 3434, "\u009b\u00ad": 3435, "\u00ca\u00fe": 3436, "\u000f.\u00b6": 3437, "\u00ebp": 3438, "\u00a6\u00dd^": 3439, "\u009as\u009c": 3440, "\u00a3\u0010\u00af": 3441, "\u0097K": 3442, "5\u009d7": 3443, ";\u0092": 3444, "\u00839\u00c3": 3445, "\u009d\u007f": 3446, "\u00d7\u00a8": 3447, "\u00a7\u00cf": 3448, "O\u00a1": 3449, "\u00d2*": 3450, "\u0084\u009d": 3451, "}\u0015": 3452, "\u0087\"": 3453, "LH": 3454, "\u00b7\u00b4": 3455, "`\u009f": 3456, "\u0001)": 3457, "`r": 3458, "\u009b\u0011\u008c": 3459, "\u00c3+Z": 3460, "=\u00d6": 3461, "\u0007u": 3462, "\u00da\u00ce": 3463, "^\u001e": 3464, "R*": 3465, "[\u009d": 3466, "\u0096\u00be": 3467, "\u0088u": 3468, "\u001d\u00f4": 3469, "\u00c7\u0091": 3470, "\u00efK": 3471, "6\u00e0": 3472, "\u00db\u00ed": 3473, "d?": 3474, "\u0083\u00a5": 3475, "\u0083\u00a4": 3476, "\u00bb\u00e9": 3477, "E\u00c2": 3478, "\u00f4\u00db\u00bf": 3479, "1\b": 3480, "i\u00b1\u0006": 3481, "\u00ad\u00d1\u0086": 3482, ";\u00ab": 3483, "#\u00e0": 3484, "\u009b\u00a1": 3485, "2S": 3486, "\u0099\u00ec": 3487, "\u00a8\u0002": 3488, "\u0086\u001a\u00b3": 3489, "\u00d4\u001e": 3490, "\u0005:\u00a4": 3491, "\u00f4^": 3492, "\u000f\u00bd": 3493, "\u00df\u00eb": 3494, "N\u00aa": 3495, "\u00a8h": 3496, "\u001f\u00a2": 3497, "A\u007f\u00ca": 3498, "\u00be\bW": 3499, "\u00be\u00af": 3500, "\u00b3\u00a0": 3501, "/\u00fb": 3502, "\u00d0\u00de": 3503, "\u00ca|": 3504, "\u00e6\u0097\u00fa": 3505, "\u00a6\u00dd\u0081": 3506, "\u00bdu": 3507, "N_": 3508, "\u00db\u00e8": 3509, "\u00e4\u0097\u00cd": 3510, "\u0087\u009f": 3511, "\u00b2\u00b4": 3512, "l\u00be": 3513, "b=6\u00ec": 3514, "\u0019\u0092\u009b": 3515, "\u00d5\u00a1": 3516, "\u00ae\u00fa": 3517, "\u00ab&\u00ed": 3518, "\u00c9\u00bbN": 3519, "g<": 3520, "f\u009d": 3521, "\u00d1k": 3522, "\u009f\u00f0": 3523, "\u0094\u00db": 3524, "\u0007K": 3525, "/\u00f2": 3526, "\u00cb\u00ff": 3527, ":\u00b2": 3528, "\u008d\u00eb": 3529, "\u00fb\u00b5": 3530, "_\u00aa": 3531, "\u0002\t": 3532, "w\u00b1": 3533, "{\u0015": 3534, "\u0099)\u00b6\u009bv": 3535, "Gw": 3536, "\u00d9\u00ce\u001a": 3537, "\u00cf\u009f": 3538, "\u0095\u00c3": 3539, "V\u00e4": 3540, "\u00f0B\u00a8": 3541, "\u00d6m\u00df": 3542, "\u00ac\u00a2": 3543, "z\u00f9": 3544, "y%0": 3545, "\u00b0a": 3546, "\u0087\u00de": 3547, "s\u001e": 3548, "\u00fd\u00d1": 3549, "\u00be\u00e9\u00d5": 3550, "\u00cdE": 3551, "h\u0082": 3552, ":\u00bf": 3553, "\u00c3\u00be": 3554, "\u001b\u00d7q": 3555, "\u00eb\u00e1\u00c3": 3556, "P\u00e3": 3557, "4_": 3558, "\u00ba=": 3559, "P3": 3560, "\u00f3\u00d7": 3561, "#\u00cd": 3562, "\u00ed6\u00ed": 3563, "\u00f2r": 3564, "tT": 3565, "2Q\u008e": 3566, "\u00d8\u00a7": 3567, "\u00a8=": 3568, "\u000b\u00e7": 3569, "\u00ee\u0000": 3570, "\u00b3\u009e": 3571, "\u00a74\u00bf": 3572, "\\'": 3573, "\u009e\u00e3": 3574, "\u0091/": 3575, "\u00ec|": 3576, "U#": 3577, "\u0083\u00bb": 3578, "\u008cB\u00bf": 3579, "\u0005\u007f": 3580, "\u00db\u00fc": 3581, "$z": 3582, "\u00af'": 3583, "\u00c4r\u00ba": 3584, "$\u0094": 3585, "\u00a2\u00a9": 3586, "\u008f\u001a": 3587, "7\u00d3": 3588, "m\u00fe": 3589, "\u00d2<": 3590, "4\u00f7": 3591, "\u00b2\u00fc": 3592, "\u0096\u00bc": 3593, "\u00d3\u0086": 3594, "\u00d8\u00f9": 3595, "5>": 3596, "\u00c3\u00afh": 3597, "\u00bd\u00c7": 3598, "\u009bY": 3599, "o\u00ea\u00cc\u00db}\u00e7": 3600, "k\u00eb": 3601, "J\u00ef]": 3602, "\u00dc2": 3603, "\u008cC": 3604, "\u00ed6\u00ec": 3605, "\u00d3\u00d0": 3606, "c\u0015": 3607, "\u00ce\u00d4\u00f7": 3608, "\u00e71": 3609, "]\u00d1": 3610, "5\u007f": 3611, "\u00ae\u00f9": 3612, "E\u00f0": 3613, "\u00e1\u00af": 3614, "\u0014\u0086": 3615, "\u00f4x": 3616, "Q\u00e0": 3617, "\u00b3=\u00fe": 3618, "\u0095\u0093": 3619, "\u00c3\u00a2": 3620, "\n\u00bf": 3621, "\u00fa\u00e7": 3622, "\u00e2\f": 3623, "\u009f\u00ff": 3624, "Ni\u007f": 3625, "\u00fa\u009d": 3626, "?\u00fe": 3627, "o\u00f0": 3628, "\u00edO\u007f": 3629, "2\u00a6\u00ef": 3630, "\u0006s\u0086": 3631, "\u00bd|": 3632, "\u00bd\u007f": 3633, "\u009e\u00eb": 3634, "\u001fv": 3635, "]\u0015": 3636, "\u00de ": 3637, "\u00a1\u00da": 3638, "\u00efE\u0018": 3639, "\u00b97}": 3640, "\u00car": 3641, "\u00f6\u0086": 3642, "\u00fc\u00ae": 3643, "/$\u00a7": 3644, "\u00de\u008a1": 3645, "L5": 3646, "\u00bd\u0017": 3647, "z(\u00c4\u0094": 3648, "\u00be\bC": 3649, "T\u00f0\u00ea}\u00fd\u00fd\u00f2\n\u0087\u0091y%=y\u001d{{\u00ef|": 3650, "G\u009f": 3651, "\u0094y": 3652, "Z\u00f3": 3653, "\u00ff\u00da": 3654, "}\u00d1": 3655, "\u00e7\u00bf": 3656, "s\u00ce": 3657, "\u00a8\u00f3": 3658, "h\u00bf": 3659, "\u00d4\u001f": 3660, "i\u00b7\u007f": 3661, "m\u00c1": 3662, "\\\u00ee": 3663, "2\u00f3\u00df": 3664, "\u0089\f": 3665, "\bu": 3666, "\u00ae\u00e8": 3667, "_S": 3668, "\u00eb\u00a5": 3669, "\u00de\u00b9\u00a5\u00ff": 3670, "\u00cc\u00db\u00bf": 3671, "y\u00d3n": 3672, "\u00cd/\u00f5": 3673, "+\u00bb": 3674, "\u0098\u00b9": 3675, "f\u00dcz": 3676, "\nuI": 3677, "\u00e7\u00cf": 3678, "\u0011K": 3679, "\u00ad~": 3680, "\u00dbr": 3681, "\u00f6\u00fe\u0004": 3682, "\u00a6\u00c4c": 3683, "=n": 3684, "\u00cb\u00c7": 3685, "\u00e8`": 3686, "\u0080/": 3687, "m\u00c8": 3688, "\u00d0V": 3689, "\u0002\u009c": 3690, "w\u00f8": 3691, "o\u001d": 3692, "G\u00c7": 3693, "o\u00ef": 3694, "kN": 3695, "z\u00fb\u009d\u00d6": 3696, "\u008f\u00b1": 3697, "\u0012-": 3698, "C9\u00c3": 3699, "\u009a\u00fa": 3700, "\u00c39\u00c3": 3701, "\u00f4_": 3702, "!\u001e": 3703, "I|\u00fe": 3704, "\u00af\u00d2": 3705, "EM": 3706, "\u00f4\u0096\u009bv": 3707, "fl\u00f1": 3708, "S\u0099p": 3709, "\u00c5]": 3710, "\f5": 3711, "\u0002\u008f": 3712, "\u00ef'": 3713, "\u00e74": 3714, "Y|\u008c": 3715, "<\u0013": 3716, "\u00a3\u00c1": 3717, "s\u00fc": 3718, "\u00bb\u00e5": 3719, "\u00e6l\u00f3": 3720, "\u00fd9": 3721, "\u000f\u00f8": 3722, "\u0082\u009dR": 3723, "\u00ae\u008a": 3724, "\u0015J": 3725, "\u00cf\u009a": 3726, "}\u007f": 3727, ":m\u00da": 3728, "\u00f5\u00f2": 3729, "\u009b\u007f": 3730, "\u00eb\u009e": 3731, "X\u0094": 3732, "\u0080S": 3733, "\u00cas": 3734, "\u0082\u0091": 3735, "\u00de\u00e8": 3736, "|}": 3737, "7\u008e": 3738, "\u00f2Jo\u001d": 3739, "%\u00cf\u00f0": 3740, "\u0087\u00ca": 3741, "!\u00d4": 3742, "\u00c7\u00af": 3743, "\u00e6$": 3744, "\u008a\u0086": 3745, "\u009f\u00fc\u00ec": 3746, "k\u00eb^\u009bv": 3747, "\u00eb\u00cf": 3748, "1s": 3749, "l\u00be7i": 3750, ":\u00ef": 3751, "\u00a8i": 3752, "\u0095\u00dd": 3753, "\u0099\u00b7\u007f": 3754, "s6+\u00ad": 3755, "\u00df{": 3756, "5\u00fe": 3757, ";}": 3758, "\u00b9\u00d0": 3759, "\u00f5n": 3760, "%3\u001e": 3761, "\u0018\u008fM\u00bb": 3762, "\u00b7\u00fa": 3763, "\u00f9\u00e0": 3764, "\u0087\u00f8": 3765, "H\u009c\u00e1": 3766, "\u0094\u00f3": 3767, " \u00b1": 3768, "\u00ff\u00b8": 3769, "\u00df\u00f9": 3770, "\u00d4U": 3771, "X\u00f5": 3772, "\u000f'": 3773, "f\u00cf:": 3774, "M\u00ba\u00bc": 3775, "u\u009e": 3776, "\u00e4\u00dc": 3777, "U\u0086": 3778, "\u0002;\u00bb": 3779, "\u0012u": 3780, "\u00b8g": 3781, "+\u00ad": 3782, "\u0014\u00f6": 3783, "\u0087\u000e": 3784, "\f5g": 3785, "\u00f1\u00f4": 3786, "\u0004wv": 3787, "^IL": 3788, ">9": 3789, "\u00c4?": 3790, ";\u00dd": 3791, "\u0082\u00ff\u0094": 3792, "5\u00f5": 3793, "\u00b3\u00c6": 3794, "\u00eb\u009c": 3795, "\u00e9\u0015": 3796, "\u00e7\u00fe": 3797, "k\u00fd": 3798, "\u00beM\u00da": 3799, "\u00bb\u00cf": 3800, "\u00ac\u00bf": 3801, "9]": 3802, "\u00cd}k\u00d3n": 3803, "\u00ed\u00fc\t": 3804, "\u00d7-h": 3805, "+\u00a6\u00dd": 3806, "\u00c0\u00ba": 3807, "\u00da\u00a0": 3808, "\u00a1\u00d0": 3809, "\u00e4\u0097": 3810, "n\u00bf": 3811, "|\u00fe": 3812, "e\u00f3": 3813, "\u00b4\u00bf": 3814, "F\u00dc": 3815, "\u00b9M": 3816, "ER": 3817, "\u009b/\u008d\u00da": 3818, "}y": 3819, "\u00c54": 3820, "\u0095\u00d5": 3821, "\u00ac@": 3822, "q\u009c": 3823, "7\u0088": 3824, "\u00efb": 3825, "\u0015H": 3826, "\u009a<": 3827, "xp\u00ef": 3828, "wp": 3829, "+\u00b8": 3830, "\u00d6\u00e8\u00c3": 3831, "\u00f2W": 3832, "\u00ef\u00ba": 3833, "\u00e3\u0091": 3834, "Db": 3835, "\u00a8\u00bd": 3836, "\u001c\u0089": 3837, "\u00f2\u009c": 3838, "Q{": 3839, "\u0083\u00c6": 3840, "\u00de \u00a7": 3841, "F!'*": 3842, "\u000b\u00e6": 3843, "\u0096W": 3844, "t\u00db\u0092": 3845, "\u00e0\u00ee": 3846, "\u009c\u0012": 3847, "\u0089\u00e3": 3848, "\u009d\u0002": 3849, "\u00e8\u0090\u00ce": 3850, "j\u00d2": 3851, "\u00ff\u00b3": 3852, "\u00af\u000b": 3853, "\u00819": 3854, ":u": 3855, "\u00f5\u00f6": 3856, "q\u00ac": 3857, "\u00c6\u00ed": 3858, "t7": 3859, "\u009c4": 3860, "C\u00e4": 3861, "p\u00ce": 3862, "\u00c1\u00df": 3863, "J\u00b0": 3864, "\u0086)": 3865, "5\u00dd": 3866, "\n}": 3867, "\u00fa\u00fe": 3868, "\u00a0y": 3869, "\u00ebr": 3870, "M\u0088\u00c6": 3871, "\u0087}": 3872, "\u00f7\u007f": 3873, "FA": 3874, "\u0016\u00db": 3875, "\u00af\u00a5": 3876, "\u00c4\u0082": 3877, "\u00c1\t9": 3878, "\u009c\u00db": 3879, "\u0097?": 3880, "\u0017\u00b5": 3881, "\u00f4\u00fd": 3882, "S\u00fd": 3883, "\u00c8}a\u00e5": 3884, "\u007ft": 3885, "\u00e9Yx": 3886, "\u0017\u00dd": 3887, ">\u00c5": 3888, "$\u00a6\u00c7": 3889, "\u00d7\u0091\u00d7\u00b7\u00be\u00f7\u00c1\n": 3890, "\u0097\u00f8": 3891, "B<": 3892, "\u00fa/": 3893, "\u00d6_": 3894, "\u00d3n\u00d0": 3895, "Z\u00f9": 3896, "\u00cd\u009e=": 3897, "\u00a8\u00ab": 3898, "\u00a99": 3899, "\\\u00b5\u00f6": 3900, "\u00f47\u00a4": 3901, "{\u00d8": 3902, "m\u00c5\u00fd": 3903, "\u00af\u00b5": 3904, "\u000e\u00fa": 3905, "u\u00fd": 3906, "*\u0083": 3907, "\u00a5r": 3908, "\u00dc\u00e7": 3909, "s\u0098": 3910, "\u0092_?": 3911, "\u0083\u0080": 3912, "\u00a1;": 3913, "F!U": 3914, "\u008d\u0003": 3915, "\u0090\u00f2": 3916, "\\\u00be": 3917, "\u00b2\u000e": 3918, "s\u00d7": 3919, "\u00ab9": 3920, "\u00abP": 3921, "\u00a8\u00aa": 3922, "\u00cbZ": 3923, "\u00ebq": 3924, "j\u00fb": 3925, "V\u00f3": 3926, "\u0006\u009bv": 3927, "+\u009c": 3928, "\u00a8\u00cc": 3929, "!\u00f5\u0087\u0097": 3930, "\u00f9\u0005": 3931, "\u00ce\u0001": 3932, "A\u000e": 3933, "!\u00d0": 3934, "u\u001e": 3935, "\u0084|": 3936, "\u00df\u00f0": 3937, "\u00d9\u0097\f": 3938, "\u00c6\u00ba": 3939, "\u00e4\u0093v": 3940, "\u00c9M\u00b4\u00db": 3941, "\u00b1s": 3942, "\u0012\u009e": 3943, "\r\u0003": 3944, "\u00b4H": 3945, "\u00fb\u00b7": 3946, "\u009dY": 3947, "\u00f5\u0014": 3948, "\u00b1\u00f2": 3949, "?\u00df": 3950, "*\u0095": 3951, "\u00ab\u00f5\u00df": 3952, "\u00e8\u00c5": 3953, "\u0087\u00d6": 3954, "\u00f5\u00bb\u00fd": 3955, "N\u009b<": 3956, "\u0083\u00ba": 3957, "\u0014\u00ae": 3958, "\u0019\u007f": 3959, "Z\u00dc": 3960, "}w": 3961, "B\u0015": 3962, "\u00a0\u00aa": 3963, "J\u009f": 3964, "\u00c8'": 3965, "\u00a6\u00dc\u001d": 3966, "\u00b2\u00cd\u00bb": 3967, "\u00f0\u00f3": 3968, ":\u00ac": 3969, "\u00f5\u00cd/\u00fb": 3970, "\u001dD": 3971, "\u00adg": 3972, "3n\u00ff": 3973, "b\u008c": 3974, "t\u00db\u00b0": 3975, "8g": 3976, "S\u00d0": 3977, "\u00bc\u00f9": 3978, "Z\u00f2": 3979, "\u0089\u00ac": 3980, "\u009as": 3981, "\u00fd\r": 3982, "i\u00b7h": 3983, "\u00be\u00b5": 3984, "\u00da\u00f2": 3985, "\u00cd*": 3986, "w[": 3987, "\u0002\u001d": 3988, "\u00efo": 3989, "\u00a2M\u00da": 3990, "w\u00a2": 3991, "{\u00e1": 3992, ";S\u00df": 3993, "\u00f5\u00d9": 3994, "\u001fC": 3995, "\u00d2\u00be": 3996, "!\u00a7": 3997, "\u00af4": 3998, "\u009c\u00e7": 3999, "{\\": 4000, "\u00c5\u00ec": 4001, "\u00bb}": 4002, "\u001f\u00e0\u00e3": 4003, "_v": 4004, "9}": 4005, "R9": 4006, "\u00f0;": 4007, "k\u00ba": 4008, "i~": 4009, "@\u00f3": 4010, "ok": 4011, "\u00eb\u00db": 4012, "\u0004\u00bf": 4013, "\u00c3\u00db": 4014, "\u00f4(": 4015, "\u00bfp": 4016, "\u0012*": 4017, "\u00d8\u00f0": 4018, "B\u008b": 4019, "\u00af#\u00afo}\u00ef\u0082\u0015": 4020, "\u00d7\u00f2\u001cp)\u00f3\u00fc": 4021, "o\u00f8l\u00baA": 4022, "\u0012\u0094": 4023, "\u00df\u00e3": 4024, "\u0082\u00af": 4025, "C\u009e": 4026, "\u00c4\u0002": 4027, "?\u00c0": 4028, "Ua": 4029, "\u00e2\u0094": 4030, "2\u00b5\u00a6\u00dd": 4031, "h\u001e": 4032, "C\u00eb": 4033, "\u00fe\u00bc": 4034, "\u00d5\u0007": 4035, "\u009a_\u00e7": 4036, "\u00faT": 4037, "\u00ada": 4038, "\u00cf\u0090": 4039, "\u0014\u0089": 4040, "\u00cft": 4041, "AW": 4042, "*\u00b0": 4043, "\u00cc\u0091": 4044, "0\u008d\u00bc": 4045, "\u00d1&\u00ed": 4046, "\u00d5\u00f5": 4047, "\u0089\u001f": 4048, "c\u00c1\t9": 4049, "\u00bfK": 4050, "\u00aa\u00c3": 4051, "\u001a\u00f3": 4052, "\u00de\u00df\u00c0": 4053, "n\u00f8": 4054, "\u00d1p": 4055, "\u008ci": 4056, "\u0019\u00a5\u00fe": 4057, "\u009e>": 4058, "\u00d1\u00e78": 4059, "@\u00ae": 4060, "\u0012\u0019": 4061, "oo": 4062, "\u0086\u00bc": 4063, "n\u008c": 4064, "x!'": 4065, "\u00fb\u00da": 4066, "&=": 4067, "\u00b1\u00e1": 4068, "\u00cc^": 4069, "\u000e\u00f7": 4070, "\u001d\u00ee": 4071, "\u0005\u00ff)": 4072, "\u0018\u00f2": 4073, "^IM\u00e3": 4074, "\u00f5\u00f7;\u00ac": 4075, "\u00149": 4076, "i\u00b7j": 4077, "w\u00d5": 4078, "\u00ecT": 4079, "\u0080\u008b\u009c": 4080, "!\u0017\u00bb": 4081, "\u0089W": 4082, "\u0081\u001bz": 4083, "\u00e9\u00b7k": 4084, "\u00cf\u0016": 4085, "s\u00f8\u001d": 4086, "\u00c0\u00b5": 4087, "d\"": 4088, "cV": 4089, " \u00e0": 4090, "\u0099_#\r": 4091, "\u00ab\u00ea": 4092, "\u009c\u00be": 4093, "\u00d7t": 4094, "Y\u00b7|": 4095, "3\u00df\u00ec": 4096, "\u008b\u00fc": 4097, "\u008b\u00fd": 4098, "\u00b6\u00e4": 4099, "\u00bd\u0014": 4100, "\u00eb\u00fd": 4101, ":<": 4102, "!\u00fe\u000e9": 4103, "-\u00b6": 4104, "ES": 4105, "\u0007\u0000": 4106, "\u008aR": 4107, "^\u001e\bI": 4108, "xn": 4109, "\u0012\"": 4110, ";\u00ef": 4111, "T\u00e1": 4112, "\u00e8}": 4113, "\u00de\u008b\u00f3": 4114, "A\u00e5": 4115, "p\u00ea": 4116, "\u0017\u00ba": 4117, "D\u00f7": 4118, "z/\u00cd": 4119, "\u00dc\u0012\u008e": 4120, "s\u0084": 4121, "\u00197i": 4122, "\u0016\u00f6": 4123, "\u00058": 4124, "\u0083\u009c": 4125, "\u00f4\u00d8": 4126, "#\u00bb": 4127, "\u008cH": 4128, "\u00d4\u00e6": 4129, "\u00f97\u007f": 4130, "T\u0001": 4131, "\u007f\u00e7": 4132, "\u00e0\u0084\u009c": 4133, "\u0088\u00f4\u00db\u00b5": 4134, "\u00a7\u0002": 4135, "\u00ac\u00db\u00bf": 4136, "+\u00b5": 4137, "5\u00f5\u00afM\u00bb": 4138, "\u00d2\u00ca": 4139, "\u00db\u00c7": 4140, "3\u009c3": 4141, "\u008b\u00e1": 4142, "$\u00be\u007f": 4143, "\u0012\u0019\u00da": 4144, "M\u00bc": 4145, "\u00a6\u00c4\u0019": 4146, "\u00caw": 4147, "\u0014\u00ea\u0093": 4148, "\u0090\u007f\u00c9": 4149, "z\u00ee=": 4150, "\u00e2=6\u00ed": 4151, "\u009b\u00ff<": 4152, "*\n": 4153, "T\u008c": 4154, "s\u00dd": 4155, "\u00fa\u00b5": 4156, "S\u00bdy": 4157, "\u00c2\u008f": 4158, "J\u00e7": 4159, "b\u009c": 4160, "\u00f7\u00b5": 4161, "Jm": 4162, "{\u00d7\u0093": 4163, "\u0084\\": 4164, "\u00d3b1": 4165, "\u00b3\u00c8": 4166, "Ow": 4167, "\u00cd\u0096": 4168, "\u00bf\u00a8\u00f6": 4169, "\u00b9.": 4170, "\u007f\u00e4": 4171, "Z\u0011": 4172, "m\u00f5\u00f1\u00bb": 4173, "\u00ad\u00d2": 4174, "G\u0082": 4175, "\u001c\u00ae": 4176, "\u00a7V": 4177, "\u0087\u00b5": 4178, "\u00e3\u00e8": 4179, "?\u00f2": 4180, "j}": 4181, "gM\u00da": 4182, "\u0004z\u00fdn": 4183, "N\u00df": 4184, "\u00a5X": 4185, ",\u0018": 4186, "\u00aa\u00a2": 4187, "i\u00c3": 4188, "{C": 4189, "V^": 4190, "5\u00e6": 4191, "\u0010\u0087": 4192, "Z\u00b5": 4193, "\u0010\u00fa": 4194, "D\u00c5": 4195, "\u00bc\u0092\u009b\u00c7": 4196, "*xu>\u00fe\u00fe\u00f9\u0005C\u00c8\u00bc\u0092\u009e\u00bc\u008e\u00bd\u00bd\u00f7": 4197, "\u0095\u0097\u008d": 4198, "\u00df\u00d5\u0099\u00b6\u00fb\u00cf": 4199, "\u00f0\u00e7": 4200, "\u0081\u001b": 4201, "\u00a0\u00f7": 4202, "d\u0097\u00cd": 4203, "\u009b}|n": 4204, "\u00ea\u00fd": 4205, "\u00c89": 4206, "\u00e4a": 4207, "\u0095o": 4208, "]-": 4209, "\u00de\u00c2": 4210, "+Zm\u00d8": 4211, ",\u00beF": 4212, "i\u00b3\u009e": 4213, "\u008d\u001a": 4214, "\u00f4\u00e6": 4215, "\u00ebw\u00fb": 4216, "\u00f5\u00fe": 4217, "\u00b3\u009c5": 4218, "\u00f2Jo": 4219, "\u000e\u00ea": 4220, "h\u0010": 4221, "G\u00aa'": 4222, "\u001d\u00fc": 4223, "d\u0097": 4224, "\u00b9\u001e": 4225, "\u00e4\u00dd\u00fc": 4226, "_\u00ce": 4227, "O\u0018": 4228, "'\u00ee": 4229, "r\\": 4230, "\u0084x": 4231, "\u00f1N": 4232, "_\u00e0": 4233, "\u00b7\u0019": 4234, "\u0014:": 4235, "C\u00eb\u000f.": 4236, "\u00ee\u00ff": 4237, "\u0017\u00ae": 4238, "\u001d\u00f2": 4239, "\u0082\u00cb\u00e4a": 4240, "%)": 4241, "\u00c8$": 4242, "\u00e8\u0010": 4243, "\u00b9~": 4244, "\u00c9t": 4245, "\u00db\u00ec": 4246, "\u00e2k": 4247, "\u0082\u00ff": 4248, "\u00d6r": 4249, "\u0017\u00cf": 4250, "\u0011\u00e1": 4251, "G\u00b5": 4252, "\u00a6\u00df\u00ee": 4253, "\u00e9\u00ee\u0019": 4254, "\u0007T\u009c": 4255, "\u001aT": 4256, "'\u00fb": 4257, "\u0097\u00fe": 4258, "\u00a0\u00bf": 4259, "*\u0014": 4260, "\u0098\u00bd": 4261, "\u001c\u008a": 4262, "\u0091Q": 4263, "\u0089K\u00fd": 4264, "\u0005\u00fc\u0083\u001e": 4265, "N\u008d": 4266, "\u00b0\u00ca": 4267, "k\u00c5": 4268, "{]": 4269, "M}": 4270, "\u00f5\u00e7": 4271, "7\u00fa": 4272, "\u00bf\u00d2": 4273, "\u00d4\u00fb": 4274, "\u009c\u00ee": 4275, "\u00897": 4276, "\u0088\u00f4": 4277, "\u00e8\u00b9": 4278, "Y\u00ff": 4279, "LF\u00de": 4280, "\u00cc\u00bc\u00f7": 4281, "\u00fb\u00fa": 4282, "yu": 4283, "\u00cd\u00bf": 4284, "\u00a1\u00bd%": 4285, "H'": 4286, "\u00c6\u001a": 4287, "Y\u00e2": 4288, "9\u0097\f": 4289, "\u0099\u00b1O": 4290, "\b%": 4291, "W\u00d2": 4292, "\u0013\u00dd": 4293, "T\u009d": 4294, "y\u00e0": 4295, "\u00bcAO": 4296, "+\u00c2": 4297, "\u00e2\u0090": 4298, "g\u008b": 4299, "\u00ca\u00ac": 4300, "\u00880": 4301, "\u00e6\u00dc": 4302, ":\u00a2": 4303, "\u00f5\u00fd": 4304, "\u008f0": 4305, "S\u00e1": 4306, "\u00b7=": 4307, "\u00f9\\": 4308, "\u0097\u0088": 4309, "D\u00a6c": 4310, "f\u00dd\u00fd": 4311, "u\u00de": 4312, "n\u00ff": 4313, "\u001au": 4314, "\u0082J1": 4315, "3b\u009e": 4316, "\u00d1\u0005": 4317, "2\u00e0": 4318, "\u00d3\u0093": 4319, "\u00c9\u00d5": 4320, "\u00e8\u00bf6": 4321, "\u00a7\u000f": 4322, "\u00fb\u00e0": 4323, "\u00f4C": 4324, "\u00fa\u00f3": 4325, "\u007f\u007f": 4326, "\u00ed\r": 4327, "\u008b\u00de": 4328, "E\u00a2": 4329, "\u00a5e\u00e3": 4330, "\u00eb\u00f9\u000e8\u0014\u00f9\u00fe": 4331, "EE|": 4332, "\u00ea\u00c8": 4333, "y\u00ce\u001a": 4334, "*\u00de": 4335, "\u00bd=\u00c3": 4336, "W\u00df": 4337, "\u00f5\u00c4m": 4338, "\u00b3\u001e": 4339, "\u0010\u00eb": 4340, "E\u00fe": 4341, "\u00b7}": 4342, "\u008d\u00da": 4343, "M\u00fd": 4344, "\u00e3V": 4345, "\u00d2\u00bc": 4346, "\u00eb\u00e0": 4347, "oK": 4348, "9\u00a5\u00fe": 4349, "\u00bdsK\u00fe": 4350, "d\u0097\u00cc": 4351, "\u00d7\u00f4": 4352, "!\u00c8": 4353, "J\u00ee": 4354, "\u00f5\u00ce": 4355, "\u0016_#": 4356, "f\u00fe": 4357, "|\u00ae": 4358, "\u00a2\u00aa3": 4359, "\u00ed\u0012": 4360, "2G": 4361, "{~\u00ba": 4362, "\u00d7\u00d0": 4363, "\u00ac\u008d": 4364, "o\u00bc": 4365, "\u0083\u009e": 4366, "\u008c\u009b\u00b4": 4367, "\u00978": 4368, "2\u00b4": 4369, "1H": 4370, "\u00ea\u00ca": 4371, "\u009d\u00be": 4372, "g\u009c": 4373, "zKM\u00bb": 4374, "b\u0001": 4375, "G\u00d8": 4376, "%/\u00f4": 4377, "k\u00e5": 4378, "\u008f]": 4379, "\u0082\u009f": 4380, "\u00e6W": 4381, "{\u00ee": 4382, "\u00b4>": 4383, "/\u00e4": 4384, "zp": 4385, "\u00c0\u00ec": 4386, "\u00d3\u0087": 4387, "\u00ad\u00d1": 4388, "\u00cb\u0080": 4389, "\u0004$": 4390, "\u001d\u00d1\u00f2\u0004m": 4391, "\u00a4\u00aex": 4392, "AN\u00a9": 4393, "(\u0094": 4394, "\u00a0\u00a7T": 4395, ")\u00e8": 4396, "Q\u00fa": 4397, "\u000f\u00f4": 4398, "\u00de\u008a": 4399, "W\u00f3": 4400, "\u009e\u008b": 4401, "\u001f\u007f": 4402, "UC": 4403, "\u00f4_\u009b": 4404, "\u00df\u00db": 4405, "Eb": 4406, "\u00de\u008e": 4407, "E{": 4408, "\u00b6\u00db": 4409, "\u00af\u000b]": 4410, "\u00d7\u0091\u00d7\u00b4W\u00b7": 4411, "\u00e87": 4412, "*}": 4413, "\\\u00f3": 4414, "\u00ba\u00ca": 4415, "\u00d5\u00f7": 4416, "\u00b7~": 4417, "\u00b3n\u00f8": 4418, "\u00a3\u00d3": 4419, "n3": 4420, "\u0087\u00f9": 4421, "\u00efJ": 4422, "M\u009ep": 4423, "\u009c4\u00db": 4424, "u\u00ce": 4425, "\u00ecH": 4426, "m\u00f7": 4427, "\u00ed6y": 4428, "\u00d2U\u00f6": 4429, "\u00abt": 4430, "\u00d6\u00e7\u00fc": 4431, "w\u0091": 4432, "\u00882": 4433, "\u0089|": 4434, ",\u00bf": 4435, "T\u00dd\u00fd": 4436, "\u00b5}": 4437, "\nE": 4438, "\u0002\u000b": 4439, "\u00e8\u00c4": 4440, "\u0002\u0086": 4441, "\u0092_5": 4442, "\u00cf\u001a": 4443, "\u00aa\u0000": 4444, "\u0086V\u00b5": 4445, "@\u008d\u00bd": 4446, "\u0089\f\u00ec": 4447, "e8\u00a5": 4448, "\u00b2\u001f": 4449, "\u00aa4": 4450, "\u00a0\u00a7": 4451, "\u00c1%\u0018": 4452, "\u00b9\u0018": 4453, "\u00a2\u00e8": 4454, "eV": 4455, "\u001d\u00dc": 4456, "\u00f44\u00db": 4457, "\u009e\t": 4458, "\u007f\u00ba": 4459, "<A": 4460, "\u0092\u00b9\u00e3": 4461, "T\u001c": 4462, "\u00e4_": 4463, "\u00cf\u00a2": 4464, "=\u00ff": 4465, "\n\u0005": 4466, "N\u00f6": 4467, "\u00d7\u00fc": 4468, "E\u00ff": 4469, "\u00f7\u00a8": 4470, "\u0095\u00cd": 4471, "\u00dc\u00a6": 4472, "c\u00e4": 4473, "x\u00e0": 4474, "QK": 4475, "\u00f7o": 4476, "<u": 4477, "\u00fdS": 4478, "[\u00a3": 4479, "\u00bfT": 4480, "\u00c1\u0080": 4481, "\u0089\u0089": 4482, "\u00ea%": 4483, "\u0082Q\u00df\u0004": 4484, "P\u008e": 4485, "\u00c0\u00be": 4486, "|\u0013": 4487, "1V": 4488, "\u0095\u000e": 4489, "\u00a4C": 4490, "\u00a2\u00ffo": 4491, "\u0014\u008a": 4492, "\u000ep": 4493, "d<": 4494, "?\u00d0": 4495, "\u00e8\u00bf": 4496, "\u00efm\u00e1": 4497, "M:": 4498, "\u00f7\u00f5\u001e": 4499, "\u009es": 4500, "\u0089\u001by": 4501, "\u0092\u00e9": 4502, "\u0081|": 4503, "\u0084^\u00ee": 4504, "\u0001\u00d0": 4505, "oO": 4506, "\u00d1V": 4507, "\u0099_#\f": 4508, "nG": 4509, "\u008ai": 4510, "6\u00b3": 4511, "\u00cc\u00bc": 4512, "\u008e\u009c": 4513, "7\u00f5": 4514, "LR": 4515, "S\u00e0": 4516, "*\u0081": 4517, "\u00d3\u00bdy": 4518, "\u0097\u00f5": 4519, "\u00af\u00cb": 4520, "r\u000f\u00f9": 4521, "\u000e\u0004": 4522, "\u00cb\u00e0": 4523, "a\u00ed": 4524, "\u000f\u0010": 4525, "Y\u00e0": 4526, "\u0015>": 4527, "\b\u00f8": 4528, "\u00df\u007f": 4529, "4\u00a9": 4530, "1_": 4531, "\u00cc\u0094\u00dbM\u00bb": 4532, "\u007f\u00bd": 4533, "\u00be\u00fd": 4534, "\u00b3\u00c5": 4535, "\u0005\u00ba": 4536, "Yk": 4537, "\u009dA": 4538, "\u00ab\u00be": 4539, "\u00f5\u00e5": 4540, ".\u007f\u0086": 4541, "[\u00d1": 4542, "\u00e6\u00fe\u00ac\u00cd\u00b7\u00de{": 4543, "E\u00ec": 4544, "\u00eb\u00db\u00df{\u00e0\u0085": 4545, "\u008cIO": 4546, "\u0010\u0087\u00b7": 4547, "=z": 4548, "{^": 4549, "d\u0016": 4550, "\u0019O": 4551, "\u00dal\u00f3": 4552, "\u00bd\u00bf": 4553, "\u00e9\u00ff": 4554, "\u00a6\u00dd\u00a0": 4555, "\u00ca\u00d6\u009bp": 4556, "P)": 4557, "\u00e26": 4558, "_~": 4559, "\u00df\u00d5": 4560, "\u00ea\u00fdw": 4561, "\u001f ": 4562, "\f\u00cf\u007f": 4563, "\u00c5*": 4564, "G\"": 4565, "\u009a=": 4566, "\u00d5i": 4567, "7\u00c7": 4568, "\u00ae_#\f": 4569, "6\u00fa": 4570, "\u00c8\u00f0": 4571, "\r\u001a": 4572, "\u00b8N": 4573, "\u0015\u00c3": 4574, "G\u00d0": 4575, "\u00f4\u00beN": 4576, "Nm": 4577, "C\u00fd": 4578, "\u0007\u008d": 4579, "\u00af\u00b4": 4580, "\u00ear": 4581, "\u00919\u00c3": 4582, "w\u00fc": 4583, "\u00fc2": 4584, "\u00f9\u00ff": 4585, "\u00bc\u0092\u009e": 4586, "^IO": 4587, "\\\u00fe\u0007": 4588, "\u00aa\u00dc": 4589, "z\u00ca": 4590, "\u00e9\u007f": 4591, "V\u00b4\u00db\u00b3": 4592, "h\u00aa\u008c": 4593, "\u0092\u009b\u001e": 4594, "\u0086i\u007f": 4595, "\u007f\u00b8": 4596, "\u00ba\u00c5\u0018": 4597, "\u00cc\u00b8`": 4598, "\u008a\u00a4": 4599, "R\u00a7": 4600, "\u00ac\u00b1": 4601, "\u0005o\u0018": 4602, "W\u00b7": 4603, "\u00c4\u00c5": 4604, "\u00d8j": 4605, "E\u00fd": 4606, "^h": 4607, "\u0091\u0090": 4608, "\u00c3\u00a9": 4609, "1#": 4610, "\u00d3\u00ef\u00ef\u00ef": 4611, "\u0010\u00ea": 4612, "\u0012u\u00e4\u0094\u00de": 4613, "\u00f5\u00f0": 4614, "1\u00e6": 4615, "\u0018\u00f3": 4616, "(q": 4617, "\u00eb\u00c3": 4618, "\u00f0\u00e8": 4619, "\u00b7F": 4620, "\u009d\u00dc": 4621, "\u00af\u00be": 4622, "\u00a2\u00e7": 4623, "\u001am\u00da": 4624, "\u00cd8": 4625, "\u00b1!": 4626, "~]": 4627, "\u008f\u0080": 4628, "\u00ee\u0018": 4629, "|\u008c": 4630, "\u00e0\u0095": 4631, "\u001e}": 4632, ";\u00d3": 4633, "\u00aa\u00b5": 4634, "\u00d6\u00ec\u00cb\u0086": 4635, "\u00e2\nz": 4636, "\u00f1\u00a6": 4637, "u\u008a": 4638, "C;": 4639, "\u00d6\u00e1": 4640, "/]": 4641, "\u0083\u00b8": 4642, "\u00fa\u001b": 4643, "\u00f4\u00db\u00b0": 4644, "\u00eb\u0095": 4645, "\u009d*": 4646, "'\u00ba": 4647, "o\u00a1": 4648, "^#": 4649, "\u0094\u00f8": 4650, "\u0096{": 4651, "\u00fas": 4652, "A\u00c3": 4653, "\u0089J": 4654, "\u00f4\u0005": 4655, "{z": 4656, "\u00814": 4657, "\u00c4\u00a5": 4658, "\u00c1\u00c7": 4659, "\u00d2\u00f9": 4660, "\u0004\u0012": 4661, "\u00b2K\u00e6": 4662, "w!": 4663, "i\u00a2": 4664, "\u00d7~": 4665, "\u00f2\u0095": 4666, "\u00ac\u00bc": 4667, "=\u00c7": 4668, "\u001c\u00c7": 4669, "\u00fb\u0098": 4670, "\u00d80": 4671, "j\u00ca1": 4672, "+\u00d4": 4673, "_\u00c81\u00ea": 4674, "\u00a7\u00a3\u00c8YO": 4675, "\u007fVf\u00db\u00ef=": 4676, "VA": 4677, "\u0006\u00fb": 4678, "&(": 4679, "W\u00e0N": 4680, "\u00d4|": 4681, "\u0011\u0011": 4682, "\u00c8-": 4683, "N\u001a": 4684, "\u0012b": 4685, "15": 4686, "\u00b1\u001e\u009bv": 4687, "\u00f5F": 4688, "\u00b5\u00f0": 4689, "4\u00bf\u00d3n": 4690, "\u00d3o\u00f7": 4691, "\u009a_\u00e9\u00b7": 4692, "\u00aep": 4693, "\u00f1K": 4694, "l\u00f2": 4695, "\u00d2\u00c1": 4696, "\u00ae\u007f\u0003": 4697, "\u00a79": 4698, "\u0015\u007f": 4699, "G\u009b": 4700, "[\u0084": 4701, "\u0015@": 4702, "\u00d4\u00e7": 4703, "s\u00c4": 4704, "\u009e*m": 4705, "wW\u00d0": 4706, "\u00b5n": 4707, "<k": 4708, "\u00c7\u0082\u0015": 4709, "\u00fa\u00b7": 4710, "\u00b2\u009f": 4711, "\u00d7+": 4712, "\u00f1\f": 4713, "?+": 4714, "S\u0081": 4715, "@\u008d\u00bc": 4716, "\u00de\u00bc\u009d": 4717, "4\u00e1": 4718, "\u00b2n": 4719, "\u00aeZ\u00eb": 4720, "3\u009c5": 4721, "j\u0083": 4722, "\u0004\u00ff": 4723, "\u00bf.": 4724, "\u00b9\u00c8": 4725, "\u00c1\u0087": 4726, "\u00ca\u00d6\u00e7": 4727, "w%": 4728, "\u00f7\u0086": 4729, "=y": 4730, "\u00d3E": 4731, "\u00bcA": 4732, "\u0004b\u0015": 4733, "\u00afu": 4734, ">\u008b": 4735, "\u00f6$": 4736, "<:": 4737, "\u001c9": 4738, "\u00f7\u00a3": 4739, "\u00ecC": 4740, "\u001f\u001f": 4741, "\u00ef\u0086W": 4742, "~\u009c\u0001": 4743, "+\u00fe": 4744, "\u00ac\u009e": 4745, "\u0085P": 4746, "bk": 4747, "\u0090\u008b": 4748, "\u00c7\u0082": 4749, "\u00f2\u001f": 4750, "VM\u00da": 4751, "\u008f_\u00ad": 4752, "{U": 4753, "\u00d6\u00ef\u00f6": 4754, "\u00e4\u001f": 4755, "\u00b3\u00fd": 4756, "\u00bf\u00dc": 4757, "\u00e4\u00dd\u00fd": 4758, "\u00e5<": 4759, "\u00d2U": 4760, "!U": 4761, "Jz": 4762, "\n\u00a7": 4763, "w\u00a4": 4764, "i\u00b7k": 4765, "\u00e2\n": 4766, "f\u00c5\u001e": 4767, "\u00d7\u00d6\u00bc": 4768, "Y\u00d3": 4769, "s\u00d0": 4770, "\u00b3\u00fe": 4771, "\u009b\u00c7": 4772, "7\u00ae\u00e3": 4773, "\u00b1N": 4774, "%\u00fe": 4775, "\u00c3U": 4776, "b\u0090": 4777, "\n{": 4778, "\u00dc~": 4779, "\u00eds": 4780, "\u0099(\u00c7": 4781, "\u00b7#": 4782, "\u00e9f": 4783, "M\u009es": 4784, "\u0014\u00e7": 4785, "\u00d5\u00bc;": 4786, "\u00f4\u00f7\f": 4787, "9\u00ce": 4788, "\u00e5d": 4789, "\u00cay": 4790, "\u00b9\u00e4\u0094": 4791, "\u0090\u00f9": 4792, "\u009d}": 4793, "K<": 4794, "\u00be\u00ee": 4795, "\u00dd\u00f7": 4796, "\u0088\u0088": 4797, "D\u00a2": 4798, "\u00d0\u008e": 4799, "}\u00c7": 4800, "\u001b\u00e6": 4801, "\u00d1~l": 4802, "\u00a4\u00c7": 4803, "_\u00c8q\u00c0\u00a7\u00cf\u00f0": 4804, "^\u0017\u00c3": 4805, "\u00d7\u00d6": 4806, "+Zm\u00db": 4807, "_\u0002": 4808, "\u00a8/": 4809, ";|": 4810, "\u00ae\u00b2": 4811, "\u0083\u00fc": 4812, "\u009c2": 4813, "\u00d3o": 4814, "\u00ba0": 4815, "t\u00db\u00b3": 4816, "W[": 4817, "\u0086v": 4818, "h\u0091": 4819, "k6\u00ef": 4820, "\u00b4\u00db\u0092": 4821, ";\u00c3": 4822, "\u00af\u00ad": 4823, "C\u00cfQ+": 4824, "\u0089L\u00c7": 4825, "\u00f5h": 4826, "#\u00cc": 4827, "\u00e0\f": 4828, "<\u0001": 4829, "5\u0017": 4830, "\u00821\n": 4831, "uk": 4832, "\u00dfv": 4833, "\u00db\u00f8\u0013": 4834, "\u00f3\u00ed": 4835, "F\u00da": 4836, "d\u00dd\u00a7": 4837, "8v": 4838, "\u009e1K": 4839, "\n\u00f1": 4840, "_\u00e9": 4841, "\u00b5\u00bc": 4842, "\u00a7/": 4843, "\u001d:": 4844, "\u0089]": 4845, "l\u00bf": 4846, "\u00a9/": 4847, "g\u00a1": 4848, "\u00b1\u001c": 4849, "\u00c8\u007f\u0083\u008e": 4850, "U\u00f7": 4851, "\u00ff\r": 4852, "6\u00f1": 4853, "h\u0090\u00ce": 4854, "\u009b\u00fa": 4855, "I\u00b8": 4856, "\u00b4\u00fd": 4857, "\u00a1\u00d9": 4858, "^\u00bc": 4859, "\u0004b": 4860, "Y|\u000e": 4861, "_\u00d3": 4862, "\u009a\u00ff": 4863, "\u0019Z\u00d5": 4864, "Cz": 4865, "\u00f4\u00fb\u00fb\u00fb": 4866, "\u0095a": 4867, "?x": 4868, "\u00f1\u00e3": 4869, "\u00e1\u00da": 4870, "1'": 4871, "Xe": 4872, "\u00ed\u00fd": 4873, "\r\u00df": 4874, "^IM": 4875, "Vy": 4876, "+/": 4877, "\u00f4Z": 4878, "\u00aa\u0002.p": 4879, "\u000e\u00bd\u00bd\u00f7": 4880, "\u00b5\u00e4u\u00ed": 4881, "\u00fa\u00a7": 4882, "\u00c7\u00bd": 4883, "\u007f+\u00bc\u008c\u00f9\u00fe": 4884, "\u00a0\u00bf\u00e5": 4885, "\u00e4>\u00b0\u00f2\u00e9": 4886, "\u0016\u00bc": 4887, "\u009e\u00fa": 4888, "v\u007f": 4889, "\u00f1g": 4890, "#\u0010": 4891, "\u00e9`": 4892, "\u0087?": 4893, "z\u00ee<": 4894, "e\u007f\u0018": 4895, "\u00e5\u00f0\u00e7": 4896, "\u009b(v": 4897, "\u00cf8": 4898, "\u00ea\u00f8": 4899, "\u00e7M\u00bb": 4900, "\u00f7\u00a7": 4901, "\u00ec\u00e7\r": 4902, "V\u00e1": 4903, "\u00d9C": 4904, "\u0083\u00be": 4905, "Tz": 4906, "\u00bf\u00c8": 4907, "\u00be\u0096": 4908, "\u00d5\u00e1": 4909, "\u00a3\u0010\u00aa": 4910, "\u00e9\u00b2\u00f8\u00dd": 4911, "\u00c1\u00cf": 4912, "f\u0097\u00f9": 4913, "\u00b8\u00e1": 4914, "9\u00c3M\u00bb": 4915, "\u00b59": 4916, "\u00e8\u00bd": 4917, "\u00a7\u00ba": 4918, "\u00ac\u00f1": 4919, "c\r": 4920, "\u00a9\u001e": 4921, "t4\u00ae": 4922, "\u00d7\u00d3": 4923, "\u00b7\u00f0'": 4924, "\u00f5\u0017": 4925, "\u001f}\u00e3": 4926, "tb": 4927, "\u00a2\u00ff": 4928, "G\u00c0": 4929, "o\u00f1": 4930, "\u00d8\u00d6": 4931, "A\u00c2": 4932, "\u00f4\u00ff": 4933, "WN": 4934, "I\u00ae": 4935, "_\u00e7": 4936, "*\u008c": 4937, "\u00ec\u00cb\u0086": 4938, "\u001cs": 4939, "\u00a1\u001e": 4940, "\u00cb\u00a1": 4941, "\u00f7G": 4942, "\u009b\u0011\u00b6": 4943, "\u00ff\\": 4944, "5\u00f0": 4945, "f<": 4946, "\u009eu": 4947, "\u0097?\u00c3": 4948, "y\u00f3\u00ef": 4949, "\u009fB": 4950, "\u0093\u001e": 4951, "\u009f\u008f": 4952, "b\u00f7": 4953, "\u00ccH": 4954, "\u00f7\u00f7\u00f7": 4955, "\u00ec^": 4956, "\u00deJ\u00ed": 4957, "\u0015<:\u009f\u007f\u007f|\u0082\u00a1\u00e4^IO^G^\u00de\u00fb\u00df\u0004": 4958, "\u0087\u00d9": 4959, "\u0010\u00f6\u00fe": 4960, "\u00d2\u00b2\u00f1": 4961, "k\u00c8\u00eb\u00da": 4962, "!\u009c\u00e1": 4963, "g\u00f5": 4964, "[\u00d7": 4965, "\u00d7\u00d7": 4966, "\u00c7\u0093": 4967, "}P": 4968, "|\u00f0": 4969, "}_": 4970, "\u00e2\u0015": 4971, "\u00a5\u00fc": 4972, "~\u00be": 4973, "\u00a7\u0011": 4974, "e\u00c0": 4975, "\u00db\u00be": 4976, "K\u00e6": 4977, "\u00df\u00fb": 4978, "\u00bf\u00dd": 4979, "k<3": 4980, "\u00eap": 4981, "\ts": 4982, "X\u008f": 4983, "\u008df\u00c4m": 4984, "y\u0017": 4985, "k\u009e": 4986, "{\u001f": 4987, "\u00ec\u00bf": 4988, "e\u00f8": 4989, "\u00887": 4990, "=\u00f6": 4991, "G\u009e": 4992, "\u00edn": 4993, "B/w": 4994, "\u0003\u00a1": 4995, "\u00cd\u00ba": 4996, "\u00cb\u0091": 4997, "\u00d0\u00ef": 4998, "\u008e\u00a9": 4999, "\u0099s": 5000, "-h": 5001, "s\u0086\u009bv": 5002, "oE": 5003, "\u00f2\n": 5004, "\u00f8\u00ee": 5005, "G\u00af\u00d6\u00ed": 5006, "z\u00ee": 5007, ")\u00cc\u00b8": 5008, "\u00b7\u00a7": 5009, "\u00aa\u00c0": 5010, "\u00e7\u00fd": 5011, "N\u00a0": 5012, "d\u00a6\u00cb\u00e4": 5013, "\u00a9\u00e8": 5014, "\u00ac{": 5015, "K\u0083": 5016, "\u00d0\u007f": 5017, "O\u00ca": 5018, "\u00f6*": 5019, "\u00d5\u0093v": 5020, ":\u00a6": 5021, "\u00f3\u0086": 5022, "\u008c\u00ef": 5023, "\u009a\u007f": 5024, "\u00d1So": 5025, "\u00ce\u00e4": 5026, "IM\u00e3": 5027, "\u0007\u00f8": 5028, "\u00d3n\u00c0": 5029, "|\u00ce": 5030, "]\u0017*": 5031, ")]": 5032, "\u00e8Q": 5033, "{\u00a4": 5034, "\u00bf]\u00fc": 5035, "8t": 5036, "%\u00e4\u0094": 5037, ";\u00da": 5038, "_w": 5039, "\u0088\u00ee\u008f\u0090": 5040, "\u00d0\u008f": 5041, "\u00de\u00d3": 5042, "\u00fe]": 5043, "\u00ef$": 5044, "\bI": 5045, "H'\u00ab": 5046, "9\u0089": 5047, "\u00aa\u0001": 5048, "\u00acC": 5049, "V!": 5050, "$K": 5051, "\u00f4D": 5052, "\u001dB": 5053, "\u0098\u00af": 5054, "x_\u000e": 5055, "\u00e1k\u00af\u00c3 ": 5056, "Q\u008e": 5057, "\u00d1\u00e1": 5058, "\u00eb\u00ea": 5059, "\u0018\u00af": 5060, "\u0095\u00ce": 5061, "\u00a6\u00e0": 5062, "\n\u001c": 5063, "flW[": 5064, "\u009f\u00fc": 5065, "\u007f\u0082": 5066, "\u0088\u00f5\u0088": 5067, "\u0098\u00f6": 5068, "N\u001b": 5069, "\u001d\u00be": 5070, "\u00abS": 5071, "\u008b\u0099": 5072, "<\u00e8": 5073, "\u009ex": 5074, "\u0015\r": 5075, ";nG": 5076, "\u00fb\u00ad": 5077, "Y7i": 5078, "u\u00ba": 5079, "\u00ea)": 5080, "\u00de\u009c": 5081, "\u00859\u00ce\u0019": 5082, "t{": 5083, "z\u00e6\u0097\u00fd": 5084, "\u00d9\u00a5\u00fe": 5085, "\u0088\u00f4\u00db\u00b3": 5086, "\u00cf\u0082": 5087, "\u00eb\u0096\u00be": 5088, "\u00f3\u00e8": 5089, "\u00af\u00eb": 5090, "\u007f\u00c0": 5091, "z\u0002": 5092, "\u0013Z": 5093, "\u0097\u0001": 5094, "\u00a5\u0095": 5095, "\u00b9\u00e1": 5096, "\u00fc\u00e0": 5097, "\u00be\u007f": 5098, "\u00e6\\3": 5099, "\u00efm\u00e7": 5100, "\u00e9\u00bb": 5101, "\u0017?": 5102, "\f\u00e1": 5103, "\u0007<": 5104, "h\u00f0": 5105, "U@": 5106, "\u00d2\u00fc": 5107, "r\u0013": 5108, "|\u009b\u00b4": 5109, "\u00b17": 5110, "~W": 5111, "\u00efa": 5112, "(p": 5113, "\u00d2U\u00f0": 5114, "\u0004;": 5115, "\u00f4>": 5116, "\u00a3\u00c8": 5117, "\u0019\u00df": 5118, "B\u009c\u00e7\r": 5119, "\u0083\u00be\u0098\u00ae": 5120, "\u00ba\u00da": 5121, "E\u00f7": 5122, "\u000f\u0002": 5123, "[\u00da": 5124, "1^": 5125, "8}": 5126, "\u00bd\u008b": 5127, "\u00cc\u00adn": 5128, "~O\u001c": 5129, "hQ": 5130, "\u00c4\u008b": 5131, "\u00b47": 5132, "m\u00b6\u00dbm\u00b6\u00dbm\u00b6": 5133, "\u00cd\u00fdY\u009bo\u00bc\u00f6": 5134, "\u00bb?": 5135, "JR": 5136, "\u00dfC": 5137, "\u0018\u00ab": 5138, "\u00c6\u009c": 5139, "\u00f49": 5140, "v\u00a7\u00bf": 5141, "\u00a76": 5142, "\u0088.": 5143, "\u0014\u00d9\u00e7": 5144, "\u00caR": 5145, "\u00f4\u00e78": 5146, "\u00b74": 5147, "x\u0082\u009e": 5148, "4_\t": 5149, "\u009dy": 5150, "`Z\u00fb": 5151, "\u0088-": 5152, "r\u00fe": 5153, "\u00b9\u00ff6": 5154, "\u0010\u00e3": 5155, "\u00a79\u00c0": 5156, "\u00f2u": 5157, "\u0095\u00de\u00bb": 5158, "+\u00ac": 5159, ")\u00b1": 5160, "\u008c5": 5161, "\u00f2\u00b5\u00a6\u00dd": 5162, "=\u00c3": 5163, "\u00d9|n": 5164, "\u007fK": 5165, "\u0084{": 5166, "?\u00d2": 5167, "f\u00c5=": 5168, "/\u0011": 5169, "\u00ba>": 5170, "M\u00bf\u00dd": 5171, "\u00fe\t": 5172, "E\u00eb": 5173, "\u00de\u001c;": 5174, "\u001e ": 5175, "\u001a\u00cd\u0088\u00db": 5176, "F!T": 5177, "r\u00fd": 5178, "\u00beS\u00aa": 5179, ")\u00ed": 5180, "\u008d\u00b9": 5181, "\u00ba+": 5182, "\u008a\u001c": 5183, "\u009e\u00bc": 5184, "\u00d0o": 5185, "\u00d7q": 5186, "\u00d5\u0002": 5187, "h\u00be\u0013": 5188, "\u008d\u00bd6\u00ed": 5189, "\u00e4T": 5190, "\u0090\u00ce": 5191, "\u00c58": 5192, "\u00aa\u00d5": 5193, "\u00cb\u00e1\u00cf": 5194, "\u00cd\u00be": 5195, "\u00dfP": 5196, "&+": 5197, "\u00d3\u00a8": 5198, "\u00b9\u00dc": 5199, "\u0091\u008e": 5200, "{\u0012": 5201, "o\u00c3": 5202, "\u00e9|": 5203, "\u00d1\\": 5204, "Jy": 5205, "ju": 5206, "\u00e1\u00c3\u00bf": 5207, "\u00cc\u00d8\u00a7": 5208, "H\u0097": 5209, "\u00c8|": 5210, "\u0094\u00f5": 5211, "?\u00de": 5212, "\u008a\u00f5": 5213, "\u00b1\u000f": 5214, "{\u00d1": 5215, "\u00ccT": 5216, "\u00e1\u00d7\u00b4": 5217, "\u00a6\u00f6\u00a8": 5218, "\u009e\u008f!e>": 5219, "\u00f9N\u00a9": 5220, "\u00e4\u0015\u000f\"\u00f2Jz\u00f2:\u00f6\u00f7\u00de": 5221, "OG\u0090\u00b2\u009f": 5222, "\u0017\u00d9": 5223, "\u009e\u00fb": 5224, "\u000bt": 5225, "x\u00f0": 5226, "x\u00fa": 5227, "k\u00c3": 5228, "S\u00a6\u00dd": 5229, "\u00ffu": 5230, ";\u00d2": 5231, "/\u00eb": 5232, "\u0018\u00f0": 5233, "\u00926\u00f3": 5234, "2\u00ab": 5235, "\u00ed\u00f0": 5236, "]*": 5237, "Pz": 5238, "\u0091\u00b7N": 5239, "M\u00bd": 5240, "\u00cb\u00e1": 5241, "\u00f0'": 5242, "\u00c9\u001b": 5243, "\u0097\u00f5\u001e": 5244, "/\u00e5": 5245, "\u000f_": 5246, "\u00c1e\u00f20": 5247, "\u00af\u00b3": 5248, ")\u0013": 5249, "\u001d,": 5250, ":A": 5251, "},": 5252, "[\u00a5": 5253, "\u00ce\u0013": 5254, "\u00c9\u001bz": 5255, "\u0081T": 5256, "X\u0080": 5257, "\u00bb\u00f2": 5258, "\u00a5Y": 5259, "s\u00ba": 5260, "\u0081\u00e6": 5261, "e~": 5262, "\b'": 5263, "-|": 5264, "X\u00ab\u000e\u008b": 5265, "\u00e38": 5266, "\u00d3\u00fd": 5267, "\u00d1\u0088W": 5268, "\u0017\u00d4": 5269, "\u0087\u00fa": 5270, "\u00af\u00c3": 5271, "\u00f42": 5272, "\u00a1\u00c8": 5273, "+Zm\u00c2": 5274, "\u00db\u00d8": 5275, "\u00d4\u00e0": 5276, "\u00ee\u00bf": 5277, "\u001b\u00fd": 5278, "\u00af\u00a9": 5279, "\u00e9]\u00eb": 5280, "HW": 5281, "\u00b7\u00a4": 5282, "\u00f4J": 5283, "4]": 5284, ">g": 5285, "6\u00fa\u00f8\u00dd": 5286, "\u0085A": 5287, "\u0095\u001e": 5288, "\u00b8%": 5289, "y%7\u008e": 5290, "\u0092\u009d\u001e": 5291, "X\u00bd": 5292, "\u000f\u00f7": 5293, "\u0095\u00dc": 5294, "\u00cf\u009fx": 5295, "\u00fb\u00d4": 5296, "/t": 5297, "\u0088\u0089": 5298, "\u00cdq\u0087": 5299, "\u00e5\u0097\u008e": 5300, "\u00db\u00f9]\u00e4g\u00cf": 5301, "c\u00c6\u00a7": 5302, "\u00c3+\u00a1": 5303, "\u00d4#": 5304, "\u00faS": 5305, "U\u00fe": 5306, "~\u0019": 5307, "\u00a6\u00cb": 5308, "\u00d9\u00e4": 5309, "e<": 5310, "\u0005\"": 5311, "O~": 5312, "\u00d1$\u00dd": 5313, "\u009e\u00ee": 5314, "\u00bc-u": 5315, "\u00cc\u00af\u00c6": 5316, "\u001f\u00f0": 5317, "\u0000\u00a7": 5318, "t\n": 5319, "\u0010\u0093\u0083": 5320, "\u0089&": 5321, "xy": 5322, "\u00fb\u00bb": 5323, "7\u00fe": 5324, "\u00e9\u00b3\u009e": 5325, "\u00be\u00e8": 5326, "\u00ad\u00c6": 5327, "\u00d1|'": 5328, "E\u00d2": 5329, "]\u0017": 5330, "\u009f\u00e8": 5331, "}|8": 5332, "g\u009e": 5333, "K\u0004": 5334, "\u0005\u0018": 5335, "y9": 5336, "5\u00e7": 5337, "\u00ad\u0007": 5338, "\u0001|": 5339, "\u0089\u0004": 5340, "\u00d5\u00f8\u0013": 5341, "\u0017\u00fa": 5342, "_\u001b": 5343, "\u0091\u0086": 5344, "G\u00af\u00fb": 5345, "\u00be\u0004": 5346, "V\u00e6": 5347, "\u0093E": 5348, "\u00a4Np": 5349, "3\u00df\u00ed": 5350, "\u0004\u0014": 5351, "#\u00d7\u00ebv": 5352, "AO": 5353, "\u00ba\u00fb": 5354, "\u00a7<": 5355, "#\u0010\u00af": 5356, "z\u00e7": 5357, "o=": 5358, "\u001d\u00f4\u00c5w": 5359, "w\u00d3\u0015": 5360, "j\u000b": 5361, "\u00caQ": 5362, "\u00c9\u00e8": 5363, "\u0081?": 5364, "\u0098\u00a8": 5365, "\u0088\u009e": 5366, "\u000fj": 5367, "\n\u00fc": 5368, "z*": 5369, "\u00f4M": 5370, "\u0091\u0011": 5371, "^/": 5372, "?\u00dd": 5373, "\u0089\u0015": 5374, "o\u00e5w\u0091\u009f?": 5375, "\u009a\u00e3\u000e": 5376, "|\u0010\u00af": 5377, "M\u00edP": 5378, "\u00dbm\u00b6\u00dbm": 5379, "\u00d7\u00ee\u0000": 5380, "J=": 5381, "\u00ca\u00fe0": 5382, "\u00f7\u00a4": 5383, "N ": 5384, "\u00f1\u00cb": 5385, "\u001e\u00f6": 5386, "\u0083\u009d": 5387, "\u00b2n\u00d3": 5388, "\u00e6\u00fe": 5389, "\u00e6\u00dd": 5390, "\\\u00fe": 5391, "s.\u0019": 5392, "\u00de\u00db\u00c7": 5393, "S\u00e4": 5394, "iQ": 5395, "\u0011s\u0080": 5396, "\u00f4\u00ae\u009bv": 5397, "}\u00dd": 5398, "\u00a7\u00fd": 5399, "\u00bc\u0092n": 5400, "\u0081)": 5401, "\u00b8\u00bf": 5402, "\u0007E": 5403, "\u0007\u0088": 5404, "W\u00b5": 5405, "p\u00c0": 5406, "9\u000e": 5407, "\u00ef3": 5408, "6_\u001b\u00b4": 5409, "\u00de\u00df": 5410, "\u00e5\u00c1": 5411, "\u00a8q": 5412, "\u00be\u00be\u001c": 5413, "\u00cb\u00f9": 5414, "\u00cd\u008a=": 5415, "\u00a9\u00b6": 5416, "\u00e5\u00c8": 5417, "\u00c0\u00e5\r": 5418, "\u009b\u0014": 5419, "s\u009c4": 5420, "\u0089\u00ad": 5421, "\u001b\u00c4": 5422, "t|": 5423, "\u0005\u0095": 5424, "\u00e3\b\u00db": 5425, "U\u00af": 5426, "\u00e8i\\": 5427, "A@": 5428, "_\u00d7": 5429, "\u009e1\u00d3n": 5430, "\u00d7\u00ff": 5431, "\u0091\u00e1": 5432, "m\u00c5": 5433, "\u00c9p": 5434, "9\u00e2": 5435, "\u0010\u00d7": 5436, "g\u00ba": 5437, "\u00fdU": 5438, "f\u00d4": 5439, "?\u00e1": 5440, "\u00a8\u00f2": 5441, "T'": 5442, "\u00ceb": 5443, "\u00e9\u00f7\u00f7\u00f7": 5444, "\u00aeX": 5445, "u\u008a0": 5446, "I\u00e3": 5447, "Py": 5448, "\u00c0\u0090O": 5449, "\u00ea\u00de": 5450, "\n\u0082": 5451, "\u0017\u00de": 5452, "\u00f0\u00f6": 5453, "W\u0085": 5454, "Z\u00eb": 5455, "U\u00a5\u00e7": 5456, "m\u00fc": 5457, "\u00e6*": 5458, "LC": 5459, "\u000f\u00fb": 5460, "\u00ccC": 5461, "\u0094T": 5462, "9=": 5463, "Rr": 5464, "\u00d5\u0001\u00178": 5465, "\u00e6\u00b8\u00c3": 5466, "\u00c0P\u00e3": 5467, "\u00bc\u008e\u00bd\u00a2\u00a2": 5468, "\u009b\u00fa\u00b36\u00dfy\u00ec": 5469, "\u00f8es\u00c9)": 5470, "_\u0086W<\u0092\u0098": 5471, "R\u0093\u001e": 5472, "\u0016\u00ba\u00fc2\t": 5473, "5\u00c6\u001d": 5474, "%=y": 5475, "B\u001e": 5476, "\f\u00aey%0": 5477, "\u0017\u00f2\fz": 5478, "x\u00f5": 5479, "V\u00a6": 5480, "-\u00ed": 5481, "r\u00b5\u00a6\u00dd": 5482, "x\u008f": 5483, "\u001c\u009e": 5484, "\u00cf\u00f4": 5485, "\u00d5\u00a9": 5486, "]\u00e7": 5487, "\u00a6\u00df_\u001b\u00b6": 5488, "\u00f1\u001e\u009bv": 5489, "m\u00cc": 5490, "m\u00ff": 5491, "\u00cb\u009c": 5492, "\u00cf~": 5493, "\u009b/\u008d\u00db": 5494, "\u0013E": 5495, "\u00cb\u00f1": 5496, "z\u0014": 5497, "\u00b2\n": 5498, "d\u0097\u00cf": 5499, "M9": 5500, "\u00ff\u00ed": 5501, "\u00f7w9": 5502, "\u00db\u00e0": 5503, "\u0088\u00f2": 5504, "\u00ba\u00dc": 5505, "\u00d6_\u0003": 5506, "\u00cd\u00f1": 5507, "\u0018G": 5508, ")`": 5509, "_\u00d2": 5510, "\u008f\u001c": 5511, "\u00d3g<": 5512, "\u00b8`": 5513, "\u007fQ\u00ed": 5514, "e\u00c3>": 5515, "\u00cf\u00f9": 5516, "\u00c6*": 5517, "\u00e6\u009c": 5518, "\u001f3": 5519, "\u00fb\u00f9": 5520, "\u0092\u009bg": 5521, "tc": 5522, "bn": 5523, "F<\u0010\u0093\u0097": 5524, "\u00b7\u00a2": 5525, "\u00ae\u008c": 5526, "\u00eb\u00ec": 5527, "\u009a\u00ee": 5528, "\u00d6\u00be9": 5529, "\u0099_#": 5530, "\u00a7\u00be": 5531, "\u00caa": 5532, "\u00a5E": 5533, "\u0086\u009e\u0086": 5534, "\u00ad\b": 5535, "h)\u00d5'": 5536, "2\u001f": 5537, "\u00d7\u00fb": 5538, "\u00e6\u00de": 5539, "\u00ae_\u000e": 5540, "\u00bc\u000e": 5541, "\u00c1\u0083": 5542, "\u008fz\u00f2": 5543, "\u00eb\u00a4": 5544, "\u00e9^": 5545, "x\u008c": 5546, "\u00cap": 5547, "U\u00e1\u00e0\u0084\u009c": 5548, "!\u00fe\u0000": 5549, "\u0018\u00f0B": 5550, "\u00ff\u008e": 5551, "z_": 5552, "!T": 5553, " \u00e1": 5554, "\u00e4'": 5555, "\u00beH": 5556, "\u00dc\u0001": 5557, "\\\u00b5\u00d6": 5558, "S\u00ab": 5559, "9\u00dd": 5560, "k\u00e3": 5561, "<\u00f5": 5562, "\u0091_": 5563, "M\u00b9": 5564, "\u008b\u00fa_": 5565, ",\u00bc": 5566, "/\u00a9": 5567, "\u0091K": 5568, "$\u00d7": 5569, "J\u00e7\u008e": 5570, "CB": 5571, "\u00cb\u0012": 5572, "\u0012\t\u00ea": 5573, "\u00c8\u00c0\u00ea\u0093": 5574, "\u00bf\u00ab3m\u00f7\u009e": 5575, "\u00b9Mk": 5576, "\u0005\u000e9": 5577, "{\u001e\u00ba": 5578, "\u0080\u00e1": 5579, "\u00feWy\u0019": 5580, "\u00f8!'": 5581, "\u00c9M\u00b7\u00fc6] ": 5582, "\u0081& %0": 5583, "\u00af#\u00afh\u00a8\u00af": 5584, "\u00fa\u00f2:\u00f6": 5585, "\u00a9\u00c8": 5586, "P_\u00f2": 5587, "=\u0081": 5588, "\u00ac\u00f7": 5589, "\u0082\u00f9": 5590, "\u00d7[": 5591, "\u00d1\u0088": 5592, "\u0018\u00d3": 5593, "\u009d6 ": 5594, "fl\u00f3": 5595, "\u00d9%\u00f3": 5596, "\u00026\u00f3": 5597, "\u001b8": 5598, "\u00ad\u00cd": 5599, "\u00a6\u00dc&": 5600, "\u00f4\u00f1": 5601, "\u008b\u00fa": 5602, "\u00d1s": 5603, "[\u00c6": 5604, ")f": 5605, "5F": 5606, "\u0018\u0083": 5607, "\u0093t": 5608, "\u00aa\u0080": 5609, "\u0095\u00ad6\u00e1": 5610, ":\u00ff": 5611, "\u001e\u00bc": 5612, "\u001cp": 5613, "lF3": 5614, "\u00f3\u00e6": 5615, "C\u00cf": 5616, "\u00c4s\u00df": 5617, "\u0089z": 5618, "<\u00e1": 5619, "{\u00e6": 5620, "\u00e8o\u0010": 5621, "\u00b2\u00bb": 5622, ",\u00ae": 5623, "ZW": 5624, "\u00abH": 5625, "V\u0090": 5626, "\u00d1\u000e": 5627, "\u0005\u0097\u00c8\u00c3": 5628, "r\u009e": 5629, "8\u0017": 5630, "ie": 5631, "\u00f9u": 5632, "+\u00f4": 5633, "2n\u00d3": 5634, ";\u00ad": 5635, "*\u001c": 5636, "$p": 5637, "M\u0097": 5638, "\u0082T": 5639, "O}": 5640, "\u00e4\"": 5641, "\u0004\u0082z": 5642, "D\u008f": 5643, "\u001c\u00f3": 5644, "\u00a2\u00e1": 5645, "\u00ad\u00e2": 5646, "\u00f2n\u00d3": 5647, ":m\u00d9": 5648, "\u00d7\u00c3\u0086": 5649, "4j": 5650, "Am": 5651, "_\u00ae": 5652, "\u00ad\u00c6v": 5653, "\u00adS": 5654, "\u0083\u0084": 5655, "\u00d6\u00edg\u0086": 5656, "\u00bdp": 5657, "\u00a1\u00c1": 5658, "\u0015\u00bcc": 5659, "\u00efN": 5660, "\u00c4\u00ab": 5661, "\u00fe\u00e3": 5662, "\u00cf6": 5663, "G\u00af\u00d6\u00ec": 5664, "\u00b1 ": 5665, "\u0004\u0094c": 5666, "\u0011\u0088U": 5667, "\u00a7)": 5668, "\u009d\u00ec": 5669, "\t(\u00c7": 5670, "Z\u009b": 5671, "\u00f1\u0006": 5672, "\u00e6m\u00c7": 5673, "J\u00ea": 5674, ",\u00db\u00be": 5675, "$\u00e7": 5676, "3\u00da": 5677, "_.": 5678, "\u00a2\u00fe": 5679, "\u0088\u00c2": 5680, "\u0097\u009e": 5681, "z\u00eb": 5682, "D\u009a": 5683, "\u0087Q": 5684, "\u00f2\u009e": 5685, "D\u009b": 5686, "U\u0000": 5687, "\u00a3\u00d7\u00ebv": 5688, "\u00a8v": 5689, "\u008f'*": 5690, "\u008b\u009c3": 5691, "_\u00ea": 5692, "\u00e2A": 5693, "\u0090\u00ef\u00d6\u00e7\u00c7": 5694, "s\u0097": 5695, "\u00e6\u00c1": 5696, "\u00e9`\u0096": 5697, "M\u00d1": 5698, "Q\u008a": 5699, "\u001d\u00ec": 5700, "\u00fc\u009e": 5701, "\u0012S\u00e4": 5702, "~\u00b7>9": 5703, "/\u00bb": 5704, "\u0088W\u0085": 5705, "Q\u0087\u00f8": 5706, "\u0091(": 5707, "\u0099Z\u00dc": 5708, "\u00a6T\u00dd\u00f3\u00af\u008e": 5709, "L\u00a9\u00bb\u00e7_\u001c": 5710, "\u00cd\u00b7\u00dey": 5711, "\u000ey\u00b0": 5712, "\u00aaeM\u00df:": 5713, "W\u00eb\u00bf\u0087^\u00d1": 5714, "\u00dd\u007f!\u00c7\u0002\u009f?\u00c1": 5715, "\u0010\u0087\u00b1": 5716, "\u0005O\u000e\u00a7\u00df\u00df\u00df \u00a8y\u0017\u0092S\u00d7\u0091\u00d7\u00b7\u00be\u00f7\u00c1": 5717, "\u00af\u00e48\u00e0S\u00e7\u00f8": 5718, "\u00a0\u00bf\u0090": 5719, "_\u00a7\u0000": 5720, "\u00cb]k\u0002\u0092\u00e0": 5721, "\u00dc\u009b\u00bf": 5722, "\u00ea\u00d0": 5723, "\u00fa\u00ab": 5724, "\f\u00bf": 5725, "`\u00e7": 5726, "\u00bd\u00bf\u0081": 5727, "\u00a9\u0015": 5728, "_=": 5729, "\u0010g": 5730, "\u00a6\u00cez": 5731, "\u009e=": 5732, "\u00af\u00f7": 5733, ".\u0018": 5734, "U\u00e1": 5735, "\u00de\u001c": 5736, "m\u00db\u00d7": 5737, "\u009d\u000e": 5738, "<\u00ba": 5739, "\u00e4\u001c": 5740, "\nw": 5741, "\u00cc\u0094\u00db>": 5742, "\u0082\u0081": 5743, "\u00e4<": 5744, "(\u00a5": 5745, "\u00b9\u00fc\u000e": 5746, "\u0093p": 5747, "\u00dd\u00be": 5748, "\u00a9\u00bb\u00fa": 5749, "#\u00cf": 5750, "\u0094\u00a5": 5751, "\u00b9\u00b7": 5752, "F<\u0010\u00aa": 5753, "\u0019\u009e\u00ff": 5754, "\u00f0BN": 5755, "\u00bc\u008c": 5756, "\u007f\u00b3": 5757, "?\u00e4": 5758, "u\u00b8": 5759, "\u00ae\u0092S": 5760, "2\u00f1": 5761, "\u00f3\u00e4": 5762, "\u001b\u00fc": 5763, "+<": 5764, "x\u00c4": 5765, "8\u008e": 5766, "\u00edQ": 5767, "\u00adi": 5768, "i]\u00eb": 5769, "d\u00a6\u00d8": 5770, "\u00ac\u008f": 5771, "Y\u00e1\u00bdw\u001e": 5772, ")\u00ec": 5773, "\u00a9\u00b8": 5774, "\u00cf\u00e0v": 5775, "\u00f9\u0004": 5776, "j|": 5777, "\u008b\u00f9": 5778, "\u00b7:": 5779, "V\u00fe": 5780, "\u00bc\u00f0": 5781, "\u00af\u000e": 5782, "\u00dfT": 5783, "\u009b\u007f\u00bb": 5784, "3\u00a1": 5785, "c\u00c1\n": 5786, "\u0083\u00fd": 5787, "\u00a9\u00e3": 5788, "\u009c:": 5789, "}\u00d8": 5790, "\u00dd\u00f5": 5791, ")I": 5792, "\u0083\u00d3\u00df": 5793, "\u00f8s": 5794, "\u00d7\u0094": 5795, "{B": 5796, "(\u00fd": 5797, "D\u008b": 5798, "oG": 5799, "\u00eb\u00d1": 5800, "D!": 5801, "\u00957|\u00eb\u00e3": 5802, "^o": 5803, "\u0015\u00f4\u00e7\r": 5804, "\u0001\b": 5805, "a\u00d7\u00b4": 5806, "a\u00de": 5807, "\u00e9\u00e8\u00f2\u0016": 5808, "\u0018\u00c5": 5809, "g\u00ff;": 5810, "\u00f8u\u00ed": 5811, "\u0010\u00af\u00a78": 5812, "\u007f\u00f3\u00b1": 5813, "\u00f6r\u00b5": 5814, "i\u007fw": 5815, "@o": 5816, "\u00cep\u00d5": 5817, "G\u00bd": 5818, "\u00e6\u00d4": 5819, "\u00b3K\u00fd": 5820, "\u00de\u0006": 5821, "/h": 5822, "\u00b4\u00db\u00b4": 5823, "\u00af\u00ae": 5824, "\u008d\u007f": 5825, "\u00f3\u00fe": 5826, "\u0080\u00de": 5827, "\u00b3\u00c7": 5828, "\u00f5\u00e1": 5829, "\u0010\u0093\u0094": 5830, "\r\u00fe": 5831, "\u0012Q\u008e": 5832, "W\u00e5\u00d6": 5833, "~O": 5834, "\u00d5n": 5835, "\u00ab\u00f2\u00eb": 5836, "r\u00fc": 5837, "I&": 5838, "\u00c6\u00b2": 5839, "3\u009c0": 5840, "\u00d6y": 5841, "\u00d2Q\u008e": 5842, "n\u0019": 5843, "\u00ac\u009b\u00b4": 5844, "N5": 5845, "%\u00ce": 5846, "i|8": 5847, "\u00b5\u00f6": 5848, "_\u0086": 5849, "\u0005\u0097": 5850, "z\u0018": 5851, "{\u007f\u0002": 5852, "c]": 5853, "\u00bdx": 5854, "\u008c'": 5855, "\u00d5\u00e1\u00e0\u0084\u009c": 5856, "k\u0096\u00be": 5857, "8\u00d7": 5858, "nt": 5859, "\u00a7\u00bb": 5860, "\u009bpv": 5861, "\u00b9\u00d3": 5862, "\ns\u009c3": 5863, "\u00cf\r\u00eb\u00b8": 5864, "\u00fb\u00c3": 5865, "\u00e9Q": 5866, "E\u00ce\u0019": 5867, "\u00b1\u000e": 5868, "UE": 5869, "\n\u00e1": 5870, "\u0017\u00fe": 5871, ")\u00b7\u007f": 5872, "\u00ac\u0083": 5873, "\u00ef\u0002": 5874, "F!\r": 5875, "\u00bf\u00c9": 5876, "\u009c\u00cf": 5877, "\u00c1\u00e2": 5878, "\u00ca\u0087": 5879, "\u001e\bU": 5880, "\u00f3\u00df": 5881, "\u00d5~": 5882, "\u00a2G": 5883, "!\u0015": 5884, "\u00bb\u0080": 5885, "2\u00e7": 5886, "y]": 5887, "S\u00d8": 5888, "O\u00f8": 5889, "\f=": 5890, "\u00d0\u00e7\u009b": 5891, "\u00efh": 5892, "\u0005>": 5893, "\u00b2\u00f1": 5894, "y%\u00f3": 5895, "#\u00e3": 5896, "\u0086\u00ef": 5897, "OO": 5898, "\u0014~": 5899, "t\\\u00ab": 5900, "\u00180`\u00c1\u0083\u0006\f\u00180`\u00c1\u0083\u0006\f\u00180`\u00c1\u0083\u0006\f\u00180`\u00c1\u0083\u0006\f\u00180`\u00c1\u0083\u0006\f\u00180`\u00c1\u0083\u0006\f": 5901, "R\u0096\u00fb\u00cf": 5902, "\u0083\u0006\f": 5903, "\u00b7\u00f2\u00bb\u00c8\u00cf\u009f": 5904, "\u0013\u00d9": 5905, "\u00ab&\u00fe": 5906, "\n\u009e\u001dO\u00bf\u00bf\u00beAP\u00f2/$\u00a7": 5907, "\u00e9\u007f\u009a_\u00dd": 5908, "\u001d{E{": 5909, "\u00af\u00d3\u0080": 5910, "\u00d7\u00e1\u0095\u00cf$\u00a6": 5911, "m\u00b6\u00dbm\u00b6": 5912, "\u00af\u00dc\u0001": 5913, "n\u00cf": 5914, "\u0001\u00bc": 5915, "\u00ee\u00f6\u00de": 5916, "\u0099\u00b1]": 5917, "\u00df_\u000e": 5918, ">\u00fb": 5919, "\u00dam\u00da": 5920, "\u00df\u00f9\u00e7": 5921, "kt": 5922, "\u00c5\u00ce": 5923, "\u0095\u00de": 5924, "\u001ft": 5925, "=S": 5926, "\u00cam": 5927, "a\u0086\u00ac": 5928, "\rS": 5929, "\u00cd\u001e": 5930, "\u00a3\u00d3n": 5931, "V\u00e9": 5932, "T\u00dc": 5933, "\u00e7\u00f4\u00beN": 5934, "\u0017\u00f9": 5935, "\u00b7K": 5936, "\u0099\u00ed": 5937, "\u001a\u00a3": 5938, "\b\u00b9": 5939, "\u0017\u00c3": 5940, "\u00a6\u00dd\u0080": 5941, "\u0012>": 5942, "\u00acU\u0087E": 5943, "mH\u00db": 5944, "\u00ce{": 5945, "8\u00d6": 5946, "\u00d8\u008fM\u00bb": 5947, "\u00b7\u00b7": 5948, "t\u008a": 5949, "2Se\u00f2": 5950, "\u00e6\u0097\u00f9": 5951, "1\u00e0\u0085": 5952, "Ns\u0086\u009bv": 5953, "M\u00be": 5954, "\u009aU": 5955, "\u000f?": 5956, "\u00e8w": 5957, "\u00b3.\u0019": 5958, "\u0010[": 5959, "\u0081k\u00ec": 5960, "\u00a0M": 5961, "\u0099\u00e7": 5962, "\u008d9": 5963, "Y\u00b7~": 5964, "\u00bc\u00f9\u00f7\u008e": 5965, "r\u009f": 5966, "\u00dd\u00ed\u00bc": 5967, "\u0014\u0084": 5968, "\u0083\u00a2": 5969, "\u00ef>": 5970, "\u00d0\\": 5971, "#\u00d5w\u0093": 5972, "[\u009a": 5973, "V\u00b4\u00db\u00b0": 5974, "\u00a6\u00dd\u00a1": 5975, "\u00a2>": 5976, "\u00d7:": 5977, "\u0002\u00a9": 5978, "}\u00ef": 5979, "=Z": 5980, "\u001c\u0012": 5981, "\u00d2\u00bam\u00d9": 5982, "P\u007f": 5983, "=\u00dd": 5984, "\u00bcp": 5985, "\u00ebu": 5986, "PV": 5987, "\u00f0\u00ee": 5988, "\u00c4a": 5989, "\u00a8\u00bc": 5990, "\u009a_\u000e": 5991, "\u00cd\u008a": 5992, ";\u00a3\u00e4\b\u00db": 5993, "F\u00a8": 5994, "n\u00a4": 5995, "\u00acW": 5996, "8p": 5997, "\u00ed\u00ad": 5998, "\u00a9L": 5999, "\u0002A=": 6000, ":\u00e9": 6001, "U\u00df": 6002, "c\u00de": 6003, "\u00d0\u00e4": 6004, "\u00d7\u0096": 6005, "\u008dO": 6006, "_\u00e1": 6007, "\u00eb\u00e8": 6008, "\u00f4\u00fe": 6009, "^\u001e\bI\u00ca": 6010, "\u00c1/$\u00a6": 6011, "\u00aap": 6012, "\u007f\u0094": 6013, "\u00f5x": 6014, "\u00fb\u00a2": 6015, "\u00b1\u00ad": 6016, "B\u00a9": 6017, "\u0011=": 6018, "J\u00cb\u00c6": 6019, "\u00df\u00f0\u00d9t\u0083": 6020, "+\u00f2\u00cb\u00c7": 6021, "\u008f\u001a\u009f": 6022, "z<\u0085": 6023, "\u00e1|": 6024, "\u00d7_\u0086A": 6025, "\u0082\u00a7\u0087S\u00ef\u00ef\u00ef\u0090T<\u008b\u00c9)\u00eb\u00c8": 6026, "D\u0089|": 6027, "\u00e5\u00ae\u00b5\u0081Ip": 6028, "\u001e\u00c0": 6029, "\u00dc0": 6030, "Q\u00ec": 6031, "Lx": 6032, "rn\u00fe": 6033, "+\u0094": 6034, "sK\u00fc": 6035, "\u00a3\u00d9": 6036, "\u00af\u00cb\u00ad": 6037, "\u0007}": 6038, "\u0084\u00f7": 6039, "\u00ae\u00be": 6040, "\u0012k": 6041, "+\u00f1": 6042, "GN": 6043, "\u00dcr": 6044, "\u00ba\u009c": 6045, "\u00ca\u00e7": 6046, "\u00d2\u00ab": 6047, "\u0099\u008f": 6048, "\u008cI": 6049, "\u00a5,": 6050, "M\u00c6": 6051, "3\u00d9": 6052, "\u000ey": 6053, "\u00d1]": 6054, "\u0089\f\u00ed": 6055, "\u00fa\u00e5": 6056, "\u00f0\u00db": 6057, "\u00f2\u000e": 6058, "\u00aa*": 6059, ":\u0018": 6060, "\rY": 6061, "\u00eb\u00f9\u000e": 6062, "k\"": 6063, "\u0007J": 6064, "\u008b\u00c9)": 6065, "?\u00e7": 6066, "\u00cd\u0011": 6067, "\u00ca\u00d6\u00b1\u0006": 6068, "5\u009bw": 6069, "2\u00bf\u008c": 6070, "\u0091\u00e6\u0007(": 6071, "\u00fa!": 6072, "\u00f4\u00db\u00b4": 6073, "j*": 6074, "\u00b2\u0087": 6075, "\u00df ": 6076, "\u00abxv": 6077, "\u009f\u0097": 6078, "\u00f40": 6079, "\u007f\u00cf": 6080, "g8j": 6081, "E\u00e0": 6082, "TU": 6083, "\u0014\u00a5": 6084, "f{": 6085, "\u00f0K": 6086, "\u00bf\u00b8": 6087, "\u00b97\u007f": 6088, "\u0005\u0002": 6089, "\u00d7\u00b4": 6090, "^\u0014": 6091, "\u00e1\u0086\u00ac": 6092, "\u00ae/": 6093, "\u00beA": 6094, "\u00cep\u00cc": 6095, "r\u001d": 6096, "6#l": 6097, "|u": 6098, "\u009b\u00e3": 6099, "\u00dc\u00e9": 6100, "G\u0093\u0095": 6101, "\u00dd\u009f": 6102, "\u0097J": 6103, "\u00ac\u00e8": 6104, "\u0003\u00aaN": 6105, "G\u00af\u00fe": 6106, "nF": 6107, "N\u00bc": 6108, "\u00c9\u00bf": 6109, "lz": 6110, "N\u00be": 6111, "\u0018\u00f1": 6112, "$\u0013\u00d5": 6113, "w\u0000": 6114, "\u00ad\u00d5": 6115, "+\u00e9": 6116, "F<\u0010\u0093\u0095": 6117, "\u00e8\u00f6": 6118, "\u00ff\u007f": 6119, "=\u00fe\u0086": 6120, "\u00f8\u00df": 6121, "_\u00fc": 6122, "bb": 6123, "\u0087<\u00d8": 6124, "?B": 6125, "\u0015\u0016": 6126, "\u0087\u00df\u00df": 6127, "+\u00db": 6128, "\u00a1\u00f7\u00f7": 6129, "*n\u00f9\u00d7\u00c7": 6130, "\u00abK\u00cf": 6131, "\u00ae\u00fa\u00a0": 6132, "\u00ae\u00bf\f\u0082": 6133, "\u00af#\u00afh\u00afo": 6134, "@p": 6135, ";\u00df": 6136, "\u0085}9\u00c3": 6137, "!\u00e7\u00a8\u0095": 6138, "C\u00bf\u00aet\n_": 6139, "\u0007}1]": 6140, "\u001d{{\u00ef|": 6141, "\u00f5O": 6142, "\t_": 6143, "\u00e9\u00b7d": 6144, "3n<": 6145, "\u00a8\u00ce": 6146, "\u0082\u0012r": 6147, "L\u00f1": 6148, "'\u00fc": 6149, "|\u00f5": 6150, "\u00b7\u00c1": 6151, "?\u00a5": 6152, "\u00e9\u00b7\u0017": 6153, "\u0011\u00e6": 6154, "Ny": 6155, "U\u00fa": 6156, "\u0081\u001by": 6157, "\u00fc\u00d9": 6158, "e\u001e": 6159, "\u009c\u00e1\u00bd": 6160, "\u00dfN": 6161, "J\u00b2": 6162, "\u0099U": 6163, "\u00ab4": 6164, "\u0081\\": 6165, "\u00f4A": 6166, "\u00f5\u0094": 6167, "\u00b8\u00a3": 6168, "\u00e2F\u00de": 6169, "\u0082_": 6170, "C\u00fc\u001cr": 6171, "\u0004\u00d9": 6172, "\u0081\u007f": 6173, "\u00b2\u00fa": 6174, "\u00d0(\u001dR": 6175, "\u0099)\u00b0": 6176, "\u00d3g\u0091": 6177, "\u00f6.": 6178, "\u00b7\u00d5": 6179, "\u00cf\u0018\u00a5": 6180, "\u00f5\u00d0": 6181, "\u00c4{": 6182, "\u0011\u00ee": 6183, "P\u00ef": 6184, ")\u00f0": 6185, "\u00c1O": 6186, "\u00d5\u0094": 6187, "\u00f5\u00bc": 6188, "\u00c26\u00f3": 6189, "\f#": 6190, "\u009et": 6191, "?\u00c6": 6192, "\u00884": 6193, "\u00d9|n\u00d3": 6194, "\u00d3\u00f2": 6195, "\u00eb\u00e9": 6196, "\u009f\u00f7": 6197, "\bq": 6198, "\u00bf\u00cf": 6199, "\u00d1i": 6200, "\u00d5\u00f9u": 6201, "N\u001c": 6202, "IW\u00c1": 6203, "s\u0082": 6204, "\u00e0v": 6205, "\u00d3v": 6206, "\u0086\u001a": 6207, "\u0097\u00d0": 6208, "6P": 6209, "\u00af\u00b0": 6210, "\u00895": 6211, ")\u00c3": 6212, "@\u00a5": 6213, "\u00f3\u009c5": 6214, "|\f": 6215, "\u0083\u000f": 6216, "\u00e6\b": 6217, "$\u00ae": 6218, "g8f": 6219, "3\u00ff": 6220, "\u0014\u00d3": 6221, "\u00dfK": 6222, "\u00fdg": 6223, "Ja": 6224, "\u00db\u00fe": 6225, "x\u00d6\u00a1": 6226, "\u00f4\u00b0K": 6227, "\u00cf\u00ff": 6228, "3=\u00fe": 6229, "o\u008e": 6230, "E*": 6231, "\u00e9\u00ce\u001b": 6232, "\u00e9\u00b7i": 6233, "\u0083\u00c7": 6234, "s\u009c4\u00db": 6235, "\u00e3]": 6236, "\u0092\u000b": 6237, "^\u00d7": 6238, "\u00dfr": 6239, "\u00a9\u00c9": 6240, "\u0086\u009e": 6241, "EQ": 6242, "\u0019]": 6243, "<\u00af": 6244, "\u0086\u00a4": 6245, "?X": 6246, ",2": 6247, "\u00db\u00da": 6248, "\u0012 ": 6249, "\u00e7/": 6250, "\u00ca\u00ed": 6251, "P\u00d2": 6252, "Pm": 6253, "\u0088\u008b": 6254, "\u007f\u00de": 6255, "E\u00bd": 6256, "\u0089>": 6257, "\"\u00a2": 6258, "\u0089\u008a": 6259, "(7": 6260, "2\u00a6\u00ef\u009d|r": 6261, "\u00bc\u008e\u00bd\u00a2": 6262, "\u00bc\u008e\u00bd\u00bd\u00f7": 6263, "\u00ef\u00bc\u00f3\u001e": 6264, "\u000e\u00fe\u00b9\u00d0)}": 6265, "\u00af\u00c3+\u009eIL": 6266, "9\u000e8q\u00dd": 6267, "'F": 6268, "+\u0089\u00e3": 6269, "\u001d\u00fds\u00a0R": 6270, "@\u0093\u0010\u0012\u0098": 6271, "\u00bc\u00d4": 6272, "S\u00e8": 6273, "\u00aa\u00c6": 6274, "wG": 6275, "\u0082\u001d": 6276, "\u00b3\u00fa": 6277, "\u007f\u0093": 6278, "\u00baA": 6279, "\u008cy": 6280, "\u000f\u001a": 6281, "}\u0010": 6282, "\u0099)\u00b2\u00f9": 6283, "\u00ad\u00ff": 6284, "V\u0097\u009e": 6285, "\u0087\u00d8": 6286, "\u009b<z": 6287, "6\u00a7": 6288, "r\u00a6\u00ef": 6289, "\u0004\u0017": 6290, "\u00eb\u0018": 6291, "b6\u00f3": 6292, "3\u00cf": 6293, "X\u009b": 6294, "\u00efk": 6295, "w\u0099": 6296, "_\u001b\u00b6": 6297, "\u00add": 6298, "\u000f.": 6299, "\u009c\u00c5": 6300, "\u00b4\u00b5": 6301, "J\u00ef": 6302, "\u00e6W\u00c8\u00c3": 6303, "ky": 6304, "\u0083\u00c3": 6305, "\u0013%6": 6306, "\u00b8\u00b8": 6307, "\u00d5\u00f3": 6308, "\u009f\u00a5": 6309, "\f\u00db": 6310, "z\u00e9g\u00b8": 6311, "\u00c9M\u0097\u00c9": 6312, "\u00e8\u00ac": 6313, "\u00c5\u00ff": 6314, "s\u009c7": 6315, "\u0091\u0007": 6316, "\u007f\u00f0": 6317, "\u00c6M\u00da": 6318, "\u00f1}": 6319, "\u00bd\u00b7\u009c": 6320, "J\u00b7": 6321, "I\u008a": 6322, "7},": 6323, "v\u00f8": 6324, "\u001e\u000b": 6325, "\u00b3\u009c3": 6326, "z_\u000e": 6327, "\u0019\u00ce\u0002": 6328, "\u009a\u00f2": 6329, "\u00dbj": 6330, "\u00f7\u0081": 6331, "\u00e9|8": 6332, "\u009bU": 6333, ")\u00c5,": 6334, "V\u00b4\u00db\u00b4": 6335, "1\u00e8": 6336, "}\u00f0": 6337, "\u00b1\u00ac": 6338, "m\u00e1": 6339, "V\u00bf\u00ed": 6340, ";\u00b9": 6341, "IW\u00da": 6342, "EC": 6343, "\u00e3_": 6344, "\u0013\u009e": 6345, "\u00d8\u008cf": 6346, "[\u0091": 6347, "\u001a<": 6348, "\u00a9\u00ef": 6349, "\u00e4b": 6350, "m\u00f6": 6351, "\u00ea\u009f": 6352, "\u00a8\u00bb": 6353, "\u00e1\u00c8q\u00c3": 6354, "\u00b3\u00c0": 6355, ">\u009e": 6356, "4>": 6357, "s\u009a": 6358, "\u009a_\u00f0": 6359, "\u0091\u0081\u00d5'": 6360, "*-": 6361, "\u00c8w\u00ebs": 6362, "\u0092M\u00d9": 6363, "xZ\u00eb": 6364, "\u008di": 6365, "+\u00d1": 6366, "Ez": 6367, "\u00a8}": 6368, "\u00f9F": 6369, "\u0012\u0094\u00b7\u00dey": 6370, "\u00b8%\u001d": 6371, "^G^\u00d1\"": 6372, ")K}\u00e7": 6373, "5\u00e4u\u00ed": 6374, "\u00f8\u00ffK": 6375, "to": 6376, "~\u0019\\\u00f2J`": 6377, "K\u00fc\u00d2\u00fe\u00ee": 6378, "\u000b\u00f9\u0006=": 6379, "U*": 6380, "\u00a8/\u00f9K": 6381, "'\u00b3": 6382, "\u00a8<\u00a8G": 6383, "\u00f6\u00b9\u00ae0": 6384, "\u00e1\u00edI": 6385, "\u001d\u0002": 6386, "\u00ef\u0094": 6387, "\u009e\u00bd": 6388, "\u00d9\u00fd": 6389, "\u00ab\u00f5": 6390, "\u00ed\u00b6": 6391, "\u00aey": 6392, "\u00c0\u00b8": 6393, "\u00c9\u001by": 6394, "\u00e2=6\u00ec": 6395, "\u00de\u00dd": 6396, "\u0003\u00d7": 6397, "\u00de\u00be\u00e7u": 6398, "\u00af\u00ady": 6399, "\u00ba\u00cf": 6400, "1\u008a": 6401, "\u0005#": 6402, "%w": 6403, "\u00aez\u00fb": 6404, "\u00c4zm\u00d8": 6405, "\u0004\u00d3": 6406, "\u001f?": 6407, ")\u00d3n": 6408, "\u000b/\u0091\u0086": 6409, "\u00b4\"\u00a9": 6410, "T8": 6411, "\u00e4\u0015": 6412, "\u00fb\u00bf": 6413, "\u00c8?\u00e4": 6414, "{\u007f ": 6415, "o\u00f8": 6416, "\u0011\u0089": 6417, "lF\u00d8": 6418, "\u00f4W": 6419, "\u00e5\u008c": 6420, "\u00cf\u00156": 6421, "\u0019\u00ce\u0018": 6422, "@\u00d4": 6423, "\u00bf\u00f3": 6424, "4\u00be\u001c": 6425, "\u00f7\u00c3": 6426, "z)": 6427, "\u00c4r": 6428, "\u0015O": 6429, "\f\u00f3": 6430, "\u0086\u009b<": 6431, "\u00e6\u00ff": 6432, "+x\u00c7": 6433, ":T": 6434, "\u00c0\u00aa": 6435, "\u000f\u00ba": 6436, "fJl": 6437, "\u00a4\u00ab\u00ed": 6438, "\u00b4\u001c": 6439, "\u0004\u0098": 6440, "\u00a3\u00de\u00bc": 6441, "\\\u00f5\u00f6": 6442, "\u00b5A": 6443, "x\u001d": 6444, "B\\": 6445, "\u00e9\u00ba": 6446, "\u00e9-6\u00ec": 6447, "xj": 6448, "\u0088\u00e7\u00be": 6449, "\u009e\u00b2": 6450, "Y]": 6451, "lF": 6452, "\u00be\u00e7": 6453, "#\u0019": 6454, "L\u00c7": 6455, "A\u00cf": 6456, "S\u00bb": 6457, "\u001e\bW": 6458, "\u00a8\b": 6459, "x\u00a9\u00b7": 6460, "\u00ef\u00fd": 6461, "Po": 6462, "t>": 6463, "\u00fa)": 6464, "\u0012W": 6465, "9\u00cb": 6466, "}Y": 6467, "a\u00bf": 6468, "\u00f7\u00dd": 6469, "\u0011\u0084": 6470, "\u0093\u007f": 6471, "\u00e9\u00b7o": 6472, "x\u00ea": 6473, "\u0085R": 6474, "w\u00b5": 6475, "\u00c7\u00c8": 6476, ";\u00e9\u008a\u00ee": 6477, "P\u00a7": 6478, "\u00a1O": 6479, "G{": 6480, "!\u00fb": 6481, "^\u00fe": 6482, "\u001fg": 6483, "\u00e4\u0094\u00f7\u00de": 6484, "`\u00c1\u0083\u0006\f\u00180`\u00c1\u0083\u0006\f\u00180`\u00c1\u0083\u0006\f\u00180`\u00c1\u0083\u0006\f\u00180`\u00c1\u0083\u0006\f\u00180`\u00c1\u0083\u0006\f\u00180`\u00c1": 6485, "j\u0099Sw\u00ce\u00be9": 6486, "\u00bc/\u0087q": 6487, "\u0007\u00fc\u009f|\u00180": 6488, "\u00bf\u00e1\u00b2\u00e9\u0006": 6489, "\u00f2J{\u00ef": 6490, "\u0002L@J`": 6491, "A\u00ff\u0001C\u008e": 6492, "!\u00df\u00ad\u00cf\u008e": 6493, "2\u00ff\u00b6": 6494, "\u00e1|;\u008a": 6495, "\u0082\u0010\u00f6\u00fe": 6496, "\u0086_\u00f6": 6497, "\u0010\u0093\u00af$\u00a6\u00f1": 6498, "\u00ef\u00bcu": 6499, "\u001d\u0003": 6500, "x\u00b3": 6501, "{N": 6502, "\u00b7\u0081": 6503, "\u008cT": 6504, "\u00d0C": 6505, "\u00fa\u00dd\u00fe": 6506, "o\u00fc\u00f3": 6507, "\u00b7\u00da": 6508, "\fG\u00a6\u00dd": 6509, "\u0086\u001a\u00b2": 6510, "\u00e5\u00fc": 6511, "\u0019\u00e7": 6512, "\na": 6513, "P7": 6514, "\u009ck": 6515, "\u00cd\u00ff\u009e": 6516, "\u0004\u009b": 6517, "$\u00e5": 6518, "\u00c8\u00bf": 6519, "\u00df&\u00ed": 6520, "\u00a6)": 6521, "\u00a8\u00cd": 6522, "\u000f\u001e": 6523, "\u0097[": 6524, "#\u0095\u00d3n": 6525, "fH": 6526, "\u009bU\u0086": 6527, "\u00c5\u000e": 6528, "\u009aX": 6529, "\n\u00c8": 6530, "\u00a3\u00d0": 6531, "$m\u00e7": 6532, "\u009c\u00f7": 6533, "\u00b4\u00db\u00b3": 6534, "9\u0015": 6535, "\u0011\u00eb\u0010": 6536, "\u00f1\u00c1": 6537, ";\u00e9": 6538, "1\u0006": 6539, ")\u00ea": 6540, "\u008d\u00b6": 6541, "6\u00ffv": 6542, "<\t": 6543, "\u008b\u009a": 6544, "m\u00be": 6545, "r\u001f": 6546, "\u00eb9\u00b7": 6547, "\u00b7_": 6548, "\u00ff\u00c1": 6549, "\u00ab\u00f0'": 6550, "ei": 6551, "\u00fa\u0018": 6552, "\u0006\u00f3": 6553, "\u00f6\u00a8": 6554, "\u00ffv": 6555, "z\u00f0": 6556, "^x": 6557, "|\u00ba": 6558, "\u009b,": 6559, "\u00bd,\u0012": 6560, "\u00a3\u0017": 6561, "\u001d9": 6562, "\u00e0\u00e7": 6563, "I\u00ba": 6564, "j\u00d7\u00fd": 6565, "\u00a2C": 6566, "\u0012\t": 6567, "\u008a\u00b2": 6568, "\u001d\u00fe": 6569, "/\u00fd": 6570, "\u00d7F": 6571, "4\n": 6572, "+\u00e4": 6573, "\u00ddr\u009a\u00d6": 6574, "$\"": 6575, "\u00ceG": 6576, ":=": 6577, "J\u00eb": 6578, "\u00f4\u00db\u00b3": 6579, "\u0081K": 6580, "\u0092M\u00da": 6581, "\u00ff\u0007": 6582, "\u00cf|\u00de": 6583, "E\u00ef": 6584, "\u0090\u00cep": 6585, "\u00e4\u00b9\u00fe": 6586, "\u009b\u00a2": 6587, "+\u00b4": 6588, "\u0086\u00af\u00f2": 6589, "\u00e3\u00fd,": 6590, "\u00acB": 6591, "\u00c1\u00e3": 6592, "E\u00ce\u0001": 6593, "\u00a9j\u00da": 6594, "\u00a2^": 6595, "\u00a6.": 6596, "\u008a\u00c4": 6597, "\u00eb\u00cb": 6598, "\u0095;": 6599, "\u008b\u00df": 6600, "\u00bd\u001f": 6601, "\u0089\u0016": 6602, "\u0015\u00ea": 6603, ":\u0086": 6604, "\u0098\u0098": 6605, "\u00d4\u00f8": 6606, "\t1\u0001)\u0083\u001e": 6607, "\u00ecz\u00e9": 6608, "^\u00ee\tG": 6609, "\u0090\u00ef\u00eb\u009d\u0002\u0097": 6610, "A\u007f \u00c7\u00aa": 6611, "!\u000fo": 6612, "\u00af#\u00afo}\u00ef\u0082": 6613, "%)o\u00bc\u00f3\u001e": 6614, "\r(": 6615, "\u00d0$\u00c4\u0004\u00a6": 6616, "\u00d7\u0091\u00d7\u00b4TW": 6617, "A\u00ff'\u00df\u0006\f": 6618, "c\u00de\u0019": 6619, "\u00d7\u00e9\u00c0": 6620, "\u00f2\u008f": 6621, "\u00c3\u00da": 6622, "U\u008d\u00d0o\u00c3\u00da\u0093": 6623, "7A": 6624, "\u00ab\u001b\u00a0\u00df\u0087\u00b5&": 6625, "{\u0002": 6626, "\u00d4T": 6627, "\u00af\u00fb<": 6628, "\u00d5\u00fa": 6629, ".9": 6630, "P~": 6631, "\u0012\u0019\u00d9": 6632, "`A": 6633, "1\u00e0": 6634, "o\u008f": 6635, "\u00e8\u00f1": 6636, "\u00a9\u00d3n": 6637, "`\u00b2\u00f9\u0018": 6638, "V\u001d": 6639, "\u00a5\u00f0\u00e1": 6640, "\u00f1'": 6641, "&\u008a": 6642, "\u0083M\u00bb": 6643, "d\u00a6\u00c2": 6644, "\u008b\u00fd\u00be": 6645, "\u0013\u00fe": 6646, "\u0091\u0088W": 6647, "y\u00c3": 6648, "\u0004{": 6649, "U\u0018": 6650, "O\u00c9": 6651, "\u00b5#o": 6652, "$\u00f1": 6653, "g4": 6654, "\tr": 6655, "\u00f5\u00d2\u00cfq": 6656, "\u00f5\u00e0": 6657, "W\u00ce": 6658, "\u0002l": 6659, "\u00a79\u00c3M\u00bb": 6660, "\u00b7\u00fc": 6661, "*\u00f8": 6662, "\u00b4\u00db\u00b0": 6663, "\u00eb\u0097": 6664, "\u0082\u007f": 6665, "\u009d6\u00e1": 6666, "z\u007f": 6667, "/^": 6668, "i\u00b2\u00f8\u00dd": 6669, "\u0003\u00a5": 6670, "\u008f_\u00ad\u00da": 6671, "}V": 6672, "\u00b2\u009e": 6673, "\u00f5Z": 6674, "O\u00fb": 6675, "\u0095\u00cf\u001c": 6676, "Z\u0011T": 6677, "\tZ": 6678, "i\u00e3": 6679, "u\u00d2": 6680, "o\u00fc": 6681, "\u00ad\u00cc": 6682, "\u0005\u00af\u00a6\u00c4m": 6683, "@\u00a0uI": 6684, "\u0094\u00fa": 6685, "\u00cd\u00f4": 6686, "}?": 6687, "\u00f3:": 6688, ")\u00c5-": 6689, "V\u00e3;": 6690, "h\u0093": 6691, "\u001e\u0086": 6692, "D\u00ab": 6693, "\u00cf@": 6694, "_\u001b\u00b4": 6695, "k\u00ca": 6696, ":$": 6697, "\u00c9/\u0098": 6698, "\\\u00e8": 6699, "\u008f_\u00f6": 6700, "[\u0089": 6701, "Uk": 6702, "\u00c6\u00bf": 6703, "\u00a32\u00e1": 6704, "\u0012\u00f8": 6705, "\u00c8(": 6706, "A\u00e9\u00ef": 6707, "\u00b5>": 6708, "\u000f\u0080": 6709, "\u008cx!'*": 6710, "\u00c5\u00cd": 6711, "\u00ec\u00e7\f": 6712, "\u00d1_": 6713, "\u0081@\u00ea\u0093": 6714, "\u0017F": 6715, "\u000e\u00fab\u00bb": 6716, "X0": 6717, "\u00a1\u00f5": 6718, "]\u00f5": 6719, "\\\u00b1": 6720, "\u00b0\u00d5": 6721, "B\u001a": 6722, "|\u00ff\u0006": 6723, "\u00c7\u0004": 6724, "E\u00d9": 6725, "\u00eb\u00a4\u0094": 6726, "Oq": 6727, "c\u00e4R": 6728, "\u007f\u0083\u00c8": 6729, "Qv": 6730, "\u009f\u007f\u007f}": 6731, "\u00cb\u00c9)": 6732, "\u0095`": 6733, "\u00aa\u009b": 6734, "!\u00c3": 6735, "\u000f\u008e": 6736, "\u00d4>": 6737, "\u008a\u009e": 6738, "w\u00d5\u0000": 6739, "!\u00f5\u0087\u0097H": 6740, "\f\u00bf\u00ed": 6741, "o\u00bc\u00f3\u001e": 6742, "\u00d4\u0017\u00fc\u00a5": 6743, "\u00c80a": 6744, "k\u00c8\u00eb\u00db\u00df{\u00e0\u0085": 6745, "\u0081 \u009e": 6746, "\u00cf\u00fev<": 6747, "\u00d7}P": 6748, "\u0013\rS": 6749, "\u00f6>E,": 6750, "\u0010\u00a8+": 6751, "\u00f6i\u00d5": 6752, "\u00ba\u00feC\u008e\u0005>\u007f\u0083": 6753, "\u00f2\t": 6754, "\u0086\u00ae": 6755, "\u00c8,": 6756, "\u00fa#": 6757, "u}": 6758, "\u0084*": 6759, "\u00a7M\u00b8": 6760, "\u00f3\u00f3": 6761, "ks\u00fe": 6762, "\u001d*": 6763, "4M": 6764, "AY<": 6765, "\u00a4r": 6766, "\u00e6l\u00f1": 6767, "\u009dW": 6768, "\u00eb\u0088\u00db": 6769, "\u008d\u00bd6\u00ec": 6770, "\u00a2\u00f8N": 6771, "\u00b0\u00f2\u00ee": 6772, "\u00928": 6773, "i\u00b7d": 6774, "\u009f\u007f": 6775, ")\u001c": 6776, "[\u0085": 6777, "\u00d5g": 6778, "\u00ees": 6779, "\u00e4z\u00fdn": 6780, "|\u00aes": 6781, "\u00c4\u008d\u00bc": 6782, "\u00f4\u00be\u001c": 6783, "\u008f\u009f": 6784, "\u00fe\\": 6785, "4\u00fd": 6786, "<kP": 6787, "L\u0091\u00b7": 6788, "\u00f5\u00d7?\u0081": 6789, "\u0001\u001b": 6790, "\f\u00cb\u0086": 6791, "\u00f5\u00d8": 6792, "Wp": 6793, "\u00bf.\u00b6": 6794, "\u001ap": 6795, "6\u00fe": 6796, "\u00b2\u00d7": 6797, "\u009e\u0010": 6798, "u\u009d7": 6799, "\u00847": 6800, " \u00e7": 6801, "\u009a{": 6802, "\u0016_": 6803, "\u00da\u0091\u00b7": 6804, "+s": 6805, "Y\u00e3": 6806, "\u00aa\u00fc": 6807, "\u0011{": 6808, "\u00aa\u00d7": 6809, "\u00cd\u00aa\u00c3": 6810, "\u00fe^": 6811, "'y": 6812, "\u009e\u0080": 6813, "\u00f1H": 6814, "\u00ba\u001d": 6815, "\u00e5\u00f0": 6816, ";\u00fd": 6817, "\u00cds": 6818, "\u008c^": 6819, "g\u00bf\u00d9": 6820, "\u0099y\u00ef": 6821, "\u00e9-6\u00ed": 6822, "L\\": 6823, "\\\u00be\u001c": 6824, "\u00d6*\u00e9": 6825, "ni": 6826, "yZ\u00d3n": 6827, "\u009c5\u00bb": 6828, "\u00c1\u00dc": 6829, "7\u00b5": 6830, "\u0007\t": 6831, "3b\u008f": 6832, "#\u00d6 ": 6833, "y\u00ed": 6834, "5\u00d7": 6835, "\u0091\u007f": 6836, "\u00cew": 6837, "Jf=": 6838, "I]": 6839, "\u00f3\u009c0": 6840, "\u00de\u00d1": 6841, "\u00b4#": 6842, "\u00fb\u00c0": 6843, "\u00bd,": 6844, "\u00a2D": 6845, "\u00a0\u00b9": 6846, "\u00ee\u00ea": 6847, "\u0012\u00ff": 6848, "\u00cf\u00e8": 6849, "C\u0090": 6850, "\u00cd\u0017\u00c2": 6851, "\u00d4\u00e1": 6852, "\u00ad\b\u00aa": 6853, "5N": 6854, "\u00f9H": 6855, "Pp": 6856, "1F": 6857, "\"\u00e7\u0000": 6858, "\u00acT": 6859, "\u00aa\u008b": 6860, "pK": 6861, "C4\u00bf": 6862, "!\u0017#": 6863, "\u008f\u008f": 6864, "U\u00f3": 6865, "\u00ae\u00b1F\u001f\u00e3": 6866, "/\u00b0": 6867, ":@": 6868, "q\u00ae": 6869, "U\u00ce": 6870, "\"{": 6871, "\u00aaJ": 6872, "y%=": 6873, "V\u00ff#": 6874, "\u0096y": 6875, "\nz": 6876, "\u0090\u007f\u00ca": 6877, "1\u000e": 6878, "\u0093\u00fd": 6879, "\u00b1Q": 6880, "?\u00ef": 6881, "\u00d7\u00a3": 6882, "\u0087{\u00fb": 6883, "\u0089\u00ec": 6884, "u\u00ed\u00ef\u00bd": 6885, "\u0087#": 6886, "\u0094w": 6887, "W\u00bb": 6888, "\u00fb\u00a7T": 6889, "m\u00b6\u00dbm\u00b6\u00dbm": 6890, "\u00be\bI": 6891, "\u00eb\u00db\u00df{": 6892, "\u00a5\u00fd\u00dd": 6893, "\u00be\bU\u0006": 6894, "%>I)": 6895, "N\u00a9S": 6896, "\u00da\u00a6\u00ef\u009d|s": 6897, "\u001c\u00f3`\u00a9\u00e1\u00d4\u00fb\u00fb\u00fb": 6898, "\u0096^9": 6899, "\u000e\u00bd\u00a2\u00bd": 6900, "u\u00fc\u0087\u001c\n": 6901, "\u00beR": 6902, "\u009f?\u00c1": 6903, "]e": 6904, "\u00f2Ja": 6905, "j\u00fa": 6906, "\t\u00e7": 6907, "W\u00e9": 6908, "\u00db\u008f": 6909, "\u00e7q": 6910, "%_\u0006": 6911, "\u00aa\u00fd": 6912, "\u00ff\u00e8": 6913, "\u00b7\u008d": 6914, "\u00a7>": 6915, "x\u00e1": 6916, "o\u00ff": 6917, "\u00fa\u00dc\u0096": 6918, "\u00d2\u00ffM\u00bb": 6919, "\u00b5:": 6920, "\u00c1.p": 6921, "\u00ea\u00fe": 6922, "\u00a1\u00cf6": 6923, "b8": 6924, "|\u00b8": 6925, "\u008a\u00a6": 6926, "\u0092\u00ff": 6927, "%N": 6928, "\u00c9\u008a": 6929, "\u00be\u00e9": 6930, "\u001am\u00d9": 6931, "\u00c5XtZ": 6932, "\u00ce\u0018\u009a": 6933, "U\u00ed": 6934, "\u00a7\u00ee": 6935, "\u0093\u00ab": 6936, "\u00b9|9": 6937, "\u001am\u00d8": 6938, "\u00ff\u00b2": 6939, "\u00ffd": 6940, "\u00af\u009c": 6941, "e\u00ce": 6942, "$\u00dd\u00f0": 6943, "\u00cc\u00af\u00e3": 6944, "\u00d3e\u000e": 6945, "\u0087\u00f88": 6946, "\u00078": 6947, "'<": 6948, "\u00ec\u00e8": 6949, "@\u0081": 6950, "/\u0084": 6951, "\nt\u00db": 6952, "4\u00e4": 6953, "k\u00e4": 6954, "\u00d3n\u00af": 6955, "\u00f2\u009f": 6956, "\u00de\u007f": 6957, "iS": 6958, "\u00a9\u00f6": 6959, "g8g": 6960, "Yc": 6961, "\u0089\u001b": 6962, "4\u00db\u00b3": 6963, "u\u0095": 6964, "\u00d3\u0081": 6965, "\u0099#o": 6966, "#\u00cc\u000eP": 6967, "\u00d7\u00f3": 6968, "$\u00bef": 6969, "k\u0097\u00c3": 6970, "e\u00f1\u00bb": 6971, "\u00f4\\\u00e1": 6972, "\u001e]l": 6973, "\u00f2\u001d": 6974, "ekX\u0083": 6975, "\u00ado": 6976, "C\u009c": 6977, "\u00d5\u00ba": 6978, "Q\u009d": 6979, "\\_": 6980, "\u0083\u008e": 6981, "pw": 6982, "y%:": 6983, "\u00c2\u009c\u00e7\r": 6984, "\u00a3\u0011": 6985, "3K\u00fd": 6986, "\u00ac\u00f0\u00de\u00bb\u008f": 6987, "\"M\u00da": 6988, "\u0004\u00a3": 6989, "\u0012}": 6990, "\u00f0\u00d5": 6991, "h\u00c5": 6992, "!\u009d": 6993, "3\u00ce": 6994, "\u00acG": 6995, "\u0087\u00c8": 6996, "\u00e8\u0097": 6997, "\u00e2\u000b": 6998, "f\u00df": 6999, "ed": 7000, "\u009c5F": 7001, "\u00a0\u001c": 7002, "\u00e7\r6\u00ed": 7003, "8\f": 7004, "\u0013\u0099p": 7005, "\u000f#": 7006, "\u0096\f": 7007, "\u00c1[\u00c6": 7008, "\u00bd\u00af": 7009, "\u00be\u00e3": 7010, "\u00d5`": 7011, "\u001a*": 7012, "\u0011\u0088": 7013, "\u00d1#": 7014, "\u00bc9": 7015, "a\u001c": 7016, "G\u00cf": 7017, "\u00a0P:\u00a4": 7018, "\u00a8*": 7019, "w\u00c1": 7020, "\u00cd\u00e3": 7021, "z/": 7022, "\u0081\u00e0\u0084\u009c": 7023, "\u00f9\u00e1": 7024, "E\u001f": 7025, "\u009b~": 7026, "\u009f\u000e": 7027, "J\u00ed": 7028, "zs": 7029, "&<": 7030, "2\u00bb": 7031, "\u0083\u00feR": 7032, "\u008f\u0004*": 7033, "8~": 7034, "\u001dC": 7035, "\u00a2\u00f7": 7036, "\u00fa&": 7037, "!\u000f": 7038, "\u0087!\u00c7": 7039, "8x\u0013": 7040, "B\u00be9": 7041, "T\u00ca\u009b\u00beu": 7042, "\u00f8!\u000fo": 7043, "e\u0018\u0092\u009e": 7044, "%:=": 7045, "y\u001d{{\u00ef|": 7046, "\fb": 7047, "!_Np": 7048, "\n\u001cs": 7049, "2Sm\u00ff\r\u0097H": 7050, "^@\u008e\u00ee": 7051, "\u00c1\n\u00a0\u00da": 7052, "\u0015\u00e4": 7053, "\u000f\u00b3": 7054, "tl": 7055, "\u00bc\u008e\u00bd\u00bd\u00f7\u00be\bW": 7056, "\u00fa\u00e7@\u00a5": 7057, "\u0091\u00d5'": 7058, "\u00a7\u00d1": 7059, "\u00a2\u00a1": 7060, "\u0017\u00c2": 7061, "\u00f1\u008e\u009bv": 7062, "\u00aex\u00c7": 7063, "=\u001e": 7064, "?\u00f3": 7065, "\u008e\u00e8\u00f9\u00026": 7066, "\u00aa\u00d6": 7067, "\u000b\u00d7": 7068, ")S": 7069, "0\u00f6": 7070, "U\u0090": 7071, "m\u00af": 7072, "5}": 7073, "\u0015\u00bb": 7074, "*\u009e": 7075, "7\u001f": 7076, "\u00e9*\u00f8": 7077, "\u0012\u0099\u008f": 7078, "\u00bf\u00f7": 7079, "\u00e3Z\u0084": 7080, "2K\u00e6": 7081, "\u00b27": 7082, "\u00d8\u008c": 7083, "\u00fa\u00a6": 7084, "\u00e1L": 7085, "d\u008d\u00bc": 7086, "\u009c\u00fa": 7087, "\n\u00a6": 7088, "\u00c1Y": 7089, ";nF": 7090, "\u009f\u00ba": 7091, "\u00d1\u001f": 7092, " \u00f1": 7093, "nM\u00df": 7094, "\u00f2\u00ebg": 7095, "\u00cd\u00bb\u00f9": 7096, "\u000f\u00f1": 7097, "\u009e\u00ad": 7098, "J}": 7099, "e\u00ff\u0000": 7100, "^\u001d": 7101, "2Sa": 7102, "\u00fa\u00ad": 7103, "\u00ac\u00be\u0007": 7104, "#\u001e\bI": 7105, "\u0018\u0085~\u00b7": 7106, "e\u00af": 7107, "\u0005\f": 7108, "\u00a6c": 7109, "ZZ": 7110, "\u00e8\n": 7111, "\u00b9\u007f": 7112, "\u0090\u00ff\u0007\u001c": 7113, "\u00f2\u00ff": 7114, "sn": 7115, "b1": 7116, "\u00a2\u00e9": 7117, "b\u00ff": 7118, "zX%": 7119, "\u009bl": 7120, "g\u00fc": 7121, "\u0088\u00f4\u00db\u00b0": 7122, "T\u0097": 7123, "t\u0017": 7124, "\u00ab(": 7125, "{o8": 7126, "R'8": 7127, "Ns\u0080": 7128, "\u00ef\u00a5": 7129, "\u00ab\u00ef": 7130, "\u00a2S": 7131, "Q\u00ed": 7132, "2\u009e\u009bv": 7133, "\u0011\u0088I": 7134, "\u00a7\u00cf\u009f": 7135, "\u00b8\u0003": 7136, "\b(": 7137, "\u000f\u00ad": 7138, "\u0084p": 7139, "\u00896": 7140, "\t1": 7141, "\u00ad\u007f\u00da": 7142, "\u00f5\u00dcz": 7143, "\u00dbr0": 7144, "\u0098\u008d\u00bc": 7145, "\u00d4H": 7146, "\u00c9O": 7147, "\u00d1v": 7148, "=\u00d7/\u0087": 7149, "\u00bd\u00b7\u008f": 7150, "\u0000\u0094": 7151, "\u00b7\u00de": 7152, "M\u00d8": 7153, "\u00c4w": 7154, "V\u00be": 7155, "Z\u009c": 7156, "\u00a2\u00f3": 7157, "H\u00f8": 7158, "\u00eb\u00c9)\u00bc": 7159, "<\u00e7": 7160, "]b\u008c?": 7161, "@\u00f0B": 7162, "\u00b7\u00d0": 7163, "C\u00fc\u0001": 7164, "\u00a5\u00fb": 7165, " \u008b": 7166, "\u00b9|9\u00f9p": 7167, "+[\u009e": 7168, "\u00df\u00e4?\u00c1\u00c7": 7169, "\u0089\u00ee": 7170, "\u009b\u008f\u00ce": 7171, "\u00c6\u00b4": 7172, "{W": 7173, "S\u00aa*": 7174, "T\u0004\\\u00e0": 7175, "\u00d3\u00d8": 7176, "7f": 7177, "D\u009e": 7178, "\u0010\u00e1": 7179, "\u00de\u008f": 7180, "\u00c9\u00f4": 7181, "w\u00ba": 7182, "}\u0013": 7183, "?\u00ec": 7184, "o_s\u00ba": 7185, "\u00e6\u00db\u00ef": 7186, "\u0084\u0094\u00f9": 7187, "\u0001\u00c3": 7188, "\n\u00fas\u0086": 7189, "\u00be\u00ce": 7190, "\u00b9\u00ddf=": 7191, "\u00c7\u00faX": 7192, "\u00c8w\u00f5\u00ce\u0081K": 7193, "\u00ab\u00f5\u00df\u00c3\u00afh": 7194, "\u00be\bU\u0007\u000f\u0002": 7195, "'\u00bb\n": 7196, "\u000f+\u00ef": 7197, "\u0087\u007f\\\u00e8\u0014\u00be": 7198, "\u0010\u00d9": 7199, "{\\\u00d7\u0018v": 7200, "\u0083\u00fe\u0002\u0087\u001c": 7201, "\ry\u001dz": 7202, "\u00f5\u00e4u\u00ed\u00ef\u00bd\u00f0BN": 7203, "r\u0098y_\u007f": 7204, "\u0083\u00feO\u00be\f\u0018": 7205, "\u00d3\u0087^\u00d1": 7206, "\u00d3\u00d1\u00e4,\u00a7": 7207, "\u001d\u00d1\u00f2\u001c": 7208, "\u00ac\u009b\u00fb": 7209, "\u00a0\u00ff\u0080\u00a1\u00c7": 7210, "\u00d5}": 7211, "\u009f\u00bd": 7212, "\u008a\u00acn\u0083~\u001e\u00d4": 7213, ":\u00b5": 7214, "M\u00d6": 7215, "\u0099\u007f": 7216, "\u0001\u00a3": 7217, "*\u00ce": 7218, "\u00d7=}": 7219, "\u00b9\u00e6": 7220, "\tO": 7221, "\u008f>": 7222, "\u0015g": 7223, "u\u00f7": 7224, "\u00cf\u00aa": 7225, "\u007f\u00d7": 7226, "3\u009c2": 7227, "\u00d1\u0089": 7228, "\u00d7X\u00a3\u000f\u00f1": 7229, "\u008f\u00d2": 7230, "\u00a6\u009c": 7231, "T\u00dd\u00fc": 7232, "\u00b3\u00a6\u00ed\u00eb\u00b8": 7233, ")\u00e7": 7234, "\u001c\u00ae\u009bv": 7235, "\u00b7\u00f7": 7236, "\u00b7_\u00c8": 7237, "\u00ea\u00b3": 7238, "W\u00f9": 7239, "Z\u00b3": 7240, "\u00b3_Z": 7241, "}k": 7242, "\u0005t": 7243, "\u00bes": 7244, "'\u00bf": 7245, "B\u0091": 7246, "z\u00f8": 7247, "\u00f9t": 7248, "\u007f\u00f4c": 7249, "t\u0083": 7250, "\u008b\u00cf": 7251, "\u00a9\u00bc": 7252, "T\u00a6": 7253, "\u00cd\u0092": 7254, "\u00e56": 7255, "\u00b4\u00d8": 7256, "AC": 7257, "\u0006\u0011": 7258, "\u00de~": 7259, "\u00c1>": 7260, "=6\u00e2": 7261, "\u00cc\u0094\u00d8": 7262, "\u00a2F\u00de": 7263, "\u00f9\u0007": 7264, "\u00ab\u00fa": 7265, "\u00ee=": 7266, "\u00ae\u009c": 7267, "\u0088,": 7268, "\u008aH": 7269, "gM\u00d9": 7270, "\u00ceB": 7271, "\u00e8\u00a5": 7272, "{\u00ae_\u000e": 7273, "\u00f9\u00f7": 7274, "\u00e6\u00c8": 7275, "3\u009c7": 7276, "\u00fd8": 7277, "5\u009b\u0011\u00b7": 7278, "\u0082\u00b7\u008c": 7279, "h\u0094": 7280, "1\u0018": 7281, "\u00ff\u00e0": 7282, "\u000e\u00f9": 7283, "L\u00a5": 7284, "\u0094b\u0015": 7285, "\u00ef\u00f5": 7286, "K\u00a1": 7287, "\u000e0": 7288, "_\u001e": 7289, "\u00dc\u00ff\u009b": 7290, "M\u0094;": 7291, "\u00e8\u00f7": 7292, "2F\u00de": 7293, "4\u00b1": 7294, "\u00be\u00b9": 7295, "\u00ff\u0004": 7296, "#\u00c1": 7297, "\u00aa_": 7298, "#\u00d5_": 7299, "Ac": 7300, "h\u00ba": 7301, "\u00dd\u0099p": 7302, "g@": 7303, "s=": 7304, "\u00f4\u00db\u00ab": 7305, "\u00ac\u00be": 7306, "\u008f\u0099": 7307, "\u00ac\u009b": 7308, "\u009ay": 7309, "\u00d3\u00e7": 7310, "\u00cf<": 7311, ">\u00bf": 7312, "\u00fe\u00be\u001c": 7313, "\u0004\u00a6": 7314, "\u00f7\\\u00be\u001c": 7315, "Q)": 7316, "\u000e\u00ec": 7317, "\u00ea\u000f": 7318, "\u00b49": 7319, "9\u00e4": 7320, "\u000b_M\u0088\u00db": 7321, "\u00eeM\u00df": 7322, "\u00f5\u00d2": 7323, "\u00e7\u0000": 7324, "O|\u00de": 7325, "z}\u00fd\u00fd": 7326, "l\u0082": 7327, "\u00e5X": 7328, "\fA": 7329, "y%1": 7330, "\u00dc\u0000": 7331, "q\u001c": 7332, "\u00eb\u0014a\u00fe": 7333, "N\u0005": 7334, "\u00f4\u00e0": 7335, "\u001b\u00ee": 7336, "xr": 7337, "\u00d7\u00850": 7338, "_a": 7339, "\u00b2\u00c4": 7340, "bG": 7341, "\u00e8\u0092n": 7342, "\u00af-": 7343, "-\u00d8": 7344, "\u00e6!": 7345, "\u00e8G": 7346, "\u00ffF4": 7347, "'\u00bd": 7348, "\u00e8\u00a3": 7349, "LT": 7350, "P\u00b1": 7351, "\u00aa\u0086": 7352, "\u0017\u00cf\u00dd": 7353, "\u00a8\b\u00b9\u00c0": 7354, "\u000b\u0018": 7355, "\u00c3\u00afo}\u00ef\u0094": 7356, "\u00f8!_": 7357, "\u00d5\u00fa\u00ef\u00e1\u00d7\u00b4": 7358, "c\u00c9\u00d1": 7359, "/\u00e4\u0018\u00f5": 7360, "C\u00eb\u000f.\u0092S": 7361, "\u00cb\u00fe\u00d9": 7362, "4\u00bf\u00e0": 7363, "\u0099)\u00b6\u00ff\u0086\u00cb\u00a4": 7364, "\u00d5R\u00fe\u00ee": 7365, "y\u001d{{\u00ef|\u0010\u00af": 7366, "\u00eb\u00c8\u00eb\u00da+\u00db": 7367, "o\u00ed\u00d7": 7368, "%6<": 7369, "\u00ee\u00bf\u0090\u00e3\u0081O\u009f\u00e0": 7370, "7\u00f5fm\u00be\u00f3\u00d9": 7371, "\u00af#\u00afh\u0091/": 7372, "\u00bd\u00aek\u008c;": 7373, "8r\u001cp\u00e3\u00bb": 7374, "\u009dy%7\u008e": 7375, "\u00d1F$\u00a7": 7376, "\u00e6\u00c1S\u00c3\u00a9\u00f7\u00f7\u00f7\u00c8*\u001eE\u00e4\u0094": 7377, "EO": 7378, "\u007f\u00d9\u00e3": 7379, "\u0017\u009e": 7380, "\u00f8S": 7381, "}\u00df": 7382, "\u00a2I\u00bb": 7383, "\u00136": 7384, "b\u009d": 7385, "\u00abq": 7386, "\u0002\u00d7\u00d9": 7387, "\u00e0Z\u00fb": 7388, "\u001ej": 7389, "?\u00e6": 7390, "8k": 7391, "\u00a0@": 7392, "#o9\u00c3": 7393, "\u00ee\u00b9|9": 7394, "\u00acH": 7395, "\u00a1\u00a6\u00dd": 7396, "\u00ff\u00d9": 7397, "\u00a4y\u0081\u00ca": 7398, "\u00d15": 7399, "\u00ef$\u009b": 7400, "\u0013Y": 7401, "\u00f5\u00c2": 7402, "}\u0012\u0099\u008f": 7403, "\u0002\u00d7\u00da": 7404, "\u007f\u009b": 7405, "8\u008fM\u00bb": 7406, "\u00c3\u00bf": 7407, "\t\u00bb": 7408, "o\u00ea": 7409, "\u00dc\u0086": 7410, "0w": 7411, "<\u0015": 7412, "\u0002<": 7413, "\u008a\u00fe": 7414, "\u00a9\u00aa": 7415, "G+": 7416, "\u001e\u001a": 7417, "\u00a9\u00bb\u00f9": 7418, "\rQ": 7419, "\u0089\u0005": 7420, "V\u0087": 7421, "[\u00a2": 7422, "\u000f+": 7423, ")\u00dd": 7424, "\u00cd/\u0087": 7425, "\u00a0\u00b8": 7426, "/_": 7427, "\u0007q": 7428, "\u0093\u009e": 7429, "4\u00eb": 7430, "\u00ea\u00b5": 7431, "m\u00df\u00ed": 7432, "\u00e9V": 7433, "\u00a7\u00da": 7434, "s\u0015": 7435, "X\u00f6": 7436, "\u00c4zm\u00db": 7437, "\u00ff6": 7438, "F\u00df": 7439, "\u00de\u00ce": 7440, "\u000bp": 7441, "\u0003y": 7442, "S\u008aY": 7443, "*n\u00fd": 7444, "\u00a8\u0018": 7445, "\u0088\u00e1": 7446, "\u00e5\u00ae": 7447, "z\u00e1": 7448, "xl": 7449, "\u00db\u00d2": 7450, "\u0090\u008b\u00dd": 7451, "\u00ae\u00b3\u009b}": 7452, "Z\u00a6": 7453, "\u00e4b\u0015": 7454, "\u00d3o\u00af\u008d\u00db": 7455, "=\u0014": 7456, "\u00e5\u00d0": 7457, "\u0081]": 7458, "\u00fb\u00e1": 7459, "oE\u0018": 7460, "\u00b7\u0086": 7461, "%\u00ff": 7462, "ny": 7463, "\b\u00e1": 7464, "\u00de\u00ba\u00e7\u00f0;": 7465, "3_Z": 7466, "\u00e9*": 7467, "#\u0095": 7468, "O\u00bf": 7469, "\u00ca\u00b0": 7470, "\u00a8+": 7471, "\u00b5=\u00fd": 7472, "\u00a7\u001a": 7473, "\u00d7<c": 7474, "+\u00c5": 7475, "k\u00ee\u00ees": 7476, "b>": 7477, "\u00ad/": 7478, "\u00d7,": 7479, "\u009e\u00eb\u0097\u00c3": 7480, "\u009f\u0095": 7481, "}\u00f2": 7482, "\u0090O": 7483, "\u00fe\u0097": 7484, "s\u00c3": 7485, "\u0086\u00c0": 7486, "#\u00e7": 7487, "C\u009el": 7488, "Uw": 7489, "\u00d5\"": 7490, "\u001e}\u00a7\u00bb": 7491, "2\u001a": 7492, "\u00f4u": 7493, "\ty": 7494, "\u00ba\u00feC\u00ae": 7495, "\u0088p": 7496, "/\u009f\u00bb": 7497, "x\u001b": 7498, "\u00fe\u00eb": 7499, "?\u00cb": 7500, "<~": 7501, "I\u000e": 7502, "\u00a8\u00b7": 7503, "\u007f\u00df": 7504, "\u00dbm\u00b6\u00dbm\u00b6\u00dbm": 7505, "\u0090\u00f3\u00d4J": 7506, "\u0003\u0086": 7507, "\u00d5)": 7508, "#\u00ba>": 7509, "j\u009b\u00beu": 7510, "\u008e\u00e8\u00f9\u000e": 7511, "\u00e5\u00c0\u00c7": 7512, "m\u00be\u00f3": 7513, "/\u00f3K\u00fb": 7514, "=\u001eB": 7515, "\u00f0B\u001e\u00df": 7516, "\u00eb\u00c9)\u00bcu": 7517, "\u00bc\u0081\u001d\u00dd": 7518, "\u00ea\u00fdw\u00f0\u00eb\u00da": 7519, "n\u00b9Mk": 7520, "\u00f8!T\u001c<\t": 7521, "}a\u00e5": 7522, "\u00d7\u0091\u00d7\u00b4H\u0097": 7523, "9f\u00dd": 7524, "\n\u00c8\u00c8'": 7525, "\u00d7)\u00adi": 7526, "\u00f4\u00ac\u00bc": 7527, "y%=\u00f7\u009e": 7528, "]\u00f5@": 7529, "\u00f2\u0091": 7530, "\u00f6\u0005": 7531, "CM\u00bb": 7532, "\u00cd\u00d6": 7533, "M\u00be\u00be7m": 7534, "\u0003F": 7535, "\u00ed\u00b9\u0018": 7536, "\u00be\u00bc": 7537, "F!'/": 7538, "f\u00ff": 7539, "$3\u00b3": 7540, "V\u00a9": 7541, "\u009a\u00fa\u00d7\u00a6\u00dd": 7542, "g8`": 7543, "X\u008e": 7544, "\u00ab'": 7545, "\u0018\u00aa": 7546, "d\u00a7": 7547, "\u00d5\u009c": 7548, "\u00cf\u007f\u00a1": 7549, "\r~": 7550, "W\u00f0": 7551, "\u0011\u00c3\u00c0\u009f": 7552, "\u0017\u00af": 7553, "\u00d61": 7554, "\u0095\u00adb\r": 7555, "M\u00b8;": 7556, "\u00a8\u001b": 7557, "\u00e2\u009a": 7558, "M\u00ba\u00bd": 7559, "\u0011\u00f0": 7560, "\u00acU\u00d3": 7561, "g\u00f4\u00beN": 7562, "]+": 7563, "\u001ca": 7564, "\u00d6s\u0086": 7565, "\u00c6!'": 7566, "\u00cd\u007f": 7567, "b\u00ac:-": 7568, "\u00e9\u00b7\n": 7569, "\u00eb\u009f\u00c0": 7570, "P ": 7571, "\u000f\u00f3": 7572, "\u00e8+'": 7573, "\u00e21": 7574, "\u00be7i": 7575, "\u00cd\u00bb\u00fa": 7576, "9\u0097\r": 7577, "3K\u00fc": 7578, "\u00dd\u00ff": 7579, "\u00e2\u00ad": 7580, "\u00c9\u001c": 7581, "\u00f1\u00ac": 7582, "\u001d\u00da": 7583, "5\u0015": 7584, "\u00d6#": 7585, "\u0006\u0095": 7586, "\u00de\u0019": 7587, "r]": 7588, "\u00a07": 7589, "\u00f2K\u00e6": 7590, "\u00d3\u00d1\u008e": 7591, "3\u001e": 7592, "\u007f\u00fd": 7593, "M\u009eu": 7594, "\u00a7}": 7595, "\u008dd": 7596, "\u00e8\u00aa\u008c": 7597, "j\u00fc\t": 7598, "\u00eeB": 7599, "\u00c0\u00a7": 7600, "\u0086\u00bf": 7601, "w\u00b0": 7602, "\u00f6\u00aa": 7603, "\u00f5\u008a": 7604, "\u00a5-": 7605, "\u009et\u00db": 7606, "<}": 7607, "\u00b56": 7608, "\u0092_\r": 7609, "ETgC": 7610, "\u00d3g\u009dn": 7611, "\u00b3n": 7612, "\u00f4#": 7613, "\u00c5\u00cc": 7614, "\u00d4\u001eT#": 7615, "7\u009f>\u00f1": 7616, "C\u00ef\u00ef": 7617, "d\u009b": 7618, "\u00d0S\u00aaN": 7619, "\u0007I": 7620, "\u00b7k<": 7621, "Y\u00eb": 7622, "\u0092\u009f": 7623, "\u00cf;": 7624, "\f\u00e7\u0001": 7625, "\u00de\u0097\u00e7": 7626, "\u00dd\u0006": 7627, "+\u00c8": 7628, "\u00d1\u00e0\r": 7629, "\u00ad\u00fd": 7630, "\u00b0\u00ea": 7631, "\u0094\u00a3": 7632, "=:": 7633, "\u0000\u00e0": 7634, "\u00f5~\u00bb": 7635, "\u00e8kw": 7636, "y:": 7637, "\n\u00fe": 7638, "\u00e0\u0096": 7639, "\u0098\u00f3": 7640, "\u0093,": 7641, "\u00d5%": 7642, "\u00e3\u00b9": 7643, "\t\u0004\u00f5": 7644, "\u009dP5": 7645, "\u00d8\u00bd": 7646, "$\u00a7\u00c9": 7647, "\u00a0\u00d4": 7648, "#\u001e\bI\u00ca": 7649, "\u0090\u007f\u00c9\u00f7": 7650, "$Q": 7651, "\u0082\u00dd\u00ac\u00f0": 7652, "\u00c4\u00c4": 7653, "\u0087\u00fd": 7654, "\u00fa%": 7655, "$D": 7656, "C\u00f7": 7657, "\u00e8\u00a7": 7658, "\u00edukw": 7659, "bRW<": 7660, "7\u0092Sx": 7661, "\u00bb\u00ea\u0080": 7662, "\u00f0\u00be\u001d\u00c5": 7663, "\u00a0\u00f2\u00a1\u001e": 7664, "+\u00dd\u00c1(\u00ef": 7665, "\u008cIO^": 7666, "\\\u00be\u001c\u00fc\u00b8": 7667, "|\u0010\u0087\u00b7": 7668, "\u00af\u000b\u00e1\u00dcQ": 7669, "y%6": 7670, "\u00aeZ\u00ebX\u0014\u0097\u0003\u0006": 7671, "\u00f8!U": 7672, "\u00bf]\u00fc:\u00f6": 7673, "\u00f0B\u00a86": 7674, "u\u00e6": 7675, "\u00bd\u00ae\u00adn": 7676, "\u00ea\u000b\u00feR": 7677, "\u00efg": 7678, "\u0088\u00bf": 7679, "\u00af\u00af": 7680, "\u00b7E": 7681, "\u00b7\u00b5": 7682, "\u00cep\u00d3n": 7683, "\u001e\u009bq": 7684, "\u0014{": 7685, "7\u00fey": 7686, "\u00d1\u0088I": 7687, "\u00ab\u00c0": 7688, "\u001e\u00bf[\u0092": 7689, "m\u00b5": 7690, "\u0007g": 7691, "\u00dc\u009b\u00be": 7692, "\u00b4\u001f": 7693, "\u00e8\u0094\u00cc{": 7694, ")\u00b6": 7695, "U\u007f\u008e\u00eb": 7696, "+\u0084": 7697, "\u00d0S": 7698, "\u009b<{": 7699, "\u001d\u001e": 7700, "\u001f\u00e3": 7701, "\u00e2\u0019": 7702, "\u00d52": 7703, "\u00db_": 7704, "\u00d0&": 7705, "D9": 7706, "\f5d": 7707, "\u0090\u00ca\u00d6": 7708, "2Sm6\u00ed": 7709, "\u00e9\u00fd": 7710, "\u00ac\u008e": 7711, "\u00fb\u00c4": 7712, "\u00f1\u0018": 7713, "\u00e7m\u00c8": 7714, "4b": 7715, "\u00fb\u00a0": 7716, "\u0017C": 7717, "\u00e5\u00d6": 7718, "\u00ff\u00b3\u00ce": 7719, "j\u00f9": 7720, "\u00bdt\u00b3": 7721, "fJ": 7722, "\u00ee\u00bf\u0090": 7723, "{\u00e7": 7724, "\u00e9\u001e": 7725, "\u00f9\u0002": 7726, "\u00d4\u00e4": 7727, "\u0015\u00bc": 7728, "S\u009a_": 7729, "j\u00ca": 7730, "\u009a/\u0084": 7731, "\u0089\u001bz": 7732, "\u0007T\u009d": 7733, "a\u001by": 7734, "\u00da\u009c": 7735, "\u0086\u008d": 7736, "\u00fb\u0094": 7737, "ETf": 7738, "4\u00db\u00bf": 7739, "\u00d7]": 7740, "\u00b3n\u00fd": 7741, "\u0093v\u009a": 7742, "\u00dby\u00cd": 7743, "V*": 7744, "\u00d3\u00f5": 7745, "q5": 7746, "\u00cazm\u00d9": 7747, "]\u00df": 7748, "\u0010X": 7749, "\u00d3\u00dc3": 7750, "\u00f1\u00af": 7751, "G\u0081": 7752, "\u00ff\u001e": 7753, "\"s\u0086": 7754, "K\u00f6": 7755, "\b\u00ee\u00ec": 7756, "\u00f9J": 7757, "\u00c9\u001f": 7758, "\u001dS": 7759, "*n\u00fe\u009bv": 7760, "\u00ban": 7761, "=U\u00f6": 7762, "\u00e78`": 7763, "q\u00c9": 7764, "\u00d2\u00bam\u00da": 7765, "\u0081k\u00ed": 7766, "g\u0001": 7767, "o\u0090": 7768, "7\u0017": 7769, "\u00fdnK": 7770, "\u00bc\u00ff": 7771, "W\u00d8": 7772, "\u00b7\u001e": 7773, "\u00e7\u00fc": 7774, "\u00e1\u00b7": 7775, "\u00e6\u0097\u00f7": 7776, "\u00a1\u00fe": 7777, "\u0086\u00ff": 7778, "\u00ff\u00e8\u00c6": 7779, "<T\u00db": 7780, "\u0087\u00f88\u00e5": 7781, "\u00aa\u00a0": 7782, "\u00c1\u008f": 7783, "Ip": 7784, "V\u00b5\u00bb": 7785, "\u00b2S": 7786, "R&": 7787, "L^": 7788, "\u008b\u00ea": 7789, "*<": 7790, "\u0082=~\u00b7": 7791, "eks": 7792, "\u00e1\u00bf": 7793, "\u00dam\u00d9": 7794, "\u0087\u0095": 7795, "\u00aa.": 7796, "\u001eF": 7797, "\u001f}": 7798, "\u00b9k\u00ec": 7799, "\u00a0I\u0088\tL": 7800, "|\u00f5\u001e": 7801, "\u001eD": 7802, "_t": 7803, "_W": 7804, "O\u00fa": 7805, "\u0090\u00d3": 7806, "\u00d8\u00f2": 7807, "\u008b\u00f5": 7808, "\u009d+\u00bdv": 7809, "#\u00ec": 7810, "/$\u009b": 7811, "!\u00f5\u00bb": 7812, "\u001c\u009f": 7813, "z(": 7814, "\u0012\u00f2J": 7815, "G\u00ae": 7816, "zV^": 7817, "\u0087\u00ef": 7818, "\u00f6!": 7819, "\u0011\u0012": 7820, "+\u00da": 7821, "z\u00c5": 7822, "# ": 7823, "\u00ec\\": 7824, "\u0004\u0098\u0080\u0094": 7825, "\u00e7\u00ff\u00c7r": 7826, "\u00f3m\u00f7\u009e": 7827, "\u00eb\u00db\u00df{\u00e0\u0084\u009d": 7828, "\u00c4p\u00f0'": 7829, "!\u00df\u00d7:\u0005/": 7830, "\u00f9\u008f": 7831, "\u00cc\u0094\u00db\u007f\u00c3e\u00d2": 7832, "\u00aa\u001b": 7833, "nS": 7834, "|\u0010\u00aa\u000e\u001e\u0004": 7835, "F\u008b": 7836, "\u00b5M\u00df:": 7837, "C\u00bf[\u009f\u001c": 7838, "\u00ba\u00e55\u00ac\u00ae": 7839, "\\\u00b5\u00d6\u00b0).\u0006\f": 7840, "\u00f8e\u00ff": 7841, "\bW\u00d3\u009c7": 7842, "\u0091\n\u00fa": 7843, "C\u00a7\u00eb\u001e": 7844, "\u00af5-[": 7845, "\u0015\b": 7846, "\u00ddm": 7847, "J<": 7848, "go": 7849, "\u00f1\r": 7850, "G\u00a6\u00dc": 7851, "]\u00ff": 7852, "\u0012\u00a7": 7853, "\u00b6\u00da": 7854, "\u001b\u00d2Y": 7855, "T`": 7856, "\u0085Q": 7857, "\u00a7\u00a6\u00dd": 7858, "T\u001c\t": 7859, "\u0089\r": 7860, "\u0014\u00db\u00b5": 7861, "om\u00e1": 7862, "\u00c2\u009c\u00e7\f": 7863, "t\u00d8\u0083": 7864, ":\u00b7": 7865, "AH": 7866, "fW\u00f1": 7867, "\u00cd\u00ae": 7868, "'\u00be": 7869, "6\u00a4m": 7870, "\u00e3\u009c": 7871, "k\u0095": 7872, "\u00c3o": 7873, "\t\u00b3": 7874, "E\u00fe\u00df": 7875, "f\\0": 7876, "\u00ae\u00b5": 7877, "\u00be\u00ab": 7878, "\u00bf?": 7879, "\u00f4Jf=": 7880, "\u009b%": 7881, "yu\u00b3": 7882, "\u008an": 7883, "j\u00de": 7884, "<\u00ba\u00d9": 7885, "\u0011r": 7886, "\u00fa\u0011": 7887, "}\r+": 7888, "*\u00dc": 7889, "\u00de\u0097\u00c3": 7890, "2\u00e1\u009f": 7891, "\u00b7\u0095": 7892, "\u00b2\u00f8\u00dd": 7893, "\u0016\u00ec\u00cb\u0086": 7894, "ui": 7895, "\u00c1?so": 7896, "\u00d7\u00cf": 7897, "zY": 7898, "R$": 7899, "\u00af\u00a2": 7900, "\u00ae\u00e0": 7901, "\u00e5kT": 7902, "\u00f5\u00ff": 7903, "M\u009et\u00db": 7904, "\bj": 7905, "6\u00ef\u00f5": 7906, "\u00d55": 7907, "\u0011\u00eb\u00f5\u00bb": 7908, "\u0082\u008f": 7909, "\u00f2\u00bf": 7910, "\u00f8<": 7911, "\u0091\u00eb\u00f5\u00bb": 7912, "J\u008a": 7913, "\u0019%\u00f3": 7914, "\u00bb\u00dbx": 7915, "\u0082\u00c6": 7916, "\u0005\u00b8": 7917, "\u00ff\u00d1\u008d": 7918, "\u00e1\u00c1": 7919, "\u00e7\u00c6": 7920, "\u00b5k\u00fe": 7921, "Wv": 7922, "]w": 7923, "\u00f5\u00dcy": 7924, "[\u00fb": 7925, "a\u00af": 7926, "t\u00d8": 7927, "\u00aar": 7928, "=\u00ab": 7929, "\u007f\u00a4": 7930, "j.": 7931, "\u00e8\u00f8": 7932, "\u00aaj": 7933, "\u00fa=": 7934, "p\u00f6": 7935, "\u001fXyw": 7936, "\tG": 7937, "\u00bb\u00fe": 7938, "/\u0091": 7939, "\u00bb\u0090": 7940, "\u009d\u00c9": 7941, "\u00a5O": 7942, "p\u00e48\u00e1": 7943, "\u00ef\u00d3": 7944, "\u00e5\u00fb": 7945, "\u00ae\u00fc": 7946, "\u0014\u0091": 7947, "\u00c3m": 7948, "\u00fa~": 7949, "\u0012\u0097\u00fa": 7950, "\u00b2u": 7951, ":\u0005/": 7952, "\t:\u00b3": 7953, "\u0082\u00b1": 7954, "\u00a1\u00a1\u00f7": 7955, "\u00b1'": 7956, "\u0010\u00f8": 7957, "bD": 7958, "$T": 7959, "o\u00da": 7960, "\u000f=D\u00ae": 7961, "\u00ea\u00cf": 7962, "h\u0012b\u0002S": 7963, "\u00c3+\u00d2\u00b2\u00f1": 7964, "\u00ee\u00e6<": 7965, "\u00e55": 7966, "\u00b9k\u00ad`R\\\f\u0018": 7967, "A\u00c3\u00c0\u009f": 7968, "\u0097\u0003\u001e": 7969, "!_\\": 7970, "\u009dB": 7971, "d\u00e8": 7972, "a\u00d7\u00b7\u00be\u00f7": 7973, ":p\u00eb\u00da": 7974, "\u00c1\n\u00a0\u00e1\u00e0O": 7975, "\u00f2:\u00f6\u00f7\u00de\u00f8!_": 7976, "\u00ed\u00fc\u00ae\u00f23\u00e7": 7977, "c\u00d4>\u00fe": 7978, "\u00dd:\u00ff": 7979, "UK\u00fb\u00b8": 7980, "\u00f9e\u00e3": 7981, "\u00d7u~\u00bb": 7982, "\u009dy\u001d{": 7983, "\u007f\u009c": 7984, "\u00c5V": 7985, "\u00bc8": 7986, ";\u00e0\u0085": 7987, "t7\u00a4": 7988, "\u00f9r": 7989, "\u00d1\u00ef^N": 7990, "mO": 7991, "\u00f7\u00b0": 7992, "P\u001b\u00ce": 7993, "\u00cd\u009e<": 7994, "\u0099Z": 7995, "\u00e8fJm": 7996, "\u00a6\u00dd\u0099\u00b3\u00c7": 7997, "K\u00e1\u00c3": 7998, "\u00e8S\u009c\u00e1": 7999, "\u00af\u008f": 8000, "a_": 8001, "\u0091\u00f6": 8002, "4\u00ae\u009bv": 8003, "\u00dck": 8004, "\u009f\u0000": 8005, "\u00d7\u00f5": 8006, "\u00d5\u009a": 8007, "\u00b5\u00f9": 8008, "\u00a3\u00ce": 8009, "\u001e\u001b8": 8010, "\u00eft": 8011, "\u00eb\u009a_\u00f6": 8012, "\u00e1\u0081": 8013, "\u00b7`": 8014, "_\u0081": 8015, "\u00f1\u0005=": 8016, "\f\u00ee": 8017, "\u00e8\u00a9\u00b7": 8018, "\u001d\u00c9": 8019, "{u": 8020, "\u00a9\u00f0": 8021, "\u008d|n": 8022, "\u00d3n\u00c8": 8023, "2\u00f3": 8024, "\u00ae\u00ba": 8025, "(u": 8026, "\u00f3\u007f": 8027, "w\u00ca": 8028, "s\u009c2": 8029, "\u00c0\u00b9": 8030, "\u0014\u00db\u00bf": 8031, "\u00aaF": 8032, "\u00049": 8033, "\u009d:": 8034, "\u00ea\u009a": 8035, "o?": 8036, "I\\": 8037, "\u009a\u00e8": 8038, "\bt": 8039, "\u00c1g": 8040, "C\u00fc\u001cs": 8041, "\u00cb\u00e8": 8042, "z<": 8043, "\u00ef\u00f8": 8044, "\u0016V": 8045, "\u001a=": 8046, "\u00e5B=": 8047, "\u00c1|": 8048, "\u00a3\u00de\u00bc\u009c": 8049, "\u000fo\u00aa": 8050, "U\u00fd": 8051, "\u00b8\u00e4": 8052, "\u00f4\u00db\u0092": 8053, "\u008dj\u0013": 8054, "gA": 8055, "\u00a7\u009bw": 8056, ")\r": 8057, "\u00e4\u008f": 8058, "\u00e79": 8059, "\u00ae_\u000e~\\": 8060, "%>": 8061, "\u00f6\u00dep": 8062, "$\u00dd\u00a6)": 8063, "\u00cf\u00fd": 8064, "e5": 8065, "_\u00ee": 8066, "\u008d\u00e7\u00cf\u00bc": 8067, "G\u00aa\u000f": 8068, "\u00161": 8069, "\u00afj": 8070, "1\u00ae": 8071, "\u00d4g": 8072, "\u0088\u00ee": 8073, "\u009f\u0007": 8074, "\u00d3\u00e7\u00cf": 8075, "\b.": 8076, "S\u00da": 8077, "s\u00a0R": 8078, "\u0012\u001f": 8079, "\u00af\u00ab\u00f5\u00df": 8080, "\u00ba\u000e": 8081, "\u00c7\u008cR": 8082, ";\u008f": 8083, "\u00f1\u00dc": 8084, "=\u00bc": 8085, "^\u00d5": 8086, "65": 8087, "\u0014\u00fb": 8088, "\u00ee\u0086": 8089, "\u00eb\u00e1": 8090, "\u00dc\u00db": 8091, "\u00fa\u00c6": 8092, "k\u00fc": 8093, "w\u0092": 8094, "\u0010\u0093\u0089": 8095, "\u00ca\u00be": 8096, "<\u00d9": 8097, "=\u00f7": 8098, "\u00ac;": 8099, "\u0017\u0081": 8100, "\u0081\u0002": 8101, "\u00e9\u00c0": 8102, "\u00175": 8103, "(\u0094\u00a5": 8104, "VQ)": 8105, "\u001b\u00b3\u00fa": 8106, "\u009b<\u00ebv": 8107, "\u00c8\u00ea\u0093": 8108, "\u00d8\u008e": 8109, "\u00cb\u00f2": 8110, "\u0087\u00f8\u0003": 8111, "\u00e5\u00ae\u00bf": 8112, "\u00b1\u00f0": 8113, "\u001e\u00de": 8114, "i\u007f\u00a6\u00dd": 8115, "\u00f1\u00cd": 8116, "y\u00f6\u009e\u00ee": 8117, "\u0010\u0093\u0097\u00fd": 8118, "\u00ba.U": 8119, "\u0010u": 8120, "\u00ba\u00fc2\u00b9\u00e4\u0094": 8121, "PU": 8122, "\u00039\u00c3": 8123, "{\u00e6\u00f1": 8124, "z\u00fe": 8125, "/q": 8126, "\u009d~": 8127, "\u00d9\u00b7": 8128, "\u00ea\u00d0\u008a\u00a5_\u001c": 8129, "ho": 8130, "\u0013\u00de": 8131, "x\u00fd": 8132, "\u00f4r": 8133, "\u00f4~": 8134, "^\u00fb": 8135, "\u00e6V\u00b7": 8136, "\u00dc\u00c8i": 8137, "\u00c3~": 8138, "\u0084\u00ed\u00f8{}U\u0086\u00ef": 8139, "\u001f\u00f2}\u00f0": 8140, "\u00e9\u00fa\u00c7\u00bc": 8141, "xZ\u00eb\u00f0": 8142, "O\u00a4}\u008a\u00f7W": 8143, "\u00dd\u007f!\u00d7": 8144, "\u00bc\u008e\u00bd\u00a2\u001f": 8145, "\u00ba\u00d6\u0005%\u00c0": 8146, "S\u00ef\u00ef\u00ef": 8147, "\u00b1\u00f2)": 8148, "\u00b2\b\u00bc\u0092n": 8149, "\u00f1\u00fe\u0096": 8150, "\u00db\u00e6=": 8151, "\u00beQ\u008a": 8152, "\u00b9k\u00ac\u00a6\u00be9": 8153, "\u00a3\u00a2": 8154, "\u001c\u008d": 8155, "/\u0087\u0007": 8156, "\u00ca\u00ef#>\u007f": 8157, "Ov\u0014": 8158, "\u00be\u00f3\u00ccy": 8159, "r\u009a\u00d6": 8160, "oK\u00e1\u00c1": 8161, "S\u00aa/": 8162, "\u00af'\u00d7\u00f4\u00e9]\u00eb": 8163, "\u000f\u00f9>\u00f80a": 8164, ";\u00d9": 8165, "\t\u00db\u00f0\u00f6\u00fa\u00ab\r\u00df": 8166, "\u0010\u00f6=t": 8167, "\u00bf\u00c1\u00e4d\u00180": 8168, "\u0088L5": 8169, "\u00b4\u001a": 8170, "\u00d7\u0091\u00d7\u00a8": 8171, "\u00b1*": 8172, "\u0015X\u00dd\u0006\u00fc=\u00a9": 8173, "m\u00e2": 8174, "\u00da\u00eb": 8175, "\u00ce\u001b\u00d7": 8176, "\u00f1\u00adB": 8177, "\u00a6\u00db": 8178, "\u00de\u00c1": 8179, "\u00a3\u00d1": 8180, "0\u008d\u00bd": 8181, "\u00e4\u0097\u00cf": 8182, "\u00af\u00df": 8183, "\u00af\u00d5": 8184, "\u00e7\u0088": 8185, "\u0015\u00d6": 8186, "\u0015\u00fd": 8187, "[\u00ca": 8188, "\u0007\u001c": 8189, "\u00fdn\u00ff": 8190, "f^{": 8191, "pg8": 8192, "\u00ea\u00d7\u00fd": 8193, "\u001e\u0004": 8194, "S\u00d9": 8195, "\u00bd%\u00a6\u00dd": 8196, "[\u00dd": 8197, "\u00f43%6": 8198, "D\u008a": 8199, "\u009d\u0007": 8200, "\u00db\u00fa": 8201, "\u00a2s.": 8202, "\u008b\u00fe": 8203, "\u00d1\u00e9": 8204, "kp": 8205, "3\u00d0": 8206, "\u00d5\u00af\u00e5": 8207, "\u00e9\u00b7W": 8208, "\u00a6\u00c5": 8209, "\b\u00f3": 8210, "G\u00b9": 8211, "\u00b7\u00a8": 8212, "\u0014\u00e9\u00b7": 8213, "q\u001e\u009bv": 8214, "\u00f4\u0004": 8215, "\u0017\u00f8": 8216, "\u0086\u00ac": 8217, "n9": 8218, "\u00d5\u00a4": 8219, "\b\u00bd\u00dd": 8220, "Y\\": 8221, "\u000eQ": 8222, "\u00ab:": 8223, "\u0011\u00e4": 8224, "\u00ddn\u0086": 8225, "%\u000e": 8226, "\u00af\u00fe": 8227, "\u00ad\u00cf\u00f8": 8228, "\u00adO": 8229, "=\u00d3": 8230, "\u00a6\u00dd\u00ae": 8231, "f\u00a2": 8232, "4G": 8233, "\u00ee\u00e1": 8234, "AT": 8235, "Y\u001b": 8236, "H\u00f3\u0003\u0094": 8237, "|\u00d7": 8238, "p\u00c3V": 8239, "d\u0014": 8240, "\u0099\u00b1G": 8241, "'\u009e": 8242, "\u00bd\u00ba": 8243, "u\u00cb": 8244, "\u0093v\u009c": 8245, "4\u00bf\u00cf": 8246, "\u00f6\u00ea": 8247, "S\u00df": 8248, "\u00d1j": 8249, "\u000f\u00f0q": 8250, ".F": 8251, "\u00ab\u00ea\u00fdw": 8252, ")\u00b3\u00ce": 8253, "\u0010\u00dc": 8254, "\u00ae\u00b6": 8255, "\u00e8t": 8256, "\u009d\u0097K": 8257, "\u00a2S1\u00ec": 8258, "\u009cM": 8259, "\u00a8\u00bd\u00c3": 8260, "Y~": 8261, "\u00fb\u008e": 8262, "\u009e ": 8263, "5\u00cc": 8264, "\"\u00be": 8265, "_\u00f6y": 8266, "\u00d8n": 8267, "K\u0091": 8268, "\u001a\u00b2": 8269, "Y\u001c": 8270, "w\u00d2": 8271, "\u00cc\u00f4c": 8272, "\u00e5\u00f4": 8273, "z\u00e26": 8274, "\u009a\u00f9": 8275, "\u00e3\u00cf": 8276, "\u00e9\u00c9": 8277, ")\u00d5'": 8278, "\u0087\u000e\u00fe": 8279, "\u00b2\u00fe": 8280, "\u00c69": 8281, "i]6\u00ed": 8282, "k\u00f0": 8283, "\u00f48": 8284, "\u00bb\u00ee\u00d4": 8285, "#\u0010\u0093\u0095": 8286, "\u0014\u00e9": 8287, "\u00a4\u00ab\u00e0": 8288, "\u00ff\u009d": 8289, "5\u00f7": 8290, "o$\u00a6\u00f1": 8291, "2Sm6\u00ec": 8292, "\n\u001a": 8293, "\u00c6\u00f3\u00e7\u00de": 8294, "\u00e63": 8295, "7\u00a4": 8296, "B\u009c\u00e7\f": 8297, "\u00aa\u001a": 8298, "Y\u0019": 8299, "[m": 8300, "\u00e4uI": 8301, "?s": 8302, "\u00fb\u00c9)": 8303, "\u0082Y": 8304, "\u00f6p": 8305, "\u0090\u00fa\u00c3\u00cb": 8306, "\u00ef\u001d": 8307, "?'": 8308, "\u00cc\u0010": 8309, ">\u001d": 8310, "\u00b5\u00e5": 8311, "\u00f9$": 8312, "\u00fb\u00b8": 8313, "\u00bf\u00c7u": 8314, "\u00a7J\u00ef]": 8315, "U\u00a5": 8316, "\u00adi\u00b7j": 8317, "\u00f4I7": 8318, "\u00d7\u00f2\u001dt": 8319, "\u008d|": 8320, "\u0091}": 8321, "T\u00e4": 8322, "\u0091=": 8323, "\u007f\u008f": 8324, "4\u00c5": 8325, "/\u007f": 8326, "T\u00dd\u00f3\u00af\u008e": 8327, "\u0094\u00e1": 8328, "4\u00bf\u00af": 8329, "\u00a2\"": 8330, "X\u0087": 8331, "\u001c>": 8332, "G\u00d1": 8333, ";\u00de": 8334, "\u00e8\u0083": 8335, "\u00a1\u00de": 8336, "6\u00a9\u00bb\u00e7_\u001c": 8337, "\u0015\u0091\u0090O\u00de": 8338, "\u00d5iy": 8339, "\u00d57|\u00eb\u00e3": 8340, "\u00bc\u0092\u009e\u00fb\u00cf": 8341, "\u00d57\u00b5A": 8342, "\u00fb\u00bf\u00f7#": 8343, "\u0011\u00dd\u001f!\u00c1": 8344, "I\u00c8y": 8345, "H\u00e9\u00c3\u00afh": 8346, "d\u00a6\u00db\u00fe\u001b.\u0090": 8347, "\u00f0\u00be~": 8348, "%%s\u00c7": 8349, "\u0089\u00ee\u00c2": 8350, "\u0088W\u00d3": 8351, "\u0083\u0018": 8352, "\u001eO": 8353, "\u00ee\u00ff\u00dc\u008d": 8354, "\u00cd/\u00f8'": 8355, "\u0093\u00e9": 8356, "\u0088\u00ee\u008f\u0090\u00e0": 8357, "\u000f\u00bf\u00be": 8358, "$\u0087": 8359, "\u00ba\u00fd8\u0003\u00c1": 8360, "W\u00d3\u00df": 8361, "\u00ad\u00fd\u00ba\u00ff": 8362, "A\u00a9": 8363, "\u0098IO\u0092": 8364, "\u00bfN\u0000\u00f0": 8365, "\u0007\u00b0": 8366, "{\u00f8": 8367, "\u00d7\u008f": 8368, "\u00d78": 8369, "\u00a73e": 8370, "\u0013\u00f2": 8371, "\u00eb/": 8372, "\u00a9\u00fe": 8373, "\u0084\u009c": 8374, "\u00be\u0095": 8375, "~\u00ee": 8376, "\u00aa ": 8377, "\u00c6\u001d": 8378, "\n\u00de1": 8379, "\u00ecA": 8380, "\u00cc\u0094\u00d9|": 8381, "\u007f\u008c": 8382, "\u00f4\u00db\u0089\u0005": 8383, "w\u009f": 8384, "G\u0090": 8385, "\u0086V\u00b3": 8386, "E}": 8387, "\u00b1V\u001d\u0016": 8388, "\u00b2\u00f8": 8389, "\u00c6\u0011\u00b7": 8390, "ek>": 8391, "\u00b9\u00e0": 8392, "f=": 8393, "\u00cak": 8394, "s6\u00e3": 8395, "\u00e6\u00dd\u00fc": 8396, "\u00d3\u00f70": 8397, "\u00e0\u009f": 8398, "\u000f\u00f2": 8399, "z\u00d4\u00db": 8400, "\u00ba\r": 8401, "\u008a\u00b7": 8402, "\u00a6\u0081": 8403, "\u00a5\u00fe\u009bv": 8404, "\t\u00a6": 8405, "\u00d7\u00ef": 8406, "\u00b2\u00ff\u0080": 8407, "\u009eM\u00df": 8408, "Nx": 8409, "i\u00b1": 8410, "\u0011\u0088W": 8411, "\u00e7\u00fa": 8412, "\u00c0\u008d\u00bc": 8413, "\u00e6\u00bc": 8414, "ob": 8415, "\u00f22": 8416, "x\u00c7M\u00bb": 8417, "\u0013\u00cf": 8418, "A\u000e\u0086": 8419, "\u00f3j\u00b0": 8420, "\u0089\u00cc\u00b8": 8421, ";\u0090": 8422, "|\u00a7": 8423, "*\u00fe": 8424, "Sl": 8425, "\u000b+": 8426, "}\u00ed": 8427, "\u00bcAOM\u00bb": 8428, "/\u00ce": 8429, "\u00d7\u00c9": 8430, "M\u00885": 8431, "\u00a5\u00f8": 8432, "a\u001bz": 8433, "\u00c59\u0097\f": 8434, "D\u008d\u00bc": 8435, "ZY": 8436, "\u00c9|": 8437, "\u00bb\u00c0": 8438, "\u00a6R": 8439, "T\n": 8440, "\u001d\u00c7": 8441, "\u00fd*": 8442, "M\u00884": 8443, "\u00f5\u00a9\u00b7": 8444, "V ": 8445, "\t)\u00f2": 8446, "\u00f8\u00e6": 8447, "\u00f4\u00b5": 8448, "\u00cb\u00ad": 8449, "\u009e5\u00a8N": 8450, "MR": 8451, "\u00fdn|s": 8452, "\u008f_\u00ad\u00d9": 8453, "\u00e0]": 8454, "M\u00883": 8455, "\u00adk\u00e3": 8456, "\u00f0\u00c9": 8457, "U<": 8458, "\u00de\u00c3": 8459, ":)": 8460, "\u00f5\u001f": 8461, "\u00f5\u00b9,": 8462, "\u00cd<": 8463, "m\u00c6": 8464, ";\u00e5": 8465, "3b\u00ba\u00d9": 8466, "\u00ef\u00f3\u00c7": 8467, "\u001b\u00cf\u009fx": 8468, "J\u00ff": 8469, "\u009f\u00d2\u00f99": 8470, "\u00c6w": 8471, "\u00bf\u00d1": 8472, "\u00e2\r": 8473, "xx": 8474, "K\u00f1": 8475, "\u00efi": 8476, "\u00efO": 8477, "\u00bf\u00fa1": 8478, "\u00eb\u00e5": 8479, "\u00c8v": 8480, "J\u00fc": 8481, "\u00c6v": 8482, "\u00a7\u00fc": 8483, "\u00bf\u00d5\u00b9": 8484, "\u00b0\u00dd": 8485, "\u00e1\\": 8486, "\u0092\u00f9\u00fd": 8487, "\u0018j\u00ce": 8488, "\u008du": 8489, "\f\u00adj": 8490, "\u00db\u00c4": 8491, "\u00c6\u00f5": 8492, "p\u00d3n": 8493, "\u00e7\u00c8\u00db": 8494, "D\u0093": 8495, "\u009fE": 8496, "\u00c2J|": 8497, "$>": 8498, "\u00a8LR": 8499, "\u001cr": 8500, "D}": 8501, "\u009c\u0004": 8502, "\u00d3n\u00df": 8503, "V\u00ef": 8504, "\u00c8i": 8505, "\u0089\u00a2": 8506, "\u00a5\u00ff\u0004": 8507, ",\u00f3": 8508, "\u001c\u00f2": 8509, "\u00e5t": 8510, "\u00a8?": 8511, "e\u008f": 8512, "R\u001a": 8513, "\u00ee\u008b": 8514, "4\u00f3": 8515, "\u007f\u00af\u0087": 8516, "P\u00d6": 8517, "\u00e7@\u00a5": 8518, "\u009f\u00b9\u0082\u000b\u00f9": 8519, ",\u0003": 8520, "\u00c2\u00b22": 8521, "\u00e8\u0088": 8522, "UP": 8523, "O\u00dc\u00c1\u0005\u00fc": 8524, "(\u00c3\u00fc": 8525, "\u00a9\u00f7\u00f7\u00f7": 8526, "\u000bv\u00b3\u00c3": 8527, "\u00ef\u007f": 8528, "&!": 8529, "\u0016\u0085": 8530, "w\u00bd": 8531, "\u0087'": 8532, "\u001b\u00d1": 8533, "\u0091h": 8534, "\u00a2\u00fb": 8535, "\u00ff\u008e\t": 8536, "\u00eb\u00ac\u00e6\u00df": 8537, "1\n\u00f1": 8538, "\u0092M\u00db\u00d7\u00dc\u00ee": 8539, "\u000f\"\u00f2J": 8540, "\u007f\u0090\u00ff\u0007\u001c": 8541, "\u00aan\u00f9\u00d7\u00c7": 8542, "\u00a9j\u00d5": 8543, "t\u00fdc\u00de": 8544, "T\u00b5j": 8545, "\u00aa\u00a5\u00fd\u00dc": 8546, "\u00dd\u00ff\u0094": 8547, "sK\u00fe\t": 8548, "\u00f8et": 8549, "8x\u0013\u00f2x": 8550, "E\u00c2u\u00ba0": 8551, "\u00bc)\u0087\u0091": 8552, "\u00eeF": 8553, "r\u00d7Z\u00c0\u00a4\u00b8\u00180": 8554, "\"\u00e1:\u00dd": 8555, "\u00d2\u00ff4\u00bf\u00bb": 8556, "\u0098y\u0017": 8557, "\u00f8\u00d3\u00dd": 8558, "\u0010\u00af\u000b": 8559, " \u00ff\u0093\u00ef\u0083\u0006": 8560, "\u0097\u00fd\u00b2": 8561, "\u00a3b": 8562, "\u009e\u00ec(": 8563, "\u00dbm\u00b6\u00dbm\u00b6\u00db": 8564, "2\u00ff:\u00a4": 8565, "\u008e\u0081": 8566, "{\u0003": 8567, "\u00a9\u00f2": 8568, "\u00a1\u00c0": 8569, "\u00d7\u00f9": 8570, "\u000e\u00e3": 8571, "\u00cf&\u00ef": 8572, "\u009bo": 8573, "=jm": 8574, "&\u00ed4": 8575, "^\u00bb": 8576, "rb": 8577, "\u00b4\u00db\u00ab": 8578, "\u0083\u00c4\u0010": 8579, "\u00ba\u0014": 8580, "\u00aaC": 8581, "\u00a5>": 8582, "\u0082\u00f7": 8583, "\u00a6\u00cf\"": 8584, "\u00f8\u00a5": 8585, "#o>": 8586, "W\t": 8587, "qH": 8588, "\u00ff\u00bd": 8589, "\u0014\u00b2": 8590, "k\u00c2\u00d7": 8591, "\u00f6\u00fdt": 8592, "\u00e8b=": 8593, "\u00a0x": 8594, "\u0097\u00fc\u0003": 8595, "A\u00e7": 8596, "\u00cb\u0083": 8597, "!\u00e7": 8598, "\u00848": 8599, "T\u008b": 8600, "\u00e1\u00b6": 8601, "\u00c0\u00b5\u00f4\u00d8": 8602, "\u00ad`": 8603, "\u00b4\u00ae\u009bv": 8604, "V\u00b4\u00db\u00b2": 8605, "\u00e4\u001d": 8606, "\u0081u": 8607, "\u0017\u00c9": 8608, "3b": 8609, "2\u00b5\u00b9": 8610, "\u00b3.\u0096": 8611, "\u009b<\u00ea": 8612, "\u00df\u00d4{": 8613, "\u0099#": 8614, "\u00bd<": 8615, "\u0087\u009e\u00a2W": 8616, "\u00fc\u00d8": 8617, "\u00ac\u008c": 8618, "\u00bd\u00bf]": 8619, "En": 8620, "\u00cb\u00e9": 8621, "\u00f2\u00a6\u00ef": 8622, "\u0087r": 8623, "\u001e\u00e4": 8624, "\u0010\u008f": 8625, "\u009bR6": 8626, "\u00cc\u00f1\u00ce": 8627, "\u00ff_\u000e": 8628, "\u00cf\u00e9|\u009c": 8629, "\u0082Ua": 8630, "@\u009a": 8631, "\u00e7\u009c": 8632, "\u00db\u00c2": 8633, "\u0015e": 8634, "1J": 8635, "\u0084}": 8636, "%1": 8637, "F/": 8638, "\u00cd-": 8639, "l\u00be7m": 8640, "\u009e\u007f": 8641, "\u00d0\u00d0": 8642, "O\u009f>": 8643, "YV": 8644, "\u00fb\u0015": 8645, "\u009d6_\u001b\u00b6": 8646, "\u00d9\u00ce\u0019": 8647, "(\u00ea": 8648, "\u0088v": 8649, "\u0004\u0016": 8650, "\u00a8\r": 8651, "f\u00ba": 8652, "i]6\u00ec": 8653, "]\u00be": 8654, "\u00e2\u00a6\u00de": 8655, ")\u00c9": 8656, "\u000e\u00af": 8657, "\u001aWM\u00bb": 8658, "\u00db\u00ce": 8659, "\u0004b\u0012r": 8660, "\u0092_4": 8661, ")\u0015": 8662, "!\b": 8663, "\u0097\u00e4": 8664, "\u008d\u00b4": 8665, "4\u00db\u0092": 8666, "\u00ff\u00d1": 8667, "\u00a8\u00a5": 8668, "\u000f\u00bf": 8669, "\u00e5kM\u00b8": 8670, "EM\u00bc": 8671, "\u00c5\u00fe": 8672, "\u001a\u00fc": 8673, "\u00b7\u00ae\u00e3": 8674, "\u007f\u00f3": 8675, "8\u00a4": 8676, "h+": 8677, "\u009d\u00c7": 8678, "\u00a0+": 8679, "\u00dd\u00f0": 8680, "\u00f8\u00f1": 8681, "\u009e\u00ffC": 8682, ".\u008c": 8683, "e\u00f4": 8684, "\u0014u": 8685, "\u00f1\u00b7": 8686, "j\u00ff": 8687, "\u000b\u0011\u00b7": 8688, "\u00a7\u00ee`": 8689, "\u0002\u009d": 8690, "x\u001c": 8691, "\u00b7\u00b0": 8692, "\u00f4I": 8693, "\u007f\u00dc": 8694, "\u000b\u0015": 8695, "\u00c2\u00be": 8696, "T^": 8697, "\u0094J": 8698, "\u00bc\u00d5": 8699, "\u00f9\u00b0": 8700, "z\u009c": 8701, "M\u00d1T": 8702, "\u001c\u00e5": 8703, "Yn": 8704, "\u00f9\u00a5": 8705, "\n\"": 8706, "W\u00f2": 8707, "\u00degP": 8708, "p\u0098\u0091": 8709, "\u00a3\u00bd": 8710, "\u0087^\u00a2": 8711, "\u00fa-": 8712, "\u00d1'": 8713, "\u001f\u00bd": 8714, "\u000eD": 8715, "\u008a\u00f7": 8716, "\u00d8\u00b9": 8717, "\u00aa\u00d2\u00f3": 8718, "\u00e1Y\u0019\u0004\u00fd": 8719, "\u00b7\u00a2\u00fc\u00d8": 8720, "<\u00c7\u0087": 8721, "\u00beS\u0087": 8722, "\u00a08": 8723, "\u008b\u0084\u00ebta": 8724, "k\u00f4\u00e0": 8725, "\u00afw\u0004\u00a3": 8726, "\u00eds\\a\u00da\u00aa_\u00dd": 8727, "\u00f7]\u00e4\u0092n": 8728, "&\u00ed\u00eb\u00eewY\u008f": 8729, "\u00d5\u0094J_\u00e9": 8730, "\u0019X": 8731, "oE\u00f9\u00b0": 8732, "\u0088\u00e1\u00e0O": 8733, "\u0098\u00f7": 8734, "n\u00fb\u00a7T": 8735, "\u00bc\u008e\u00bdD": 8736, "\u00d5\u009ec": 8737, "^\u0014\u00c3": 8738, "\u008f'F": 8739, "\u0015\u00ee\u00e0\u0094w": 8740, "\u0082\u00feA\u008fT": 8741, "\u00ae\u00bf": 8742, "\u00de\u00be\u00e7u\u0098\u00f5": 8743, "O\u00af\u00e9": 8744, "M\r": 8745, "\u00e1L<\u008b": 8746, "\u00b7\u00ba": 8747, "\u0013\u00dd\u0085": 8748, "d\u0013\u00df": 8749, "\u00aa\u0097\u00f7p": 8750, ")+\u009e9": 8751, "\u00f4\u00f4y\u000b": 8752, "\u00c3/\u00fb": 8753, "\u009c\u00adj\u009b\u00da\u00a0": 8754, "\u00d7\u0085\u00f0\u00ee(": 8755, "u\u00e4u\u00ed": 8756, "\u0098\u00a3\u001e": 8757, "\u00bcE\u00ff": 8758, "@B": 8759, "Uct\u001b\u00f0\u00f6\u00a4": 8760, "\u00bf\u00ec\u00f1": 8761, "A\u00ef": 8762, "\u00ce\u001am\u00da": 8763, "\u00ddn": 8764, "\u0013f": 8765, "\u00dd\u00f4": 8766, "\u0093<": 8767, "oi": 8768, "\u00c8\u00c0": 8769, "\tS": 8770, "\u00bf\u00f3\u00ce": 8771, "\u008eWM\u00bb": 8772, "\u00ef\u0097": 8773, "\u00a3\u001e\bI": 8774, "9|": 8775, "s\u009d": 8776, "M\u00c7\u00e7": 8777, "\u008am\u00df": 8778, "\u00b7\u008c": 8779, "\u00cd\u00bc": 8780, "\bz": 8781, "\u00e7>": 8782, "&\u00e0": 8783, "E!": 8784, "\u00e9!": 8785, "\t\u00ff\u0097": 8786, "\u008b\u00c0": 8787, "\u001c5": 8788, "\u00c5)": 8789, "\u00cd/\u00f0": 8790, "b\u009a": 8791, "\u0098\u008d\u00bd": 8792, "\u00e6Jl": 8793, "Og": 8794, "l\u00be7l": 8795, "\u00ae\u0013": 8796, ")g": 8797, "\u0011\u00ea\u00bb\u00c9": 8798, "\u00b9L\n\u001d": 8799, "\u000e\u00ba": 8800, "d\u001f\u00f2": 8801, "\u00dfX": 8802, "\u0095\u00ac\u00fa": 8803, ";\u00cc\u00ea": 8804, "\u000e\u0095": 8805, "r\u00c6": 8806, "Z\u00d7\u00c7": 8807, "\b\u00c4*": 8808, "h\u00d5": 8809, "{\u00a7": 8810, "Q\u0099": 8811, "\u00d4\u00f7": 8812, "k\u009e1": 8813, "^\u00ba": 8814, "\u00cb\u00e4`uI": 8815, "\u00a7\u00ef": 8816, "\u009b\u00e3\u00ef\u00bc": 8817, "\u008fr": 8818, "\u00e9\u00b7\t": 8819, "Ti": 8820, "\u00e2\u009c\u00cb\u0086": 8821, "\u00bf\u00ab": 8822, "%\u00d3": 8823, "\u00a6\u00dd\u0096m\u00df": 8824, "%[\u00cf": 8825, "\u00f41\u001e": 8826, "\u008cB\u00aa": 8827, "=\u00d2": 8828, "\u00bc;": 8829, "I\u00bbN": 8830, "[\u009f\u00f0": 8831, "\u00cd\u008a{": 8832, "\u00b2>": 8833, "\u00af\u00f3": 8834, "\u00d6\u00e3": 8835, "@\u00f0BN": 8836, "\u0088\u00da": 8837, "*\u00a3\b\u00db": 8838, "G\u00a2": 8839, "\u008a\u00ff": 8840, "\u00de\u00a3": 8841, "\u00fb\u00fc": 8842, "\u00c5\u00fb": 8843, "\u00891": 8844, "JyZ": 8845, "f\u00cb\u001e": 8846, "\u00ad\u00cf\u00f9": 8847, "\u00da\u001f": 8848, "\u009f\u00d2\u00f9:": 8849, "F\u00db": 8850, "\u00f5\u008c": 8851, "\u0086#\u00d3n": 8852, "\u00ec\u00f3": 8853, "I\u0088\u00db": 8854, "\u0017K": 8855, "_\u0097[": 8856, "\u00dc\u009b\u008f": 8857, "V\u00ed": 8858, "\u009d\u00fe": 8859, "T\u0010": 8860, "\u00cep\u00cd": 8861, "\u0014\u00b7": 8862, "s\u00fem": 8863, "\u00d4\u0003": 8864, "\u00e4\u00dd\u0015": 8865, "}6\u00ef": 8866, "\n\u0006": 8867, "\u009a_\u00f6": 8868, "\u00de{": 8869, "\u009cGt|": 8870, "\u00e8e=": 8871, "\u00e23": 8872, "\u00e4\u00dd\u00a7": 8873, "kx": 8874, "\u00ce\u001a\u00a3": 8875, "\u00b9\u00ee\u00b6": 8876, "9\u00ce\u0002": 8877, "tz\u00e9": 8878, "6#n": 8879, "3\u00c1": 8880, "\u00a7$\u00be": 8881, "\u009d6\u00e3": 8882, "\u0092_0": 8883, "\u00f3\u00d4": 8884, "\u00ea>": 8885, "\u00e3\u00c6)": 8886, "\u00a3\u001e\bI\u00ca": 8887, "{o\u001e": 8888, "r:\u00a4": 8889, "nz": 8890, "\u00f09": 8891, "o$\u00a7": 8892, "\u00a2\u00a6\u00de": 8893, "Ns": 8894, "wu": 8895, "v\u00f9": 8896, "\u00deIO": 8897, "Jt": 8898, "N\u0095\u00de\u00bb": 8899, "\u00e9\u00fe": 8900, "LP": 8901, "'\u00b8": 8902, "$\u00ff": 8903, "g\u0080": 8904, "\u0007T": 8905, "\u00e1\u008a": 8906, "\u00f6\f": 8907, "/\u0094": 8908, "U\u0017": 8909, "}\u00fe": 8910, "\u00dfV": 8911, "\u001b\u00f0'": 8912, ";\u00a3\u00e48": 8913, "\u0005\u008c": 8914, "O\u009f\u00e0": 8915, "\u001e\u0095": 8916, "U\r": 8917, "\u00e6/": 8918, "[\u00ee": 8919, "\u00bcw": 8920, "\u00f8m": 8921, "'=": 8922, "\u001e\bI": 8923, "\u00d6so": 8924, "\u00b7\u00f9\u000f\u00f0q": 8925, "\u008b\u00a3": 8926, "\u0011\u00e4\u00e5": 8927, "\u00e4\u001f\u00f2\\": 8928, "<\u008b": 8929, "\u0093tU": 8930, "\u008c\u00ae": 8931, "\u0016\f": 8932, "<\u00fbOw": 8933, "?z": 8934, "s\u0090": 8935, "_5": 8936, "\u0097\u00d8": 8937, "\u0093\u00d8": 8938, ":\u0089": 8939, "\u00f4}": 8940, "\u000e\u00bd": 8941, "T5": 8942, "Q#": 8943, "\u00d1r\u00ac": 8944, "\u0001C\u008e": 8945, "\u00f0\u00e7\u00e9": 8946, "\u0085dd\u0013\u00f7": 8947, "\u00ec|\u008aX": 8948, "^{\u00ef": 8949, "\u00a9\u00b9": 8950, "\u00fa\u008fh": 8951, "\u000e\u001c\u0087\u001c8": 8952, "R\u00d5\u00b5": 8953, "_)\u00d5": 8954, "4\u00a2": 8955, "\u00d7\u009f>\u00f1\u00df\u00e0_?w\u0003\u001e": 8956, "\u009f_\u00d3\u00a5w\u00ae": 8957, "\u00ba\u00e55": 8958, "\u0086W\u00a5e\u00e3": 8959, "\u0090\u00e3\u0087": 8960, "\u00f8<\u008c\u0083\u0006": 8961, "~\u0019\u0004": 8962, "\u00d7/\u0087?.": 8963, "\u00d7\u0091\u00d7\u00b4LW": 8964, "\u001fb\u00bd\u00d5": 8965, "p\u009dn": 8966, "\u00b5\u00ba0": 8967, "\u0084=\u008f]": 8968, "'\u00d2>\u00c5{\u00ab": 8969, "w\u00b3": 8970, "x_?": 8971, "\u00c1\u0084\\'[\u00a3": 8972, "\u000eC\u008e\u001c": 8973, "\u00c7\u00bc2": 8974, "F$\u00a7": 8975, "r\u00d7YM|r": 8976, "\f\u00ae\u0086\u008f": 8977, "\u008fP\u00fb\u00fb": 8978, "\u00a5\u00f6": 8979, "z\u00f2:\u00f6": 8980, "\u00af#\u00afh\u0087\u00ef": 8981, "sd\u0011y$\u00dd": 8982, "\u00f8!T\u001b": 8983, "\u00c5:\u00a2": 8984, "\u00e0\u0085Pp\u00f0'": 8985, "\u000e\u00a6": 8986, "Bv\u00fc=\u00be\u00aa\u00c3w": 8987, "\u00d5\u00ad\u00df": 8988, "\u0083R": 8989, "Gt|\u0087\u0006": 8990, "\u00b6\u00dbm\u00b6\u00dbm": 8991, "\u0099\u007f\u009dR": 8992, "\u000e\u00901": 8993, "*\u00b1\u00ba\r\u00f8{R": 8994, "o`": 8995, "\u00e1\u00b0": 8996, "k\u00f3": 8997, "\u0004$\u00e5": 8998, "c\u00cd": 8999, "\u00acb": 9000, "\u0090P": 9001, "\u00b1\u00ae": 9002, "\u00c1\u009c\u00e1": 9003, "e~3": 9004, "\u00dbZ": 9005, "\b\u00f7": 9006, "\u00f7\u00b7": 9007, "\u00d3]": 9008, "\u0095\u00c1": 9009, "?\u00cf": 9010, "o\\\u00d2\u00ff": 9011, "\u0019\u00c3": 9012, "\u009d\u00e6u": 9013, "^|": 9014, "\u00abA\u007f": 9015, "\u00a2S1\u00ed": 9016, "+\u00ba": 9017, "\u00d5\u0090": 9018, "<\u00f0": 9019, "\u00ac\u0080": 9020, "\u00f8u": 9021, "+\u00bc": 9022, "\bG": 9023, "i*\u00fb": 9024, "\u00d3e": 9025, "\u001c\u00ec": 9026, "\u00be\u009d": 9027, "\u00ca\u00ec": 9028, "!\u0012": 9029, "lF\u00dd": 9030, "\u0081k\u00e9\u00b1": 9031, "\u0015\u00ce": 9032, "^\u00df": 9033, "zm\u00da": 9034, "\u008f\u0006": 9035, "M\u001e": 9036, "J\u00e9": 9037, "\u001a\u00dd": 9038, "o\r": 9039, "l@": 9040, "6#\u0019": 9041, "\u00e6F\u00de": 9042, "dp": 9043, "_\u0000": 9044, "\u00be\u00f9": 9045, "\u00aa\u00d3": 9046, "\u00cb\u00fe\u0001": 9047, "\u009d\u00b7#\t": 9048, "\u00c8<": 9049, "P4": 9050, "\u0010\u00d5": 9051, "\u0014\u0085": 9052, "\u0005<": 9053, "K\u00e4": 9054, "\u00c2=": 9055, "& ": 9056, "\u0080p": 9057, " \u00e4": 9058, "\u00e7\u00cf\u00bc": 9059, "m\u00fe\u00ed": 9060, "\u00c2\u008c": 9061, "G\u009a\u00dd": 9062, "\u009c\u00f2": 9063, "~\u0091": 9064, "H\u00c7": 9065, "U]": 9066, "k\u00e1": 9067, "#\u00dc": 9068, "1\u009d": 9069, "\u00a6H\u00db": 9070, ":Wz\u00ed": 9071, "\u00ac\u0086": 9072, "\u0005\u00e0": 9073, "\u00ea\u0099": 9074, "\u001c\u00f0": 9075, "7\u00f9": 9076, "\u0003\u00b3": 9077, "\u00ab\u00e9": 9078, "\ns\u009c0": 9079, "\u00af\n": 9080, "\u001ba": 9081, "\u00eb8": 9082, "S\u00aaN": 9083, "G\u00a7": 9084, "\u00d0\u00d2\u00ba": 9085, "7}-": 9086, "\u00fd_": 9087, "'o": 9088, "[\u0099": 9089, "\u00c28": 9090, "d\u00a3\u001c": 9091, "\u0086\u00e6.rW": 9092, "\u00de:": 9093, ":p": 9094, "4\u00db\u00b2": 9095, "\u00f3n": 9096, "\u00f6<": 9097, "h\u00af": 9098, "K\u009f\u00e1": 9099, "O6\u00ef": 9100, "\u00b9N~": 9101, ":\u001b": 9102, "\u00cf\u0001": 9103, "\u009bw\u00fa": 9104, ".G": 9105, "\u00f7\u00ba": 9106, "\u00b36x": 9107, "\u0090v": 9108, "sY\u00b7\u007f": 9109, "+\u009f": 9110, "\u0099\u00b1": 9111, "\u00d7\u00d6\u00bd6\u00ed": 9112, "q\u00f7\u00de": 9113, "\u00c5(\u00f5": 9114, "\u00ca1\n": 9115, "k\u00c9": 9116, "\u0018\u0017": 9117, "x+": 9118, "\u00a8\u00be": 9119, "g9": 9120, "\u00d2&": 9121, "oo\u00e0N": 9122, "\u00abq\u009d": 9123, "\u00e7u": 9124, "D\u00e6\\": 9125, "\u00c6\u00b9": 9126, "\u00d8\u008d\u00bc": 9127, "\u00bb\u00ff": 9128, "\u00e5\u00ae\u00b5": 9129, "M\u00c0": 9130, "\u0088\u00d3": 9131, "\u00eb\u00c0": 9132, "\u0086\u00ec\u00fe": 9133, "\u00d4\u00db": 9134, "\u00d9~": 9135, "|p": 9136, "\u00f4\u00e1": 9137, "t\u00fd": 9138, "\u00eby": 9139, "9\u00e3": 9140, "6\u00df": 9141, "\u00f4\u0015\u0093": 9142, "wW": 9143, "\u009f\u00aa": 9144, "O<": 9145, "\u00e6\u00a2": 9146, "\u00b6\u00e6": 9147, "\u00ea\u00d6\u00ef": 9148, "\u00ab[\u00be": 9149, "j\u0099": 9150, "\u008a\u00a8\u00ce\u0086": 9151, "t9": 9152, "k+": 9153, "\u0091\u0088U": 9154, "q\u00a4": 9155, "\u009a\u00f8\u00e4": 9156, "k}": 9157, "\u00aa\u00ff\u001d\u00d6": 9158, "6\u00d8": 9159, "\u0082X": 9160, "*t": 9161, "\u00ac\u00e7\u0000": 9162, " \u00ff\u0094": 9163, "n\u007f\u00cd": 9164, "\u000f\u001b": 9165, "\u00f5\u000e": 9166, "\u0092\u00af\u00b5": 9167, "\u00af\na": 9168, "M\u00e3": 9169, "\u00ed:": 9170, "\u009b\u008e": 9171, "\u0093\u00e8": 9172, "\u00f3\u00e4m": 9173, "\u00e8\u00fd": 9174, "_\r": 9175, "M\u00b6": 9176, "\u0082u": 9177, "\u00c5Z\u000b\u00f9": 9178, "\u00f4\u00e4": 9179, "\u00f7a": 9180, "\n%": 9181, "j\u00f1": 9182, "|\u00d4": 9183, "TA": 9184, "\u00b2\u00f8\u001d": 9185, "c\u00c6": 9186, "\u00b1^": 9187, "\u000e\u00a1": 9188, "\u00d3\u00e8": 9189, "b\u00a1": 9190, "EE\u00f7": 9191, "\u000e\u00bdD": 9192, "\b\u00b9\u00c2": 9193, "Z\u00dd\u00f7\u0092\u00bb": 9194, "A\u00ff)": 9195, "W\t\u0089\u001f": 9196, "\u00c8|\u00ae": 9197, "\u00d4\u008c": 9198, "\u00edu\u00dd": 9199, "\u00fd8\u0002": 9200, "\u00f5e\u0018\u0092\u009e": 9201, "\u00f0\u00b5\u00d7\u00e1\u0090N": 9202, "\u00f6.~?\u00d2": 9203, "\u00eb\u0094\u00d6\u00b4": 9204, "\u00aeSZ": 9205, "]\u00e4\u001b\u00e9c\u00df\u00e4\u00dc~pj": 9206, "+# \u009f\u00bc": 9207, "/\u00b3": 9208, "W\u0013\u00c7": 9209, "\u00aeSZ\u00d2": 9210, "!\u00d3\u00f5\u008f": 9211, "\u00bf\u00ba\u0016": 9212, "\u00be\u00fe\u00db\u0099\r": 9213, "nd4": 9214, "\u00af Gw": 9215, "\u00c4J\u00b7": 9216, "!\u000fc\u00d7": 9217, "\u000fnSZ": 9218, "\u0090E\u00e4\u0093v": 9219, "\u001d8u\u00ed": 9220, "\u00b5m": 9221, "\u00dd:\u00a2": 9222, "\u0088C\u00db\u00fa": 9223, "*\u0083\u0087\u0081?": 9224, "y\u001d{D\u00c5": 9225, "H\u00fb\u0015\u00ee": 9226, "\u00a7T\r": 9227, "9:": 9228, "\u00b5\u0017\u0092S": 9229, "K\u00ec": 9230, "u\u00cakY]": 9231, "\u0096\u009d\u007f": 9232, "\u0091\u00f6+\u00dd": 9233, "\u00e8\u00d8": 9234, "\u00bc-u\u00f8d": 9235, "\u00f1\u0017\u00ff": 9236, "\u00bf\u000fj": 9237, "j\u00b4": 9238, "\u00b9\u00e7": 9239, "t\r": 9240, "\u00ba.": 9241, "\u0004\u00af": 9242, "_\\": 9243, "P{": 9244, "d\u00a3\u001d": 9245, "\u00b2\u00f96": 9246, "!\u00ce": 9247, "\u00a9\u00c0": 9248, "\u00aa\u00fa": 9249, "\u00d6&\u00ed": 9250, "(w": 9251, "ekM\u00b8": 9252, "\u0083\u00c8": 9253, "\u00c3\u0087\u007f": 9254, "[\u00fc\u008f": 9255, "a\u00d4": 9256, "\u00db\u00d7q": 9257, "6\u00d7": 9258, "\u00cf\b": 9259, "N\u00bc\u0092\u009b\u00c7": 9260, "\u00c9S": 9261, "j\u00c9\u00bbN": 9262, "#\u00c0": 9263, "\u0014\u00e8": 9264, "\u00957\u007fM\u00bb": 9265, "t7\u0088": 9266, "\u00c8*\u00ff": 9267, "\u00ad \u00e8\u00b5": 9268, "\u00a6\u00ca\u001d": 9269, "\u00eb\u0086": 9270, "6#": 9271, "?D": 9272, "\u00de\u009f": 9273, "\u0016\u00be\u009b\u0011\u00b7": 9274, "{\r": 9275, "VP": 9276, "\u00d1U\u0019\u00d0": 9277, "\tU\u0086": 9278, "\u0099_\u008c": 9279, "\u0007W": 9280, "\u00c3\u00a2\u00d6": 9281, "\u00fa%3\u001e": 9282, "\u00cb\u00e0v": 9283, "\u0017\u001c": 9284, "\u0006\u008d": 9285, "W)": 9286, "\u009d1": 9287, "`\u0092\u008c": 9288, "\u00de\u00baY": 9289, "\u00f0g": 9290, "\u00f3=": 9291, "M\u00ba\u00ba": 9292, "2\u000b": 9293, "\u008a\u00b3\u00df": 9294, "\u00bc2": 9295, "x'": 9296, "dd": 9297, "s\u00b8": 9298, "%\u00c8": 9299, "\u00d2\u0015": 9300, "\u00abY": 9301, "Q\u00ef^N": 9302, "\u00b7f": 9303, "\u00b5=\u00fc": 9304, "\u00a6\u00ed": 9305, "\u0082\u00b3\u00df": 9306, "\u00ce\u00cb\u00a5": 9307, "k_\u001c": 9308, "y\u00ef": 9309, "\u00a5\u00f0\u00e0": 9310, "5\u00f2": 9311, "\u00c0U": 9312, "\u00d4\u00f1": 9313, "\u00f4\u00b2": 9314, "\u00bd:": 9315, "\u00ff\u00ae": 9316, "\u009e\u00f9\u00bc": 9317, "\u00e2\u009d": 9318, "e\u00f9": 9319, ">\u00f5": 9320, "\u00ff^": 9321, "w\u00b7": 9322, "W\u00f8": 9323, "\u0081\u00e0\u0085": 9324, "\u00d1\u008f\u0004$\u00e5": 9325, "\u009b<\u00d5\u0003": 9326, "\u0004\u00fd\u00cd\u00be": 9327, "\u001fz": 9328, "\u00fb\u00d2": 9329, "\u00cek6\u00ef": 9330, "\u00a5\u00c6v": 9331, "8<": 9332, "\u00e5\u00ff": 9333, "\u00a4+": 9334, "3\u00d1\u008e": 9335, "^\u00df\u00ae": 9336, "\u00ad\u00ca": 9337, "8-": 9338, "s\u00179": 9339, "i\u00b7o": 9340, "\u00f4\n": 9341, "o\u00a7": 9342, "d\u00b9\u00fe": 9343, "\u00cc\\": 9344, "\u00fa\u00fc": 9345, "\\\u00ff\r": 9346, "9\u0017": 9347, "\u001b\u00d4": 9348, "\u00b9\u00d0)": 9349, "R\\": 9350, ":\u00ce\u009b": 9351, "\u00957~": 9352, "\u00fd\u0011": 9353, "g/": 9354, "t\u001c": 9355, "\u00b3.\u0090": 9356, "\u008dg\u0086": 9357, "-\u00d0": 9358, "\u0005\u0003\u00aaN": 9359, "\u0081t": 9360, "\u00abT": 9361, "\u00e9\u00b7\u0012\u000b": 9362, "\u00ea\u009b": 9363, "rn\u00fa": 9364, "c\u00cc": 9365, "T\u0004": 9366, "X\u00a8": 9367, "\u00db\u00c6": 9368, "\u00cf\u00e9|\u009d": 9369, "\u00b4^": 9370, "\u000e\u0013": 9371, "\u00b9\t": 9372, "\u000f\u00ac<\u00bb": 9373, "\u00c4\u00ea": 9374, "\u00e9R": 9375, "\u00ad\u0007\u00fb\u00c9": 9376, "\u001e|": 9377, "\u00ef\u00b8": 9378, "}\u00fa": 9379, "U\u00fe;\u00ad": 9380, "\u00e4<\u00f5\u0012": 9381, "?\u00deI7": 9382, "\u00c1\u0084": 9383, "\u00ea%v": 9384, "\u00d6!": 9385, "\u001a\u0007\u0082\u0012r": 9386, "z\u0089": 9387, "\u00f7\u0095": 9388, "\u00ab(\u0094\u00bf\u00d2": 9389, ">>": 9390, "\u0011\u00dd\u001f F\u00de": 9391, "[\u0094": 9392, "]\u00f9": 9393, "R\u00fb": 9394, "\u0002\u0081\u00d5'": 9395, "[\u009f\u008d=\u00d3": 9396, "=\r\u0017\u00f4\u00bf": 9397, "\u00aa\u00ae": 9398, "\u00ffp": 9399, "W\u00a3": 9400, "\u0091G": 9401, "\u00b1P": 9402, "z%": 9403, "\u00a2\u00bd": 9404, "\u00ef}": 9405, "\u00a0\u00f4\u00f7": 9406, "b\u0017": 9407, "\u00bd\u0085": 9408, "\u0086\u00e3": 9409, "\u00eb\u00f4\u00e0\u000f": 9410, "k\u00bf%": 9411, "#\u00ba>C\u0083": 9412, "\u00f6r\u00cd\u00bb": 9413, "\u00d7\u0090#\u00bb": 9414, "\u00f2\u008c_\u00e0\u00f22\f\u0018": 9415, "\u0017\u008b": 9416, "\u00d7\u009a\u0096\u00ad": 9417, "\u00f7G\u00aeZ\u00eb\u00f0\u00ca\u00e7\u0092S": 9418, "\u0089J[\u00ef<\u00c7": 9419, "\u00e2\u008e": 9420, "\u00a7T\u00a9": 9421, "\u00f0\u00cb\u00ff\\\u00e8=\u00c5)": 9422, "\u00d7Y\u00cd\u00be": 9423, "\rH\u00c8'": 9424, "\u0083\b\u00b8N\u00b7F": 9425, "\u0087\u00b7\u00d5Xn\u00fd": 9426, "^G^\u00d1\u000f": 9427, "O\u00d6": 9428, "~\u001e\u00dfUa\u00bb": 9429, "\u0010\u00af\u00ae": 9430, "\u00df(\u00c5": 9431, "\u000f# ": 9432, "\u001eW\u00df": 9433, "\u00a4t\u00e1\u00d7\u00b4": 9434, "#T~\u0091": 9435, "\u00a3\u00d7-u\u00ac\nK\u0081": 9436, "\u00cauN": 9437, "^G^\u00a2": 9438, "i\u008b\u00eau\u00f1\u00cb": 9439, "\u00ac\u008c\u0082~": 9440, "\u00b3\u00ff\u009d": 9441, "\u00bc\u008e\u00bd\u00a2D": 9442, "GN\u001d{": 9443, "\u0087^\u00de\u00fb\u00df)": 9444, "\u00f7\u00f6r\u00b5": 9445, ">\u00f1": 9446, "\u00c7\u008dO": 9447, "_\u00b8": 9448, "\u00c0\u00e9\u0003\u0018\u0084\u009c": 9449, "@\u00a7": 9450, "}\u00ce": 9451, "\f\u00ff\u00ec": 9452, "\u0091\u00b7\u00a6\u00dd": 9453, "\u0007#": 9454, "\u009b\u0014\u00f6": 9455, "n\u0096": 9456, "\u0096\u00a9": 9457, "COC": 9458, "0\u008e": 9459, "\nG": 9460, "\u001e4": 9461, "zT": 9462, "x\u0003": 9463, "\u007fV": 9464, "\u001byZ": 9465, "\\a": 9466, "\u009c\u0005": 9467, "6_\u001b\u00b6": 9468, "\u0093\u00bc\u00ce": 9469, " \u009e": 9470, ";\u00c4": 9471, "\u008e{": 9472, "\u0083\u00ba\u00be\u0086": 9473, "W\u00e4": 9474, "*\u00c8": 9475, "\u00d7X": 9476, "c\u00e1": 9477, "\u0004>": 9478, "\u009d\u00d6": 9479, "@\u00ba": 9480, "Uc": 9481, "\u00f7#": 9482, "\u0011\u008c": 9483, "\u0004c\u00c1\t9": 9484, "_g": 9485, "O\u00d2": 9486, "w\u00fb": 9487, ")\u00f2": 9488, "\u009b\u0014{": 9489, "\u0082~\u00e6\u00df": 9490, "w\u00a7": 9491, "\u0081\u001bx": 9492, "\u0087\u0006": 9493, "\u0011\u008f\u0004": 9494, "/\u00fc": 9495, "\u0089\\": 9496, "\u0087\u00c9": 9497, "Hi": 9498, "np": 9499, "P_": 9500, "\u000ev": 9501, "\u0018\u00a4": 9502, "i\u00b7W": 9503, "\u0082\\\u00e0": 9504, "\u008cB\u00a9": 9505, "U\u00f0": 9506, "o\u00c0": 9507, "\u000ex": 9508, "\u0091\u00ea\u00bb\u00c9": 9509, "\u009a\u008f": 9510, "Z_": 9511, "\n\u00de": 9512, "\u0088\u00e0": 9513, "\u008b\u00d8": 9514, "\u0085\u0092": 9515, "\u0088\u00e7": 9516, "Q\u00e6": 9517, "\u0093v\u0098\u00a5": 9518, "\u00a4\u00b8": 9519, "\u009d\r": 9520, "\u000b\u00fc": 9521, "\u0019Sw": 9522, "K\u00c4": 9523, "\u00ec\u00fe": 9524, "C\u00ebw": 9525, "{\u00ae": 9526, "8a\u00ab": 9527, "S\u0099\u00b2": 9528, "\u0095\u00fe": 9529, "VF": 9530, "d}": 9531, "YO": 9532, "\u009c\u00e1\u00aa": 9533, "\b\u00c4$\u00e5": 9534, "h.": 9535, "|\u00fa": 9536, "\n\u00a2": 9537, "w\u0081": 9538, "tR": 9539, "o>}\u00e3": 9540, "\u009buy": 9541, "\u00a5\u00fd\u00dc": 9542, "\u001d_\u00a8": 9543, "\u001b\u0000": 9544, "\u0017q": 9545, ").": 9546, "|@": 9547, "NS": 9548, "A\u00e3": 9549, "d\u0015": 9550, "x\u0094\u00a5": 9551, "\u001a\u00bc": 9552, "]\u00c8": 9553, "0\u0092\u009f": 9554, "h\u00f2": 9555, "7EP": 9556, "A\u0017": 9557, "I\u00bbLR": 9558, "Sx": 9559, "\u008d\u00e4\u0094": 9560, "Q\u009a": 9561, "\u001dE": 9562, "u\u00fc\u0087]": 9563, "#\u00cdn": 9564, "n\u00f6\u00de": 9565, "@\u00d6": 9566, "\u0081\u00ad": 9567, "Z\u0014": 9568, ">\u0085": 9569, "\\\u00e8\u0014": 9570, "5\u00df\u0092": 9571, "\u008f\u00a7": 9572, "D\u00c4": 9573, "\u008a\u0088": 9574, "B\u0089": 9575, "ru": 9576, "\u0081\u008cBN": 9577, "9\u00ef\u009b\u00c9)\u00bc": 9578, "m\u00b6\u00db": 9579, "VFA?": 9580, "\u0094J_\u00e9": 9581, "\u001a_\u00d7": 9582, "YD\u00a5\u00fe\u0096": 9583, "}#\u00ecW\u00ba": 9584, ":\u009a": 9585, "a\u00c8": 9586, "\u0004^I7": 9587, "\u0083\u0006\u0017": 9588, "\\\u00a6\u00b5\u0095": 9589, "B\u001e\u009ab\u00fa\u009d|r\u00c7": 9590, "^IM\u00e2": 9591, "\u009d\u00bf\u0095\u00deF|\u00ff": 9592, "mSw\u00ce\u00be9": 9593, "\u00bfN\u0000": 9594, "\f\u00afJ\u00cb\u00c6": 9595, "\\\u00ffm": 9596, "W\u00cd": 9597, "y\u0019\u0006\f": 9598, "ER\u00af\u008e": 9599, "!\u00f2\u00bb": 9600, "[\u00fb\u00a1d": 9601, "[\u00fbu\u00fe": 9602, "\u00c1(\u00ef": 9603, "&\f\u00180`\u00c1\u0083\u0006\f\u00180`\u00c1\u0083\u0006\f\u00180`\u00c1\u0083\u0006\f\u00180`\u00c1\u0083\u0006\f\u00180`\u00c1\u0083\u0006\f\u00180`\u00c1\u0083\u0006\f\u00180\u0015\u00e1|9\u00faL": 9604, "^|\u00fb\u00c7\u007f\u0081|\u00fd\u00dc": 9605, "\u0013\u00b7\u00e1\u00ed\u00f5V\u001b\u00bf": 9606, "C\u00eb\u000f.\u0090": 9607, "\u0004!\u00ed\u00fd": 9608, ":\u00f6\u00f7\u00de\u00f9N": 9609, "\u0093\u00af$\u00a6\u00f1": 9610, "^G^\u00d1^\u00df\u0004": 9611, "\u001d c": 9612, "_\u00b8\u0003": 9613, "\t9": 9614, "\u0093\u0010": 9615, "`\u00b2": 9616, "\u00d1U\u0019": 9617, "3\u00d1": 9618, "\u00af\u008d\u00db": 9619, ">\u00f8": 9620, "\u00e6\u0097\u00fd": 9621, "a\u00e5": 9622, "\u00aa\u00d2": 9623, "\"\u00a9": 9624, "\u00de\u00de": 9625, "(\u00ef": 9626, "\u001eE\u00e4\u0094": 9627, "7\u00f5fm\u00be\u00f3": 9628, "\u00df\u00f0\u00d9t": 9629, "\u00b0\u00f2\u00e9": 9630, "\u001e\u00ba": 9631, "\u001f\u00f2": 9632, "\u0083\u00c4": 9633, "\u008c;": 9634, "\u00be7m": 9635, "6\u00e2": 9636, "r\u009a": 9637, "\u00f6\u00f6": 9638, "f\u00c5": 9639, "\u0090N": 9640, "\u0083\b": 9641, "\u00f1\u00f1": 9642, "A\u007f ": 9643, "\u0093\u00ef": 9644, "\u00f0\u00ca\u00e7\u0092S": 9645, "\u009ec": 9646, "\u0012r": 9647, "\u00f3\u00e7\u00de": 9648, "\u00e4\u001f\u00f2": 9649, "\u0017\u00ff": 9650, "\u0080\u00a1\u00c7": 9651, "8\u00e1": 9652, "\u008a\u00ac": 9653, "\u00eb\u0014": 9654, "\u008a\u00ee": 9655, "\u00ea\u000b": 9656, "\u00ce\u00eb": 9657, "\u00ac\u00a6": 9658, "\u00de\u008b": 9659, "\u0082Q": 9660, "\u001e\bI\u00ca": 9661, "\u00b22": 9662, "\u00fc=": 9663, "\\\u00a6\u00b5": 9664, "\u007f\u00c3e\u00d2": 9665, "^I": 9666, "\u00d6\u00b4": 9667, "\u00f5V": 9668, ".r": 9669, "\u00a2\u00f8": 9670, "\u00ca\u001d": 9671, "\u00b2\u00e9\u0006": 9672, "\u00e3\u000e": 9673, "K\u00fb": 9674, "\u00f2\u008c": 9675, "P\u00f2/": 9676, "\u0082\u00feA": 9677, "\u0016\u00ba\u00fc2": 9678, "\u00edu": 9679, "$\u0013": 9680, "|n": 9681, "%\u00c0": 9682, "\u009f|": 9683, "\u0017\u00f4\u00bf": 9684, "\u00d1)": 9685, "\u00aet\n": 9686, "*xu>\u00fe\u00fe": 9687, "(\u0094\u00bf\u00d2": 9688, "z\u00f2:\u00f6\u00f7\u00de": 9689, "\u0002\u0087\u001c": 9690, "`\u00c1\u0083\u0006\f\u00180`\u00c1\u0083\u0006\f\u00180`\u00c1\u0083\u0006\f\u00180`\u00c1\u0083\u0006\f\u00180`\u00c1\u0083\u0006\f\u00180`\u00c1\u0083\u0006\f\u00180": 9691, "M\u00ed": 9692, "\u00b1F": 9693, "\u0097\u00e7": 9694, "\u00d1\u00f2": 9695, "t\\": 9696, "r\u00d7Z": 9697, "\u00e4d": 9698, "y\u0019": 9699, "9\u000e8": 9700, "\u00180`\u00c1\u0083\u0006\f\u00180`\u00c1\u0083\u0006\f\u00180`\u00c1\u0083\u0006\f\u00180`\u00c1\u0083\u0006\f\u00180`\u00c1\u0083\u0006\f\u00180`\u00c1\u0083\u0006\f\u00180": 9701, "\u0095\u00deF|\u00ff": 9702, "u~\u00bb": 9703, "{~": 9704, "\u00d5\u0001": 9705, "L@": 9706, "\u00aa\u0002": 9707, "\u0082\u00b3": 9708, "\u00d7\u00e1": 9709, "\u0087]": 9710, "$\u00a6\u00f1": 9711, "VFA": 9712, "\u00f0\u00b5\u00d7\u00e1": 9713, "T<\u008b\u00c9)": 9714, "\u00de\u00db": 9715, "e\u00e3": 9716, "A=": 9717, "\u000eC\u008e": 9718, "pj": 9719, "C\u0083": 9720, "^I7": 9721, "s\u00c9)": 9722, "\b\u00bd": 9723, "\u001e\u00d4": 9724, "q\u0087": 9725, ":\u0005": 9726, "\u00da\u00a6\u00ef": 9727, "\u00ae\u00f23\u00e7": 9728, "\u00ff\r\u0097H": 9729, "T\u00f0\u00ea}\u00fd\u00fd": 9730, "\u00ff\u0086\u00cb\u00a4": 9731, "\u00f8!T": 9732, "U\u008d": 9733, "\u00e9\u00fa": 9734, "\u00db\u0091": 9735, "x\u00d6": 9736, "{\u00ab": 9737, "\u008a\u00a5": 9738, "\u00f20": 9739, "\u00ef#": 9740, ":\u00f6\u00f7\u00de": 9741, "\u00aa_\u00dd": 9742, "\u001b\u00bf": 9743, "\u001c\u0087\u001c8": 9744, "\u00a7\u00df\u00df": 9745, "\u0018v": 9746, "\u00b6\u00fb\u00cf": 9747, "X%": 9748, "\u0094;": 9749, "\r\u00eb\u00b8": 9750, "\u00d3\u0080": 9751, "]b\u008c": 9752, "\u0082\u00a7\u0087S\u00ef\u00ef\u00ef": 9753, "\u00e3\u0081O\u009f\u00e0": 9754, "_\u00a7": 9755, "\u00e0S": 9756, "\u00d1r": 9757, "YD": 9758, "h\u00be": 9759, "\u009e\u001d": 9760, "Gt|": 9761, "Bv": 9762, "\u00a3\u0012S": 9763, "\u0087^\u00de\u00fb": 9764, "S\u00c3\u00a9\u00f7\u00f7\u00f7\u00c8*\u001eE\u00e4\u0094": 9765, "\u00f5\u00e4u\u00ed\u00ef\u00bd": 9766, "\u0095\u00deF": 9767, "\u00bc/\u0087": 9768, "\u00b7\u00f2\u00bb\u00c8": 9769, "\u0094\u00f9": 9770, "\u00d5X": 9771, "\u00f8\u001d": 9772, "\u00d7/\u0087?": 9773, "\u00ae\u00b1F": 9774, "\u00a7\u00eb": 9775, "\u00f5\u00cd/": 9776, "F4": 9777, "1]": 9778, "\u00a4}": 9779, "'\u00bb": 9780, "\u00e3\u0081": 9781, "r\u00cd\u00bb": 9782, "\u00b9\u00fc": 9783, "\u0003\u0006": 9784, "\u00ea\u00fdw\u00f0": 9785, "\u00a7\u0087S\u00ef\u00ef\u00ef": 9786, "\u00e4u\u00ed": 9787, "\u009b\u00fa\u00b36\u00dfy": 9788, "\u00180`\u00c1\u0083\u0006\f\u00180`\u00c1\u0083\u0006\f\u00180`\u00c1\u0083\u0006\f\u00180`\u00c1\u0083\u0006\f\u00180`\u00c1\u0083\u0006\f\u00180": 9789, "\u00a3\u00d7-u": 9790, "\u00a8y\u0017\u0092S": 9791, "O\u000e\u00a7\u00df\u00df\u00df \u00a8y\u0017\u0092S\u00d7\u0091\u00d7\u00b7\u00be\u00f7": 9792, "\u00cb\u00c6": 9793, "4\u00bf\u00bb": 9794, "\u00a0I": 9795, "\u0090T<\u008b\u00c9)": 9796, "wG\u00c8": 9797, "(\u00c3": 9798, "&\u00fe": 9799, "\u00cd\u0088\u00db": 9800, "\u00ed\u00d7": 9801, "\u00d1~": 9802, "\u00c5w": 9803, ",\u00a7": 9804, ";\u00ac": 9805, "+\u00f2": 9806, "sK\u00fe": 9807, "d4": 9808, "\u00b7\u00f2": 9809, "\u00d7:\u0005/": 9810, " \u00a8y\u0017\u0092S": 9811, "\u0090T<\u008b\u00c9)\u00eb\u00c8": 9812, "\u00af\u000b\u00e1": 9813, "YD\u00a5\u00fe": 9814, "S\u00c3\u00a9\u00f7\u00f7\u00f7": 9815, "\u00aa\u0097": 9816, ">\u007f\u0083": 9817, "\u00dc\u0012": 9818, "\u001d\u00d6": 9819, "\u00957|": 9820, "\u00a8<": 9821, "\u00d3\u009c7": 9822, "\u007f+\u00bc\u008c": 9823, "\u00af#\u00afo}\u00ef": 9824, "\u00ca\u00ef#": 9825, ">}\u00e3": 9826, "_\u00a8": 9827, "\u00faL": 9828, "\u00deg": 9829, "`uI": 9830, "\u00e7\u0092S": 9831, "\u0098\u00ae": 9832, "o\u0018": 9833, "EP": 9834, "\u00ef\u00ef\u00ef": 9835, "\u00b7\u00fc6] ": 9836, "\u00a8/\u00f9": 9837, "\u00cd\u00fdY": 9838, "\u00e6u": 9839, "\u00c8*": 9840, "<\u0092\u0098": 9841, "\\\u00f2J": 9842, "\u0017\u0092S": 9843, "\u00d2\u00fe\u00ee": 9844, "\u0081\u00d5'": 9845, "\u000f\u00ac": 9846, "\u00c9)\u00bc": 9847, "8\u0014": 9848, "u\u00fe": 9849, "\u0080\u0094": 9850, "u\u00cak": 9851, "\u00d7\u0090": 9852, "O\u000e": 9853, "\u00dd\u007f!\u00c7\u0002": 9854, "\u0087\u0081?": 9855, "\u00eds\\a": 9856, "\u00eb\u00eewY": 9857, "`\u00a9\u00e1\u00d4\u00fb\u00fb\u00fb": 9858, "\u00d7\u0091\u00d7\u00b7\u00be\u00f7": 9859, "\u00ec(": 9860, "\u00f8d": 9861, "\u00ab\u001b": 9862, "R\u00fe": 9863, "\u0095\u0097": 9864, "\u00a2S1": 9865, "b\u00bb": 9866, "~\u001e\u00d4": 9867, "\u00d7?\u0081": 9868, "n\u0083": 9869, "\u00d7X\u00a3": 9870, ";\u00a3": 9871, "=j": 9872, "\u00fc=\u00a9": 9873, "\u008d\u00db": 9874, "\u00f8{": 9875, "8u\u00ed": 9876, "\u0013\u00b7": 9877, "\u00ac\nK\u0081": 9878, "\u00cf\u00fev": 9879, "\u00a9\u00e1\u00d4\u00fb\u00fb\u00fb": 9880, "t\u001b": 9881, "^\u00df\u0004": 9882, "\u0015<:\u009f\u007f\u007f": 9883, "\n\u009e\u001dO\u00bf\u00bf\u00be": 9884, "\u00aa\u00ff": 9885, "+\u00dd": 9886, "\u00d7/\u0087": 9887, "W\u00ba": 9888, "\u00eb\u009d\u0002": 9889, "\u00e0O": 9890, "\u00ac\u00ae": 9891, "T\u00dd\u00f3": 9892, "o\u00e5w\u0091": 9893, "O\u000e\u00a7\u00df\u00df\u00df": 9894, "<\u00fb": 9895, "\u00c5X": 9896, "\u00bf\u00c7": 9897, "\u0012\u0098": 9898, "B/": 9899, "J|": 9900, "\u00a4m": 9901, "\u0092Sx": 9902, "\u00c7r": 9903, "\rH": 9904, "s\u0017": 9905, "\u00ba\u00feC\u008e\u0005": 9906, "\u0089J[\u00ef": 9907, "Pp\u00f0'": 9908, "\u0007\u000f\u0002": 9909, "\u00cf$\u00a6": 9910, "\u00dc\u008d": 9911, "sd": 9912, "\u007f\u008e": 9913, "D\u00ae": 9914, "\u0004\u00f5": 9915, "\u00e7\u00f0;": 9916, "&\f": 9917, "%s\u00c7": 9918, "\u009e\u00a2": 9919, "\u0088\t": 9920, "\u009f>\u00f1": 9921, ";\u00cc": 9922, "\u00b5M\u00df": 9923, "\u0081\u001d\u00dd": 9924, "\u00af$\u00a6\u00f1": 9925, "\u000f\u00f9>\u00f8": 9926, "\u00f5\u00f1\u00bb": 9927, "T\u00ca": 9928, "\u0010\u00f6": 9929, "\u0081@": 9930, "\u00dcQ": 9931, "\u009a_\u00dd": 9932, "\u009b\u00fa\u00b36": 9933, "R6": 9934, "o\u00c3\u00da": 9935, "\u0011\u00dd\u001f ": 9936, "\u00db\u00f9]\u00e4g": 9937, "\u007fVf": 9938, "\u00e9c": 9939, "\u0099\r": 9940, "@\u00a0": 9941, "\u0011\u00dd\u001f!": 9942, "\u00af ": 9943, "\u009e\u008f": 9944, "\u0012\u000b": 9945, "y\u00f6": 9946, "\u00f0\u00be": 9947, "\t\u00db\u00f0\u00f6": 9948, "\u00db\u00fe\u001b.\u0090": 9949, "\u0084\u00ed\u00f8{": 9950, "\u0015X": 9951, "\u008df": 9952, "\u009e5": 9953, "wY": 9954, "\u00ee\u008f\u0090": 9955, "l\u00be7": 9956, "K\u0081": 9957, ";\u008a": 9958, "K\u00fb\u00b8": 9959, "[\u00ef": 9960, "\u0082z": 9961, "\u00f4y\u000b": 9962, "\u00a1\u00e4^IO": 9963,
[...]
