{"\u00a7": 0, "\u00ff": 1, "\u00fa": 2, "\u00e7": 3, "S": 4, "\u00e8": 5, "x": 6, "_": 7, "\u00f9": 8, ")": 9, "\u00f4": 10, "\u00be": 11, "\u00f1": 12, "<": 13, "}": 14, "\u00f7": 15, "9": 16, "=": 17, "\u00af": 18, ":": 19, "\u00e0": 20, "\u007f": 21, "\u00d7": 22, "\u00cf": 23, "U": 24, "\u00bf": 25, "\u00f0": 26, "\u00f3": 27, "\u00aa": 28, "t": 29, "\u00f5": 30, "z": 31, "\u00fe": 32, "\u009e": 33, "\u00e1": 34, "\u008f": 35, "\u00ab": 36, "\u00fd": 37, "\u00e9": 38, "\u00ea": 39, "\u00b7": 40, "T": 41, "\u009c": 42, "s": 43, "\u00d5": 44, "W": 45, "\u001e": 46, "\u00eb": 47, "|": 48, "*": 49, "N": 50, "g": 51, "\u00ef": 52, "\u000e": 53, "8": 54, "\u0014": 55, "y": 56, "\u009f": 57, "\u0086": 58, "\u00c3": 59, "^": 60, "\u00fb": 61, "\u00b5": 62, "\u00e3": 63, "\u00ba": 64, "\u00df": 65, "\u00e4": 66, "\u0005": 67, "\u0082": 68, "\u00e6": 69, "\u00a2": 70, "J": 71, "\u00a8": 72, "\u001a": 73, "p": 74, "\u00d1": 75, "\u00d3": 76, "/": 77, "\u008a": 78, "\u0015": 79, "+": 80, "k": 81, "O": 82, "\u0087": 83, "\r": 84, "Q": 85, "{": 86, "w": 87, "\u00f8": 88, "G": 89, "\u00a9": 90, "\u0002": 91, "\u00bc": 92, ">": 93, "\u00de": 94, "\u00f2": 95, "\u00fc": 96, "\u00d0": 97, "\u0095": 98, "\u001d": 99, "\u009d": 100, "C": 101, "\u0004": 102, "\u0081": 103, "o": 104, "\u00c1": 105, "j": 106, "4": 107, "\u00ee": 108, "u": 109, "\u0011": 110, "A": 111, "\u00a3": 112, "\n": 113, "\u0017": 114, "\u0083": 115, "\u00dd": 116, "\u001c": 117, "i": 118, "\u00a1": 119, "V": 120, "\u00ce": 121, "\u00e2": 122, "\u00ed": 123, "\u0018": 124, "#": 125, "\u0012": 126, "\u0088": 127, "~": 128, "\u00ad": 129, "E": 130, "\u00a0": 131, "\u00ac": 132, "\u00f6": 133, "b": 134, "5": 135, "D": 136, "?": 137, "1": 138, "\u0089": 139, "\u00b3": 140, "r": 141, "\t": 142, "\u00da": 143, "\u00c7": 144, "\u0010": 145, "F": 146, "\u0091": 147, "\u00c8": 148, "\u00d4": 149, "\u009b": 150, "\u00c0": 151, "\u00a5": 152, "Y": 153, "\u00d8": 154, "n": 155, "\u009a": 156, "Z": 157, "h": 158, "\u00ec": 159, "\u00ca": 160, "P": 161, "\u00cd": 162, "7": 163, "\u00ae": 164, "\u0013": 165, "\u00dc": 166, "\u000f": 167, "H": 168, "\f": 169, "a": 170, "\u0007": 171, "\u0001": 172, "\u00c9": 173, "\u00e5": 174, "\u00c4": 175, " ": 176, "\u0090": 177, "\u0094": 178, ";": 179, "\u00bd": 180, "\u00b2": 181, "\u00d2": 182, "K": 183, "\u00bb": 184, "\b": 185, "]": 186, "R": 187, "\u00db": 188, "\u0097": 189, "\u001f": 190, "\u0006": 191, "3": 192, "\u0080": 193, "$": 194, "\u00d6": 195, "\u00b1": 196, "\u00b9": 197, "\u00b8": 198, "\u0019": 199, "\u001b": 200, "\u00c2": 201, "!": 202, "\u00a4": 203, "\"": 204, "%": 205, "d": 206, "@": 207, "\u00b0": 208, "\u000b": 209, "\u00d9": 210, "m": 211, "(": 212, "\u008b": 213, "'": 214, "q": 215, "\u00b4": 216, "0": 217, "6": 218, "\u00c5": 219, "X": 220, "\u00c6": 221, "\\": 222, "M": 223, "\u008d": 224, "\u008e": 225, "`": 226, "\u00a6": 227, "&": 228, "\u0085": 229, "f": 230, "\u0092": 231, "\u008c": 232, "e": 233, "\u00cc": 234, "B": 235, "\u0000": 236, ".": 237, ",": 238, "\u00cb": 239, "\u0016": 240, "\u0084": 241, "I": 242, "-": 243, "\u0099": 244, "2": 245, "[": 246, "\u0003": 247, "\u0093": 248, "l": 249, "\u0098": 250, "L": 251, "v": 252, "c": 253, "\u0096": 254, "\u00b6": 255, "M\u00bb": 256, "\u00d3n": 257, "\u00a6\u00dd": 258, "\u009c\u00e1": 259, "\u00cep": 260, "9\u00c3": 261, "s\u0086": 262, "\u00ca\u00d6": 263, "\u009bv": 264, "#o": 265, "F\u00de": 266, "\u009b<": 267, "\u0095\u00ad": 268, "ek": 269, "\u00a79\u00c3": 270, "\u00e9\u00b7": 271, "6\u00ed": 272, "\u0091\u00b7": 273, "i\u00b7": 274, "\u009a_": 275, "i\u007f": 276, "6\u00ec": 277, "Ns\u0086": 278, "g8": 279, "\u00e7\r": 280, "\u0011\u00b7": 281, "+Z": 282, "4\u00bf": 283, "m\u00da": 284, "\u00e7\f": 285, "\u00cb\u0086": 286, "2\u00e1": 287, "\u008d\u00bc": 288, "\u0099p": 289, "6y": 290, "\u00d2\u00ba": 291, "\u00e78": 292, "\u00ce\u001a": 293, "\u00cd/": 294, "\u008d\u00bd": 295, "\u00e5k": 296, "\u0095\u00ac": 297, "\u00b1\u0006": 298, "H\u00db": 299, "\u00a6\u00dc": 300, "l\u00f3": 301, "\u00b7\u007f": 302, "M\u00b8": 303, "m\u00d9": 304, "G\u00aa": 305, "\u00ad\u00df": 306, "M\u009e": 307, "\u00ce\u0019": 308, "\u00d2\u00ff": 309, "\u0093v": 310, "&\u00ed": 311, "\u00a7T": 312, "\b\u00db": 313, "e\u00c3": 314, "4\u00db": 315, "\u00fdn": 316, "M\u00da": 317, "\u009e1": 318, "2\u00b5": 319, "\u00cc\u00b8": 320, "\u00d6 ": 321, "\u00f4\u00db": 322, "S\u009c\u00e1": 323, "\u009c\u00e7\r": 324, "\u008fT": 325, "\u0092S": 326, "\u008cB": 327, "\u0010\u00af": 328, "\u008fU": 329, "\u001by": 330, "\u00f5\u00bb": 331, "V\u00b5": 332, "$m": 333, "9Z": 334, "\u009e\u0086": 335, "\u00b4\u00db": 336, "\u00c8\u00db": 337, "6\u00f3": 338, "$\u00be": 339, "\u0019Z": 340, "r\u00b5": 341, "t\u00db": 342, "\u00cf\u0018": 343, "m\u00d8": 344, "\u009c5": 345, "\u0092\u009b": 346, "I|": 347, "\u0097\f": 348, "\u00ebv": 349, "\u00acA": 350, "m\u00db": 351, "\u00d6x": 352, "X\u0083": 353, "n\u00fe": 354, "\u001bz": 355, "\u00d6\u00ef": 356, "\u00ce\u0018": 357, "\u009bw": 358, "\u00a3\u00d5": 359, "\u009c\u00e7\f": 360, "#\u00d5": 361, "s\u009c": 362, "\u00b2\u00b5": 363, "\u008f_": 364, "\u00f5\u001e": 365, "\u00f0B": 366, "\u00ac\u00f0": 367, "\u00cf\u007f": 368, "G\u00af": 369, "\u00e4\u00dd": 370, ".p": 371, "\u00f5\u00e4": 372, "\u00c4z": 373, "$\u00dd": 374, "[\u00bf": 375, "\u009c3": 376, "V\u00b4\u00db": 377, "N\u00a8": 378, "\u00d3\u00aa": 379, "M\u00df": 380, "\u00a5\u00fe": 381, "\u0092\u00f9": 382, "+Y": 383, "x\u00c7": 384, "\u00ad\u00cf": 385, "\u0099)\u00b6": 386, "\u00d3g": 387, "\u00d6\u00ed": 388, "\u00c9M": 389, "\u00ca\u00d6\u009bv": 390, "<c": 391, "K\u00fd": 392, "\f\u00ad": 393, "\u00f2J": 394, "\u0088\u00db": 395, "i]": 396, "\r+": 397, "Y\u00e1": 398, "\u008dg": 399, "\u00859": 400, "\u009dQ": 401, "\u00aa\u0006": 402, "\u009bq": 403, "\u00b3\u00c3": 404, "\u0004m": 405, "s\u0080": 406, "$\u00a7": 407, "\u009bp": 408, "b\u0015": 409, "!\u00df": 410, "\u00aeS": 411, "\u0092_": 412, "\u00e4\u0094": 413, "S\u00aa": 414, "\u00a3\u00d7": 415, "\u00fa\u00dd": 416, "\u00d6\u00ec": 417, "(\u00f5": 418, "f\\": 419, "\u0088W": 420, "\u00af\u008e": 421, "\u00e0\u0085": 422, "\u00d6*": 423, "\u00cc\u0094\u00db": 424, "\u00cd\u00bb": 425, "9\u00ce\u001a": 426, "6\u00ef": 427, "\u000e\u0086": 428, "\u00cb\u00e4": 429, "7i": 430, "n\u00d3": 431, "\u00e6\u0097": 432, "1\n": 433, "\u00178": 434, "6\u00e1": 435, "\u00ebw": 436, "V\u00b7": 437, "!_": 438, "\u0097\u00c9": 439, "\u009c\u00ad": 440, "\u00b9k": 441, "\u00d7)": 442, "\u00f1\u008e": 443, "\u0082\u00dd": 444, "$\u00a6": 445, "\u0082\u0015": 446, "m\u00c2": 447, "\u00acU": 448, "\u00d9Z": 449, "g\u0086": 450, "I\u00bb": 451, "\u00ed\u00bc": 452, "#\u00d3n": 453, "\u0011\u00e9\u00b7": 454, "_\u001c": 455, "X\u00ab": 456, "\u00c4m": 457, "b\r": 458, "V\u00b3": 459, "\u00c6\u00b3": 460, "\u00be9": 461, "g\u00bf": 462, "\b\u00f5": 463, "N_": 464, "\u00f7\u00de": 465, "4\u00ae": 466, "b\f": 467, "k<": 468, "\u001b\u00d7": 469, "\u00c9\u00bb": 470, "G\u00a6\u00dd": 471, "\u00adi\u00b7": 472, "\u00d3\u009c\u00e1": 473, "IO": 474, "\u00f3\u001e": 475, "1\u00ea": 476, "Np": 477, "\\\u00ff": 478, "\u0011\u00ea": 479, "\u00a5u": 480, "\u008f'": 481, "\u001aW": 482, "\u00be\u001c": 483, "\u00c1n": 484, "\u00ea=": 485, "\u00e1\u0095": 486, "\u009c\u00e0": 487, "\u00026": 488, "A\u00ff": 489, "\u00e9]": 490, "d\u00a6": 491, "\u00c3+": 492, "/\u0093": 493, "\u0092\u009e": 494, "T\u00dd": 495, "m\u00df": 496, "=\u00fe": 497, "\u0088\u00f4\u00db": 498, "\u00f4\u00ae": 499, "\u00fa\u008f": 500, "kv": 501, "\u0018\u0085": 502, "\\\u00e1": 503, "\u001e\u00a8": 504, "\u00c4\u0019": 505, ")\u00cep": 506, "dm": 507, "\u00ef\u00bc": 508, "\u008fM\u00bb": 509, "\u00a6\u00ef": 510, "\u00c4\u001a": 511, ":\u00a4": 512, "\u00f6\u00de": 513, "\u00eb\u0010": 514, ":W": 515, "\u00ce\u0002": 516, "#\u00d7": 517, "k\u00c8": 518, "\u00c9)": 519, "\u00c1\n": 520, "#n": 521, "~\u00b7": 522, "2Sm": 523, "Q\u00ea": 524, "\u0010\u00aa": 525, "M\u0088": 526, "\u001d{": 527, "\u009e9": 528, "I)": 529, "\u00a9\u00bb": 530, "CJ": 531, "Sn": 532, "3\u009c": 533, "I7": 534, "\n<": 535, "\u00ea\u0093": 536, "\u0005\u00bb": 537, "\u00b4\u00ae": 538, "\u008aZ": 539, "\u00a5N": 540, "\u00d6\u00e7": 541, "\u00ad\u00da": 542, "\u0092n": 543, " \u00ff": 544, ")\u00b7": 545, "\u00b9\u00ff": 546, "\u00d8\u0083": 547, "\u00de\u00bc": 548, "\u00ec\u00ad": 549, "=\r": 550, "\u00de\u00bb": 551, "\u00ce\u001b": 552, "\u00b3\u009c": 553, "{o": 554, "\u00e6\\": 555, "\u0086\u0095": 556, "\u00cf:": 557, "\u001a\u00ce": 558, "\u009e\u00ff": 559, "\u008f\u000e": 560, "\u00bf\u0090": 561, "EE": 562, "rn": 563, "\u0014\u00db": 564, "\u0004z": 565, "\u00bf[": 566, "$\u009b": 567, "_Z": 568, "\u00f3\u009c": 569, "b6": 570, "1\u001e": 571, "\u00bdy": 572, "\nu": 573, "\u00d2\u00b9": 574, "kw": 575, ")\u00d5": 576, "c\u00d5": 577, "\u00dd\u007f": 578, "\u008fP": 579, "\u00ef]": 580, "\u00f7\u00f7": 581, "-}": 582, "c\u00c3": 583, "\u00db\u00bf": 584, "\u0006\f": 585, "\u00e9\u00b3\u00ce": 586, "\u00a6\u00cf:": 587, "t\u00ae": 588, "\u00de\u00ba": 589, "_\u00c8": 590, "y%": 591, "\u00e7\u008c": 592, "_\u000e": 593, "\u00d3n\u00d5": 594, "%\u00f3": 595, "\u00aan": 596, "\u00b5\u00bb": 597, "z\u00f2": 598, "\u00e0\u00a7": 599, "0\u00d5": 600, "\u00926": 601, "\u00dbm": 602, "\u00ef\u00ef": 603, "|s": 604, ";\u00d7": 605, "\u00d3g\u009c": 606, "\u00d7\u0091": 607, "\u009b\u00b4": 608, "\u00f9\u00fe": 609, "\u00b3\u0086": 610, "\u00f1\u00ce": 611, "uI": 612, "\u0085:": 613, "\u0014\u00e78": 614, "[\u009e": 615, "\u00de\u0092": 616, "}\u00e7": 617, "\u00a7\u000e": 618, ":\u00f6": 619, "b\u0096": 620, "\ns\u009c": 621, "}\u00fd": 622, "\u00f2\u00b5": 623, "&\u00ef": 624, "\u00b1\u001b": 625, "]\u00e4": 626, "\u0097\r": 627, "\u0083\u00fe": 628, "\u0007\u00fc": 629, "\u0082=": 630, "i\\": 631, "\u00bau": 632, "\u00bd%": 633, "N\u00a9": 634, "\u000bv": 635, "\u00180": 636, "\u009b\u0010": 637, "\u008e\u00ee": 638, "\u00f0\u00ca": 639, "\u00f8e": 640, "\u00e7\u0001": 641, "\u00c8\u00f5": 642, "\u00fb\u00fb": 643, "\u0005\u00af": 644, "\u00ae\u00f2": 645, "\u001e\u009bv": 646, "\u00b3.": 647, "\u00eb\u00da": 648, "\u0086W": 649, "\u00c5-": 650, "u\u00ed": 651, "|r": 652, "6\u00e3": 653, "w\u00ae": 654, "\u0094z": 655, "%6": 656, "\u008aY": 657, "KV": 658, "\u008f\r": 659, "Sw": 660, "\u00caz": 661, "\u00bdv": 662, "\u00a2\u00a2": 663, "\u009d+": 664, "i\u00b3\u00ce": 665, "`\u00c2": 666, "\u009cG": 667, "\u00f0'": 668, "\u00a7U": 669, "\u00e8\u00f5": 670, "\u0016\u00be": 671, "9\u00c0": 672, "\u00d1\u00ea": 673, "#l": 674, "\u00e2=": 675, "W\u00c7": 676, "\u00c4+": 677, "\u00f4\u0096": 678, "ekM\u00bb": 679, "\\\u00f1": 680, "(\u00c4": 681, "\u0095\u00ad6\u00ed": 682, "\u0093w": 683, "\u0085\u001e": 684, "\u00e7w": 685, "zK": 686, "%\u0018": 687, "\u00b1W": 688, "\u009e\u00fe": 689, "\u00aes": 690, "\u0005\u000e": 691, "\u008b\u009c": 692, "G\u0093": 693, "\u00abs": 694, "\u00c5,": 695, "|\u00ff": 696, "\\\u00a6": 697, "\u00e9\u00cep": 698, "F!": 699, "\u00e9\u00d5": 700, "\u00e4z": 701, "\u00fb\u00cf": 702, "e\u00d2": 703, "\u009d6": 704, "\u0087C": 705, "\u00df\u0004": 706, "\u00ad\u00d9": 707, "u\u00bb": 708, "{\u007f": 709, ">\u007f": 710, "\u00f8!": 711, "\u00e6l": 712, "\u00dbx": 713, "r\u00d7": 714, "\u00cf\u001c": 715, "\u00e1\u00c3": 716, "\u0092\u008c": 717, "\u00af#": 718, "V\u00e7": 719, "\u0087\u007f": 720, "\u00abK": 721, "\u00ba\u00fe": 722, "\u00eb\u0096": 723, "\u00b3\u00ce": 724, "=\f": 725, "m\u00c7": 726, "\u00f5\u0088": 727, "\u009dn": 728, "Wy": 729, "\u00af#\u00afh": 730, "\u0011\u00eb": 731, "\u001e\u00ab": 732, "\u00a9\u00cep": 733, "\u00a9\u00d5": 734, "V\u00bf": 735, "\u00e7\u00af": 736, "\u00ffg": 737, "\r\u00eb": 738, "C\u00bf": 739, "\u0088U": 740, "fJm": 741, "\u00cd\u009e": 742, "\u00a4\u00ab": 743, "\u00ccz": 744, "h\u00f5": 745, "\u00fa\u00dc": 746, "\u009b\u00be": 747, "cY": 748, "IW": 749, "\u00d7\u0085": 750, "\u001e\u00bf": 751, "6 ": 752, "\u00c4y": 753, "\u009dR": 754, "lA": 755, "\u00ed+": 756, "o_": 757, "\u00b9\u00dd": 758, "sK": 759, "\u00d7\u00fd": 760, "b=": 761, "\u00cd}k": 762, "1K": 763, "m\u00c9": 764, "\u0090\u00ef": 765, "\u00d7\u009a": 766, "\u0005:": 767, "\u00cfC": 768, "\u00b7<": 769, "z\u00e9": 770, "\u00c7\u00aa": 771, "\u008a\u008a": 772, "s\u00c6": 773, "\u00cf\f": 774, "\u00e3\u001d": 775, "IN": 776, "%_": 777, "F\u00dd": 778, "N)": 779, "3n": 780, "5\u00bb": 781, "\u009bw\u00fb": 782, "yZ": 783, "9\u00ef": 784, "\u0007(": 785, "m\u00d5": 786, "\u000b_": 787, "\u00d5\u00b9": 788, "d\u00a6\u00da": 789, "\u0003\u0094": 790, "0a": 791, "\f\u0018": 792, "\u00ff<": 793, "\u00cb\u00fe": 794, "\u00cd\u008a\u00eb": 795, "\u00a7_": 796, "\u00f43": 797, "\u00fa\u001a": 798, "\u001e\u00bf[": 799, "k\u00fe": 800, "2Sl": 801, "\u00e6Jm": 802, "\u009b\u0015\u00d6": 803, "\u0091\u00ea": 804, "\u00db\u00ef": 805, "\u00aex": 806, "\u00cf\u00fe": 807, "\u00d7?": 808, ":\u00dd": 809, "\u00beQ": 810, "\u00c7\u0087": 811, "\u00eb\u0015": 812, "\u0087|": 813, "\u00b9\u00e3": 814, ";\u00bb": 815, "\u00a1\u00f7": 816, "\u00c1N": 817, "\u0013\u00df": 818, "\u00c8w": 819, "G\u0086": 820, "\u00d7\u0091\u00d7\u00b4": 821, "\u000fo": 822, "\u00d57": 823, "\u009a\u00fa\u00d7": 824, "\u00b2\u00f9": 825, "\u007f\u00f6": 826, "\u00d9\u00e7": 827, "\u00cd\u00b8": 828, "Y\u00d3v": 829, "IL": 830, "F\u00d8": 831, "=Q": 832, "\u00e0\u0084\u009c": 833, "\u00afo": 834, "\u001e\u00df": 835, "\u00e9\\": 836, "9\u00ce\u0019": 837, "\u00a9\u00c3": 838, "\u001e\u001b": 839, "a\u00ab": 840, "\u009d6\u00ed": 841, "\u00be\u00f3": 842, "\u00c59": 843, "z\u00fb": 844, "\u00f4c": 845, "\\\u00e7": 846, "\u00a7M\u00bb": 847, ")\u00f6": 848, "\u00b9\u00fe": 849, "N\u0095": 850, "\u00fb\u00c7": 851, "\u00a6\u00cf": 852, "\u00a1\u00a5": 853, "\u00a5\u00ab": 854, "k\u0096": 855, "+X": 856, "\u00ca}": 857, "\u00e7\u00ff": 858, "5\u00e4": 859, "\u00e1\u00d4": 860, "\u00f5\u00df": 861, ":\u00e5": 862, "R\u00d5": 863, "\u0005\u001e": 864, "\u0098\u00f5": 865, "\u0094\u00fb": 866, "\u0085}": 867, "wv": 868, "\u0010\u0086": 869, "\u00e8o": 870, "M\u00ba": 871, "=}": 872, "\u00beS": 873, "\u008f\u0004": 874, "\u00a8G": 875, "\u0002\u00d7": 876, "2\u00bf": 877, "\u00a2\u0096": 878, "\u00db\u00d7": 879, "\u00f0\u0006": 880, "So": 881, "\u00d6s": 882, "\u009d\u00eb": 883, "t\u00ea": 884, "\u00daW": 885, "\u00a3\u00c3": 886, "\fG": 887, "\u001bx": 888, "\u00a78": 889, "n\u00fd": 890, "f\u0097": 891, "\u0018\u0084\u009c": 892, "M\u00d9": 893, "\u00beN": 894, "6\u00ef\u00f6": 895, "\\\u00b5": 896, "\u00a9\u00b7": 897, "z\u001a": 898, "\u0095\u00ad6\u00ec": 899, "\u00d5\u0003": 900, "\u00eau": 901, "'\u008e": 902, "O\u001c": 903, "\u0092\u00af": 904, "\u00eb\u0094": 905, "e\u00f2": 906, "\u007f\u00a5": 907, "\u00adn": 908, "\u00f7\u009e": 909, "2\u00ff": 910, "}\u00e3": 911, "\u00cc\u00d9": 912, "\u00ab\u00e3": 913, "\u00d6t\u00dd": 914, "k\u0010": 915, "\u00af\u000b": 916, "\u0096\u00ad": 917, "/\u009f": 918, "N\u009bv": 919, "\u009f\u00fd": 920, "\ns": 921, "\u00c9/": 922, "2\u00beF": 923, "\u009d7": 924, "zW": 925, "\u00b9\u00c3": 926, "\u00b7\u00ae": 927, "\u0097\u00cf": 928, "4z": 929, "N\u00ab": 930, "\u009d6\u00ec": 931, "\u0081\u00ca": 932, "\u00e8g": 933, "\u00a7P": 934, "\u00ac\u00e9\u00bb": 935, "\u00b9N": 936, "\u000f\u00f9": 937, "\u00cb\u00a4": 938, "%:": 939, "\u00d3n\u00c1": 940, "\u00dd\u00fc": 941, "\u000b\u00f9": 942, "\u0006=": 943, "Jl": 944, "\u00e1\u00c8": 945, "\u00f9p": 946, "\u0097\u00c0": 947, "=\u00fd": 948, "\u00cc\u0094": 949, "s\u00ff": 950, "\u00d7\u00d6\u00bd": 951, "\u00eb\u00c8\u00eb\u00da": 952, "J1": 953, "e|\u008c": 954, "\u00fd,": 955, "\u008d\u00ba": 956, "{\u00fb": 957, "1\u00e4": 958, "\u00f6\u00fe": 959, "\u00aa3": 960, "\u0018\u008f": 961, "7\u00ae": 962, "\u00be\u00fe": 963, "\u00be\b": 964, "s.": 965, "\u0086s\u0086": 966, "\u00de\u00a2": 967, "\u00d1\u00eb": 968, "7}": 969, "\u00c0\u00e5": 970, "\u0014\u00ea": 971, "\u0088\u00f3": 972, "\u008fC": 973, "\u00eb<": 974, "\u00a6\u00dd\u00fe": 975, "\u00a7J": 976, "b<": 977, "\u00cc\u00af": 978, "\u00ab_": 979, "o]": 980, "\u00a6\u00dc\u0096": 981, "+Zm\u00da": 982, "\u00e9-": 983, "\u0011\u00dd": 984, "\u00f8\u00e7": 985, "s\u00fe": 986, "\u00a7'": 987, "J\u00be": 988, "\u0011\u00b6": 989, "~\u009c": 990, "\u0088C": 991, "\u00bd\u00a2": 992, "(\u00c7": 993, "QQ": 994, "\r_": 995, "\u00a6\u00df": 996, "f\u00dd": 997, "\u00bdE": 998, "{\u00ef": 999, "\u001f\u00e0": 1000, "\u009bu": 1001, "\u001d\u00dd": 1002, "\u00c8?": 1003, "^G^\u00d1": 1004, "\u00f8\u00dd": 1005, "_'": 1006, "C\u00fc": 1007, "\u00d3nK": 1008, "t3": 1009, "\u00fdG": 1010, "\u00b8f": 1011, "u\u00cb": 1012, "O\u007f": 1013, "\u0003\u001e": 1014, "3b\u00ba": 1015, "\u00a3\u00cep": 1016, "\u00c4*": 1017, "\u00a6\u00dd\u0099": 1018, "!\u00fe": 1019, "\u00a1N": 1020, "\u00f7\u008e": 1021, "\u00e7\u00cf": 1022, "_\u0003": 1023, "\u00e9\u00e8": 1024, "\u00d7\u00f2": 1025, "3g": 1026, "\u0018j": 1027, "\u00f2\u00eb": 1028, "tZ": 1029, "\u0084m": 1030, "\u00e1\u00ed": 1031, "\u00af\u00fb": 1032, "\u0092\u009d": 1033, "\u00d7\u00c3": 1034, "\u00d4\u00e78": 1035, "\u00bdD": 1036, "\u007fQ": 1037, "\u00eb\u00c9": 1038, "\u00f45": 1039, "N\u00bc": 1040, "f\u00c5u": 1041, "\u00ef^N": 1042, "\u00de\u00be": 1043, "\u00af\u00adz": 1044, "\u009c\u00f5": 1045, "\u00bb\u00c9": 1046, "\u00e7\u00fb": 1047, ":\u00a3": 1048, "M\u00c7": 1049, "\fz": 1050, "\u00e4m": 1051, "\u0084=": 1052, "\u00ea<": 1053, "\u00f1\u00c8": 1054, "\u00e4>": 1055, "\u00ba\u001a": 1056, "\u0006<": 1057, "\u0091\u00b6": 1058, "|8": 1059, "q\u001e": 1060, "\u00059": 1061, "\u0097\u00fa": 1062, "\u00d2\u00b8": 1063, "e>": 1064, "\u00e7\u00be": 1065, "\u00c2\u009c": 1066, "3e": 1067, "}\r": 1068, "\u00b5\u00ff": 1069, "\u00faY": 1070, "7\u007f": 1071, "uF": 1072, "\u00dcz": 1073, "\u0099_#": 1074, "^\u00a2": 1075, "g\u008c": 1076, "\u00d9\u00c3": 1077, "3\u00df": 1078, "\\\u00a7": 1079, "k\u00cd": 1080, "\u00fa\u00b2": 1081, "\u008aX": 1082, "\u00f3\u00d0": 1083, "\u0018\u00f5": 1084, "B\u00bc": 1085, "z\u0089": 1086, "\u00c8}": 1087, "\u00d3n\u00cd": 1088, "OC": 1089, "\u00e8h": 1090, "V\u00b0": 1091, "\u000e\u00fe": 1092, "\u0095\u00f20": 1093, "\u00d3\u00af": 1094, "\u00f3\u00fc": 1095, "\u0094b": 1096, "W<": 1097, "/\u0087": 1098, "g\u00ff": 1099, "\u00e0\u00b7": 1100, "\u00c1\u0085": 1101, "\u00ffK": 1102, "*m": 1103, "\u00b6\u00db": 1104, "\u000b\u0012": 1105, "AY": 1106, "V\u0096": 1107, "\u0010\u0093": 1108, "\u00e6=": 1109, "|\u00a3": 1110, "\u00d4{": 1111, "]g": 1112, "\u00ae\u007f": 1113, "\u00f8'": 1114, "2S": 1115, "\u009b\u00bf": 1116, "%<": 1117, "\u0082\u00b2": 1118, "\u00f9N": 1119, "!^": 1120, "ty": 1121, "d>": 1122, "\u00d2\u00fe": 1123, "\u00f44": 1124, "\u0095}": 1125, "B\u009c": 1126, "$3": 1127, "e\u00ff": 1128, "\u00de!": 1129, "\u00f3\u00fd": 1130, "Z\u00fb": 1131, "\u0014y": 1132, "O|": 1133, "\u00f1\u00bb": 1134, "fl": 1135, "\u00d5\u001a": 1136, "\u00ca\u00d0": 1137, "T\u00ea": 1138, "\n\u00fa": 1139, "E{": 1140, "\t\u00ef": 1141, "\u00a3\u00d4": 1142, "E\u00ce": 1143, "\f\u00a7": 1144, "\u00e5kM\u00bb": 1145, "\u00a1\u00a2": 1146, "\u001dR": 1147, "\u00ca1": 1148, "c\u00d4": 1149, "\b\u00b9": 1150, "\u007f\u00d9": 1151, "\u008a\u009b": 1152, "\u00cc{": 1153, "f=": 1154, "\u0093\u00c7": 1155, "\u00e7\u008e": 1156, "\u00d7Y": 1157, "`\u00b7": 1158, "\u00e6\u00df": 1159, "_\u00f0": 1160, "\u00d7\u007f": 1161, "G\u009c\u00e1": 1162, "H\u00f3": 1163, "\u0087^\u00d1": 1164, "E,": 1165, "\u00b3\u009e": 1166, "\u0088I": 1167, "s\u00c7": 1168, "\u00ca\u009b\u00bf": 1169, "Y\u00b7\u007f": 1170, "6\u00e4": 1171, "\u001e\b": 1172, "\u00dfy": 1173, "\u00bdt": 1174, "\u00ab\u007f": 1175, "/\u0081": 1176, "6\u00ea": 1177, "\u00a5s": 1178, "\u00e8\u00a8": 1179, "\u0082~": 1180, "\u0097\u00f9": 1181, "K\u00fc": 1182, "\u001eN": 1183, "!'": 1184, "y\u00e8": 1185, "\u00bd\u00ae": 1186, "\u00dc\u00ee": 1187, "+'": 1188, "\u00faX": 1189, "_?": 1190, "\bW": 1191, "\u00f2:\u00f6": 1192, "\u0086\u009bv": 1193, "C\u008e": 1194, "\u00ea\u00dc": 1195, "\u00a9j": 1196, "\u00e7\u00a1": 1197, "S\u0087": 1198, "\u00e9\u00b7`": 1199, "\u00f5\u00dc": 1200, "\u00a3\u00c9": 1201, "(\u00f0": 1202, "\u00a5\u00fd": 1203, "\u00d3\u00df": 1204, "?\u00fb": 1205, "V\u00f1": 1206, "\u009f?": 1207, "\u00a5\u00ff": 1208, "\u00c3\u00afh": 1209, "y\u001d{": 1210, "\u0098\u00a5": 1211, "<\u00ff": 1212, "F!'": 1213, "\u007f\u00c3": 1214, "C\u00ea": 1215, "\u0083\u0006": 1216, "\u00cf\r": 1217, "k\u00eb^": 1218, ".\u0019": 1219, "\u00df\u00e4": 1220, "?\u00a5\u00f2": 1221, "\u0096m\u00df": 1222, "\u0005d": 1223, "o\u000e": 1224, "\ry": 1225, "B\u00be": 1226, "U\u00f6": 1227, "\u00cc\u00d8\u00ae\u00b6": 1228, "\u00cf_": 1229, "\u00f5\u00b9": 1230, "\u0085x": 1231, "P\u00e3": 1232, "i\u00ee": 1233, "\u00b1\u001e": 1234, "\u007fK\u00e4": 1235, "\u00cb6\u00ef": 1236, "\u00eb\u00e3": 1237, "\u00ca\u00f9\u0018": 1238, "\u00f59": 1239, "\u00fe\u0097\u00c9": 1240, "\u0091\u00e6": 1241, "\u00f4T": 1242, "\u00edy": 1243, "U\u0086": 1244, "s\u00bb": 1245, "\u00a1b": 1246, "\u00ce\u009b": 1247, "\u008cR": 1248, "\u000eP": 1249, "\u00b2\u00ff": 1250, "\u0092\u00bb": 1251, "\u0094c": 1252, "\u001f\u00f2": 1253, "\u009d\u00dd": 1254, "C\u00ae": 1255, "k9": 1256, "\u00ad\u00d8": 1257, "\u00f26": 1258, "d\u00dd": 1259, "\u00af\u0087": 1260, "!\u00c7": 1261, "\u009au": 1262, "N#": 1263, "\u00ac\u00e7": 1264, "\n=": 1265, "\u00fa\u0019": 1266, "=\u00f3": 1267, "\u00aa\u00c3": 1268, "\u00b6\u00dbm\u00b6\u00dbm": 1269, "T\r": 1270, "\u00abx": 1271, "\u00c0\u00e9": 1272, "\u00bcC": 1273, "\u00f9Z": 1274, "\u00d0\u00a7": 1275, "\u00a6\u00de": 1276, "w\u0093": 1277, "8j": 1278, "\u0099)": 1279, "\u00fe\u00fe": 1280, "\u00df\u00df": 1281, "\u00980": 1282, "\u00bc\u008e\u00bd\u00a2": 1283, "\u0013v": 1284, "\u00a8\u001a": 1285, "!\u00f5": 1286, "6+\u00ad": 1287, "\u008cU": 1288, "\u00a3\u001d": 1289, "\u00e2\u009c": 1290, "\u00bf]": 1291, "\u008a1": 1292, "2\u00e9": 1293, "\u0012\u0019": 1294, "\u00b36": 1295, "\u00e9\u00b7f": 1296, "\u00dc\u00ff": 1297, "tz": 1298, "%=": 1299, "\u00b7\u00f9": 1300, "\u00aa\u008c": 1301, "\u0090\u00ff": 1302, "Z\u00dd": 1303, "J\u009d": 1304, "\u0095\u00a1": 1305, "\u00ef\u0010": 1306, "\u0095:": 1307, "\u00d3o": 1308, "\u00f0\u00e1": 1309, "5\u00f5\u00af": 1310, "&\u00ec": 1311, "\u0087\u0091": 1312, "n\u00f8": 1313, "\u0099\u00b2": 1314, "&\u00e3": 1315, "d\u00a6\u00d9": 1316, "\u00ad\u00e3": 1317, "T\u009c": 1318, "T\f": 1319, "\u00e1N": 1320, "=\u00fc": 1321, "\u00d3n\u00ff": 1322, "\u00c8y": 1323, "\u00a6\u00c4m": 1324, "\u009f>": 1325, "\u00aaN": 1326, "(v": 1327, "\u00df\u00e0": 1328, "\u00ff)": 1329, "s\u009c3": 1330, "\u009a+": 1331, "\u0017\u00f2": 1332, "\u00c4$\u00e5": 1333, "s\u009e": 1334, "\u00883": 1335, "26": 1336, "=\u0018": 1337, "z1": 1338, "\u00dc3": 1339, "\u00e5\u001e": 1340, "\u00e59": 1341, "\u00bf\u00ec": 1342, "\u001fb": 1343, "8r": 1344, "\u00b7?": 1345, "\u0004\u00fd": 1346, "\u00d7\u00c7": 1347, "\u00e8S": 1348, "\u00d7\u00df": 1349, "\u00eb\u00fa": 1350, "\u0014z": 1351, "\u00b7\u00af": 1352, "p\u00e4": 1353, "\u0097\u00fd": 1354, "U\u0003": 1355, "\u0088\u00f5": 1356, "\u00e8\u00f3": 1357, "Z\u00ff": 1358, "\u00c1\u00dd": 1359, "\u00d9|": 1360, "t\u00d9\u00e7": 1361, "\u0002\u00f9": 1362, "Hg": 1363, "UF": 1364, "\u001c;": 1365, "\u00f9\u0018": 1366, "\u0093\u00d1": 1367, ">\u0086": 1368, "\u008f9\u00c3": 1369, "C\u00be": 1370, "r\u00f9\u0018": 1371, "\u00cc\u00db": 1372, "\u00aeZ\u00eb": 1373, "_\u00f6": 1374, "8\u008f": 1375, "\u00b5\t": 1376, "\u00af5": 1377, "\\\u00e0": 1378, "\u0097\u00c3": 1379, "\u00eb9": 1380, "\u00c5^": 1381, "\u00bb\u00ee": 1382, "\u00a7\u00bf": 1383, "Ne\u00c3": 1384, "\u00bd\u00fd": 1385, "r\u009c": 1386, "\u00c4\u0018": 1387, "\u00ce\u00ee": 1388, "\u00de\u00b8": 1389, "+\u00e4a": 1390, "\u007f\u00c0": 1391, "\u00f1\u001e": 1392, "\u00d1\u00e4": 1393, ":\u00a2": 1394, "\u0015\u00f4": 1395, "\u00a3\u00da": 1396, "\u00d3b": 1397, "V\u00b4": 1398, ".\u007f": 1399, "O\u00f7": 1400, "\u00a6\u00dc_": 1401, "*\u00a3": 1402, "^G": 1403, "\u00e1\u00d0": 1404, "\u00f2\u009d": 1405, "\u00e9\u00b7k": 1406, "\u00b9\u00ce": 1407, "t\u00e78": 1408, ":\u0019": 1409, "\u00a5t\u00db": 1410, "\u00ab\u00ec": 1411, "\u00eb\u00be": 1412, "i\u00cep": 1413, "\u001e\bI": 1414, "\u00d0\u00fb": 1415, "i\u00d5": 1416, "\f5": 1417, "g\f": 1418, "\u00c1?": 1419, "\u00fe\u0096": 1420, "\u00bf\u00d0": 1421, "\u00f0\u00a7": 1422, "\u00cb\u00fc": 1423, "\u00a4y": 1424, "\u00b3N": 1425, "\u00dd\u00fd": 1426, "\u00c4!": 1427, "\u00ee\u00e0": 1428, "\u00f4\u00bf": 1429, "\u00d5'": 1430, "\u001d\r": 1431, "\u00a4\u0094": 1432, "\u00ae_#": 1433, "\u009e\u00eb": 1434, "\u0090\u00fa": 1435, "\u00cb_": 1436, "Tf": 1437, "\u00cd9": 1438, "\u0099\u00ef": 1439, "j\u0081": 1440, "\u00ae\u00b3": 1441, "(\u00c5": 1442, "\u0087\u00d5": 1443, "\u000e\u00f8": 1444, "F*": 1445, "1\t9": 1446, "\u00b8\u00ce": 1447, "\u00d2\u00ac": 1448, "\u00a6\u00cf9": 1449, "5\u009c": 1450, "\u00d6t": 1451, "\u0014b": 1452, "/\u00f4": 1453, "\u00be\bU": 1454, "\u00c7\u00a8": 1455, "X\u00c3": 1456, "\u008cBN": 1457, "\u0092\u00e0": 1458, "\u00a8N": 1459, "\u009e\u009bv": 1460, "\u00b1V": 1461, "/\u00f3": 1462, "pS": 1463, "\u00ccy": 1464, "d\u0097": 1465, "\u0087\u001c": 1466, "\u0094\u00ea": 1467, "\u009d\u00eb\u00c9": 1468, ";\u00d7\u0093": 1469, "\u00e2<": 1470, "\u00de\u00d7": 1471, "T\u001c": 1472, "\u00d4\u00ea": 1473, "\u00e1\u00df": 1474, "\u00d2\u00bb\u00d7": 1475, "\u0015\u0015": 1476, "\u00efm": 1477, "b\u00af": 1478, "S\u00ec": 1479, "\u00c1/": 1480, "\u00cb]": 1481, "C\u00ee": 1482, "\u0092\u0098": 1483, "5\u00df": 1484, "\u00f5@": 1485, "\u00ffC": 1486, "\\\u00beF": 1487, "\f\u00e7\f": 1488, "\u00cez": 1489, "R\u0096": 1490, "\u00e5\u00f20": 1491, "\u00cf|": 1492, "\u008cx!'": 1493, "\u0014\u00b3": 1494, "\u00d1\u00e7": 1495, "N\u00bf": 1496, "\u00b5\u00e4": 1497, "V\u00b2": 1498, "\u0086\u00af": 1499, "\u00a6\u00dd\u00bd": 1500, "n\u00fa": 1501, "\u009e\u008c": 1502, "\u00fa_": 1503, "\u001d\u0016": 1504, "\u0005\u00fc": 1505, "\u00b9L": 1506, "\u009d6y": 1507, ">\u0089": 1508, "\u009b}": 1509, "f\u00be\u00b5": 1510, "q\u00ce": 1511, "\u00d7}": 1512, "\u00d7\u00dd": 1513, "7\u00f7": 1514, "=~\u00b7": 1515, "\u0087\u00b7": 1516, "z\u0019": 1517, "\u00f4\u00db\u00b5": 1518, "\u000e\u008b": 1519, "\u00cc\u00d8": 1520, "\u00e3Y": 1521, "\u00b9|\u008c": 1522, "\u00fb\u00d1": 1523, "E-": 1524, "\u009bq\u007f": 1525, "\u0014\u00e6": 1526, "5@": 1527, "\u00f5\u0012": 1528, "z\u008f": 1529, "\u009b\u0011\u00b7": 1530, "%v": 1531, "\u00d5\u00bc": 1532, "\u00d3\u00dd": 1533, "4\u00f7": 1534, "\u00d6p": 1535, "\u00f5:": 1536, "Q\u00eb": 1537, "c\u00d7": 1538, "_\u0004": 1539, "\u00a0\u00df": 1540, "b\u0012r": 1541, "\u008b\u00dd": 1542, "\u0002S": 1543, "%\u00f0": 1544, "\u00e9,": 1545, "\u00af>": 1546, "1\u00ac": 1547, "\u00a3\u001c": 1548, "\u00c8\u007f": 1549, "k\u0015": 1550, "\bC": 1551, "\u00adB": 1552, "\u008d\u00b1": 1553, "d;": 1554, "\u009e\u00be": 1555, "\u00cc\u00f7\u00fb": 1556, "\u008a\u00b3": 1557, "\u00eb\u00ac": 1558, "\u00a8\u00af": 1559, "\u008dY": 1560, "*+": 1561, "\u00d3\u00f7": 1562, "+[": 1563, "\u00b9\u00cf": 1564, "\u00cd:": 1565, "9\u00a5": 1566, "7~": 1567, "\u0081\u00d2": 1568, "\u00f4z": 1569, "\u00cd\u00be": 1570, "4\u00ea": 1571, "\u00c3W": 1572, "\u00f6\u00bc": 1573, "\u00d3g\u009d": 1574, "\u0016$": 1575, "YZ": 1576, "A\u007f": 1577, "\u00d9\u00cf": 1578, "\u00e7\u00ba": 1579, "M\u0088\u00db": 1580, "\u0010\u00ef": 1581, "\u0099_": 1582, "_\u007f": 1583, "\u00cau": 1584, "A\u00be": 1585, "(\u0094": 1586, "D\u0089": 1587, "\u00fa\u009c": 1588, "\u00d9t": 1589, "\f\u00e7\r": 1590, "o\\": 1591, "\u0090\u007f": 1592, "\u00fd/\u0093": 1593, "OM\u00bb": 1594, "\u0097H": 1595, "\u0012u": 1596, "\u00b6\u00dbm": 1597, "\u00c5Z": 1598, "f\u00cb": 1599, "\u0007H": 1600, "\u00a5p": 1601, "\u00be\u0006": 1602, ",H": 1603, "\u00de ": 1604, ",a": 1605, "\u001cp": 1606, "e=": 1607, "9C": 1608, "P5": 1609, "\u00bd\u00b7": 1610, "E\u00ee": 1611, "e\u0018": 1612, "_\u001b\u00b6": 1613, "s%6": 1614, "\u0097\u0006": 1615, "\u00ef\u00f3": 1616, ":-": 1617, "\u00b2\u00f8\u00dd": 1618, "+B": 1619, "\u0081k": 1620, "\u00e4;": 1621, "\u00af'": 1622, "so": 1623, "W\u00da": 1624, "\u00e9\u00ef": 1625, "-u": 1626, "\u0083\u001e": 1627, "!\r": 1628, "\u00e1k": 1629, "\u0086#": 1630, "\u00af\u00bf": 1631, "\u009b9": 1632, "\u00e8\u00c7": 1633, "\u00cey": 1634, "\u00a8\u0019": 1635, "4y": 1636, "\u00d0(": 1637, "\u00f2\u009c": 1638, "u\u00fc": 1639, "\u0082\u009c": 1640, "\u00f5\u00f6": 1641, "\u00cc\u00bc": 1642, "\u00c5!": 1643, "K\u009f": 1644, "^j": 1645, "\u00e3;": 1646, "\u0011\u00c3": 1647, "\u00eb\u00ee": 1648, "\u00ef^": 1649, "\u0087\u00f8": 1650, "J\u009c": 1651, "\u00f8\u00e4": 1652, "\u00ad\u007f": 1653, "\u0095\u00d3n": 1654, "\u00cf\u00e9|": 1655, "\u00c9\u00bb\u00e9": 1656, "\u0082\u00fe": 1657, "i\u00ff": 1658, "b\u009c": 1659, "\u00ab\u00f5\u00df": 1660, "\u00fe\u00ce": 1661, "O\u00de": 1662, "\u00f4y": 1663, "\u008f\u0004$\u00e5": 1664, "\u0093q": 1665, "\n\u00f0": 1666, "b\u00ac": 1667, "{\u00fd": 1668, "z\u00ed": 1669, "\u00b1\u00ea": 1670, "\u009b\u00fb": 1671, "\u001d\u00fd": 1672, "*\u00fb": 1673, "\u00f4\u00f7": 1674, "\u00f1\u0005": 1675, "N\u00b7": 1676, "\u00c9/\u009a": 1677, ">\u00fe\u00fe": 1678, "\u00afQ": 1679, "+\u0086": 1680, "VO": 1681, "\nr": 1682, "\u009d_": 1683, "\u00f7p": 1684, "V\u0084": 1685, "\u00a0\u00ff": 1686, "\u001e\u007f": 1687, "\u00f4\u00b0": 1688, "\u00fc\t": 1689, "\u00b3%6": 1690, "\u00e3\u00bb": 1691, "\u00d5\u00fa\u00ef": 1692, "j\u0013": 1693, "q\u009d": 1694, "\u00f0BN": 1695, "\u009dV": 1696, "\u00af\u00e4": 1697, "*n": 1698, "Z\u0084": 1699, "K\u00e0": 1700, "xS": 1701, "t\u00dd": 1702, "O\u001f": 1703, "\"\"": 1704, "\u0012%": 1705, "VQ\u0089)": 1706, "\u00f0\u00f6": 1707, "T#": 1708, "\u00bd}": 1709, "\u00bf\u00c1": 1710, "\u0091\u00eb": 1711, "\u009b\u008f": 1712, "\u00d79": 1713, "G\u00a8": 1714, "\u00a1\u001e": 1715, "C\u00a1": 1716, "\u00ba\u00ce": 1717, "\u00148": 1718, "\u00a0P": 1719, "\u009f\u00d2\u00f9": 1720, "\u00c8'": 1721, "\u00a7\r": 1722, "\u00d4z": 1723, "\u00bf\u00e1": 1724, "]\u00fe": 1725, "Y|": 1726, "\u00f5\u00d2": 1727, "\\3": 1728, "6\u00e2\u00fe": 1729, "\u00e5\u00af": 1730, "\n\u001c": 1731, "\u00cf\u00f6": 1732, "\u00bf\u00be": 1733, "\u0084\u00c3": 1734, "\u00a5t": 1735, "\u00e9\u00b7o": 1736, "IF": 1737, "\u00c1\u0083": 1738, ",\u00db\u00bf": 1739, "!\u00d7": 1740, "+Zm\u00d9": 1741, "\u00126": 1742, "\nw": 1743, "\u00be\u0019": 1744, "\u00ed\u00b9": 1745, "\u00cb\u00a5": 1746, "\u00d0\u00d1": 1747, "\u0016\u00ed": 1748, "\u00e9\u00b7j": 1749, "\u00b6\u00dbm\u00b6": 1750, "4\u00e78": 1751, "\u00ef\\": 1752, "O\u00dc": 1753, "\u00bf\u00ba": 1754, "M\u00bb\u00fd": 1755, "\u00cb\u0018": 1756, "y%0": 1757, "\u00d7\u009f": 1758, "k\u00ee": 1759, "\u00fa\u00a0": 1760, "\u0018F\u00de": 1761, "\u00d7E": 1762, "\u009e\u00f8": 1763, "\u00de\u0095": 1764, "\u0093w\u00d2": 1765, "\u00bb\u00ea": 1766, "\u00e7=": 1767, "z\u00ec": 1768, "\u00a7{": 1769, "P\u008f": 1770, "\u0099\u00e3": 1771, "\u0013\u00c7": 1772, "M\u00b9,": 1773, "\u0092M": 1774, "\u0099\u00b3\u00ce": 1775, "VQ": 1776, "\u007f\u00ae": 1777, "\u000b/": 1778, "IM": 1779, "\u00d3\u009c": 1780, "\u00e5:": 1781, "\u00f7\u00a2": 1782, "\u00e1\u00d7\u00b4": 1783, "\u00bf\u00a7": 1784, "e\u00fe": 1785, "6s": 1786, "g\r": 1787, "\u00bcA": 1788, "\u00c3\rY": 1789, "r\u0098": 1790, "h}": 1791, "<s": 1792, "\u001a\u0007": 1793, "\u00fa_'": 1794, "\u00e8i\u00b7": 1795, "YY": 1796, "\u0086\u00ac": 1797, "\u00ab\u00ed": 1798, "\u00cc\u00ba": 1799, "\u009f\u00ef": 1800, "\u008a\u00f6": 1801, "Q\u008e": 1802, "\u00af\u00ad": 1803, "\u00f21": 1804, "V\u00ff": 1805, "\u00d3\u00c7": 1806, "Z\u00fa": 1807, "<r": 1808, "@\u00a5": 1809, "\u009f\u00b9": 1810, "n\u007f": 1811, "\u00fc\u00a5": 1812, "\u00eb\u00cd": 1813, "\u00a1\u001f": 1814, "\u0082{": 1815, "K\u00e7": 1816, ")K": 1817, "7\u00af": 1818, "\u00fa\u00ef": 1819, "|\u00f9": 1820, "\u00eb\u00b8": 1821, "V\u00b4\u00db\u00b5": 1822, "\u00e5\u00f0": 1823, "\u00e4\u0097": 1824, "\u00ac\u00be": 1825, "\u00af\u00e9": 1826, "[\u00b0": 1827, "p\u00ca": 1828, "\u00a7\u0014": 1829, "\u00f7[": 1830, "8w": 1831, "j\u00b0": 1832, "\u00b7\u0087": 1833, "\u00e4\u0094\u00de": 1834, "\n\u001d": 1835, "\u00d1K": 1836, "4\u000f": 1837, "\u0082\u00c4": 1838, "\u0088\u00e5": 1839, "\u00e2\u0096": 1840, "\u00cei": 1841, "\u00156": 1842, "\u00ca\u00d3": 1843, "q\u00c3": 1844, "\u00fe\t": 1845, "\u00fb\u00fb\u00fb": 1846, "\u00bdb": 1847, "\u0016\u00ec": 1848, "u\u00ed\u00ef\u00bd\u00f0B": 1849, "\u00ab#": 1850, "\u00aa\u00ef": 1851, "\u00c5:": 1852, "l\u00e7": 1853, "\u0015\u0093": 1854, "\u00f5\u00f7": 1855, "#\u00c3": 1856, "\u00e9\u00b7\u007f": 1857, "\u00eb\u00ef": 1858, "\u00bc\u008e": 1859, "\u00ee\u0000": 1860, "\u00cc\u0018": 1861, "\u00fdw": 1862, "3g\u008f": 1863, "\u00bdw\u001e": 1864, "[\u00c3": 1865, "S\u00d3n": 1866, "\u00cf^": 1867, "\u00fa\u00be": 1868, "\u000f=": 1869, "E\u00c2": 1870, "f\u00c5": 1871, "\u0001)": 1872, "{\u00fc": 1873, "\u0099\u00ef\u00f6": 1874, "!U": 1875, "\u009dx": 1876, "\u00e6<": 1877, "\u00efE": 1878, "\u008a\u008b": 1879, "\u001a\u00bf": 1880, "iV": 1881, "\u00a7z\u00f2": 1882, "x\u0082": 1883, "DD": 1884, "\u00dd\u001e": 1885, "\u00df\u00f0": 1886, "\u00c6)": 1887, "f\u00cf": 1888, "\u0089\u00bb": 1889, "\u00d5\u00bf": 1890, "\u00e8\u0094": 1891, "h\u00f3": 1892, "\u001e\bI\u00ca": 1893, "\u00ab(\u00c4\u0094": 1894, "\u0012n": 1895, "\u00ca=": 1896, "\u008f^": 1897, "\u00e2x": 1898, "o\u0010": 1899, "o\u00ee": 1900, ":\u001a": 1901, "eM\u00df": 1902, "k\u00c2": 1903, "G\u0087": 1904, "<\u00c7": 1905, "\u00c4x": 1906, "\u00c9\u00b8": 1907, "\u00bf\u00d7": 1908, "\u00c9F": 1909, "M\u00dfK": 1910, "\u001c\u00a1": 1911, "\u00cf9": 1912, "\u00bd+": 1913, "\u00e1\u009d": 1914, "f\u00dc": 1915, "\u0095\u00a6": 1916, "3\u001e": 1917, "\u00f4\u00ea": 1918, "B=": 1919, "\u009e\u00e9": 1920, "\u008a\u00b4": 1921, "\u00cc\u00af\u0091\u0086": 1922, "l\u00be": 1923, "\u0004\u00f7": 1924, "6#o": 1925, "\u008f\u001a": 1926, "%0": 1927, "}\u00fd\u00fd": 1928, "\u008b\u00d9": 1929, "\t\u0086": 1930, "\u00a3\u0015": 1931, "\u00c26": 1932, "w\u00f9": 1933, "\u00cf\u009f": 1934, "\u00a6\u00c4": 1935, "\u00d7/": 1936, "\u00ab\u00c3": 1937, "k:": 1938, "K\u00e6": 1939, "\u009fz": 1940, "\u00cc\u00f6": 1941, "\u00bf\u00cf": 1942, "\u00c4\u00d6": 1943, "FA": 1944, "\u00f0;": 1945, "\u00bc)": 1946, "\u00b5\u00e6": 1947, "1{": 1948, "s\u009c5": 1949, "\u00c4\u0014": 1950, "k\u0094": 1951, "T\u00db": 1952, "4\u00ab": 1953, "\u00de\u00bc\u009c": 1954, "\u0097\u008e": 1955, "+\u009e": 1956, "\u00f9\u000e": 1957, "O\u001d": 1958, "\u00f2x": 1959, "\u00c9\u00e3": 1960, "\u009e\u00f9": 1961, "p\u00ef": 1962, "\u008cW": 1963, "\u001f\u0000": 1964, "\u001c\u00f7": 1965, "\u00885": 1966, "&\u00ef\u00a5": 1967, "\u00f0\u00e0": 1968, "\u00b2\u00e9": 1969, "\u00f8\u001d": 1970, "\u009d\u0002": 1971, "}\u0012": 1972, "\u0089\u00e3": 1973, "[\u00b3": 1974, "\u00bd\u00bd": 1975, "\u00bf\u00bd": 1976, "1\u00e1": 1977, "\u0093\u001e": 1978, "\u0098\u0091": 1979, "\u009b\u007f": 1980, "\u00ee\u0019": 1981, "\u00f8\u00e5": 1982, "\u00f7\u00f9": 1983, "\f\u00af": 1984, "\u001d\u00f4": 1985, "\u0005\u00f3": 1986, "\u00e7\u009b": 1987, "\u00d3n\u00d0": 1988, "/\u00f0": 1989, "\u00aa\u0081": 1990, "\u00eb\u00bf": 1991, "\u00ae_": 1992, "?\u00ee": 1993, "\u00d5\u0019": 1994, "\u00f4\u00d9\u00e7": 1995, "\u00ba0": 1996, "\u0017\u00cf": 1997, "\u00f5}": 1998, "[\u009f": 1999, "O\u00a2": 2000, "T\u00b5": 2001, "4W": 2002, "\u00df)": 2003, "^{": 2004, "\u00b9|9": 2005, "\u00f47": 2006, "4\u00d9\u00e7": 2007, "-[": 2008, "gC": 2009, "Jt": 2010, "\u0002\u0087": 2011, "\u009b\u0014": 2012, "j\u00dc": 2013, "8\u00a7": 2014, "\u0013\r": 2015, "\u0095\u00cf": 2016, "|\u0001": 2017, "\u00e3\u001c": 2018, "=\u00fa": 2019, "\u00ed\u00f6": 2020, "\u00ae\u00ff": 2021, "\u00a6\u00dd\u00a2": 2022, "\u00d3n\u00c0": 2023, "F+": 2024, "\u00deN": 2025, "\u009c\u00f3": 2026, "\r6\u00ec": 2027, "Y\u00ce": 2028, "X\u0090": 2029, "\u00b3n\u00fe": 2030, "\u00dd\u00fe": 2031, "\u00d5\u00a5": 2032, "\u008a\u00a8": 2033, "\u00fa\u009d": 2034, "]\u00f7": 2035, "'8": 2036, "\u00cb\u00e7": 2037, "<\u009c": 2038, "\u00b97": 2039, "\u0019\u00ce\u001a": 2040, "\t:": 2041, "\u001dt": 2042, "Ob": 2043, "\u008f\u00a2": 2044, "\u00b2\u001f": 2045, "\u0005\u0089": 2046, "\u00ee\u00ec": 2047, "\u00eb\u009f": 2048, "\u00bc\u0092\u009e": 2049, "%\u00c1": 2050, "\u0011\u00ca": 2051, "C\u00c9": 2052, "\f\u00ae": 2053, "\u00e5\u00fe": 2054, "<7": 2055, "\u00b1\u0018": 2056, "4\u00db\u00b5": 2057, "\n1": 2058, "\u00d5\u00af": 2059, "\u00ea\u0081": 2060, "qN": 2061, "\u00cd\u008a": 2062, "\u00897i": 2063, "\u00b8e": 2064, "\u00bb\u00c8": 2065, "\u00d5\u00f6": 2066, "\u009e\t": 2067, "\u00be\u00a7": 2068, "\u0087E": 2069, "\u00957\u007f": 2070, "\u00aa_": 2071, "\u009d\u001b": 2072, "\u009f\u00bc": 2073, "\u0084\u009d": 2074, "s\u00df": 2075, "\u0014\u00b0": 2076, "\u00fd\u00fd": 2077, "\u009d\u00bf": 2078, "\u00c6:": 2079, "\u00960": 2080, "A\u00d2": 2081, "\u00eb\u00a2": 2082, "m\u00df\u00ec": 2083, "\u00d6\u00e8": 2084, "\"\u0096": 2085, "\u0098\u00f0": 2086, "\u00b5\u009e": 2087, "\u00d7/\u0087": 2088, "{\\": 2089, "M\u00d0": 2090, "\u00bfN": 2091, "F<\u0010\u0093": 2092, "w\u00dd": 2093, "*\u0083": 2094, "\u00f7\u00f6": 2095, "\u0089\u0012": 2096, "\u000e\u00bd\u00a2": 2097, "|\u0010\u00aa": 2098, "o\u00f3": 2099, "\u00aa\u00fb": 2100, "\u0011\u00e7": 2101, "\u00f4)": 2102, "u\u009c": 2103, "\u00a7\u00a1": 2104, "\u0087~": 2105, "+M": 2106, "/\u00f5": 2107, "W\u00df": 2108, "t7": 2109, "\u00f2n": 2110, "\u0094x": 2111, "r\u00ff": 2112, "\n\u00c9": 2113, "[\u00fc": 2114, "\u0018\u00f0B": 2115, "\u0097#": 2116, "B>": 2117, "b\u0010": 2118, "\u00a3\u00c0": 2119, "\u00f4Q": 2120, "m\u00b6\u00dbm\u00b6\u00dbm": 2121, "\u00df\u00d9": 2122, "\u00a8\u00a8": 2123, "\u00d4\u0017": 2124, "\u00cc\u00d9\u00e3": 2125, "\u00e5=": 2126, "\u00fc\u00ba": 2127, "\u00ad\u00ce": 2128, "\u001a\u00b3": 2129, "\u00ac\u00e9": 2130, ">\u0000": 2131, "\u00c3\u00db": 2132, "\u000f\u00f0": 2133, "8\u008e": 2134, "6\u00ff": 2135, "\u00959": 2136, "\u00aaZ": 2137, "\u001b\u00d2": 2138, "\u0089\f": 2139, "/\u00fb": 2140, "\u00bb\u00fc": 2141, "\u000e\u00fd": 2142, "\u000e\u00fa": 2143, "\u0097\u00fc": 2144, "D\u0086v": 2145, "\u0098\u00f2": 2146, "\u00b2\u00b5\u00a6\u00dd": 2147, "u@": 2148, "W\u00eb\u00bf": 2149, "\u00a7\u00fb": 2150, "\u00ee9": 2151, "G\u009a": 2152, "\u00c6\u00ac": 2153, "LW": 2154, ":\u00f5": 2155, "\u00bf\u00d2": 2156, "\u00da\u00ac": 2157, ".\u0096": 2158, "\u00c4\u00f1": 2159, "\u00ba=": 2160, "\u007f\u00dd": 2161, "\u00aa5": 2162, "\u0013\u00f7": 2163, "r=": 2164, "\u00b2\u008c": 2165, "\u0082\u009d": 2166, "\u00b6\u00f3": 2167, "\u0089J": 2168, "\u0014x": 2169, "\u00f4\u00af": 2170, "\u0097\u0092S": 2171, "\u0083}": 2172, "\u00d2U": 2173, "o\u00bc": 2174, "\u0087\u00d6\u001e]": 2175, "Db": 2176, "\u0081?": 2177, "\u00ef\u00ec": 2178, "\u00ba1": 2179, "8\u0083": 2180, "W[": 2181, "\u00a7z": 2182, "q<": 2183, "|2": 2184, "\u0088)": 2185, "\u00d7y": 2186, "\u00c3\u00a2": 2187, "!N": 2188, "w\u00de": 2189, "\u00a3\u0012": 2190, "\u00d7\u009b": 2191, "f\u009c": 2192, "\u0013\u00dd": 2193, "\u0088\u00f0": 2194, "[\u00b5": 2195, "c\u00c9": 2196, "\u00a1E": 2197, "\u00e5>": 2198, "\u00d3n/": 2199, "\u00d0 ": 2200, "[\u00be": 2201, "\u0014;": 2202, "nx": 2203, "\u00aa0": 2204, "\u00b9\u00cc": 2205, "\u00c3V": 2206, "\u008d\u00b0": 2207, "\u00ff\u0086": 2208, "t5": 2209, ";\u00e9": 2210, "\u0018\u00a5": 2211, "\u00eb\u00d4": 2212, "\u00e3\u0087": 2213, "W\u0087": 2214, "\u00a8Q": 2215, "\u009f\u007f\u007f": 2216, "\u00b1{": 2217, "\u0010\u0098": 2218, "\u0017\u00c3": 2219, "W\f": 2220, "\u00df\u00f9": 2221, "\u00b1\u0086": 2222, "*\u00b0": 2223, "\u00cf\u00fa": 2224, "\u0099t": 2225, "\u00cd\u00fd": 2226, "\u0085\"": 2227, "\u00e9\u00b1\u0006": 2228, "\u00f7\u00ae": 2229, "\u00e1\u009a": 2230, "6\u00fa": 2231, "?\u00c0": 2232, "~\\": 2233, "\u00f0\u00ea": 2234, "\u0091\u0011": 2235, "0`": 2236, "`\u00c1\u0083\u0006\f\u00180`\u00c1\u0083\u0006\f\u00180`\u00c1\u0083\u0006\f\u00180`\u00c1\u0083\u0006\f\u00180`\u00c1\u0083\u0006\f\u00180`\u00c1\u0083\u0006\f\u00180": 2237, "\u00c0\u00c7": 2238, "\u00b2\u00b3": 2239, "\u00ca\u00fe": 2240, "\u00e0N": 2241, "\u00e7\u00fc": 2242, "Z\u0011": 2243, "\u00a8\u00f5": 2244, "#oJ": 2245, "\u00b5X": 2246, "\u00d8\u008f": 2247, "8u": 2248, "Ua": 2249, "\u001eE": 2250, "OE": 2251, "\u001dz": 2252, "^\u00ce": 2253, "**": 2254, "\u0092\u00f8": 2255, "\u00e8\u00c5": 2256, "-y": 2257, "e\u007f": 2258, "F<": 2259, "7\u00fe": 2260, "lF\u00de": 2261, "f{\u00fd": 2262, "\u00eas": 2263, "\u008b\u00fd": 2264, "3\u00c7": 2265, "A\u00fe": 2266, "\u00fc\u00b8": 2267, "oQ": 2268, "/\u00fe": 2269, "\u00f8\u0013": 2270, "yu": 2271, "U\u0019": 2272, "s\u00fd": 2273, "b\u00ad": 2274, "m\u00c8": 2275, "Dm": 2276, "k:n": 2277, "\u0015Q": 2278, "\u009dZ": 2279, "\u00ae_\u000e": 2280, "S\u0093": 2281, "oE": 2282, "\u00da\u00f3": 2283, "c\u00de": 2284, "\u0010\u00fd": 2285, "f\u00cf\u001e": 2286, "\u00a2C;": 2287, "TW": 2288, "\u00d1\u00e0": 2289, "j\u008c": 2290, "\u00ebs": 2291, "y$\u00dd": 2292, "*n\u00fe": 2293, "\u0007\u009f": 2294, "\u00fb\u00ef": 2295, "\u00f2\u00b4": 2296, "\u00f5\u00cf": 2297, "\u00fa1": 2298, "\u00d5\u00e1": 2299, "Gw": 2300, "U_": 2301, "\fx": 2302, "\u008a\u0089": 2303, "\u00b1\"": 2304, "LQ": 2305, "\u00faZ": 2306, "\u008a\u00bc": 2307, "q\u0006": 2308, "\u00e7\u00f8": 2309, "\u00a7^": 2310, "fW": 2311, "n\u0086": 2312, "\u009f\u00f5": 2313, "\u00faW": 2314, "\u00979": 2315, "\u00c3\u00a1": 2316, "\u008b\u00ff": 2317, "\u00ba\u00dd": 2318, "\u0091\u0086": 2319, "],": 2320, "[\u00b4": 2321, "NN": 2322, "ER": 2323, "\u00d0\u00a2": 2324, "\u00f7\u00a5": 2325, "M\u00b8\u00bf": 2326, "\u00bdG": 2327, "\u00bd\u008f": 2328, "\u00ce\u009bv": 2329, "\u009e\u00fd": 2330, "\u00e8oI": 2331, "EY": 2332, "\u008aB": 2333, "\u00de\u00b9": 2334, "\u0017\u00fb": 2335, "\u00de\u00bb\u008f": 2336, "\u0084+": 2337, "*\u00d0": 2338, "_\u00e9": 2339, "\u0085~": 2340, "\u0091\u0090": 2341, "\u008f\"": 2342, "\u0017\u00b3": 2343, "\u00ad\u00c2": 2344, "t\u00db\u00b5": 2345, "/\u00f8": 2346, "\u00d1!\u009d": 2347, "\u0090p": 2348, "E\u00fe": 2349, "\u001a\u00b2": 2350, "\u009c\u00d2\u00ff": 2351, "\u00d3\u00d1": 2352, "#\u0087": 2353, "\u001e\u00be": 2354, "i\u00b7`": 2355, "\u00f2\u001f": 2356, "o^": 2357, "\u00e8\u00b5": 2358, ">\u00fe": 2359, "p\u00ce": 2360, "mV": 2361, "]\u00c7": 2362, "\u00a0\u00e9": 2363, "r\u00d6": 2364, "\u00a8\u00f6": 2365, "\u00d1t": 2366, "\u0087<": 2367, "\u0014\u00b4": 2368, "\u00b2\u009f": 2369, "<;": 2370, "\u00ccx": 2371, "YF$\u00a7": 2372, "\u009e\u00fb": 2373, "\u00a9\u007f": 2374, "\u0087\u00dd": 2375, "\u00d3b6": 2376, "\u001c\u00ae": 2377, "<p": 2378, "T\u009d": 2379, "\u00a6\u00dd\u009a": 2380, "\u00ab\u00bc": 2381, "\u00d7\u00f4": 2382, "\u0014\u00e4": 2383, "\u001es\u0086": 2384, "{\u00d7": 2385, "(\u00f3": 2386, "\u00e9\u00b7h": 2387, "\u00db\u00be": 2388, "\u009fD": 2389, "\u001d\f": 2390, "xu": 2391, "\u00e8\u00b4": 2392, "\u00cc\u00b8g": 2393, "\u00df\u00dd": 2394, "\u00ed\u00fc": 2395, "}\u0015": 2396, "\u00ec|": 2397, "h\u00ae": 2398, "\u00d7\u008b": 2399, "\u00f5\u00f5": 2400, ">9": 2401, "\u0088I\u00ca": 2402, "M\u0097\u00c6\u00ed": 2403, "\u0097K": 2404, "V\u009a": 2405, "\r6\u00ed": 2406, "\u00d4\u001e": 2407, "\u0081\u0005": 2408, "\u00bf\u00ce": 2409, "r\u00f9": 2410, "\u00e0\u00ee": 2411, "9\u00ce\u0018": 2412, "\u00af\u00d7\u007f": 2413, "\t\u00fb": 2414, "\u00e1\u00ab": 2415, "\u00a3\u001a": 2416, ":l\u00f3": 2417, "#\u0010\u0093": 2418, "\u00b6\u00dbm\u00b6\u00db": 2419, "\u00c3\u00da": 2420, "\u00ab\u00e7": 2421, "\u00a2\u000b": 2422, "`\u00ee": 2423, "\u001bt": 2424, "\u001e\u0086": 2425, "\u00c6v": 2426, "\u00efb": 2427, "\u00f5\u00ce": 2428, "=N": 2429, "\\\u00be\u001c": 2430, "\u00a1\u00bd": 2431, "rK\u00e6": 2432, "\u00e6\u009c": 2433, "L\u00c7": 2434, "{\u00d7\u0093": 2435, "\u008b\u0084": 2436, "\u00cf6": 2437, "\u0081K": 2438, "C\u00eb\u000f.": 2439, "\u0088~": 2440, "\u00ff\u00ba": 2441, "\u00ad\u00e1": 2442, "T\u00bf": 2443, ".\u0086": 2444, "\u00b7C": 2445, "\u00ad\u00e7": 2446, "\u00eb\u00c2": 2447, "\u0081|": 2448, "\u00e6{": 2449, "\u00fa/": 2450, "\u00df\u00e8": 2451, "\u0088\u00e1": 2452, "\u009d\u00b7#": 2453, "M\u00db": 2454, "q\u00dd": 2455, "\u00baA": 2456, "\u00cb\u00ff": 2457, "\u00e0v": 2458, "\u000e\u00a9": 2459, "!\u00e4": 2460, ".\u0013": 2461, "k8": 2462, "\u00d7\u00c6\u00ed": 2463, "~\u00bb": 2464, "# ": 2465, "\u00ef\u00a6": 2466, "\u00e8\u0091": 2467, "\u00dc\u0012": 2468, "K\u00fb": 2469, "&$": 2470, "\u00ff\u0000": 2471, "\u00b7~": 2472, "\u0012b": 2473, "\u00a5w\u00ae": 2474, "\u00b9\u00c2": 2475, "l\u00e1": 2476, "<\u00ba": 2477, "\u00c4zm\u00da": 2478, "\u00e5M\u00df": 2479, "\u0095\u00da": 2480, "\u00dfx": 2481, "\u0004:": 2482, "i\u00b7%": 2483, "S\u00ed": 2484, "\u0019\u00d0": 2485, "\u00e8i]": 2486, "\u00e6lW[": 2487, "\u00f3\u00c1": 2488, "\u00bf\u00d9": 2489, "\u00a7\u00a2": 2490, "\u0013\u0015": 2491, "L5": 2492, "A\u00c3": 2493, "\u00a9\u00bb\u00e7_\u001c": 2494, "\u0099Z": 2495, "\u00f3\u00ff": 2496, "s\u00ba": 2497, "\u00cb\u00fd": 2498, "\u00cc\u00f7": 2499, "O\u009f": 2500, "\f\u00adi\u00b7": 2501, "o]\u00c7": 2502, "A\u00c0": 2503, "\u00ea/": 2504, "\u00a0A": 2505, "\u00d7/\u0091\u0086": 2506, "\u00ae\u00fb": 2507, "F!_": 2508, "t;": 2509, "\u00ee\u00b6": 2510, "\u00bd\u00bf": 2511, "K\u009c": 2512, "\u00f5\u00da": 2513, "\u00e6\f": 2514, "\u0095\u00de": 2515, "\u00b8\u009e": 2516, "o\u0003": 2517, "Q\"": 2518, "\u00ac\u00e1": 2519, "c\u00e4": 2520, "\u00ad|": 2521, ":\u00ff": 2522, "p\u00cc": 2523, "\u00cf}": 2524, "\u00a6\u00cb\u00e3v": 2525, "\u00b1\u00f2": 2526, "\u00f42": 2527, "\u008f\u0000": 2528, "\u00e4\u00ae": 2529, "\u00ad,": 2530, "{\u00da": 2531, "\u00fd8": 2532, "\u009fC": 2533, "\u00b9Mk": 2534, "\u00e1|": 2535, "\u00bf]\u00fc": 2536, "\u00c5\u00ec": 2537, "\u00ac\u00a3\u0012S": 2538, "\u00f7\f": 2539, "6\u00ab": 2540, "O\u00bd": 2541, "\u001bb": 2542, "\u0014\u00b5": 2543, "LR": 2544, "\u00bdu": 2545, "=\u00f0": 2546, "\u009c;": 2547, "\u009cR": 2548, "\u00eb\u00f9": 2549, "\u009b\u00be\u0096": 2550, "\u00be\u0086": 2551, "`\u00c1": 2552, "T\u00de": 2553, "\u00f44\u00ae": 2554, "\u0081\u00d5'": 2555, "\u00d2\u00b2\u00f1": 2556, "\u0094\u00d8": 2557, "\b\u00f0": 2558, "JR": 2559, "<6": 2560, "\u00e6\u0096": 2561, "\u00f4J": 2562, "j{": 2563, "\u009brY": 2564, "\u0081C": 2565, "\u00e9\u00b7%": 2566, "w\u00d5": 2567, "\u00c9\u00bbN": 2568, "\u00d0<": 2569, "o\u00ea": 2570, "\u00fa\u00e7": 2571, "\u00b9\u00eb": 2572, "\u0090\u00ce": 2573, "\u001f\u00f7": 2574, "#m": 2575, "[\u00b3.": 2576, "\u00b9|": 2577, "/\u00e4": 2578, "#\u00bb": 2579, "\u008f]": 2580, "Y\u00c3": 2581, "\u0010\u0087": 2582, "\u00bd\u00d1": 2583, "\u0083\n": 2584, "\u00d1\"": 2585, "u\u00ed\u0015": 2586, "{D": 2587, "\u00b6\u00f1": 2588, ";n": 2589, "z\u00fa": 2590, "\u009br": 2591, "{\u0086": 2592, "\np": 2593, "\u00d5@": 2594, "_&": 2595, "\u00a5w": 2596, "\u001a5": 2597, "\u008aT": 2598, "$\u0016": 2599, "\u000f>": 2600, "\n\u00a0": 2601, "w\u00af'": 2602, "\u00fa\u00f8p": 2603, "[\u0086": 2604, "^,": 2605, "K\u00c9)": 2606, "_\u00ae\u00fe": 2607, "F$\u00a7": 2608, "\u00bf\u00b3": 2609, "&\u001a": 2610, "\u00fc=": 2611, "\u00af\u000f": 2612, "\u00d3n\u00d7": 2613, "\u00ba\u0019": 2614, "\u00f4\u00b3": 2615, "\u009c\u00d2": 2616, "\u00d6\u007f": 2617, "z\u00ff": 2618, "!\u0017": 2619, "\u009d\u001e": 2620, "y%7\u008e": 2621, " \u00b6": 2622, "\u00e8\u00f0": 2623, "W\u00d9": 2624, "\\'": 2625, "\u00c1\u00e7": 2626, "\u000f\u00aa": 2627, "^F": 2628, "\u00e3\u0081": 2629, "\u00a9\u00ef": 2630, "}N": 2631, "C\u009e": 2632, "\u00e4\u00b8": 2633, "-\u00da": 2634, "\u00bd\u00aa": 2635, "%)": 2636, "\u00f6u": 2637, "j\u000f": 2638, "%k": 2639, "\u009f\u00f9": 2640, "\u00e4\u0093v": 2641, "oI": 2642, "\u00dc\u0001": 2643, "\u00de\u009e": 2644, "\u008cx": 2645, "\u00e1\u0094": 2646, "\u00af\u00c3": 2647, "\u00cdw": 2648, "\u00d1\u007f": 2649, "\u00ef\u00bd": 2650, "\u00efQ": 2651, "\u0083\u00cf": 2652, "\u00bcX": 2653, "i\u00b7\u007f": 2654, "\u00e4\u00f1": 2655, "k\u00be": 2656, "\u009a\u00a0": 2657, "\u00f6>": 2658, "j\u008d": 2659, "\u00ad-": 2660, "\u00ed\u00fd": 2661, "\u00e8\u00a5": 2662, ";\u00fc": 2663, "\u00fb\u0080": 2664, "2\u00a6\u00ef": 2665, "z\u00f3": 2666, "\u008a\u0088": 2667, "\u000b\u00fd": 2668, "y\u00fe": 2669, "\u00d3b\r": 2670, "\u00ea\u00fa": 2671, "\u00a8\u00f0": 2672, "_S": 2673, "\u00a0\u00ac": 2674, "\u00e9\u00d7": 2675, "\u00b4\u00db\u00b5": 2676, "W\u00b7": 2677, "\u00ee\u00ed": 2678, "\u00a8/": 2679, "\u009f\u00ff": 2680, ":\u00bf": 2681, "\u00cb\u00e4a": 2682, "\u00d7-": 2683, "\u00b7\u00a2": 2684, "z\u00ee": 2685, "\u00f5\u00d3": 2686, "\u00d4^": 2687, "\u000e\u0090": 2688, "\u00f2/": 2689, "_)": 2690, "\u00d1P": 2691, "\"\u00ff": 2692, "?\u00f9": 2693, "!\u00f2": 2694, "u\u00ea": 2695, "\u00bc\u008e\u00bd\u00bd\u00f7\u00be\b": 2696, "\u00ae\u00b7": 2697, "\u00b7\u00a5": 2698, "\u00f7\u00af'": 2699, "\u00f2\u00e0": 2700, "~\u0096": 2701, "\u00c1\b": 2702, "\u0090\u00a7": 2703, "\u00bc<": 2704, "+\u00f8": 2705, "\u00ac\u00ac": 2706, "j\u00ce": 2707, "]\u001e": 2708, "\u00df\u00de": 2709, "z\u008b": 2710, "<k": 2711, "\u00f3\u00ef": 2712, "U\u00e1": 2713, "\u00e6W": 2714, "\u00f5\u00fe": 2715, "N\u001d": 2716, "W}": 2717, "\u0007}": 2718, "\u00aby": 2719, "\u00b6\u00f0": 2720, "\u00f7\u00b4": 2721, "\u00d7\u00d6": 2722, "v\u00dc": 2723, "\u0099\u00b7\u001e": 2724, "\u00c1\t9": 2725, "Ot": 2726, "\u008c5": 2727, "|\u008c": 2728, "\u00ad\u00fe": 2729, "g\u009c": 2730, "e\u009bw": 2731, "\u00cd,": 2732, "\u00ac\u00ff": 2733, "}\f": 2734, "\u00dby": 2735, "\u00bb\u008e": 2736, "\u00ad\u00c3": 2737, "\u00e50": 2738, "\u0018\u00d6": 2739, "\u00845": 2740, "\u00c7w": 2741, "\u0003\u00a4": 2742, "\u007f\u00e5": 2743, "\u00d2\u00a7": 2744, "\u00f1\u00cb": 2745, "c\u00c8": 2746, "\u008a\u0085": 2747, "\u00d7\u0092Sx": 2748, "K\u00fa": 2749, "@\u0082": 2750, "\u0011\u00e1": 2751, "\u00f4\u00db\u00b3": 2752, "\u0090\u007f\u00c9": 2753, "\u00af\u00a1": 2754, "\u009c\u00adi\u00b7": 2755, "\u00b9\u00c0": 2756, "t)": 2757, "\u00df\u00e7": 2758, "\u00eb\u00fc": 2759, "\u0087S": 2760, "\u00ea\u00fb": 2761, "\u00c4p": 2762, "\u00f2r": 2763, ";\u00d8": 2764, "x\u00e4": 2765, "\u008b\u00f3": 2766, "b\u00e6": 2767, "\u0082\u0010": 2768, "\u0087{": 2769, "+\u00db": 2770, "\u00aa\u00be": 2771, "\u00c88": 2772, "\u008f5": 2773, "\u00d7\u00c0": 2774, "\u00adj": 2775, "\u00a6\u00cf8": 2776, "\u0095|": 2777, "\u007f\u009e": 2778, ":\u00a0": 2779, "\u00b3\u00a6\u00ed": 2780, "\u00f9\u00f3": 2781, "\u00d4'": 2782, "\u00edP": 2783, "\u00b7\f": 2784, "h\u0014": 2785, "\u001d ": 2786, "\u00e9|": 2787, "]\u00f2": 2788, "\u00f3\u00e7": 2789, "N\u00f5\u00e4": 2790, "\u00e5\u00ad": 2791, "t\u00db\u00b3": 2792, "\u0094\u00e2\u0096": 2793, "\u009b/": 2794, "\u00ff\u00ce": 2795, "\u00e8Q": 2796, "\u00f3\u00d4": 2797, "\u00c3\u0091": 2798, "\u00bf.": 2799, "F$": 2800, "\u009brZ": 2801, "\u00cd\u0097": 2802, "f\\3": 2803, "\u00bc\u00f9": 2804, "\u00e0O": 2805, "\u00ba*": 2806, "\nt": 2807, "C\u00cf": 2808, "\u00e8j": 2809, "\u00b8\u00a5": 2810, "\\\u00b5\u00d6": 2811, "\u0004;": 2812, "\u0017\t": 2813, "D\u009b\u00b4": 2814, "\u008f\u000f": 2815, "\u00eb:n": 2816, "\u00bf\u0002": 2817, "P\u00ec": 2818, "\u00859\u00ce\u001a": 2819, "x\u00e7": 2820, "\u0003\u00aaN": 2821, "\u00de\u001d": 2822, "YO": 2823, "\u00e1\u00cf": 2824, "\u00f5n": 2825, "\u00ff\u00e7": 2826, "\u00ac\u00bc": 2827, "\u00a88": 2828, "V^": 2829, "G\u00aa\u00be": 2830, "\u001b{": 2831, "9\u0092\u009b": 2832, "x\u0086": 2833, "\u00d2\u00ca": 2834, ">|": 2835, "\u00fft": 2836, "\u00efI": 2837, "\u00c9M\u00b3": 2838, "w\u00d3": 2839, "\u00d3\u00fe": 2840, "8\u00a5": 2841, "v\u00fb": 2842, "\u00c9\u00d5": 2843, "@\u00a1": 2844, "s\u00d7": 2845, "\u00f9]": 2846, "\u00ebt": 2847, "\u0082^": 2848, "\u00fa%": 2849, "\u00a6\u00dd\u0090": 2850, "g\u008e": 2851, "\u00c0\u00b5\u00f6": 2852, ";\u00a3\u00e4": 2853, "\u00b7|": 2854, "\u00de\u0007": 2855, "\u00d2Z": 2856, "<\t": 2857, "\u00f2I\u00bb": 2858, "\u00eb\u00c8": 2859, "\u00d7\u00b4": 2860, "x\u0013": 2861, "\u00a1D": 2862, "\u0093\u00a3": 2863, "\u0087\u00b5": 2864, "\u00fe\u00e8": 2865, "V\u00b1": 2866, "U\u00bc": 2867, "] ": 2868, "\u00bf\u00e0": 2869, "o\u00fc": 2870, "\u00e26": 2871, "9\u00e7": 2872, "\u00ce_": 2873, "\u001e\u00a9": 2874, "\u0099\u00b1]m": 2875, " \u009e": 2876, "\u001e}": 2877, "\u00cf\u00f8": 2878, "M\u00b9-": 2879, "\u007fK": 2880, "\u00e3v": 2881, "\u00d3b\f": 2882, "\u00cf\u00ff": 2883, "\u00a6c": 2884, "\u00c9]": 2885, "\u000ey": 2886, "s\u009c0": 2887, "P3": 2888, "\u00ab_\u00f6": 2889, "C\u00c8": 2890, "\u00bf\u00dd": 2891, "\u00c8\u00c3": 2892, "9\u000e": 2893, "\u0012>": 2894, "\u00e1\u00de": 2895, "\u00c8}a\u00e5": 2896, "\u00a3\u00c8": 2897, "\fy": 2898, "\u00d3\u00ff": 2899, "\u00e9`": 2900, "\u00d2\u00bb": 2901, "[\u00cf": 2902, "\u009c0": 2903, "eg": 2904, "\u0083\u00be": 2905, "\u00beM": 2906, "\u00a1\u00d0": 2907, "\u00fex": 2908, "\u0017\u00f3": 2909, "\u00f4H": 2910, "\u00bf\u00f3": 2911, "\u00ea\u008c": 2912, "oK": 2913, "\u00ff\u009e": 2914, "w\u001c": 2915, "\u000f\u0002": 2916, "\u0090[": 2917, "\u008b\u00d7": 2918, "\u00f6\u00a8": 2919, "\u00e6\u00c1": 2920, "*u": 2921, "\u0002\t": 2922, "\u00f6\u00b9": 2923, "\u008f\u008e": 2924, "o\u00f2": 2925, "\u00f9G": 2926, "\u000eb": 2927, "\u0017\u00bd": 2928, "\u00fd\u00c0": 2929, ":\u00be": 2930, "\u00f7\u00f3": 2931, "5\u009d": 2932, "\u008f_\u00ad": 2933, ":\b": 2934, "\u00d4y": 2935, "\u00bb\u00e5": 2936, "\u008a\u00ba": 2937, "\u00a7V": 2938, "\u0086)": 2939, "#\u0015": 2940, "\u0007K": 2941, "\u000f\"": 2942, "\u00a3\u0010": 2943, "\u00a2D": 2944, ":\u0005/": 2945, "\u00c1\n\u00a0": 2946, "TT": 2947, "\u00af\u0016": 2948, "H\u00f5": 2949, "O\u00fc": 2950, "\u00e5\u00d6": 2951, "H\u00c7": 2952, "\u00d2\u00a2": 2953, "#oM\u00bb": 2954, "\u001bzW": 2955, "b=6\u00ec": 2956, "\r6y": 2957, "\u0084!": 2958, "p\u00d5": 2959, "\u00a6\u00dd^": 2960, "\u0007u": 2961, "\u0095\u00fc": 2962, "\u00b26": 2963, "\u00cc\u00d9\u00e7": 2964, "\u0005\u00fe": 2965, "\u00ce\u00df": 2966, "\u00846": 2967, "\u008e\u009c": 2968, "\u00af\u00bb": 2969, "y%=": 2970, "\u00af7": 2971, "s\u001e": 2972, "\u0087\u00d1": 2973, "ED": 2974, "\u00eb\u00c8\u00eb\u00db\u00df{": 2975, "D+": 2976, "\u00b7\u00f8": 2977, "i\u00b7j": 2978, "u~": 2979, "d\u001c": 2980, "F!U": 2981, "\u008fU}": 2982, "\u00c4$": 2983, "\u00eb\u00e3v": 2984, "\u00f8p": 2985, "\u0005\u00f2": 2986, "\u00ef_": 2987, "Z\u00f8": 2988, "=\u00dd": 2989, "\u00be\u00ed": 2990, "\u00d0VO": 2991, "\u00b8\u00e7": 2992, "\u00f0\u00a6": 2993, "\u0095X": 2994, "\u00a3\u00cd": 2995, "s6": 2996, "\u00e9\u00c0": 2997, "\u0017\u00ae": 2998, "H'": 2999, "\u00bd,": 3000, "aN": 3001, "\u00f4\u00a9": 3002, "]:": 3003, "C\u00e5": 3004, "\u001f\u00e9": 3005, "\u00a4\u00b8": 3006, "n\u00bf": 3007, "\u00d7\u00a8": 3008, "zu": 3009, "\u00d0\u00de": 3010, "\u00d5i": 3011, "N\u001c": 3012, "\u00c0\u009f": 3013, "\u00e55": 3014, "O\u00bf\u00bf\u00be": 3015, "\u00af$\u00a6\u00f1": 3016, "\u00f5\u0015": 3017, "\u0088\u00c5": 3018, "\u00d2\u00f8p": 3019, "\u00af\n": 3020, "\u0012\t": 3021, "\u00d1\u00e6": 3022, "J\u00e6": 3023, "\u00c9/\u009f": 3024, "\u00d9\u0092\u009b": 3025, "G\u00b5": 3026, "{\u00bb": 3027, ";\u00ab": 3028, "|\u0082": 3029, "\u00eds": 3030, "t\u0010": 3031, "\u001f ": 3032, ">M\u00df": 3033, "J\u00ed": 3034, "\t1": 3035, "'\u00a2": 3036, "\u00c4\u009e": 3037, "\u00be\u00e9\u00d5": 3038, "\u008a\u009f": 3039, "\u00e4c": 3040, "\u00d5W": 3041, "\u00cdy": 3042, "2\u009e": 3043, "Ow": 3044, "C\u00ef": 3045, "\u00f4\u00f1": 3046, "W\u00d0": 3047, "\u00b7\u00df": 3048, "\u00cd\u00bb\u00fd": 3049, "\u001c\u00f3": 3050, "_C": 3051, "\u00e6\u0097\u00fa": 3052, "\u00f5\u00cd": 3053, "\u00db\u00fc": 3054, "\u0081\u000e": 3055, "\u00f0\u00ef": 3056, "S\u0099p": 3057, "\u00de|": 3058, "V\u0085": 3059, "N\u00ac": 3060, "=\u00c3": 3061, "r\u00d7Z": 3062, "\u001d\u00d5": 3063, "\u00f5\u00b8": 3064, "xx!'": 3065, "\u00fd\u00c7": 3066, "\u0093t": 3067, "\u0094w": 3068, "\u0014\u00e0": 3069, "$\u00dc": 3070, "7\u008e": 3071, "\u001d\u00d1\u00f2": 3072, "\u0090\u00fa\u00c3\u00cb\u00a4": 3073, "\u008f\u00b1": 3074, "<b": 3075, "\u00edU": 3076, "\u0012\u0094": 3077, "\u00aao": 3078, "\u00f4b": 3079, "\u00cd/\u00f3": 3080, "1\u001e\u009bv": 3081, " \u00bf": 3082, "\u00a7\u00ee": 3083, "?\u00eb": 3084, "F\u00de\u009bv": 3085, "=\u007f": 3086, "\u00a9\u00f7": 3087, "\u001e]": 3088, "\u00dc\u00f0": 3089, ":n": 3090, "\u0012\u00b5": 3091, "\r\u00df": 3092, "\u00af\u0081": 3093, "]n": 3094, "\u00fa*": 3095, "u\u009e": 3096, "\u008f0": 3097, "\u00d3\u00d0": 3098, "s\u009c4\u00db": 3099, "\u00a1\u00df": 3100, "z\u00f9": 3101, "\u009d\u007f": 3102, "_\u0086": 3103, "\u00ae\u00b5": 3104, "\u00de\u00c5": 3105, "\u00f8w": 3106, "\u00b1\u00ef": 3107, "\u0093\u00ef": 3108, "\"\u0015": 3109, "\u00c2\u0015": 3110, "\u0004!": 3111, "P\u00fb": 3112, "\u00f6i": 3113, "[\u00a3": 3114, "\u00d8\u00f9": 3115, "\u00a7\u00df\u00df\u00df": 3116, "\u0091Q": 3117, "\u00871": 3118, "Ba": 3119, "\u00ea*": 3120, "M\u0015": 3121, "\u0097\u0019": 3122, "\u00c4b": 3123, "\u00ce\u0082": 3124, "\u00c0\u00b5": 3125, "\u0087}": 3126, "U7": 3127, "7|": 3128, "x\u0003": 3129, "Q\u00e78": 3130, "\u00a3\u00cf": 3131, "C\u00fc\u001c": 3132, "f\u00dd\u00fe": 3133, "\u0097\u00ff": 3134, "\u00b3\u00cd": 3135, "\u00d5\u0091": 3136, "\u00d3n\u00af": 3137, "G\u00aa\u00ef'": 3138, "\\\u00e6": 3139, "hG": 3140, "\u0011\u008a": 3141, "\u00cf\u0004": 3142, "{\u00ad": 3143, "e~": 3144, "\u00e0(": 3145, "\u00f9\u0005": 3146, "OD": 3147, ">\u00c5": 3148, "\u00eb\u00c9)\u00bc": 3149, "G\u00af\u00d6": 3150, "\u00b5n": 3151, "[\u00c6": 3152, "\u00af\u008d\u00db": 3153, "\u001fD": 3154, "s\u00c3": 3155, "\u0019\u00ce\u0019": 3156, "\u00e5\u0018": 3157, "\u009c\u00bf": 3158, "6\u00fb": 3159, "\u00d3e\u00f1\u00bb": 3160, "ET": 3161, "#\u0019": 3162, "\u00d6V": 3163, "\u001eB": 3164, "\u00e5\u009bw": 3165, "9\u00a5\u00fe": 3166, "\u00ec\u00ba": 3167, "\u009f\u00f3": 3168, "\u00be\u00f1": 3169, "1\u00e0\u0084\u009c": 3170, "\u008d\u00bd+": 3171, "j\u009b": 3172, "\u00f4\u0096\u009bv": 3173, "\u00f5\u00d1": 3174, "\u008f\u007f": 3175, "\u00df\u00e6": 3176, "\u00bc<\u0010\u0093": 3177, "\u0087\u00ca": 3178, "O\u009f\u00e0": 3179, "\u00bd\u0014b": 3180, "y\u001d{{\u00ef|": 3181, "\u0019^": 3182, "\u00dfy\u00e6<": 3183, "\u000fj": 3184, "\u00eb\u00fe": 3185, "=U": 3186, "\u0093\u0014": 3187, "\u00cf\u00f0": 3188, "\u001e\u00aa": 3189, "fW\u00c8\u00c3": 3190, "\u00f5\u00f0\u00e1": 3191, "\u00e9\u00b7d": 3192, "k\u00bf": 3193, "]\u0018": 3194, "w\u00af": 3195, "\u001am\u00da": 3196, "\u001e\u00aa\u00fb": 3197, "\u00fa<": 3198, "\u001e\u00ab\u00bc": 3199, "\u00f5\u0017": 3200, ";\u00ba": 3201, "\u008a\u00ee": 3202, "\u00f4R": 3203, "8%": 3204, "\u0091G": 3205, "\u00a7\u00bb": 3206, "\u00a6\u00dd\u00ae": 3207, "X\u0094": 3208, "\u00e6\u00be\u00b5": 3209, "\u00fa$": 3210, "`\u00c0": 3211, "\u00aa\u0002": 3212, "\u00f9\u00d7\u00c7": 3213, "\u0087\"": 3214, "\u00af#\u00afo}\u00ef\u0082\u0015": 3215, "z(\u00c4\u0094": 3216, "\u00de\u00db\u00c2": 3217, "EB": 3218, "\u00edu": 3219, "\u00af\u00a7": 3220, "\u00ee\u00ff": 3221, "\u008f{": 3222, "\u00ea\u00a0": 3223, "\u007f\u00e7": 3224, "gM": 3225, "\bw": 3226, "\u00b6\u00da": 3227, "_\u00d3": 3228, "\u00be\u007f": 3229, "9\u007f": 3230, "\u0007v": 3231, "\u00fa\u00e9": 3232, "\u00aa\u00af": 3233, "\u00f7}": 3234, ")`": 3235, "\r*": 3236, "\u00c4\u0002": 3237, "?\u00d9": 3238, "\u00dft": 3239, "f\u0097\u00fa": 3240, "\u00ea\u00d0": 3241, "\u001e\u0000": 3242, "\u00a5\u0095": 3243, "\u00aeZ": 3244, "|\u00ae": 3245, "u\u00fd": 3246, "\u00e5\u00f2": 3247, "\u00e3\u009d": 3248, "\u00c0\u00ba": 3249, "9]": 3250, "\u00f7v": 3251, "\u0082Q": 3252, "V\u00a1": 3253, "=t": 3254, "\u009f>\u00f1": 3255, "$\u0013": 3256, "B\u00bf": 3257, "\u00d4x": 3258, "=~": 3259, "e\u00e3": 3260, "\u00b1\u0000": 3261, "\u0001C": 3262, "\\g": 3263, "\u00a6\u00e3": 3264, "/=": 3265, "m\u00fe": 3266, "\u00d1&": 3267, "OF": 3268, "m\u00c1": 3269, "\u00a8\u00bd": 3270, "\u00c97": 3271, "\u008d:": 3272, "\u00b3\u00a6\u00ec": 3273, "\\2": 3274, "\u0083\u00bb": 3275, "\u00dbr": 3276, "\u00eb\u00f9\u000e": 3277, "R*": 3278, "^\u00de": 3279, "\u00c7\u00c8": 3280, "\u00d7\u00b7": 3281, "\u00aau": 3282, "\u00d5\u0094bJ": 3283, "\u00f7\u0000": 3284, "\u001d\u00ee": 3285, ":\u00f2:\u00f6": 3286, "\u00f6u\u00e4": 3287, "\u0092\u009b\u001e": 3288, "\u00d0o": 3289, "x\u00f6": 3290, "\u00cf\u00f9": 3291, "J\u00e0": 3292, "\u00b3\u00c7": 3293, "\u00fb\u00d7": 3294, "_#": 3295, "Y\u00e7": 3296, "Cz": 3297, "\u00fap": 3298, "\u0097\u00c8\u00c3": 3299, "<=": 3300, "9%\u00f3": 3301, "\u00b2\u00fc": 3302, "\nD": 3303, "5g": 3304, "\u001f\u00a2": 3305, "\u00ae\u0092S": 3306, "\u00ce\u00db\u0091": 3307, "h\u00bf": 3308, "\f\u00d2\u00ff": 3309, "\u0095\u00c3": 3310, "\u0002s": 3311, "\u00d5\u0094": 3312, "\u00eap": 3313, "\u00a0\u00a7": 3314, "\u00b3\u00ff": 3315, "\u00a0\u000b": 3316, "^}": 3317, "\u00bf\u00ed": 3318, "T\u0015": 3319, "\u00f6\u00ba": 3320, "\u00f8!_": 3321, "\u00e8\u00a3\u0012S": 3322, "u\u00ed\u0015\u00ed": 3323, "!0": 3324, "\u000f\u00ac<\u00ba": 3325, "\u0012-": 3326, "S\u00c7": 3327, "_\u00eb": 3328, "G\u009f": 3329, ".3": 3330, "\u00cex": 3331, "\u00ab ": 3332, "J\u00ee": 3333, "H-": 3334, "3b": 3335, "J\u00d6": 3336, "\u00abP": 3337, "\u008a\u0086": 3338, "E\u00ff": 3339, "/Q": 3340, "\u00e4\u00dd\u00f4": 3341, "M\u00c1": 3342, "\u00ea\u00d2": 3343, "\u0089=": 3344, "\u00f4\u00beN": 3345, "\u0004\u00a6": 3346, "\u00bb\u00fd": 3347, "u\u00ca": 3348, "\u00ac\u00a2": 3349, "\u001a\u00f2": 3350, "\u00e4\u0097\u00cd": 3351, "\u00ba<": 3352, "\u00cfF": 3353, "\u00f1\u00dd": 3354, "\u0088\u00ee\u008f\u0090": 3355, "\u00f3%6": 3356, "\u008d\u00da": 3357, "J`": 3358, "\u0017\u00f8": 3359, "\u0082\u0012": 3360, "N\u008d": 3361, "B\u001b": 3362, "\u009dS": 3363, "T<\u008b\u00c9)": 3364, "Sw\u00ce\u00be9": 3365, "Q\u0088": 3366, "\u00f4\u00db\u00b0": 3367, "\u00a3\u001e": 3368, "\u00c8E": 3369, "\u00bf\u00c0": 3370, "\u00f5\u00d6": 3371, "\u00f8\u0003": 3372, "\u0007\u0000": 3373, "=V": 3374, "W9": 3375, "{\u00a7": 3376, "\u00f4\u00e0": 3377, "J\u00e8": 3378, "\u00f5\u009e": 3379, "\u00cf\u0090": 3380, "\u00abB": 3381, "5\u009e": 3382, "\u00d6m\u00df": 3383, "=x": 3384, "\u00df\u00dc": 3385, "t\u00db\u00b4": 3386, "\u00b1s": 3387, "n\u00bf\u0090": 3388, "K\u00fe": 3389, "_\u00fd": 3390, "\u00a2M": 3391, "\u00feR": 3392, "\u0098\u00bd": 3393, "\u00d3\u00a8": 3394, "\u00c4?": 3395, "\u00bd\u0017": 3396, "D\u00c5": 3397, "\u007fg": 3398, "B\u001e": 3399, "Yx": 3400, "P\u008e": 3401, "\u00b7\u00b4": 3402, "t|": 3403, "3n\u00ff": 3404, "\u00f9u": 3405, "\u00f0S": 3406, "G\u0080": 3407, "\u009dY": 3408, "\u00b97}": 3409, "M\u009c": 3410, "\u0014\u0086": 3411, "n\u00ff": 3412, "\u008a[": 3413, "\u00beF": 3414, "=6\u00ed": 3415, "\u00f4\u00db\u00b4": 3416, "\u00a1\u00e4": 3417, "(\u00f2": 3418, "M\u00d1": 3419, "\u00a1\u00c7": 3420, "\u00dd\u0018": 3421, "3\u00df\u00ec": 3422, "\u00e5h": 3423, "\u00ab\u00c3\u00c1\t9": 3424, "\u00b7\u00f2": 3425, "]\u0015": 3426, "#\u00cc": 3427, "z\u00e8": 3428, "~\u0004": 3429, "?\u00c1\u00c7": 3430, "\u00ca\u00d6\u00a9": 3431, "r\u001f": 3432, "%>": 3433, "_\u00d7": 3434, "\u00d9\u007f": 3435, "\u00abr": 3436, "\u000b\u00da": 3437, "\u008b\u00fc": 3438, "5>": 3439, "\u00f5\u00e6": 3440, "\t\u00ff": 3441, "\u00afh": 3442, "H\u0097": 3443, "\u0019Z\u00d3n": 3444, "\u00a1\u00c1": 3445, "\u00c9s\u00fc": 3446, "\u00a0\u00bf": 3447, "\u00e5i": 3448, "m\u00c5\u00fc": 3449, ":\u001d": 3450, "\u00cd\u00bb\u00f9": 3451, "g\u00be": 3452, "k\u009c": 3453, "b\u00ae": 3454, "j\u0099": 3455, "\u0080/": 3456, "\u008eW": 3457, "<A": 3458, "\u00c9/\u0099": 3459, "_\u00a7": 3460, "\u0015\u00bc": 3461, "\nuI": 3462, "m\u00e1": 3463, "U\u00fe": 3464, "]\u0017": 3465, "\u0014\u00eb": 3466, "W\u0087\u0082\u0012r": 3467, "\u0092_3": 3468, "$z": 3469, "r\u00f8": 3470, "o\u001e": 3471, "\u00e7\u00fe": 3472, "\u00b9k\u00ad": 3473, "\u00e9]\u00eb": 3474, "\u001c\u008b": 3475, "\\\u00e8\u0014": 3476, "\u0018v": 3477, "N\u00aa": 3478, "\u00bc-u": 3479, "\u00be\u00ce": 3480, "\u00b0\u00f2\u00e9": 3481, "/g": 3482, "\u00de\u00db": 3483, "^\u0016": 3484, "\u00a7)": 3485, "\u00ef\u00f4": 3486, "\u00882": 3487, "\u00e1\u00c1": 3488, "\u00d9Z\u00d3n": 3489, ")\u00f2": 3490, "\u00e9\u00e3": 3491, "\u00a4U": 3492, "\u008cC": 3493, "\t8": 3494, "\u008f\u0093w": 3495, "Q\u00e0": 3496, "p\u00cd": 3497, "\u00e8\u0014": 3498, "\u00d9|n": 3499, "Y\u007f": 3500, "z\u00f0": 3501, "\u00ab\u00fc": 3502, "\n\u00bf": 3503, "+\u00bb": 3504, "\u00ddw": 3505, "pJ": 3506, "\u00cd\u00a9": 3507, "\u00db\u00ec": 3508, "\u00b7\u00de": 3509, "\u00b7\u009e": 3510, "\u0011s": 3511, "`r\u0086": 3512, "f\u00dcz": 3513, "\u00fb\u00bf": 3514, "T\u00dc": 3515, "\u00858": 3516, "S\u00af": 3517, "\u00c1e": 3518, ";\u0092": 3519, "\u009dU": 3520, ">\u008b": 3521, "E\u00f7": 3522, "\u0006\f\u00180`\u00c1\u0083\u0006\f\u00180`\u00c1\u0083\u0006\f\u00180`\u00c1\u0083\u0006\f\u00180`\u00c1\u0083\u0006\f\u00180`\u00c1\u0083\u0006\f\u00180`\u00c1\u0083": 3523, "c\u00c6": 3524, "\u00be\u00af": 3525, "\u00a7\u00de": 3526, "\u0014\u0089": 3527, "\u00a7M\u009e": 3528, "\u00eb\u00e1\u00c3": 3529, "t\u00db\u0092": 3530, ";}": 3531, "=6\u00ec": 3532, "\u0002\u001d": 3533, "\u0097C": 3534, "\u009c\u00cb\u0086": 3535, "\u009e8": 3536, "i\u00b7f": 3537, "\u00ees": 3538, "\u00ef\u0086": 3539, "\u00d9\u00e6": 3540, "*\u00f8": 3541, "\u00a74\u00bf": 3542, "\u0089\u001f": 3543, "1\b": 3544, "\u00db\u00ed": 3545, "G\u0098": 3546, "\u000f\u00fb": 3547, "?\u00de": 3548, "y%<": 3549, "\u00f0:": 3550, "\u001c?": 3551, "\u00ffq": 3552, "\u00f6.": 3553, "\u00f2n\u00fe": 3554, "P\u00ed": 3555, "\u009b\u00e9": 3556, "7[": 3557, "I\u00e3": 3558, "T\u00dd\u00f3\u00af\u008e": 3559, "\u00eb\u00db\u00df{": 3560, "r\u009a\u00d6": 3561, "\u00ea\u00c8": 3562, "\u00fa\u00f2": 3563, "\u00e0\f": 3564, "\u0098\u00b9": 3565, "\u0096\u00bc": 3566, "\u00e9\u007f": 3567, "\u0083\u00cb\u00ad": 3568, " \u00e0": 3569, "qJ": 3570, "oJ": 3571, "[\u00fb": 3572, "|}": 3573, "7\u00f5": 3574, "\u00cb\u00ad": 3575, "\u00bf\u00a8\u00f6": 3576, "lF": 3577, "\u0097[": 3578, ";\u00b8": 3579, "\u0007\u0095": 3580, "\u00de\u009c": 3581, "I|\u00fe": 3582, "\u0087\u00f88": 3583, "_\u00a5": 3584, "!\u00f5\u0087\u0097": 3585, "\u00e3\u000e": 3586, "\u00d5\u0007": 3587, "\u009a\u00ef": 3588, "\u0082\u0012r": 3589, "\u00cd/\u00f5": 3590, "\u000b\u00e7": 3591, "\u00c5\u0018": 3592, "_\u00e0": 3593, "y\u0017": 3594, "s\u00c9)": 3595, "\u0004+": 3596, "\u00c7\u008d": 3597, "Eb": 3598, "\u009b\u00beu": 3599, "^G^\u00de\u00fb\u00df\u0004": 3600, "\u007f\u00a1": 3601, "D\u0016": 3602, "\u00d1\u00e1": 3603, "\u001c\u00c5": 3604, "\u0085\u0018": 3605, "\u0083\u00ba": 3606, "\u00d7\u00ca": 3607, "\u0006s\u0086": 3608, "\u00faT": 3609, "j\u00c8": 3610, "Z\u00f9": 3611, "O\u0018": 3612, "<\u008c": 3613, "\u00bf\u00cd": 3614, "\u009bx": 3615, "\u00887": 3616, "\u00b8`": 3617, "\u00b1\u00eb": 3618, "s\u00d0": 3619, "\u0005S": 3620, "\u00b3\u00a6": 3621, "\u00fe\u0086": 3622, "\u00e6\u00dd": 3623, "\\\u00b5\u00f6": 3624, "`r": 3625, "\u00b5F": 3626, "\u00a9\u00ba": 3627, "\u00c6\u001d": 3628, "\u009d\u00be": 3629, "\u00f7\u00af": 3630, "`t": 3631, "\u0014\u00e2": 3632, "\u0017\u00ca": 3633, "\u00eb\u00a5": 3634, "\u00f0\u00e1\u00df": 3635, "P\u00a2": 3636, "\u00eb\u00db": 3637, "\u008c;": 3638, " \u00a8y\u0017\u0092S": 3639, "\u00f8{": 3640, "*}": 3641, ".\u0090": 3642, "\u00b3\u00fa": 3643, "4\u00ff": 3644, ";~": 3645, "ok": 3646, "\u00e7<": 3647, "\u00ff\u00ec": 3648, "\bu": 3649, "\u0015h": 3650, ")\u00ec": 3651, "V\u00f0": 3652, "t\u00db\u00b0": 3653, "\u00e9S": 3654, "\u00fd\u00d1": 3655, "\u00c54": 3656, "%\u00f2": 3657, "\u0084{": 3658, "#\u00cd": 3659, "\u00a6\u00dd\u00aa": 3660, "\u00cay": 3661, "1N": 3662, "\u00a6\u00e8": 3663, "\u00caqK": 3664, "\u00a7\u008e": 3665, "\u00bd|": 3666, "k\u0097\u00c8\u00c3": 3667, "u:": 3668, "\u0099\u00b1": 3669, "\u00af\u000f\u0004$\u00e5": 3670, "\u00f5\u00fd": 3671, "y\u00ff": 3672, "\u0002\u0015": 3673, "\u00f5\u00e5": 3674, "\u00cd\u00ac": 3675, "Zu": 3676, "\u007f\u007f": 3677, "\u00e8}": 3678, "\u009bY": 3679, "^\u00d1": 3680, "\u00bd\u00b7\u0085": 3681, "\u00f9\u00eb": 3682, "\u00f7\u0088": 3683, "L@": 3684, "\u00adi": 3685, "\u0095\u00f8": 3686, "\u00e1\u0099": 3687, "\u00e3\u009c": 3688, "\u00c7\u00c9\u00bb": 3689, "\u008b\u00cf": 3690, "\u00cc\u00db\u008f": 3691, "R<": 3692, "\u0099\u00b3\u00c7": 3693, "EM": 3694, "\u00bdw": 3695, "\u00d8\u008c": 3696, "q\u00ac": 3697, "1\u00e3": 3698, "S\u00d1": 3699, "mg": 3700, "\u00f4\u00f7\f": 3701, "\u00bd\u00b7\u009c": 3702, "5\u00dd": 3703, "k\u00a2": 3704, "\u009d\u00ec": 3705, "eh": 3706, "\u00fau": 3707, "\u00d2\u00be": 3708, "\u00ff\u0002": 3709, "\u001f\u00f0": 3710, "\u0080\t": 3711, "\u000f\u00a2": 3712, ">\u0088": 3713, "]~\u0019": 3714, "\u00f7\u00f7\u00f7": 3715, "\u00afG": 3716, "\u0010\u0087\u00b7": 3717, "\u00ca\u00ef#": 3718, "T\u00f0\u00ea}\u00fd\u00fd": 3719, "\u00f4Q\u0089)": 3720, "\u00ef\u00f0": 3721, "W\u00cf": 3722, "\u0087\u00fa": 3723, "\u00b5\u00d7": 3724, "\u009as": 3725, "i\u00b7h": 3726, "\u009ap": 3727, "\u0018\u00f0": 3728, "\u008aC": 3729, "\u0095\u00dd": 3730, "\u00a3\u00ce": 3731, "G\u009c": 3732, "\u00fd\u00d6": 3733, "/\u0092": 3734, "\u00bcw": 3735, "ev": 3736, "\u00fdy": 3737, "\u00c4zm\u00d9": 3738, "\u008as": 3739, "\u0097\u0088": 3740, "\u008a\u001c": 3741, "\u0004\u00fc": 3742, "\fS": 3743, "\u00d5\u00f5": 3744, "\\\u00bf": 3745, "5\u00d1": 3746, "\u0019O": 3747, "\u00efK": 3748, "\u008f\u00a1": 3749, "\u00d2\u00fc": 3750, "\u00a72\u00e1": 3751, "\u00fe\u00e3": 3752, "4\u00eb": 3753, "q\u0087": 3754, "\u00a7\u00a6\u00dd": 3755, "\u000f+": 3756, "j\u009c": 3757, "\u00b7#": 3758, "X\u00c5": 3759, "\u0011K": 3760, "\u0091/": 3761, "\"\u00a9": 3762, "\u00aet\n": 3763, "\u00a7\"": 3764, "\u001e\u00d4": 3765, "\u00db\u00f9": 3766, "B<": 3767, "\u00ff\u00ed": 3768, "A\u000e": 3769, "zKM\u00bb": 3770, "t\\": 3771, "\u00da\u00dd": 3772, ".\u001a": 3773, "\u0094\u00db": 3774, "y\u00ef": 3775, "\u009b\u00ad": 3776, "\u009f\u00ee": 3777, "\u00adk": 3778, "\u0007\u009e": 3779, "[\u008c": 3780, "\u00b4\u00d9\u00e7": 3781, "\u00f7\u00c3": 3782, "\u0087]": 3783, "\u00ae\u0019": 3784, "}\u00fc": 3785, "K\u00e5": 3786, "\u00f0\u00ee": 3787, "\u00b74": 3788, "\u0087\u009f": 3789, "\u00ee\u00bf\u0090": 3790, "C\u00e4": 3791, "\u00c2\u009d": 3792, "\u00dcr": 3793, "\u00da\u00a0": 3794, "+\u0084": 3795, "\u009f\u00f0": 3796, "G\u00bdy": 3797, "\u00c9\u00e8": 3798, "\u00a8+": 3799, "S\u00e4": 3800, "?\u00d2": 3801, "+\u00dd": 3802, "\u00ef\u0094": 3803, "\u0082\u001d": 3804, "\u00f5\u00e7": 3805, "e\u008c": 3806, "\u0099\u00b1]l": 3807, "\u00d5\u00af\u00fb": 3808, "j\u00fb": 3809, "B\u009d": 3810, "\u00d1\u00e78": 3811, "K\u0083": 3812, "K\u008c": 3813, "\u0099\u00b7": 3814, "\u00d7|": 3815, "8)": 3816, "=\u00d6": 3817, "\u00b2K\u00e6": 3818, "\u0014c": 3819, "!\u00e7": 3820, "\u00ea\u00f0": 3821, "\u00e2\nz": 3822, "\u00f5\u00cd/": 3823, "E\u00f0": 3824, "O}": 3825, "\u00ea\u00ca1": 3826, "\u00f2\u00ba": 3827, "\u00a5Y": 3828, "\u009a#": 3829, "\u00c9M\u00b5": 3830, "\u009c\u0092\u00f9": 3831, "\u0014\u00e6\\": 3832, "Q\u00e4": 3833, "W\u00e5": 3834, "\u007ft": 3835, "\u0091\u0007": 3836, "\u00da\u00f2": 3837, "\u00bc8w": 3838, "\u0007C": 3839, "\u00d3\u00bd": 3840, "\u00b9\u00d0)": 3841, "\u00f7G": 3842, "\u0082\u009dR": 3843, "\u00c9M\u00b4\u00db": 3844, "\u00a1\u00a1": 3845, "\u009e\u00c5": 3846, "~\u00a9": 3847, "\u00c4wG\u00c8": 3848, "\u00eb\u00bc": 3849, "R\u00ff": 3850, "\u001e\u00ba": 3851, "O\u000e\u00a7\u00df\u00df\u00df": 3852, "\u00d7\u0091\u00d7\u00b7\u00be\u00f7": 3853, "|\u0010\u00af": 3854, "\u00b7\u00fc6] ": 3855, "*xu>\u00fe\u00fe": 3856, "\u00d4\u00db": 3857, "fl\u00f1": 3858, "\u00adg": 3859, "\u00ff]": 3860, "\u00c1\u00ce": 3861, "\u00e7\u00bf": 3862, "X\u00a3": 3863, "V\u00f3": 3864, "\u0017\u00dd": 3865, "u\u001e": 3866, "\u00d5\u00a1": 3867, "\u0083\u009e": 3868, "\u00d5\u0018": 3869, "\u00a8\u00aa": 3870, "\u00ce\u0086": 3871, "\u00a7\u00fe": 3872, "\u00d3n\u00d1": 3873, "S{": 3874, "S\u00aaN": 3875, "\u00b4z": 3876, "\u00e9_": 3877, "\u00ca\u00fc": 3878, "#\u00c9": 3879, "\u00a6\u00c4c": 3880, "\u009b\u00a1": 3881, "\u00bc\u00fb": 3882, "\u0000_": 3883, "\n}": 3884, "\u0087\u00de": 3885, "\u0092\u00e7\u00f8": 3886, "\u00bc\u0092\u0098": 3887, "\u0098\u0080": 3888, "\u00c8i": 3889, "{\u00e6": 3890, "^\u0014": 3891, "\u00a8h": 3892, "1\"": 3893, "\u00d1{": 3894, "P_\u00f2": 3895, "\u00f2Jo\u001d": 3896, "\u00e9Yx": 3897, "a\u0095": 3898, "\u00ff\r\u0097H": 3899, "\u009dy\u001d{": 3900, "\u009a\u00fa": 3901, "2G": 3902, "\u00a3\u0010\u0093": 3903, "5\u00fe": 3904, "|\u009b\u00bf": 3905, "\u001c\u0089": 3906, "dd": 3907, "\u000f\u00f1": 3908, "\u009b.": 3909, "\u00c6\u001a": 3910, "T\u00fb": 3911, "=+": 3912, "}\u00f0": 3913, "\u00aep": 3914, "\u00b7\u0088": 3915, "!\u00fe\u000e9": 3916, "\u00efo": 3917, "#\u0010\u00aa": 3918, "\b\u00bd": 3919, "\u0096=": 3920, "\u00ee\u008f": 3921, "\u00aa\u00dc": 3922, "oo": 3923, "^\u00bc": 3924, "*\n": 3925, "\u00ebp": 3926, "/\u00f6": 3927, "\u00e8\u00bf6": 3928, "\u00efa": 3929, "\u00ab\u00ee": 3930, "\u00af4": 3931, "X\u00f5": 3932, "\u009e:": 3933, "\u00f5\u0014": 3934, "\u00bd\u00f7": 3935, "\u00faG": 3936, "o\u00e5w\u0091": 3937, "\u00f5\u00f0": 3938, "5\u00f5": 3939, "k\u00eb": 3940, "qK": 3941, "\u008fj": 3942, ";S\u00df": 3943, "S\u00d0": 3944, "Y]": 3945, "\u00f5\u00d9": 3946, "\u00c4\u0082": 3947, "_\u00fc": 3948, "\u0099\u00b7\u007f": 3949, "\u00f4\u00d8": 3950, "\u00b1F": 3951, "\u00af\u009e": 3952, "o\u00f4": 3953, "o\u00f5": 3954, "pw": 3955, ":m\u00da": 3956, "\u00b9.": 3957, "\u00abxv": 3958, "Q\u0089": 3959, "\u00d3\u00bdy": 3960, "\u0019\u00a5\u00fe": 3961, "\u00ce\u00d4": 3962, "\u00ed_": 3963, "tc": 3964, "\u0083\u00a5": 3965, "\u00fa\u0014": 3966, "\u0012\u00ff": 3967, "F\u00dc": 3968, "\u00ea\u00fdw": 3969, "6\u00e2": 3970, "B\u00c5": 3971, "(\u00c3": 3972, "\u00a99": 3973, "\u0092Sx": 3974, "Y\u00b7|": 3975, "!\u00a7": 3976, "{\u00ee": 3977, "\u00c3R": 3978, "\u0015J": 3979, "\u00cb\u00c7": 3980, "\u008f\u00fb": 3981, "\u001d\u00ef": 3982, "\u00bc\u008e\u00bd\u00a2\u00bd": 3983, "\u0095\u0097\u008d": 3984, "\u0006\u00fb": 3985, "J\u00ef]": 3986, "\u00bd\u007f": 3987, "\u00af\u00a5": 3988, "\u00d4U": 3989, "2Q\u008e": 3990, "\u00aeZ\u00fb": 3991, "\"6": 3992, "Y\u00ff": 3993, "\u007f\u00d7": 3994, "\u008d\u00eb": 3995, "\u00d1|": 3996, "\u0099)\u00b6\u009bv": 3997, "VG": 3998, "Yc": 3999, "\u0092_?": 4000, "-+": 4001, "\u0006\u009bv": 4002, "\u009b\u0011\u008c": 4003, "Pz": 4004, "\u00e4\u0097\u00cc": 4005, "\u0081\u001bz": 4006, "\u0004b\u0015": 4007, "\u000e\u0096": 4008, "\u00cd\u00bf": 4009, "9\u00e2": 4010, "\u00e9\u00ee\u0019": 4011, "\u00fb\u00da": 4012, "\u008b\u00e1": 4013, "\u00c6\u0011\u00b7": 4014, "\u00bds": 4015, "\u009e\u00ee": 4016, "\u00b5\u00f7": 4017, "\u00a8=": 4018, "H\u00aa": 4019, "\u008fz": 4020, "\u0086V\u00b5": 4021, ",J": 4022, "\u00c5w": 4023, "\u0087\u0093": 4024, "r\u00b4": 4025, "\u00bc\u0092n": 4026, "s\u0006": 4027, "k6\u00ef": 4028, "~\u00ef": 4029, "\u00bb\u00e9": 4030, ")\u00e8": 4031, "\u00d3\u00ef\u00ef\u00ef": 4032, "\u001b\u00d2Z": 4033, "[\u00c7": 4034, "\u00ed\r": 4035, "\u00e0\u0085P": 4036, "C\u00ec": 4037, "-\u00d9": 4038, "\u00a5e\u00e3": 4039, "\u009b\u00fa\u00b36\u00dfy": 4040, "\u00d3\u0087": 4041, "\u009f?\u00c1": 4042, "7\u00fa": 4043, "\u00fe\u00ac": 4044, "\u0082\u0091": 4045, "s\u00c4": 4046, "\u0094;": 4047, "\u0010\u00eb": 4048, "\u00cd\u009e=": 4049, "b\u0090": 4050, "\u00d3\u0093": 4051, "\u0082\u00cb": 4052, "\u00f4_": 4053, "m\u00e3": 4054, "\u00d7\u0087": 4055, "\u00c4\u00dd": 4056, "\u0096W": 4057, "\u00b8\u0003": 4058, "\u00c5]": 4059, "\u008au": 4060, "\u0084R": 4061, "\u00ef'": 4062, "\u0012\u00e7": 4063, "\u0007\u0097[": 4064, "\u00e6\u00dc": 4065, "%\u00cf\u00f0": 4066, "\u00c1\u00e5\u00d6": 4067, "_\u00ce": 4068, "\b\u00a5": 4069, "\u00fa\u00fe": 4070, "\u00a76": 4071, ":T": 4072, "\u0094\u00f9": 4073, "cV": 4074, "#\u00e0": 4075, "\u00d1U\u0019": 4076, "\u0012n\u00d3": 4077, "\u0011\u00e0": 4078, "y\u00e0": 4079, "\u008fz\u00f2": 4080, "n\u008c": 4081, "\u00a2S1": 4082, "\u000e9": 4083, "\u00d4R": 4084, "\u001a\u00f3": 4085, "\\a": 4086, "\u00a5\u00fd\u00dc": 4087, "\u0002\u0010": 4088, "\u00d8j": 4089, "\u0004\u00a3": 4090, "\n\u00c8": 4091, "\u00de\u00be\u00e7u": 4092, "\u00ae\u00f23": 4093, "E\u00a2": 4094, "\u00d8\u00bd": 4095, "\u00bd}\u00ce\u00eb": 4096, "\u0015<:\u009f\u007f\u007f|\u0082\u00a1\u00e4^IO^G^\u00de\u00fb\u00df\u0004": 4097, "Xyt": 4098, "\u00db\u00fe\u001b.\u0090": 4099, "\u008a\u00ac": 4100, "\u00b2\u001d": 4101, ">A": 4102, "\u00d3e": 4103, "\u00e4<": 4104, "VC": 4105, "c\u00c1": 4106, "\u009cA": 4107, " \u00b1": 4108, "\u0094\u00a5": 4109, "2\u00b5\u00a6\u00dd": 4110, "\u00ae\u00f9": 4111, "\u00dc\u00e7": 4112, "\u00a4W": 4113, "u9": 4114, "{\u00f9": 4115, "\u000e\u00ea": 4116, "\u009b/\u008d\u00db": 4117, "\u0094\u00f3": 4118, "xp\u00ef": 4119, "k\u00ac": 4120, "\u00ae\u008b": 4121, "\u0018\u008fM\u00bb": 4122, "\u00819": 4123, "\u00cc\u00b8`": 4124, "&(": 4125, "\u00cd\u0017": 4126, "xn": 4127, "\u0004\u0014": 4128, "\u00a2\u00aa3": 4129, "\u00e7\u0000": 4130, "\u00f3\u00df": 4131, "7\u00ae\u00e3": 4132, "\u00b7}": 4133, "\u00ae\u00bf": 4134, "\u0090\u00ff\u0007\u001c": 4135, "\u00da\u009e\u00fe": 4136, "\u00d3v": 4137, "?+": 4138, "R\\": 4139, "v\u00a7\u00bf": 4140, "u\u008a": 4141, "\u00cf\u009fx": 4142, "\u009e\u001d": 4143, "Y\u0019": 4144, "'o": 4145, "\u00b7\u008c": 4146, "\\\u00f2J": 4147, "\u00a1\u00f5": 4148, "/\u001c": 4149, "nS": 4150, "\u0012z": 4151, "\u00d0\u008e": 4152, "\u0089\u0011": 4153, "\u00d8\u00f5": 4154, "\u00d7\u0091\u00d7\u00b7\u00be\u00f7\u00c1\n": 4155, "\u00e6\u00fe\u00ac\u00cd\u00b7\u00de{": 4156, "\u00e87": 4157, "\u0097\u00f8": 4158, "\u00197i": 4159, "4\u00db\u00b0": 4160, "W\u00e9": 4161, "\u0097\u009e": 4162, "8v": 4163, "\u00f6*": 4164, "\u0081k\u00ec": 4165, "\u00e8`": 4166, "\u00e6l\u00f3": 4167, "\u00978": 4168, "\u00f4\u00ff": 4169, "\u00aeZ\u00d0": 4170, "\u0097?\u00c3": 4171, "\u00d1)\u0098\u00f6": 4172, "\u00e7\u0092S": 4173, "w9": 4174, "\u00c1b": 4175, "\u00ca\u00d6\u00b1\u0006": 4176, "!\u001e": 4177, "\u00f2\u0016": 4178, "\u00af\u00c0": 4179, "\u00f6\u00fe\u0004": 4180, "2\u00b4": 4181, "\u00ab\u00da": 4182, "\u00a1\u00d9": 4183, "M:": 4184, "\u00c4\u001b": 4185, "\u00dcs": 4186, "3b\u009e": 4187, "?\u00fe": 4188, "w\u00fa": 4189, "\u00d6\u00e8\u00c3": 4190, "9\u00c3M\u00bb": 4191, "\u00b2n": 4192, "L\u00f7": 4193, "\u00cd*": 4194, "\u00f4\u00e78": 4195, "\u000f.\u00b6": 4196, "\b\u00f6": 4197, "xp": 4198, "x\u008c": 4199, "+\u00b8": 4200, "D\u00ae": 4201, ";\u00ef": 4202, "\u00b22": 4203, "\u00aet": 4204, "\u0018\u00f0BN": 4205, "\u0015>": 4206, "r\u001d": 4207, "\u00bc\u00f6": 4208, "N\u00be": 4209, "\u0083\u000b": 4210, "\u00d5-": 4211, "\u0098\u00f7": 4212, "LH": 4213, "8\u0014": 4214, "\u00be~": 4215, "\u00d44": 4216, "\u00ad\u00d1\u0086": 4217, "\u0091h": 4218, "\u00e6$": 4219, "S\u00c3\u00a9\u00f7\u00f7\u00f7\u00c8*\u001eE\u00e4\u0094\u00f5\u00e4": 4220, "\u00beS\u00aa": 4221, "\u00f5V": 4222, "Uc": 4223, "\u00b5\u00e2": 4224, "\u00f0\u00e7": 4225, "$\u00e5": 4226, "\u00c6*": 4227, "/\u0084": 4228, "\u008f\u0080": 4229, "s\u0098": 4230, "\u00c6\u00ed": 4231, "\u00c5\u00ce": 4232, "\u0002\u000b": 4233, "]\r": 4234, ".w": 4235, "5\u009d7": 4236, "3\u00d1": 4237, "\u009b/\u008d\u00da": 4238, "\u00a2\u00e1": 4239, "\u0001|": 4240, "\u0095\u00d5": 4241, "y9": 4242, "\u00d7-}": 4243, "AN\u00a9": 4244, "\u00ca\u00ce": 4245, "\u0013\u009c": 4246, "\u00b6\u00e4": 4247, "\u00ed\u00fc\t": 4248, "\u00ba>": 4249, ";\u00ac": 4250, "\u00cf~": 4251, "\u00ff\u00b3": 4252, "f\u00dd\u00fc": 4253, "k\u00cf": 4254, "\u00cc\u0094\u00dbM\u00bb": 4255, "\u00beM\u00da": 4256, "\u00e8\u00f9": 4257, "[\u009d": 4258, "\u0084|": 4259, "4A": 4260, "\u00f7o": 4261, "\u0010\u00e4": 4262, "\u00ea\u00de": 4263, "i\u00a2": 4264, "\u00e8\u00bd": 4265, "\u0088u": 4266, "\u00ac\u008c": 4267, ">\u00f8": 4268, "\u0088\t": 4269, "\u00a0I": 4270, "\u00f4(": 4271, "9=": 4272, "`\u00a9\u00e1\u00d4\u00fb\u00fb\u00fb": 4273, "\u00a0\u00bf\u00e5": 4274, "\tG": 4275, "\u007f\u00c3e\u00d2": 4276, "\u00f2\u008f": 4277, ";\u001e": 4278, "\u00a6\u009c": 4279, "C\u00eb": 4280, "\u0004\u00a7": 4281, "\u00ab&\u00ed": 4282, "\u00de\u00df": 4283, "\u0099\u00ec": 4284, "\u0084z": 4285, "b=6\u00ed": 4286, "\u00f6$": 4287, "\u008d\u001a": 4288, "\u00dc2": 4289, "\u00edO\u007f": 4290, "j\u0083": 4291, "\u00f2\u000e": 4292, "r\u00fe": 4293, "\u008as.": 4294, "6_": 4295, "\u0012\u0099\u008f": 4296, "\u00b8g": 4297, "{U": 4298, "\u0082\u00b3": 4299, "\u00e8w": 4300, "M\u009es": 4301, "\u00ff\r": 4302, ")S": 4303, "\n\u0005": 4304, "\u00b7\u008f": 4305, ":\u00ef": 4306, "\u00de\u0096": 4307, "Q\u00e1": 4308, "\u00be\u00f7": 4309, "e\u00f3": 4310, "\u007f\u00bd": 4311, "\u0002;\u00bb": 4312, "G\u0090": 4313, ",\u00a7": 4314, "<\u0092\u0098": 4315, "D\u0088": 4316, "\u001c\u0087\u001c8": 4317, "\u00bfN\u0000": 4318, "u\u00e4": 4319, "\u00feWy\u0019": 4320, "\u0082\u00feA": 4321, "\u00c5V": 4322, "\u00a0j": 4323, "\u00ba.": 4324, "AW": 4325, "\u0002\u009c": 4326, "G+": 4327, "\u0097\u00c3\u009f": 4328, "\u0005_": 4329, "\u00ccR": 4330, "b\u00e7": 4331, "\u00d6\u00e1": 4332, "\u0096\u00be": 4333, "h\u00be": 4334, "k\u00e0": 4335, "[\u00b5\u009e": 4336, "\u00be|": 4337, "\u0004\u00ff": 4338, "\u00de\u00b9\u00a5\u00ff": 4339, "+Zm\u00d8": 4340, "\u00f9\u00e0": 4341, "|\u009b\u00b4": 4342, "\u00a3\u0010\u00aa": 4343, "o\u00ef": 4344, "\u00d2<": 4345, "f\u00cf:": 4346, "\u0093\u0010": 4347, "\u00bd\u0014": 4348, "j\u00d2": 4349, "\u008a\u00a5": 4350, ":\u00a6": 4351, "\fk": 4352, "$\u00c5": 4353, "\u0091\u00f6": 4354, "\u00f47\u00a4": 4355, "\u009e\u00f9\u00bc": 4356, "\u00bc\u000e": 4357, "+\u00f1": 4358, "8\u00e1": 4359, "\u00cb\u009c": 4360, "\u00a0y": 4361, "\u009e\u008b": 4362, ":<": 4363, "\u00caw": 4364, "+Z\u00a6": 4365, "Y\u00e0": 4366, "Ip": 4367, "\u0083\u00ca": 4368, "\u000f\u00f0q": 4369, "b\u008c": 4370, "\u00ba\u00fc2\u00b9\u00e4\u0094": 4371, "\u0087Q": 4372, "_\u00c8q\u00c0\u00a7\u00cf\u00f0": 4373, "\u00db\u00f9]\u00e4g": 4374, "A\u007f ": 4375, "\u0005\u00fc\u0083\u001e": 4376, "u\u00ed\u00ef\u00bd": 4377, "\u0080\u00a1\u00c7": 4378, "\u00cf$\u00a6": 4379, "k\u00eb^\u009bv": 4380, "\u00df\u00e9": 4381, "\u0015g": 4382, "\u00a0\u00ac\u009e": 4383, "T\u00ca": 4384, "\u0016_#": 4385, "\u00a1\u00da": 4386, "I\u00b8": 4387, "B.": 4388, "\u00de\u00fb": 4389, "\u00ef\u000e": 4390, "d\u00dd\u00a7": 4391, "~\u00bb\u00f8": 4392, "\bU": 4393, "\u0015\u007f": 4394, "\u009f ": 4395, "\u0011s\u0080": 4396, "\u008a\u00b2": 4397, "\u00be\u00e9": 4398, "\u00e9f": 4399, "e8\u00a5": 4400, "k\u00ba": 4401, "#\u00ec": 4402, "=\u00d3": 4403, "\u00e4\u00e5": 4404, "!\u00d0": 4405, "\u00d7-u": 4406, "\u001a\u00ce\u009b": 4407, "\u00a6\u00c4\u001a": 4408, "\u00c5X": 4409, "N\u009b<": 4410, "\u00e2\u0090": 4411, "\u00e7\u00f9": 4412, "_w": 4413, "+\u00f2": 4414, "\u00ae\u00e3": 4415, "\u00fb\u00b5": 4416, "\u00car": 4417, "\u00eb\u00cf": 4418, "\u00af\u00f7": 4419, "\u00f4\u00fd": 4420, "\u00b4\u00bf": 4421, "1]": 4422, "\u00caa": 4423, "xw": 4424, "\u0004\u0017": 4425, "e\u00c0": 4426, "\u00b7\u00a8": 4427, "N\u001a": 4428, "\u007f\u00db": 4429, "\u0005\u0018": 4430, "xZ\u00eb": 4431, "y+": 4432, "\u00ad\u00fd": 4433, "s\u00cd": 4434, "'\u00fb": 4435, "\u0088r": 4436, "\u00e1L": 4437, "T\u00e1": 4438, "\u00f6\u0086": 4439, "\u00e4\u0015\u000f\"\u00f2Jz\u00f2:\u00f6\u00f7\u00de": 4440, "u\u00cak": 4441, "\u009f\u00fc\u00ec": 4442, "\u00cd\u00fdY\u009bo\u00bc\u00f6": 4443, "M}": 4444, "\u00c3J": 4445, "\u008f\u0005": 4446, "\u009eu": 4447, "m\u00f5\u00f1\u00bb": 4448, "2\u00f3\u00df": 4449, "\u00fa\u00b5": 4450, "\u00d5\u00f1": 4451, "\u00b4>": 4452, "6\u00e0": 4453, "\\\u00e8": 4454, "\u00ac\u009b\u00b4": 4455, "Su": 4456, "\u00e4a": 4457, "\u00df\u00fb": 4458, "\u00ff.": 4459, "\u00be\u00b5": 4460, "|\u0013": 4461, "\u00d3n\u0015": 4462, "\u009b\u00e3": 4463, "\u00bdsK\u00fe": 4464, "g\u009d": 4465, "\u00cd\u00f4": 4466, "2\u00f9": 4467, ";\u00ad": 4468, "\b'": 4469, "\u0082z": 4470, "\u000f\u00f8": 4471, "H\u009c\u00e1": 4472, "v\u00f9": 4473, "\u00dcp": 4474, "E\u00ec": 4475, "\u00d1\u0005": 4476, "\n{": 4477, "7\u00c7": 4478, "\u00b8\u00e1": 4479, "\u0086\u001a\u00b3": 4480, "\u00ae\u00b2": 4481, "T\u0004": 4482, "\u00c7\u00bc": 4483, "\u00e4'": 4484, "\u000eC\u008e\u001c": 4485, "\u008b\u00de": 4486, ">\u007f\u0083": 4487, "\u0010\u00fa": 4488, "7\u001f": 4489, "\u00c9\u00f4": 4490, "\u0089\u0016": 4491, ":\u0085": 4492, "\u0091(": 4493, "^\u00de\u00fb": 4494, "\u007f+\u00bc\u008c": 4495, "\u00fb\u00a7T": 4496, "\u00af\u00d3\u0080": 4497, "u\u00fc\u0087\u001c\n|\u00ff": 4498, "\u0095\u0093": 4499, "3\u009c5": 4500, "l\u00f2": 4501, "\u00d7t": 4502, "\u0097\u00f5": 4503, "=n": 4504, "h\u001e": 4505, "\u0019\u0092\u009b": 4506, "0w": 4507, "a\u00d1": 4508, "\u00fdS": 4509, ".s": 4510, "\u00f4C": 4511, "\u001d\u00d6": 4512, "\u001a\u00dd": 4513, "\u00a2\u00ff": 4514, "\u009cS": 4515, "QK": 4516, "\u00b1!": 4517, "\u00ab9": 4518, "\u00ac\u00b1": 4519, "U\u00b9": 4520, "\u00d5\u0001": 4521, "W\u00e0N": 4522, "U#": 4523, "[\u00d1": 4524, "\u00e6m\u00c7": 4525, ")\u00d5'": 4526, "\u00e8\u0090\u00ce": 4527, "\u0095o": 4528, ":p": 4529, "\u009d\u0004": 4530, ")I": 4531, "\u00c0\u0087": 4532, "\u008a\u00a4": 4533, "\u00c7\u00af": 4534, "N\u00a0": 4535, "\u0097?": 4536, "6\u00b3": 4537, "\u00f2\u00b5\u00a6\u00dd": 4538, "\u00d6\u00b4": 4539, "\u00f2\u001d": 4540, "\u00957|": 4541, "\u009e\u00e3": 4542, "\u00fc\u00db": 4543, "\u0090O": 4544, "Jm": 4545, "\u00b5A": 4546, "}y": 4547, "*\u0095": 4548, "s\u00a0R": 4549, "\u009eIL": 4550, "\u00b0\u00ca": 4551, "N\u00bc\u0092\u009b\u00c7": 4552, "A\u007f\u00ca": 4553, "\u00bf\u00e1\u00b2\u00e9": 4554, "\u00d5\u00f7": 4555, "\u00a3\u00d3": 4556, "N ": 4557, "\u0018\u00f3": 4558, "_\u00e7": 4559, "U}": 4560, "N\u001b": 4561, ":m\u00d9": 4562, "\u00d0\u00de\u0092": 4563, "\u00d7\u0093": 4564, "^IM\u00e3": 4565, ":u": 4566, "\u00ea\u008d": 4567, "U\u00a5": 4568, "\u00d6y": 4569, "4\u00db\u00b4": 4570, "\u009f\u00f7": 4571, "*\u008c": 4572, "\u00e7\u00fd": 4573, "\u00ab(": 4574, "\u000f?": 4575, "\u00b5}": 4576, "\u009a_\u00f6": 4577, "m\u00e7": 4578, "9\u00ff": 4579, "\u0005:\u00a4": 4580, "f\u00c4m": 4581, "{^": 4582, "\u00a2\u00a9": 4583, "\u00cf\u009a": 4584, "\u00b9\u00d0": 4585, "\u009c\u00f1": 4586, "\u0010\u00e3": 4587, "\u001b\u00d7q": 4588, " \u00e1": 4589, "O\u00a1": 4590, "\u00fd\r": 4591, "\u00eb\u0014": 4592, "]\u00d1": 4593, "\u00dfv": 4594, "\u000e\u00f9": 4595, "\u008f\u001c": 4596, "#\u0010\u00af": 4597, "\u00d7q": 4598, "\u00f22": 4599, "\u0099\u00b1O": 4600, "{\u0017": 4601, "\u00e0t": 4602, "\u009f|": 4603, "\u0098\u00ae": 4604, "\u009f\u00ec": 4605, "\u0000J": 4606, "\u00f4_\u009b": 4607, "\u0012\u0097\u00fa": 4608, "\u00c9\u00d1": 4609, "\u00f1\u00c1": 4610, "\u008a\u00f7": 4611, "o\u00f8l": 4612, "\u00a7\u0087S\u00ef\u00ef\u00ef": 4613, "{]": 4614, "\u009b}|n": 4615, "$\u00be\u007f": 4616, "\u00f36": 4617, "2\u00e0": 4618, "\u00cbZ": 4619, "\u00e4_": 4620, "\u0080S": 4621, "z\u00ee<": 4622, "y\u00f3\u00ef": 4623, "\u00f7\u00b5": 4624, "x\u00c5": 4625, "\nq": 4626, "N\u00df": 4627, "/\u00e7": 4628, "G\u00aa'": 4629, "\u00b2\u00b4": 4630, "\u008a\u00a6": 4631, "s\u00fc": 4632, "\r\u0003": 4633, "B/": 4634, "\u00f3\u00e7\u00de": 4635, "\u0083\u009c": 4636, "\u00d2\u00c1": 4637, "\u00bdq": 4638, "\u00ff\u00b8": 4639, "\u00db\u00f8\u0013": 4640, "\u0099\u008f": 4641, "\u00ae\u00e8": 4642, "\"\u00e7": 4643, "\u00f5Z": 4644, "tT": 4645, "\u00c8\u007f\u0083\u008e": 4646, "\u0088.": 4647, "\u00de\u00db\u00ce": 4648, "G\u00c7": 4649, "\u00fe\u00bc": 4650, "\u00880": 4651, "\u00c3\u00a8": 4652, "4_\t": 4653, "8}": 4654, "|\u00f5": 4655, "\u00cc\u0094\u00db>": 4656, "\u00dfK": 4657, "\u0090\u00f2": 4658, "\u0004wv": 4659, "\u00d0\u00e4": 4660, "\u00bcs": 4661, "3%6": 4662, "\u00ebq": 4663, "\u0004\u00bf": 4664, "f\u0097\u00f9": 4665, "\u00e9\u00b1": 4666, "\u00d7\u00fc": 4667, "\u00d3\u0086": 4668, "\u00c7\u0082\u0012r": 4669, "\u0083\u00c8": 4670, "Gt|": 4671, "\u00f2\u008c": 4672, "\u0089\u0015": 4673, "\u00ae\u00bf\f\u00ae": 4674, "\u001f\u001f": 4675, "D?": 4676, "\u00ecH": 4677, "m\u00b6": 4678, "\u00bf\u00ab3m\u00f7\u009e": 4679, "\n\u009e\u001dO\u00bf\u00bf\u00beAP\u00f2/$\u00a7": 4680, "7\u00f5fm\u00be\u00f3": 4681, "\u00c1(\u00ef": 4682, "J\u00cb\u00c6": 4683, "\u007fVf": 4684, "\u007f\u00f3\u00b1": 4685, "U\u008d": 4686, "\u00a1\u001d": 4687, "\u000bt": 4688, "\u00cf\u00e8": 4689, "\u00f4\u00db\u00b2": 4690, "1s": 4691, "&+": 4692, "\u00a1\u00bd%": 4693, "c\r": 4694, "\u0018\u00a7": 4695, "\u00ca\u00d6\u009bp": 4696, "\u009d\u00dc": 4697, "\u00d2J": 4698, "5\u00e6": 4699, "\u0099(\u00c7": 4700, "M9": 4701, "\u00c4r\u00ba": 4702, "\u00e8b": 4703, "~\u0091": 4704, "r\u001e": 4705, "W\u00b5": 4706, "A=": 4707, "\u0095\u001e": 4708, "\u00d0\u007f": 4709, ")\u00c9": 4710, "\u007f\u00ee": 4711, "\u00af\u00d2": 4712, "\u00c6\u00ba": 4713, "x!'": 4714, "S\u00a8": 4715, "\u00ea\u00f8": 4716, "@\u0017": 4717, "\u009d6\u00e4": 4718, "\u0083\u00fd": 4719, "o\u001d": 4720, "\u0087\u0006": 4721, "\u00c3\u00a9": 4722, "\u00e8\u00c4": 4723, "\u00e5\u00f3": 4724, ")\u00d7": 4725, "z{\u0086": 4726, "\u009dA": 4727, "\u00d0t": 4728, "\u0014\u00b7": 4729, "\u00d4(": 4730, "\u00d9\u00ce\u001a": 4731, "\u00da\u00ce": 4732, "\u00ba\u00c5\u0018": 4733, ").": 4734, "E\u00fd": 4735, "\u00c8\u00c0": 4736, "\u00ff\u00d1": 4737, "\u00ff\u0094": 4738, "\u00db\u00fa": 4739, "\u00e6*": 4740, "\u00c4\u00c4": 4741, "D\u00f7": 4742, "Ez": 4743, "u\u00ed\u0015\u0015": 4744, "C\u00c8\u00bc\u0092\u009e": 4745, "\u009e\u008f": 4746, "z<\u0085": 4747, "\u00cf\u00fev": 4748, "\u008cIO": 4749, "\u0082\u00f9": 4750, "\u008a\u0084": 4751, "h\u0082": 4752, "\u001b\u00da": 4753, "\u00bd\u00af": 4754, "\u00af\u00ae": 4755, "\u00a8\u0018": 4756, "\u00f2\u009e": 4757, "\u001f\u00f3": 4758, "`\u00b2": 4759, "\u00f5\u00d0": 4760, "\u0093p": 4761, "ks": 4762, "\u00bb\u00cf": 4763, "^\u001e": 4764, "8\u0017": 4765, "\u001f&\u00ef": 4766, "<\u008b": 4767, "r\u009f": 4768, "\u0085P": 4769, "LF\u00de": 4770, "\u00b9\u00fc\u000e": 4771, "\u0089\f\u00ed": 4772, "\u0089\u00ee": 4773, "\u001d\u00dc": 4774, "G\u00c0": 4775, "w\u0091": 4776, "m\u00df\u00ed": 4777, "T\u00dd\u00fd": 4778, "|\u00fe": 4779, "{\u00ec": 4780, "\u0014:": 4781, "& ": 4782, "\\\u00ee": 4783, "*t": 4784, "\u0084\\": 4785, "\u0094\u00f8": 4786, "\u00a4Np": 4787, "\u00ffV": 4788, "0\u008d\u00bc": 4789, "\u00b4H": 4790, "\u00a5-": 4791, "\u00d2\u00f9": 4792, "s\u00a0": 4793, "\u001al\u00f3": 4794, "{\u00fa": 4795, "\u00e8\u00c6": 4796, "\u00d4\u00fb": 4797, "\u00c1\u0084": 4798, "\u00a0\u00a7T": 4799, "&=": 4800, "\u0018\u00f2": 4801, "\u0080\u008b\u009c": 4802, "_\u00a8": 4803, "\u00e8\u0093": 4804, "\u00b2\u00bb": 4805, "\u00a7\u00fd": 4806, "\u00c3\u00b5": 4807, "y\u0019": 4808, "<:": 4809, "\u00aa\u0097": 4810, "V!": 4811, "z/\u00cd": 4812, "x_\u000e": 4813, "\u00c7\u0086": 4814, "!\u000f": 4815, "\u00d8\u00f0": 4816, "^9": 4817, "\u0003\u0006": 4818, "\u00f8!T": 4819, "\u00ba\u00feC\u008e\u0005": 4820, "\u000b\u00feR": 4821, "\u0001\b": 4822, "\u0082\u00ff\u0094": 4823, "\u00aa\u00c6": 4824, "tx": 4825, "V\u00e1": 4826, "\u0088\u0088": 4827, "\u00de\u00df\u00c0": 4828, "\u00e2=6\u00ed": 4829, "\u00ecT": 4830, "\nE": 4831, "\u00b4\u00ea": 4832, "\u00d0\u00e0": 4833, "h\u0010": 4834, "\u0012\u00a7": 4835, "{~\u00ba": 4836, "`\u009f": 4837, "y\u00c3": 4838, "\u00d2U\u00f6": 4839, "\\\u00fe\u0007": 4840, "\u00fb\u00b7": 4841, "\u00a3\u0010\u00af": 4842, "\u008ci": 4843, "\u0095a": 4844, "\u0083\u00a4": 4845, "!\u0017\u00bb": 4846, "\u00cb\u0091": 4847, "{\u00ab": 4848, "\u00a7\u00be": 4849, ",\u00beF": 4850, "\u00f5h": 4851, "\u00b3\u00c5": 4852, "\u00a8\u00cc": 4853, "A@": 4854, "\u00cf\u00f4": 4855, "\u0015O": 4856, "\u00ac@": 4857, "J\u00e9\u00b7": 4858, "\u0002\u0086": 4859, "6_\u001b\u00b4": 4860, "|n": 4861, "\u001f\u00e3": 4862, "5\u00f5\u00afM\u00bb": 4863, "A\u00cf": 4864, "4\u0014": 4865, "\u00cc\u0094c": 4866, "\u00df\u00e3": 4867, "/$\u00a7": 4868, "[\u0091": 4869, "!\u009d": 4870, "\u00fb\u0015": 4871, "ZW": 4872, "\u009e>": 4873, "\u009em\u00df": 4874, "\u008cH": 4875, "\u00b0a": 4876, "^\u00d7": 4877, "\u00ec\u00fe": 4878, "\u00d2\u00fe\u00ee": 4879, "\u00dfT": 4880, "<}": 4881, "c\u00cc": 4882, "\u0091K": 4883, "\u00af\u00c3+": 4884, "\u00b3\u001e": 4885, "\u00f1\u00a9": 4886, "\u00af#\u00afo}\u00ef": 4887, "\u00af\u00e48\u00e0S\u00e7\u00f8": 4888, ":7": 4889, "\u00b8%\u001d": 4890, "\u00f0\u00b5\u00d7": 4891, "<5": 4892, "rn\u00fe": 4893, "o=": 4894, "\u00af\u00cb": 4895, "\u001b\u00c4": 4896, "&\u00e8": 4897, "\u00dam\u00da": 4898, "\u00af\u00b0": 4899, "\u00aa\u0000": 4900, "\u0015\u00f9": 4901, "\u00a2\u00f8": 4902, "z\u00e6\u0097\u00fd": 4903, "g\u008b": 4904, ")]": 4905, "\n\u00f1": 4906, "\u00ban": 4907, "\u00e2\f": 4908, "\u00af\u00b4": 4909, "l\u00be7": 4910, "\u0082\u00ff": 4911, "\u0097\u00e7": 4912, "\u00ad\u00d1": 4913, "\u00ado": 4914, "M\u00be\u00be7": 4915, "\u00d7-h": 4916, "\u00cf\u001a": 4917, ")\u00f0": 4918, "\u00cd\u0088\u00db": 4919, "\u001a\u00a3": 4920, "\u00e3V": 4921, "\u00e7\u00f4\u00beN": 4922, "q\u009c": 4923, "2\u00ab": 4924, "\n\u00de1": 4925, "m\u00c5\u00fd": 4926, "\u001am\u00d9": 4927, "\u0082J1": 4928, "\u001fv": 4929, "{\u0015": 4930, "\u00ae\u007f\u0003": 4931, "$\u0094": 4932, "\u00fe]": 4933, "\u00e1\u00dc": 4934, "\u0017\u00de": 4935, "\u00baW": 4936, "\u00fd\u0018": 4937, "t\u00fd": 4938, "\u000f\u00bd": 4939, "\u00f2W": 4940, "\u00ac\u00f3": 4941, "\u00e1\u0090": 4942, "N\u00ad": 4943, "\u00f9\\": 4944, "\u00b0\u00dd": 4945, "\u00f4A": 4946, "/k": 4947, "\u00de\u00d1": 4948, "#\u00ba>": 4949, ">>": 4950, "wY": 4951, "S\u00ef": 4952, "9\u0015": 4953, "\u008a\u00c5": 4954, "\u00ea\u00fdw\u00f0": 4955, "\u00dbm\u00b6\u00dbm\u00b6\u00dbm": 4956, "^G^\u00d1^": 4957, "\u00d1~l": 4958, "\u00f2\n\u0087\u0091y%=y\u001d{{\u00ef|": 4959, "\u00bfp": 4960, "\u0081\u001by": 4961, "\u00a4C": 4962, "\u00b3\u00c6": 4963, "{\u00e1": 4964, "$p": 4965, "<\u0001": 4966, "\u00b7\u0019": 4967, "\u00f1\f": 4968, "\u00ac\u00f1": 4969, "\u00fe\u00a3": 4970, "\u00fdt": 4971, "/\u00f2": 4972, "\u00be\u00fd": 4973, "\u00d6\u00ef\u00f6": 4974, "\u009e5": 4975, "=y": 4976, "\u00c4s\u00df": 4977, "jm": 4978, "\u0084^\u00ee": 4979, "z\u00eb": 4980, "\u00a8\u00f3": 4981, "\u00d4\u001f": 4982, "\u00b5\u00f0": 4983, "\u0014\u00ae": 4984, "\u00cb\u0080": 4985, "M\u0017": 4986, "T\u008c": 4987, "c\u00c1\t9": 4988, "k\u00c5": 4989, ")\u00cc\u00b8": 4990, "\\\u00fe": 4991, "\u009c1": 4992, "%\u00ce": 4993, "uk": 4994, "\u009a\u00ee": 4995, "\u00e8\u00bf": 4996, "\u00c1e\u00f20": 4997, "w\u00fc": 4998, "}\u007f": 4999, "4\u00a9": 5000, "k\u00fd": 5001, "\u0089>": 5002, "Py": 5003, "\u00b5\u00f6": 5004, "%\u00c0": 5005, "\u00cfu": 5006, "\nz": 5007, "ju": 5008, "f\u00dd\u00fd": 5009, "\u0007\u0088": 5010, "1\u00eb": 5011, "w[": 5012, "\u0083\u0080": 5013, "$\u00a6\u00f1": 5014, "kt": 5015, "b\u00bb": 5016, "]b\u008c": 5017, "9Z\u00d3n": 5018, "G\u00d0": 5019, "\u0017\u00b5": 5020, "\u008d\u0003": 5021, "\u0081\u00e6": 5022, "\"\u00e7\u0000": 5023, "\u00e4d": 5024, "_\u0086W": 5025, "\u0083\b": 5026, "\u000e\u00a2": 5027, "\u000e\u00f7": 5028, "\u00fb\u00f9": 5029, "\u00d5n": 5030, "\u00e9\u00f7\u00f7\u00f7": 5031, "\u001c\u00c4": 5032, "\u008e\u00f7": 5033, "\u000e\u00bd\u00bd\u00f7": 5034, "\u00df\u00d5\u0099\u00b6\u00fb\u00cf": 5035, "\u0087\u00d9": 5036, "=z": 5037, "_\u00aa": 5038, "s\u0086\u009bv": 5039, "Ns\u0086\u009bv": 5040, "~]": 5041, "r\u00f8s": 5042, "/]": 5043, "[\u0084": 5044, "\u000ep": 5045, "\t(\u00c7": 5046, "x\u0082\u009e": 5047, "z\u00ca": 5048, "\u0082\u00cb\u00e4a": 5049, "\u0012\u0098": 5050, "9}": 5051, "%\u00fe": 5052, "7\u00d3": 5053, "\u0014\u00e9": 5054, "F\u00de\u0095": 5055, "\u001b\u00fc": 5056, "\u0015@": 5057, "B\u008f": 5058, "_\u0002": 5059, "D\u009a": 5060, "\f\u0082": 5061, "\u0085A": 5062, "\u0015\u00e2": 5063, "9O": 5064, ".\u0018": 5065, "!T": 5066, "3\u00df\u00ed": 5067, "C\u0083": 5068, "z\u00fb\u009d\u00d6": 5069, "\u0086\u009e": 5070, "{C": 5071, "r\u00fd": 5072, "Z\u00b6": 5073, "E\u00bd": 5074, "B?": 5075, "C;": 5076, "\u00fc2": 5077, "\u000f.": 5078, "\u0092\u009b\u00c7": 5079, "\u00ba\u00fc2": 5080, "M\u0097": 5081, "\u00db\u00fe": 5082, "~\u0019": 5083, "\u0087\u00d6": 5084, "\u00be7": 5085, "\u009b\u00fa": 5086, "Z\u00eb": 5087, "^IM": 5088, "4_": 5089, "\u00cd}": 5090, "\u00df{": 5091, "wG": 5092, "_\u001b": 5093, "\rY": 5094, "\u00df\u00d5": 5095, "\u00b9M": 5096, "\u00bc\u008c": 5097, "\u00af\u000f\u0004": 5098, "\u00b2\u00f1": 5099, "M\u00b9": 5100, "m\u00c5": 5101, "_\u001b\u00b4": 5102, "\u000f\u00ac": 5103, "z/": 5104, "\u00c4r": 5105, "^IO": 5106, "<\u0010\u0093": 5107, "m\u00f7\u009e": 5108, "+\u00ad": 5109, "a\u00e5": 5110, "_\u00ae": 5111, "\u00f2\u00e9": 5112, "\u00ef\u00ef\u00ef": 5113, "\u00a6\u00cb": 5114, "\u0090\u00fa\u00c3": 5115, ":\u00f6\u00f7\u00de": 5116, "\u00afo}\u00ef": 5117, "\u0012r": 5118, "\u0086v": 5119, "}\u00ef": 5120, "?\u00a5": 5121, "\u007f\u00f3": 5122, "o\u00f8": 5123, "m\u00be\u00f3": 5124, "\u00d7\u00b7\u00be\u00f7": 5125, "\u00e4\u0015": 5126, "\u00b7\u00fc": 5127, "\u0098\u00f6": 5128, "O\u00bf": 5129, "{\u00ef|": 5130, "\u00cd\u00b7\u00de": 5131, "\u00f2\n": 5132, "\u00c8*": 5133, "(\u00ef": 5134, "\u00b6\u00fb\u00cf": 5135, "!\u00f5\u0087": 5136, "Xy": 5137, "^\u00ee": 5138, "\u000f\"\u00f2J": 5139, "S\u00df": 5140, "z<": 5141, "\u00b8%": 5142, "\u009f\u00fc": 5143, "\u00bc\u008e\u00bd\u00bd\u00f7": 5144, "\u00ae\u00b6": 5145, "r\u009a": 5146, "\u00c9)\u00bc": 5147, "wG\u00c8": 5148, "\u0007\u001c": 5149, "\u0099\u00b1]": 5150, "M\u00be": 5151, "\u0083\u008e": 5152, "\u00d1)": 5153, "\u009d\u00d6": 5154, "P\u00f2/": 5155, "\u00f20": 5156, "\u0015\u00d6": 5157, "P_": 5158, "\u00bf\u00ab": 5159, "\u00e7u": 5160, "o\u00e5": 5161, ":\u0005": 5162, "\u00a2S": 5163, "\u00db\u0091": 5164, "\t9": 5165, "\u007fV": 5166, "\u00d5\u0094b": 5167, "q\u00c0": 5168, "\u00a8y\u0017\u0092S": 5169, "`\u00c1\u0083": 5170, "\u00ce\u00eb": 5171, "\u00e6\u0097\u00fd": 5172, "\u00de1": 5173, "{~": 5174, "\u00b9\u00e4\u0094": 5175, "\n\u009e\u001dO\u00bf\u00bf\u00be": 5176, "\u00a7\u00df\u00df": 5177, "\u00d1~": 5178, "\u00e0S": 5179, "J\u00cb": 5180, "\u00b9\u00fc": 5181, "\u0011\u008c": 5182, "\u0015<:\u009f\u007f\u007f": 5183, "\u00c1\u00c7": 5184, "\u00d3\u0080": 5185, "\u001eE\u00e4\u0094": 5186, "\u0084\u009c": 5187, "m\u00f5": 5188, "\u00cd\u00fdY": 5189, "\u008d\u00db": 5190, "\u00d1\u00f2": 5191, "\u00a9\u00e1\u00d4\u00fb\u00fb\u00fb": 5192, "\u009bo\u00bc": 5193, "\u0095\u0097": 5194, "T\u00dd\u00f3": 5195, "\u00ef#": 5196, "\u00c8*\u001eE\u00e4\u0094": 5197, "S\u00c3\u00a9\u00f7\u00f7\u00f7": 5198, "\u00a1\u00e4^IO": 5199, "z\u00f2:\u00f6\u00f7\u00de": 5200, ";\u00a3": 5201, "7\u00f5f": 5202, "T<\u008b": 5203, "\u00a8y\u0017": 5204, "AP\u00f2/$\u00a7": 5205, "\u00ee\u008f\u0090": 5206, "sK\u00fe": 5207, "\u00bf\u00ab3": 5208, "\u00e6\u00fe\u00ac": 5209, "O\u000e": 5210, "\u00df\u00d5\u0099": 5211, "\u00a3\u0012S": 5212, "\u00bd\u00bd\u00f7": 5213, "Wy\u0019": 5214, "^\u00de\u00fb\u00df\u0004": 5215, "\u00a7\u00cf\u00f0": 5216, "\u00e4\u0015\u000f\"\u00f2J": 5217, "\u009b\u00fa\u00b36": 5218, "6] ": 5219, "\u00af\u00e48": 5220, "\u00f0\u00ea}\u00fd\u00fd": 5221, "\u000eC\u008e": 5222, "AP\u00f2/": 5223, "C\u008e\u0005": 5224, "\u001b.\u0090": 5225, "\u00e1\u00d4\u00fb\u00fb\u00fb": 5226, "\u0087S\u00ef\u00ef\u00ef": 5227, "\u001c\u0087\u001c": 5228, "`\u00c1\u0083\u0006\f\u00180`\u00c1\u0083\u0006\f\u00180`\u00c1\u0083\u0006\f\u00180`\u00c1\u0083\u0006\f\u00180": 5229, "\u00f2\n\u0087\u0091": 5230, "Q\u0089)": 5231, "]\u00e4g": 5232, "(\u00c4\u0094": 5233, "\u0087\u001c\n": 5234, "\u00cd\u00fdY\u009bo\u00bc": 5235, "\u007f+": 5236, "\u009e\u001dO\u00bf\u00bf\u00be": 5237, "\u00a9\u00bb\u00e7": 5238, "<:\u009f\u007f\u007f": 5239, "`\u00c1\u0083\u0006\f\u00180`\u00c1\u0083": 5240, "\u00cd\u00b7\u00de{": 5241, "S\u00c3\u00a9": 5242, "|\u0082\u00a1\u00e4^IO^G^\u00de\u00fb\u00df\u0004": 5243, "xu>\u00fe\u00fe": 5244, "`\u00c1\u0083\u0006\f\u00180`\u00c1\u0083\u0006\f\u00180`\u00c1\u0083\u0006\f\u00180`\u00c1\u0083\u0006\f\u00180`\u00c1\u0083\u0006\f\u00180`\u00c1\u0083": 5245, "`\u00c1\u0083\u0006\f\u00180`\u00c1\u0083\u0006\f\u00180": 5246, "`\u00c1\u0083\u0006\f\u00180": 5247}