{" ": 0, ", ": 1, "\n": 2, "s": 3, "c": 4, "d": 5, "ed ": 6, "b": 7, "p": 8, "t": 9, "e": 10, "m": 11, "in": 12, "f": 13, "s ": 14, "n": 15, "g": 16, "er": 17, "l": 18, "al": 19, "on": 20, "i": 21, "h": 22, "y": 23, "e ": 24, "a": 25, "o": 26, "k": 27, "the ": 28, "-": 29, "ing ": 30, "or": 31, "r": 32, "at": 33, "y ": 34, "re": 35, "ar": 36, "and ": 37, "w": 38, "A": 39, " s": 40, "an": 41, "I": 42, "it": 43, "v": 44, "th": 45, "el": 46, "ic": 47, "u": 48, " m": 49, "ing": 50, "; ": 51, "en": 52, "C": 53, "S": 54, "to": 55, "st": 56, "P": 57, "4": 58, "es ": 59, "e, ": 60, "ch": 61, "t ": 62, " a": 63, ", and ": 64, "5": 65, " h": 66, "es": 67, ": ": 68, "2": 69, "of ": 70, "3": 71, "9": 72, "7": 73, "D": 74, "6": 75, " c": 76, "ur": 77, " the ": 78, "N": 79, "M": 80, "il": 81, "e\n": 82, " d": 83, "O": 84, "er ": 85, " b": 86, ".": 87, "et": 88, ",\n": 89, "for": 90, "ed": 91, "T": 92, "is": 93, ". ": 94, "was ": 95, " th": 96, "a ": 97, "id": 98, "s, ": 99, "om": 100, "B": 101, "F": 102, "L": 103, "E": 104, "ol": 105, "\u2014": 106, "all": 107, "it ": 108, "in ": 109, " p": 110, "ri": 111, "un": 112, "ent": 113, "ir": 114, "R": 115, "la": 116, "at ": 117, "\u2019": 118, "al ": 119, "of the ": 120, "to ": 121, "1": 122, "8": 123, "H": 124, "ro": 125, "an ": 126, "G": 127, " (": 128, "is ": 129, "im": 130, "he ": 131, "up": 132, "ly ": 133, "am": 134, "ra": 135, "d ": 136, "ou": 137, "\n\n": 138, "0": 139, "of": 140, "e s": 141, "ea": 142, "wh": 143, "em": 144, "that ": 145, "o ": 146, ";": 147, "iv": 148, "or ": 149, "us": 150, "(": 151, "res": 152, "ul": 153, ".\n\n": 154, "y, ": 155, "ow": 156, "y\n": 157, "_": 158, "as": 159, "k ": 160, "ec": 161, "with": 162, "le": 163, "as ": 164, "ut": 165, "j": 166, "ion": 167, "%": 168, "not ": 169, "J": 170, "one ": 171, "\u2019s ": 172, "con": 173, "ation": 174, "W": 175, "you": 176, "our": 177, "ear": 178, "en ": 179, "--": 180, "ad": 181, "ent ": 182, " and ": 183, "in the ": 184, "li": 185, "ay": 186, "ac": 187, "I ": 188, "ter": 189, "e: ": 190, "had ": 191, "um": 192, ")\n\n": 193, "if": 194, "ha": 195, "19": 196, "ep": 197, "on ": 198, "ers": 199, "ag": 200, " that ": 201, "be": 202, "), ": 203, "no": 204, "$": 205, "ist": 206, "qu": 207, ";\n": 208, "sh": 209, ")": 210, "s\n": 211, "Wh": 212, "and": 213, " a ": 214, "ect": 215, "z": 216, ", I": 217, "lo": 218, "% ": 219, "ig": 220, "es, ": 221, "se": 222, "and\n": 223, ",": 224, " his ": 225, "ind": 226, "op": 227, "ap": 228, "ain": 229, "bl": 230, "ther": 231, "ant": 232, " st": 233, "out ": 234, "with ": 235, "tr": 236, "ex": 237, "his ": 238, "ever": 239, " to": 240, "ud": 241, "U": 242, "per": 243, "ic ": 244, "10": 245, "ot": 246, "oc": 247, "are ": 248, "ish": 249, "ive ": 250, "wor": 251, "et ": 252, "end": 253, "est": 254, " sh": 255, "US": 256, "K": 257, "ma": 258, "18": 259, " km": 260, "go": 261, "12": 262, " of ": 263, "wa": 264, "him": 265, "sp": 266, "ab": 267, "15": 268, "ill": 269, "man": 270, " the\n": 271, "eg": 272, ".\n\n\u201c": 273, "e. ": 274, "\u201c": 275, "for ": 276, "\n\nC": 277, "ess": 278, "!": 279, "ce": 280, "sa": 281, "20": 282, "ip": 283, "ure": 284, "so": 285, "to the ": 286, "now": 287, "est ": 288, "other": 289, "s: ": 290, "th ": 291, "70": 292, "; and ": 293, "ome ": 294, "ary ": 295, " him": 296, "od": 297, "pr": 298, "14": 299, "St": 300, "16": 301, "pl": 302, "er, ": 303, "uch": 304, "ast": 305, ",\u201d": 306, "V": 307, "ed, ": 308, "ev": 309, "id ": 310, "but ": 311, "over": 312, "ew": 313, "would ": 314, "off": 315, " he ": 316, "13": 317, "ran": 318, "00": 319, "anc": 320, "own": 321, "ub": 322, ".\u201d\n\n\u201c": 323, "ke ": 324, "ong": 325, "ck": 326, "In": 327, "    ": 328, "land": 329, "of\n": 330, "all ": 331, "ed\n": 332, "which": 333, "bo": 334, "65": 335, "iz": 336, ". I": 337, "she ": 338, "whal": 339, "ve ": 340, "os": 341, "es: ": 342, "they ": 343, "by ": 344, "Y": 345, "pro": 346, "40": 347, "ta": 348, "ef": 349, "17": 350, "ort": 351, "on the ": 352, "you ": 353, "were ": 354, "! ": 355, " at ": 356, "s and ": 357, "her": 358, "com": 359, "air": 360, "30": 361, "25": 362, "ial": 363, "rat": 364, " as ": 365, "le ": 366, "ound ": 367, "ey": 368, ":": 369, "ity ": 370, "out": 371, "1 ": 372, "ant ": 373, "n\u2019t ": 374, "fl": 375, "way": 376, "ing\n": 377, "ell": 378, "ug": 379, "ead": 380, "?": 381, ".\n": 382, "oun": 383, "what ": 384, "  ": 385, "35": 386, "ight ": 387, "Ind": 388, "rate: ": 389, "Ch": 390, "from": 391, " in": 392, "we ": 393, "tion": 394, "60": 395, "ang": 396, "s of ": 397, "ound": 398, ") ": 399, ". Th": 400, "art": 401, "ver": 402, " her ": 403, "NA": 404, "ate ": 405, "x": 406, " million": 407, "like ": 408, "ing, ": 409, "the\n": 410, "her ": 411, "have ": 412, "s (": 413, "po": 414, "se ": 415, "a\n": 416, "ren": 417, "part": 418, "The ": 419, "%, ": 420, "old ": 421, "oo": 422, " had ": 423, "e; ": 424, "39": 425, "49": 426, "be ": 427, "lar": 428, "ation ": 429, "45": 430, "88": 431, "ite ": 432, "198": 433, "other ": 434, "Th": 435, "rop": 436, "75": 437, "tim": 438, "90": 439, "ult": 440, "abl": 441, "arm": 442, " I": 443, " f": 444, "ment": 445, "28": 446, " this ": 447, "ight": 448, "af": 449, "me ": 450, "we": 451, "ce ": 452, "orn": 453, "ust": 454, "too": 455, " their": 456, "ess ": 457, "self": 458, "e, and ": 459, "79": 460, "\n\n- ": 461, " them": 462, "ount": 463, "low": 464, "ough": 465, "exp": 466, "rea": 467, " k": 468, "able ": 469, "1,": 470, "ard": 471, "); ": 472, "s--": 473, "s; ": 474, "\n\nL": 475, "ian": 476, "ally ": 477, "gre": 478, "ful": 479, ". The ": 480, "gra": 481, "\u201d": 482, "igh": 483, " she ": 484, "29": 485, "ay ": 486, "the s": 487, " C": 488, "38": 489, "do": 490, "78": 491, "a, ": 492, "down": 493, " her": 494, "26": 495, "ity": 496, "ass": 497, "ed to": 498, "ere ": 499, "is\n": 500, "tra": 501, "?\u201d\n\n\u201c": 502, "look": 503, "co": 504, "ood": 505, "long": 506, "tern": 507, "ick": 508, "at\n": 509, "48": 510, "par": 511, "1.": 512, ". S": 513, "ame ": 514, "wat": 515, "2,": 516, "lin": 517, "when": 518, "Mar": 519, "includ": 520, "ers ": 521, "way ": 522, "ember ": 523, "ter ": 524, "this ": 525, "most ": 526, " A": 527, "d\n": 528, "there ": 529, "ov": 530, "my ": 531, "rough": 532, "one": 533, "36": 534, "will": 535, "ed the ": 536, "cl": 537, "ment ": 538, "ely ": 539, "your": 540, "ing the ": 541, "sid": 542, "s, and ": 543, "ever ": 544, "46": 545, "fac": 546, " (198": 547, "only ": 548, "comm": 549, "any ": 550, "thing ": 551, "enc": 552, "mar": 553, "pos": 554, " total": 555, "to be ": 556, "ead ": 557, ".\u201d\n\n": 558, "ous ": 559, "though": 560, "ould ": 561, "ly": 562, ". \u201c": 563, "ing a": 564, "st ": 565, "ical": 566, " con": 567, "been": 568, "land ": 569, "vi": 570, ",000": 571, " billion": 572, "ge ": 573, "An": 574, "ous": 575, "ch ": 576, "not": 577, "76": 578, "? ": 579, "\n\nT": 580, "pla": 581, "them": 582, "form": 583, "inc": 584, " my ": 585, "about ": 586, "tur": 587, "ies ": 588, "its ": 589, "fr": 590, "equ": 591, "ated ": 592, "\nthe ": 593, "know": 594, "ut ": 595, "ome": 596, "on\u2019t ": 597, "And ": 598, "uc": 599, "ght ": 600, "pre": 601, " n": 602, "\n\nA": 603, "ust ": 604, "gr": 605, "ther ": 606, "sc": 607, "av": 608, "e-": 609, "ey ": 610, "last ": 611, "ph": 612, "lea": 613, ", s": 614, "23": 615, "me": 616, "from ": 617, "ion ": 618, "fi": 619, ", W": 620, "ack": 621, "ss": 622, "s:": 623, ");\n": 624, "n ": 625, "ew ": 626, "ted ": 627, "24": 628, " they ": 629, "war": 630, "Un": 631, "X": 632, "thing": 633, "then": 634, "age ": 635, "es\n": 636, "rit": 637, "ence ": 638, "s. ": 639, "emp": 640, "ink": 641, "could ": 642, "ow ": 643, "no ": 644, "\ns": 645, "little ": 646, " sa": 647, "ist ": 648, "fe": 649, "got ": 650, "capit": 651, "ese ": 652, "ose ": 653, "50": 654, "uck": 655, " have ": 656, "rem": 657, "ree ": 658, "e\u2019s ": 659, "der": 660, "But ": 661, "held ": 662, "ank": 663, "it was ": 664, "ll": 665, "of a": 666, " (1989": 667, "Is": 668, "ilit": 669, "eb": 670, "ative ": 671, "ak": 672, "ib": 673, "ob": 674, "us ": 675, "uff": 676, "77": 677, "from the ": 678, "with the ": 679, "fin": 680, "fer": 681, "\n\nE": 682, "wi": 683, "eas": 684, "very ": 685, "ga": 686, " produc": 687, "und": 688, " said ": 689, "pres": 690, "ort ": 691, "erv": 692, "For": 693, "to\n": 694, "ener": 695, "a s": 696, "ship": 697, "can": 698, "ed in": 699, "car": 700, "year": 701, "min": 702, "for the ": 703, "tain": 704, "fish": 705, "tw": 706, "light": 707, "ication": 708, "eep": 709, ", the ": 710, " S": 711, "ian ": 712, "ould": 713, "run": 714, "irth": 715, "ile ": 716, "turn": 717, ", but ": 718, "tl": 719, "\u201d\n\n": 720, "ven": 721, "ric": 722, " so": 723, "so ": 724, "'": 725, "which ": 726, "3,": 727, "gl": 728, "an\n": 729, "hear": 730, "more ": 731, "m ": 732, "di": 733, "over ": 734, "ash": 735, "Part": 736, "eath": 737, "68": 738, "bec": 739, "Coun": 740, ". A": 741, "!\u201d": 742, "ime ": 743, "ble ": 744, "their": 745, ". H": 746, "who": 747, "bout ": 748, "mo": 749, "epend": 750, "ports: ": 751, "pp": 752, "% of ": 753, "fore ": 754, "get ": 755, "ustri": 756, "growth rate ": 757, "Ex": 758, ". But ": 759, "22": 760, " se": 761, "ore ": 762, "sur": 763, "lim": 764, "time ": 765, ". T": 766, "ice ": 767, "27": 768, "                ": 769, "int": 770, "s/1,000 population (1990)\n\n": 771, "by the ": 772, "ranch: ": 773, "ed by ": 774, "ance ": 775, "Con": 776, "well": 777, "econom": 778, "oil": 779, "tal": 780, "wom": 781, "ar ": 782, "; but ": 783, "acc": 784, "how": 785, "if ": 786, "bod": 787, "des": 788, "lab": 789, "ast ": 790, "dis": 791, ",\nand ": 792, "\u2019t ": 793, "rec": 794, "sk": 795, "cr": 796, "expendit": 797, "just ": 798, "Commun": 799, "to m": 800, "wer": 801, "80": 802, "ord": 803, "99": 804, "ubl": 805, "\n\nEx": 806, "str": 807, "ory ": 808, "ia": 809, "when ": 810, "/": 811, "went ": 812, "cla": 813, "ign": 814, "years ": 815, "tell": 816, "1989": 817, "again": 818, "of his ": 819, "ue ": 820, "to d": 821, "        ": 822, "of s": 823, "33": 824, "1990": 825, "\n\n\u201c": 826, " to ": 827, "\u2019ll": 828, "has ": 829, "oul": 830, "mbass": 831, "rain": 832, "inter": 833, ", S": 834, "along": 835, "under": 836, "old": 837, ", U": 838, "44": 839, "ed to ": 840, "Mr": 841, "2.": 842, "Well": 843, "ution": 844, "e--": 845, "emb": 846, "ern": 847, " ad": 848, ", as ": 849, "since ": 850, "37": 851, " be": 852, "55": 853, "ind ": 854, "ty ": 855, "port": 856, "ision": 857, "minist": 858, "read": 859, "was\n": 860, "of the\n": 861, "seem": 862, "to b": 863, "child": 864, "good ": 865, "AP": 866, "ward": 867, "ld ": 868, "tin": 869, " with": 870, "t\n": 871, "try": 872, "a m": 873, "reg": 874, "AT": 875, "89": 876, "where ": 877, "de ": 878, "t was ": 879, "I d": 880, "O, I": 881, "ry ": 882, "Oce": 883, "TER": 884, "ious ": 885, "No": 886, "head": 887, "still": 888, "been ": 889, "efense ": 890, "did ": 891, "teleph": 892, "till": 893, "bet": 894, "area: ": 895, "ystem": 896, "\n\nD": 897, "I c": 898, "il ": 899, "less ": 900, "liv": 901, "it, ": 902, "that": 903, "ale ": 904, "ne": 905, "You": 906, "upon": 907, "to s": 908, "mer": 909, "- ": 910, "ard ": 911, "Z": 912, " km ": 913, "any": 914, "come ": 915, "ular": 916, "66": 917, "34": 918, " J": 919, "lag": 920, "ark": 921, "sum": 922, "ities": 923, "1988": 924, "elf": 925, "riv": 926, "two": 927, "\n(": 928, "GDP": 929, "eng": 930, "end ": 931, "aw": 932, "ann": 933, " a\n": 934, "ause ": 935, "hand": 936, " know": 937, "ident": 938, "row": 939, "til": 940, "ood ": 941, "present": 942, "gover": 943, "gric": 944, "Qu": 945, "in\n": 946, "on, ": 947, " (1988": 948, "M, ": 949, "land; ": 950, "85": 951, "t, ": 952, "I was ": 953, "National": 954, "even": 955, "face ": 956, "atural ": 957, "\u201d\n\n\u201c": 958, " see ": 959, "ook": 960, "ah": 961, "sm": 962, "stit": 963, "; s": 964, "next ": 965, "Peop": 966, "cre": 967, "ght": 968, "69": 969, "of m": 970, " km2": 971, "\n\nN": 972, "200": 973, "mat": 974, " comm": 975, "Nation": 976, "ommun": 977, "serv": 978, "iss": 979, "Pet": 980, "ens": 981, "ail": 982, "an, ": 983, " there ": 984, "Ahab": 985, "sea": 986, "first ": 987, "app": 988, "than ": 989, "made ": 990, " pro": 991, ". He ": 992, "earth": 993, "100": 994, " nm": 995, "chang": 996, "olit": 997, "\n\nLand ": 998, "ect ": 999, "gan": 1000, "y (": 1001, " be ": 1002, "raf": 1003, "runways ": 1004, " est.)\n\n": 1005, "rag": 1006, "ts ": 1007, "wood": 1008, "loy": 1009, " perman": 1010, "He ": 1011, "ness ": 1012, "produc": 1013, "87": 1014, "Total ": 1015, "tran": 1016, "),\n": 1017, "hap": 1018, "Government": 1019, "1990)\n\n": 1020, "itt": 1021, "by": 1022, " (1990)\n\n": 1023, "ies": 1024, "cap": 1025, "gh": 1026, "atur": 1027, " ha": 1028, "TE": 1029, "*": 1030, "ost ": 1031, "area": 1032, "hel": 1033, "opulation": 1034, "000": 1035, "ways ": 1036, "rate ": 1037, "fir": 1038, "eop": 1039, "ild": 1040, "=": 1041, "\u2018": 1042, "--------------------------------": 1043, "----": 1044, "ich": 1045, "omm": 1046, "----------------": 1047, "econ": 1048, "1,000": 1049, "aus": 1050, "litt": 1051, "ranch": 1052, "s/1,000": 1053, "ince ": 1054, " est.": 1055, " per": 1056, "ense ": 1057, "grow": 1058, "ff": 1059, "ade ": 1060, "opul": 1061, "mb": 1062, "nment": 1063, "[": 1064, "]": 1065, "hab": 1066, "duc": 1067, "q": 1068, "yst": 1069, "DP": 1070, "eir": 1071, "Gover": 1072, "Q": 1073, "clud": 1074, "est.": 1075, "eph": 1076, "growth ": 1077, "nex": 1078, "tel": 1079, "illion": 1080, "+": 1081, "\u00e6": 1082, " population": 1083, "\u00e9": 1084, "/1,000": 1085, " population (1990)\n\n": 1086, "\"": 1087, "&": 1088, "\u2032": 1089, "\u0153": 1090, "{": 1091, "}": 1092, "\u00ea": 1093, "\u00a3": 1094, "\u00e8": 1095, "expend": 1096, "--------": 1097, "\u00f9": 1098, "\u00e0": 1099, "Tot": 1100, "\u05d7": 1101, "\u05d5": 1102, "\u03f0": 1103, "\u03b7": 1104, "\u03c4": 1105, "\u03bf": 1106, "\u03c2": 1107, "\u0152": 1108, "\u00e2": 1109, "\u00ef": 1110, "\u00e7": 1111, "\u00c6": 1112}