{"\n": 0, ", ": 1, " ": 2, "ed ": 3, "s ": 4, "s": 5, "and ": 6, ", and ": 7, "ing ": 8, "-": 9, "in": 10, "the ": 11, "; ": 12, "it ": 13, "to ": 14, "a ": 15, "s, ": 16, "in ": 17, ",\n": 18, "t": 19, "p": 20, "e, ": 21, "y": 22, "on": 23, "was ": 24, "al": 25, "of ": 26, "d": 27, "e": 28, "er": 29, "\u2014": 30, "S": 31, "or": 32, "of the ": 33, "is ": 34, " and ": 35, "ing": 36, "that ": 37, "it": 38, "es ": 39, "un": 40, "b": 41, " the ": 42, "en": 43, "er ": 44, "y ": 45, "in the ": 46, "es": 47, "an ": 48, "e\n": 49, "a": 50, " s": 51, "c": 52, "an": 53, "ar": 54, "B": 55, "ed": 56, "l": 57, "as ": 58, "_": 59, "not ": 60, "I": 61, "C": 62, "e ": 63, "he ": 64, "h": 65, "\u2019s ": 66, "m": 67, "i": 68, "re": 69, "u": 70, "6": 71, "all": 72, "o": 73, "at": 74, "one ": 75, "M": 76, "D": 77, "g": 78, "f": 79, "to": 80, "A": 81, "k": 82, "5": 83, "his ": 84, "4": 85, "ic": 86, "T": 87, "8": 88, "L": 89, "st": 90, "at ": 91, "on ": 92, "or ": 93, "P": 94, " that ": 95, "7": 96, "el": 97, "9": 98, "ly ": 99, "you": 100, "R": 101, "ed\n": 102, "for": 103, "th": 104, "ch": 105, "3": 106, " (": 107, "H": 108, "n": 109, "I ": 110, " m": 111, " p": 112, " c": 113, "r": 114, " b": 115, "10": 116, "and\n": 117, "for ": 118, "s and ": 119, " d": 120, "up": 121, "ur": 122, "2": 123, "with ": 124, "1": 125, "had ": 126, "N": 127, "ed, ": 128, "al ": 129, "18": 130, "19": 131, "y, ": 132, "F": 133, "(": 134, "es, ": 135, "et": 136, "il": 137, "; and ": 138, ".\n\n": 139, "you ": 140, "now": 141, "v": 142, "us": 143, "14": 144, "all ": 145, "ent": 146, "what ": 147, "the\n": 148, "is": 149, "ing\n": 150, "t ": 151, "12": 152, "s\n": 153, "am": 154, "by ": 155, "w": 156, "! ": 157, "), ": 158, "her ": 159, "no": 160, " of ": 161, "of\n": 162, ".\n\n\u201c": 163, "e s": 164, "to the ": 165, "16": 166, "13": 167, "15": 168, "20": 169, "id": 170, "17": 171, "30": 172, ".\u201d\n\n\u201c": 173, "a\n": 174, "\u2019": 175, " to": 176, "are ": 177, "G": 178, "with": 179, "O": 180, "they ": 181, "y\n": 182, "ed the ": 183, "out ": 184, "K": 185, "ing the ": 186, "ol": 187, "25": 188, "sh": 189, "ad": 190, "s of ": 191, " a": 192, " a ": 193, ";\n": 194, "we ": 195, "like ": 196, ", I": 197, "E": 198, " h": 199, "on the ": 200, " as ": 201, " in": 202, "ing, ": 203, "en ": 204, "e, and ": 205, "im": 206, "ac": 207, "my ": 208, "%, ": 209, "40": 210, "j": 211, "her": 212, "er, ": 213, "s, and ": 214, "e. ": 215, "this ": 216, "him": 217, " f": 218, "ation": 219, "were ": 220, "26": 221, "sp": 222, "old ": 223, "ent ": 224, "she ": 225, "only ": 226, "90": 227, "60": 228, "ed to": 229, "\u201c": 230, "est ": 231, "would ": 232, ". The ": 233, "ra": 234, "ers ": 235, "28": 236, "35": 237, "over": 238, "its ": 239, "50": 240, "as": 241, ".\n": 242, "other ": 243, "\ns": 244, "ist": 245, "70": 246, "W": 247, "man": 248, "out": 249, "49": 250, "e; ": 251, "but ": 252, " he ": 253, "ir": 254, "45": 255, "a, ": 256, "s; ": 257, "V": 258, "le ": 259, "la": 260, "ant": 261, "om": 262, ", the ": 263, "ate ": 264, "23": 265, "about ": 266, "so": 267, ",": 268, ". \u201c": 269, "ea": 270, "our": 271, "end": 272, "36": 273, "very ": 274, "ag": 275, "?\u201d\n\n\u201c": 276, "39": 277, "65": 278, "to\n": 279, "46": 280, "a s": 281, "it was ": 282, "um": 283, "29": 284, "ut": 285, "which": 286, "38": 287, ". ": 288, "75": 289, "ab": 290, "? ": 291, "and": 292, "o ": 293, "88": 294, "any ": 295, ";": 296, "be ": 297, "ul": 298, "if": 299, "from the ": 300, "me ": 301, " at ": 302, "off": 303, "have ": 304, "for the ": 305, "le": 306, "ated ": 307, "e-": 308, "ri": 309, "se": 310, "down": 311, "24": 312, "bl": 313, "1,": 314, " st": 315, "78": 316, "% ": 317, "own": 318, "go": 319, "with the ": 320, "em": 321, "the s": 322, ", but ": 323, "79": 324, "res": 325, "48": 326, "ay": 327, "no ": 328, "ap": 329, " the\n": 330, "iv": 331, "NA": 332, "able ": 333, "22": 334, "ity ": 335, ". But ": 336, ".\u201d\n\n": 337, "et ": 338, "ill": 339, "27": 340, "z": 341, "ex": 342, "got ": 343, "ed by ": 344, "ers": 345, "way ": 346, "from ": 347, " his ": 348, "33": 349, "76": 350, "us ": 351, "ro": 352, "); ": 353, "ey": 354, "99": 355, "68": 356, "est": 357, "00": 358, "k ": 359, "ha": 360, "qu": 361, "80": 362, "of": 363, "so ": 364, ". I": 365, "just ": 366, "os": 367, "ot": 368, " had ": 369, "there ": 370, "be": 371, "ship": 372, "long": 373, "\nthe ": 374, "The ": 375, "little ": 376, "time ": 377, "; but ": 378, "per": 379, "from": 380, "other": 381, "to be ": 382, ") ": 383, "d ": 384, " this ": 385, "op": 386, "ish": 387, "s (": 388, "55": 389, " sh": 390, "pl": 391, "ter": 392, "ted ": 393, "most ": 394, "of the\n": 395, "more ": 396, "when ": 397, "of his ": 398, "come ": 399, "34": 400, "ever": 401, " to ": 402, "ell": 403, "ic ": 404, "od": 405, "them": 406, "1 ": 407, "J": 408, "air": 409, "con": 410, "77": 411, "in\n": 412, "ation ": 413, "85": 414, "sc": 415, " S": 416, "ies ": 417, "37": 418, "U": 419, "me": 420, "ou": 421, ")": 422, " her ": 423, "ly": 424, " him": 425, "it, ": 426, " th": 427, "66": 428, ", s": 429, "ely ": 430, " they ": 431, ",000": 432, "es\n": 433, "iz": 434, "over ": 435, "ion": 436, "s. ": 437, " I": 438, "ed to ": 439, "do": 440, "ow": 441, ", S": 442, "ence ": 443, "!": 444, "ear": 445, "way": 446, "which ": 447, "arm": 448, "ed in": 449, "wa": 450, "com": 451, "when": 452, "was\n": 453, "44": 454, "69": 455, "an\n": 456, "t, ": 457, "of a": 458, "then": 459, "by the ": 460, "ant ": 461, "went ": 462, "lin": 463, "id ": 464, "a p": 465, "has ": 466, "ang": 467, "av": 468, "e\u2014": 469, "ind": 470, "%": 471, " her": 472, "good ": 473, "47": 474, "ian": 475, "al\n": 476, "every ": 477, "made ": 478, "    ": 479, "look": 480, "of m": 481, "_ ": 482, "I was ": 483, "get ": 484, "95": 485, "ak": 486, "Y": 487, "dis": 488, "could ": 489, "ally ": 490, "though": 491, "tim": 492, " km": 493, "es and ": 494, " con": 495, "ing s": 496, "hand": 497, "all the ": 498, "ia": 499, "age ": 500, ", as ": 501, "ary ": 502, "low": 503, " A": 504, "will": 505, "US": 506, "th ": 507, "even": 508, "ec": 509, "pro": 510, "ub": 511, "end ": 512, "a b": 513, ",\nand ": 514, "a c": 515, "your": 516, "on, ": 517, "--": 518, "ed, and ": 519, "ful": 520, "fish": 521, "ous ": 522, "89": 523, ".": 524, "who": 525, "ud": 526, "first ": 527, "int": 528, "a m": 529, "great ": 530, "where ": 531, "to s": 532, "ass": 533, "land": 534, "of s": 535, "ion ": 536, "never ": 537, "some ": 538, "ev": 539, "ast": 540, "tr": 541, "2,": 542, " n": 543, "ve ": 544, "e,\n": 545, ". A": 546, "11": 547, "ard": 548, "fac": 549, " them": 550, "right ": 551, "s,\n": 552, "I\n": 553, "ip": 554, "ness ": 555, " was ": 556, "ig": 557, " C": 558, "still": 559, "turn": 560, "ian ": 561, "without ": 562, "ran": 563, "s of the ": 564, "form": 565, "rat": 566, "the b": 567, "back": 568, "ever ": 569, "almost ": 570, "he was ": 571, "day": 572, "ah": 573, " my ": 574, "an, ": 575, "we": 576, "ing a": 577, "Th": 578, "well": 579, "ance ": 580, ". S": 581, "sk": 582, "67": 583, "lo": 584, "par": 585, "ly\n": 586, "ure ": 587, "white ": 588, "; the ": 589, " so": 590, "en, ": 591, "know": 592, "fl": 593, "how": 594, "ess": 595, " she ": 596, "light": 597, ", and the ": 598, "art": 599, "ive ": 600, "last ": 601, "es; ": 602, " have ": 603, "before ": 604, "National ": 605, "co": 606, "64": 607, "head": 608, "pr": 609, "32": 610, ")\n\n": 611, "two": 612, " a\n": 613, "0.": 614, "ered ": 615, ". He ": 616, "less ": 617, "along": 618, "at\n": 619, " by ": 620, "again": 621, "yet ": 622, "ight": 623, "59": 624, "too": 625, "ies": 626, "Tess ": 627, "oc": 628, "eg": 629, "of a ": 630, "not": 631, "!\u201d\n\n\u201c": 632, "ment": 633, "been": 634, "king ": 635, "it\n": 636, "ew": 637, "whale ": 638, "inc": 639, " km ": 640, "hear": 641, "under": 642, "!\u201d\n\n": 643, "he had ": 644, "ick": 645, "ob": 646, "said ": 647, "se ": 648, "is\n": 649, "or\n": 650, "man ": 651, "light ": 652, "night": 653, "thing": 654, "to b": 655, ". And ": 656, "at the ": 657, ",\u201d said ": 658, "while ": 659, "74": 660, "ts ": 661, "3,": 662, "ity": 663, "ine ": 664, "part": 665, ", that ": 666, "in his ": 667, ",\u201d": 668, "land ": 669, "1989": 670, "ist ": 671, "es, and ": 672, "ed up": 673, "ug": 674, "li": 675, "a d": 676, "e.\n\n": 677, "e\u2019s ": 678, "liv": 679, "Jim": 680, "ious ": 681, "\u2019s\n": 682, "whal": 683, "work": 684, " a s": 685, "ings ": 686, "leg": 687, "ome ": 688, "because ": 689, "ia ": 690, "t\n": 691, "ef": 692, "ing and ": 693, "t of ": 694, "going ": 695, " km total; ": 696, "tell": 697, "he\n": 698, "ure": 699, "ong": 700, "did ": 701, "ed and ": 702, " do": 703, "),\n": 704, "d\n": 705, "till": 706, "up ": 707, " there ": 708, " their": 709, "upon": 710, "s.\n\n": 711, "1988": 712, "ry ": 713, "two ": 714, "red ": 715, "ther": 716, " of the ": 717, "ous": 718, "42": 719, "sea": 720, "oil": 721, "ce": 722, "water": 723, "go ": 724, "ks ": 725, "ow ": 726, ". H": 727, "if ": 728, ", C": 729, "year": 730, "law": 731, "58": 732, "on\n": 733, " about ": 734, "inter": 735, "round ": 736, "und": 737, "ens": 738, "ge ": 739, "ma": 740, "room": 741, "en\n": 742, "y-": 743, "ing his ": 744, "take ": 745, " me ": 746, "let ": 747, ", P": 748, "to m": 749, "87": 750, "ust": 751, "Al": 752, "now ": 753, "St": 754, "to d": 755, "see ": 756, "es of ": 757, "98": 758, "oo": 759, "mar": 760, "And ": 761, "into the ": 762, "who ": 763, "put ": 764, "ver": 765, "it is ": 766, "their": 767, "ay ": 768, "over the ": 769, "by": 770, "But ": 771, "e of ": 772, "can": 773, ". T": 774, "found ": 775, ", and\n": 776, "gu": 777, "day ": 778, "\n\n": 779, "ke ": 780, "ue ": 781, "; s": 782, "our ": 783, "came ": 784, "war": 785, "ce ": 786, "open": 787, "rec": 788, "him ": 789, "ep": 790, "\nand ": 791, "1987": 792, "ain": 793, "cre": 794, " to the ": 795, "56": 796, " (since ": 797, "fin": 798, " M": 799, "orn": 800, "run": 801, "been ": 802, "min": 803, "after": 804, "He ": 805, "ort": 806, "Mar": 807, "ial ": 808, "43": 809, "ph": 810, "ch ": 811, "ect": 812, "don\u2019t ": 813, "ched ": 814, "head ": 815, "ing m": 816, " pro": 817, "73": 818, "your ": 819, "ed with": 820, " has ": 821, "is the ": 822, " in ": 823, "car": 824, "o, ": 825, "der": 826, "ice ": 827, "ey ": 828, "er\n": 829, "72": 830, "wh": 831, "night ": 832, ", M": 833, ". Th": 834, "a-": 835, "after ": 836, "ly, ": 837, "ing-": 838, "1\n": 839, "ign": 840, "enc": 841, "aw": 842, ", \u201c": 843, "do ": 844, "ide ": 845, "Ahab": 846, ". B": 847, "eyes ": 848, "face ": 849, "ement": 850, "of th": 851, "gra": 852, "?\u201d\n\n": 853, "all\n": 854, "An": 855, "always ": 856, "ye ": 857, "right": 858, " with": 859, "row": 860, "ern": 861, "than ": 862, "and s": 863, "one": 864, "il ": 865, "ere ": 866, ": ": 867, "ain\u2019t ": 868, "sid": 869, "might ": 870, "cl": 871, "then ": 872, "a h": 873, "being ": 874, "!\u201d": 875, "must ": 876, "of\nthe ": 877, "pre": 878, "for\n": 879, ".\n\nThe ": 880, "ore ": 881, "of her ": 882, "in the\n": 883, "exp": 884, "into": 885, "a f": 886, "s are ": 887, "ged ": 888, "af": 889, "that\n": 890, "tion": 891, "ard ": 892, "100": 893, "br": 894, "ound ": 895, "pass": 896, "ily ": 897, "tre": 898, "Z": 899, "Angel": 900, "three ": 901, "wor": 902, "ight ": 903, "looked ": 904, "whole ": 905, "1986": 906, "and the ": 907, "and, ": 908, "\u2019 ": 909, "62": 910, "read": 911, "ing h": 912, "ence": 913, "ical": 914, "Ch": 915, "new": 916, "far": 917, "girl": 918, ");\n": 919, "In": 920, "uc": 921, ", he ": 922, "ov": 923, "mer": 924, "itt": 925, ")\n": 926, "old": 927, "ash": 928, "I had ": 929, "\n(": 930, "ull": 931, ". It ": 932, "follow": 933, "cent": 934, "63": 935, " in the ": 936, "had\n": 937, "upon the ": 938, "ed; ": 939, "ing to": 940, "their ": 941, "ed in ": 942, "left ": 943, "high": 944, " km2; land area: ": 945, "s the ": 946, "ile ": 947, "imp": 948, "s\u2014": 949, ". It was ": 950, "ing, and ": 951, "quite ": 952, ". She ": 953, "ome": 954, "with\n": 955, "att": 956, "n ": 957, "didn\u2019t ": 958, "tra": 959, "with a ": 960, ". They ": 961, "never": 962, "ial": 963, " be ": 964, "gl": 965, "abl": 966, " more ": 967, "not\n": 968, "say": 969, "Democratic ": 970, "ound": 971, "eas": 972, "even ": 973, "nothing ": 974, "men": 975, "was the ": 976, "done ": 977, "You": 978, "200": 979, "government ": 980, "s were ": 981, "it\u2019s ": 982, "port": 983, "21": 984, "lat": 985, "inn": 986, " a b": 987, "ed his ": 988, "back ": 989, "anc": 990, "ung": 991, "in a ": 992, " k": 993, "\n\n- People\nPopulation: ": 994, " total, ": 995, "through": 996, "ish ": 997, "large ": 998, "own ": 999, " se": 1000, "ris": 1001, "around ": 1002, "ins": 1003, "ry": 1004, "seem": 1005, "mat": 1006, "that": 1007, "s that ": 1008, ", B": 1009, "uck": 1010, "eb": 1011, "ib": 1012, "top": 1013, "a (": 1014, " B": 1015, " hear": 1016, "s in ": 1017, "another ": 1018, "led ": 1019, "ite ": 1020, ".\u2014": 1021, "Stubb": 1022, "ess ": 1023, "word": 1024, "think": 1025, "of h": 1026, "thing ": 1027, "near": 1028, "igh": 1029, "\u201d": 1030, "ink": 1031, " T": 1032, "ar ": 1033, "di": 1034, "one\n": 1035, "away ": 1036, ". I ": 1037, "amp": 1038, "ult": 1039, "did not ": 1040, "ers, ": 1041, "rain": 1042, "ail": 1043, "to p": 1044, " a p": 1045, " see ": 1046, "er and ": 1047, "saw": 1048, "54": 1049, ".0": 1050, " com": 1051, "ge": 1052, "ement ": 1053, "cur": 1054, "al s": 1055, "2.": 1056, "e, but ": 1057, "give ": 1058, " me": 1059, "ward": 1060, "in s": 1061, "2 ": 1062, "sm": 1063, "red": 1064, "keep": 1065, " sp": 1066, "ber": 1067, " a c": 1068, " him ": 1069, " deaths/1,000 live births (1990)\n\nLife expectancy at birth: ": 1070, "4,": 1071, "*": 1072, "st ": 1073, " a d": 1074, "No": 1075, "Queequeg": 1076, "nam": 1077, "here ": 1078, "upon ": 1079, "good": 1080, "ed that ": 1081, "People's ": 1082, "French": 1083, "ix": 1084, "may ": 1085, "\u2018": 1086, "enough": 1087, " per": 1088, "as\n": 1089, " is ": 1090, " D": 1091, "e and ": 1092, "dist": 1093, "he": 1094, "road": 1095, "feel": 1096, " a m": 1097, "ese ": 1098, "cri": 1099, "Gu": 1100, "lea": 1101, "also": 1102, "pos": 1103, "nor": 1104, "ee ": 1105, "want": 1106, "ed him": 1107, "ed her ": 1108, "She ": 1109, "boat": 1110, "young": 1111, "      ": 1112, "% (1990)\n\nBirth rate: ": 1113, "\n\n\n": 1114, "will ": 1115, "ness": 1116, "one, ": 1117, " these ": 1118, " hand": 1119, "himself": 1120, ", c": 1121, "!\u2014": 1122, "k, ": 1123, "ting ": 1124, "bo": 1125, "ently ": 1126, "make ": 1127, "ann": 1128, "you\n": 1129, "lik": 1130, "ized ": 1131, "ical ": 1132, ". M": 1133, "such": 1134, "-b": 1135, "thought ": 1136, "cr": 1137, " years male, ": 1138, "uch": 1139, "What ": 1140, "\u2019d ": 1141, "tor": 1142, "UN": 1143, "str": 1144, "ble ": 1145, "any": 1146, "heard ": 1147, "ham": 1148, "0": 1149, "ock": 1150, "ic\n": 1151, "much": 1152, "there": 1153, "his\n": 1154, "des": 1155, " but ": 1156, "ough": 1157, "door": 1158, "Peter ": 1159, "each": 1160, "e, the ": 1161, "ook": 1162, "should ": 1163, "rel": 1164, "de ": 1165, "ump": 1166, "farm": 1167, " years female (1990)\n\nTotal fertility rate: ": 1168, "Ar": 1169, "gr": 1170, "sun": 1171, "lif": 1172, " his\n": 1173, "I have ": 1174, "gre": 1175, "tri": 1176, " some ": 1177, "told ": 1178, "86": 1179, "\n\nLand use: ": 1180, "ret": 1181, "once ": 1182, "than": 1183, " at the ": 1184, "\n\nLiteracy: ": 1185, "ast ": 1186, "wher": 1187, "500": 1188, " l": 1189, "eal": 1190, " again": 1191, "fe": 1192, "acc": 1193, "; real growth rate ": 1194, "ingly ": 1195, "sw": 1196, "of this ": 1197, "wood": 1198, "app": 1199, "wind": 1200, "rag": 1201, "Peter": 1202, "would have ": 1203, "96": 1204, "3\n": 1205, ".3": 1206, "% of ": 1207, "gh": 1208, "world": 1209, ".8": 1210, "ost": 1211, "ank": 1212, "call": 1213, "roll": 1214, "had been": 1215, "help": 1216, "there was ": 1217, "watch": 1218, "\u2014and ": 1219, ".5": 1220, "po": 1221, " on": 1222, " their ": 1223, "ing that ": 1224, "same ": 1225, "eng": 1226, " de ": 1227, "5,": 1228, "% forest and woodland; ": 1229, "Con": 1230, "ment ": 1231, ", p": 1232, "es,\n": 1233, "is, ": 1234, " be": 1235, "island": 1236, "lad": 1237, "lay ": 1238, "one of the ": 1239, "ost ": 1240, "seemed ": 1241, "og": 1242, "y, and ": 1243, "vi": 1244, "place ": 1245, ":": 1246, " ad": 1247, "bar": 1248, "ory ": 1249, "ale ": 1250, "lov": 1251, " that\n": 1252, "ad ": 1253, "?\u201d": 1254, " down": 1255, " think": 1256, "under ": 1257, ". D": 1258, " million kWh produced,\n": 1259, "Wh": 1260, "long ": 1261, "ked ": 1262, " said ": 1263, "57": 1264, "1990": 1265, " births/1,000 population (1990)\n\nDeath rate: ": 1266, ".9": 1267, "ead": 1268, "plac": 1269, "ed in the ": 1270, "hav": 1271, "hand ": 1272, "Well, ": 1273, ", G": 1274, "3.": 1275, "Sea": 1276, "these ": 1277, "EC": 1278, "97": 1279, "\n0": 1280, "rop": 1281, "into ": 1282, "ward ": 1283, "ta": 1284, " ship": 1285, "import": 1286, "to h": 1287, "remain": 1288, "at, ": 1289, "ise ": 1290, "Sh": 1291, "  ": 1292, "tl": 1293, "ick ": 1294, "den": 1295, "bow": 1296, "ance": 1297, ", d": 1298, "of my ": 1299, "want ": 1300, "\u2019ll": 1301, "94": 1302, "th, ": 1303, "ing a ": 1304, "four": 1305, "as the ": 1306, "of them": 1307, "sub": 1308, " still": 1309, " million": 1310, "cas": 1311, "53": 1312, "tain": 1313, "imm": 1314, "e she ": 1315, "e so": 1316, "mother": 1317, ".7": 1318, "gone ": 1319, "e sh": 1320, "ath": 1321, "cont": 1322, "pp": 1323, "chang": 1324, "food ": 1325, "84": 1326, "Tess": 1327, "world ": 1328, "ty ": 1329, "uff": 1330, "water ": 1331, "Tom": 1332, "dec": 1333, "for m": 1334, "US ": 1335, "ished ": 1336, "that the ": 1337, "sail": 1338, " for": 1339, "ection": 1340, ".2": 1341, " it ": 1342, "ord": 1343, "\u2019t": 1344, "Nor": 1345, "I c": 1346, "boy": 1347, " L": 1348, ", T": 1349, "fear": 1350, "Ind": 1351, ". L": 1352, "az": 1353, "dark": 1354, "; h": 1355, "next ": 1356, "\n\nNatural resources: ": 1357, "It ": 1358, "of that ": 1359, "s to ": 1360, "black": 1361, " could ": 1362, ", O": 1363, "Island": 1364, "\n\nAdministrative divisions: ": 1365, "ich": 1366, "ed by the ": 1367, "add": 1368, "set ": 1369, "AR": 1370, "tak": 1371, ".4": 1372, "\n\nIndependence: ": 1373, " kWh per capita (1989)\n\nIndustries: ": 1374, " H": 1375, "it, and ": 1376, "ing up": 1377, "52": 1378, "ett": 1379, "ut ": 1380, "continu": 1381, "ric": 1382, "ct": 1383, "round": 1384, "earth": 1385, "si": 1386, "They ": 1387, "Chin": 1388, "them ": 1389, " that": 1390, "clos": 1391, "life ": 1392, "300": 1393, " a h": 1394, "ani": 1395, "ther ": 1396, "Communist ": 1397, "m ": 1398, "jo": 1399, "ean": 1400, "al, ": 1401, ",\nI": 1402, " children born/woman (1990)\n\nNationality: noun--": 1403, "find ": 1404, "ti": 1405, "a little ": 1406, "emb": 1407, "many ": 1408, "were\n": 1409, "took": 1410, "hol": 1411, "ident": 1412, ",000 kW capacity; ": 1413, "Party (": 1414, "%,\n": 1415, "appear": 1416, "crew": 1417, "or, ": 1418, "ss": 1419, " ther": 1420, "way, ": 1421, "ating ": 1422, "e.\n\n\u201c": 1423, "inst": 1424, "ali": 1425, "n\u2019t ": 1426, "none": 1427, "\n\nReligion: ": 1428, " (1988), ": 1429, "XX": 1430, "ust ": 1431, "ense ": 1432, " such": 1433, "under the ": 1434, "met": 1435, "people ": 1436, "boat ": 1437, "deep": 1438, "sup": 1439, "John": 1440, "rid": 1441, "itself": 1442, "Mr": 1443, "reg": 1444, "ates ": 1445, "e; and ": 1446, "area": 1447, ".6": 1448, "gener": 1449, ". P": 1450, "to see ": 1451, " so ": 1452, "whit": 1453, "could not ": 1454, "to c": 1455, "she was ": 1456, "star": 1457, "o\u2019": 1458, "ore": 1459, "rep": 1460, "by\n": 1461, "'": 1462, " (1986), ": 1463, "ook ": 1464, "with his ": 1465, "oul": 1466, "ru": 1467, "to his ": 1468, "petroleum": 1469, "x": 1470, "side ": 1471, "ik": 1472, "for a ": 1473, "try ": 1474, "fully ": 1475, "del": 1476, " know": 1477, "export": 1478, "ter ": 1479, "work ": 1480, "rock": 1481, "ect ": 1482, "try": 1483, "-s": 1484, "I s": 1485, "ept": 1486, "felt ": 1487, "$": 1488, "Wendy ": 1489, " (1987), ": 1490, "mor": 1491, "sa": 1492, " those ": 1493, "answer": 1494, "mind ": 1495, "town": 1496, "fall": 1497, "en the ": 1498, "time, ": 1499, "mo": 1500, ". N": 1501, "83": 1502, "Party (P": 1503, "east": 1504, ", A": 1505, "ush": 1506, ",\u201d ": 1507, "utter": 1508, "ons ": 1509, "lip": 1510, "bear": 1511, "ire ": 1512, "gave ": 1513, " cent": 1514, ") and ": 1515, "'s ": 1516, "mon": 1517, "au": 1518, "riv": 1519, " he had ": 1520, "rem": 1521, ". Wh": 1522, "house ": 1523, "ation of ": 1524, "%\n\nLabor force: ": 1525, "ity of ": 1526, "ed it ": 1527, "How": 1528, "fell": 1529, "mean": 1530, "window": 1531, ". O": 1532, "ed.\n\n": 1533, "ance, ": 1534, "fair": 1535, "sl": 1536, "giv": 1537, "93": 1538, ".1": 1539, " usable; ": 1540, " major transport aircraft\n\nAirports: ": 1541, "1.": 1542, "hor": 1543, "mast": 1544, "tru": 1545, " man": 1546, "ed on": 1547, "line ": 1548, "cap": 1549, "reach": 1550, " do ": 1551, "last": 1552, "another": 1553, " billion": 1554, " total) ": 1555, "?": 1556, "leav": 1557, " up": 1558, "ren": 1559, " than": 1560, "\nof ": 1561, "how ": 1562, "down ": 1563, "y; ": 1564, "92": 1565, "Budget: revenues $": 1566, "X": 1567, "Qu": 1568, "kill": 1569, "in, ": 1570, "dr": 1571, "yet": 1572, "e;": 1573, "turned ": 1574, "said": 1575, "er of ": 1576, "when the ": 1577, "atch": 1578, ". This ": 1579, "     ": 1580, "warm": 1581, "out of ": 1582, "ead ": 1583, "then, ": 1584, "one s": 1585, ". You": 1586, "ire": 1587, "s in": 1588, " ab": 1589, "ones": 1590, " he s": 1591, "idea": 1592, "took ": 1593, "tw": 1594, "s;\n": 1595, "herself": 1596, "82": 1597, "UK": 1598, "\n\nLanguage: ": 1599, "warn\u2019t ": 1600, "I could ": 1601, ", N": 1602, "wi": 1603, "ce, ": 1604, "mil": 1605, ". The\n": 1606, "ok": 1607, "was, ": 1608, "use ": 1609, "150": 1610, ") per US$1--": 1611, "mad": 1612, "ach": 1613, " than ": 1614, "We ": 1615, "look ": 1616, "mov": 1617, "ity, ": 1618, "question": 1619, "ative ": 1620, "es the ": 1621, "looking ": 1622, "ing to ": 1623, "to get ": 1624, "I don\u2019t ": 1625, "laugh": 1626, "present ": 1627, "ark": 1628, "bod": 1629, "touch": 1630, "fer": 1631, "read ": 1632, "sto": 1633, "be\n": 1634, "few": 1635, "as if": 1636, ". In": 1637, "mind": 1638, "whil": 1639, "wouldn\u2019t ": 1640, "ed.\n\n\u201c": 1641, " P": 1642, "French ": 1643, "\n\nCommunists: ": 1644, "y the ": 1645, "king": 1646, "y,\n": 1647, "t of the ": 1648, "nothing": 1649, ".\n\nBut ": 1650, "inv": 1651, "why ": 1652, "Union": 1653, "6,": 1654, " him, ": 1655, "against ": 1656, "les ": 1657, "out of the ": 1658, "though ": 1659, "but": 1660, " himself": 1661, "present": 1662, "prov": 1663, "ne": 1664, "ition": 1665, "mall": 1666, "Un": 1667, "AS": 1668, "% of GDP": 1669, "ors ": 1670, "ously ": 1671, "ress ": 1672, "pretty ": 1673, "rush": 1674, "sur": 1675, "AN": 1676, "from\n": 1677, "moment ": 1678, "I w": 1679, "show": 1680, "ck ": 1681, "eel": 1682, "out\n": 1683, "ee": 1684, "ically ": 1685, "whose ": 1686, "away": 1687, " before ": 1688, "ery ": 1689, "the d": 1690, "Mal": 1691, "Whal": 1692, "vis": 1693, "who had ": 1694, "ing in": 1695, "flo": 1696, "an a": 1697, "ay, ": 1698, "have been": 1699, "cor": 1700, ",\u2014": 1701, "need": 1702, "umb": 1703, "ed at ": 1704, "Well": 1705, "ia\n": 1706, " billion, per capita $": 1707, "1985": 1708, "known": 1709, "allow": 1710, "would be ": 1711, "-p": 1712, "So": 1713, "oun": 1714, "really ": 1715, "ess, ": 1716, "\u2019em": 1717, "\u2019ll ": 1718, "you know": 1719, "IC": 1720, "ari": 1721, "rew": 1722, "bur": 1723, "called ": 1724, "ten": 1725, " by the ": 1726, "of their": 1727, "lead": 1728, "house": 1729, "corn": 1730, "had": 1731, "act": 1732, "that\u2019s ": 1733, "small": 1734, "ativ": 1735, "P ": 1736, "myself": 1737, "lay": 1738, "wer": 1739, "if I": 1740, "yellow": 1741, "tur": 1742, " part": 1743, "mostly ": 1744, "rup": 1745, "she\n": 1746, "% meadows and pastures;\n": 1747, "ground": 1748, "s, the ": 1749, "ood": 1750, "you, ": 1751, "ately ": 1752, "no\n": 1753, "love ": 1754, " sup": 1755, "rough": 1756, "quick": 1757, "cla": 1758, "famil": 1759, "s; and ": 1760, "s;": 1761, "wear": 1762, "ago": 1763, "pres": 1764, " can": 1765, "those ": 1766, "me, ": 1767, "stood ": 1768, " three ": 1769, "full": 1770, "times ": 1771, "men ": 1772, "only": 1773, ", K": 1774, "group": 1775, "180": 1776, " (1989), ": 1777, "flag": 1778, "ful ": 1779, "are\n": 1780, "to the\n": 1781, "South ": 1782, "comp": 1783, "years ": 1784, "ia, ": 1785, "s in the ": 1786, ", with": 1787, "I d": 1788, "uck ": 1789, " or ": 1790, "Oh, ": 1791, "(19": 1792, "7,": 1793, "rais": 1794, "vent": 1795, "occasion": 1796, "?\u2014": 1797, "eep": 1798, "pla": 1799, "stand": 1800, " to\n": 1801, "represent": 1802, "body ": 1803, "half": 1804, "kept ": 1805, " he was ": 1806, "000": 1807, "600": 1808, "agricultur": 1809, "awa": 1810, "say ": 1811, "e! ": 1812, " J": 1813, "behind ": 1814, "track": 1815, "children": 1816, "fre": 1817, "Oh": 1818, "soon": 1819, " don\u2019t ": 1820, "ven": 1821, "tal": 1822, "ened ": 1823, ",\u201d she ": 1824, "woman": 1825, ", L": 1826, "she had ": 1827, "250": 1828, "2\n": 1829, ")\n\nConstitution: ": 1830, "says:\n\n\u201c": 1831, "enter": 1832, "but\n": 1833, "outh": 1834, "ond": 1835, "atur": 1836, "larg": 1837, " should ": 1838, "to a": 1839, "sir": 1840, ". W": 1841, "order": 1842, "in this ": 1843, "pose ": 1844, "sil": 1845, "ing them": 1846, "equ": 1847, "Why, ": 1848, "400": 1849, "160": 1850, "whom": 1851, "ition ": 1852, "ing it ": 1853, "ped ": 1854, " ac": 1855, "/": 1856, "For": 1857, "ack": 1858, "ied ": 1859, "can ": 1860, "wif": 1861, "green": 1862, ", which": 1863, "among": 1864, "ute ": 1865, "Yes, ": 1866, "troubl": 1867, "since ": 1868, "rap": 1869, "ent\n": 1870, " say": 1871, "brought ": 1872, "whale, ": 1873, "did": 1874, "ed. \u201c": 1875, "was a ": 1876, "five ": 1877, "iron": 1878, "ort ": 1879, "\n\nNote: ": 1880, "\n\nLand boundaries: ": 1881, "\n\nMerchant marine: ": 1882, "\n\nCivil air: ": 1883, "name ": 1884, " the s": 1885, "let": 1886, "wish": 1887, "ations ": 1888, "draw": 1889, "in m": 1890, "ome\n": 1891, "mid": 1892, "New ": 1893, "United ": 1894, "start": 1895, "dear": 1896, "too ": 1897, " seem": 1898, "hour": 1899, "ed for": 1900, ")\n\nOrganized labor: ": 1901, "hop": 1902, "grow": 1903, "less": 1904, "from his ": 1905, ".\u201d ": 1906, "on his ": 1907, "oy": 1908, ", W": 1909, " must ": 1910, " think ": 1911, "hold": 1912, "they\n": 1913, ", with ": 1914, "ing at ": 1915, "hum": 1916, "food": 1917, " AM, ": 1918, "log": 1919, "you c": 1920, "ER": 1921, "                ": 1922, "President ": 1923, "Council": 1924, "ying ": 1925, "poor": 1926, "de": 1927, "uch ": 1928, "fire": 1929, "ree ": 1930, "blue ": 1931, "anything ": 1932, "mountain": 1933, "es (": 1934, ", H": 1935, "\n\n- Economy\nOverview: ": 1936, "; Embassy at ": 1937, " migrants/1,000 population (1990)\n\nInfant mortality rate: ": 1938, " September ": 1939, "eness ": 1940, "Starbuck": 1941, "son": 1942, "ati": 1943, "like a ": 1944, "fr": 1945, "pap": 1946, "think ": 1947, " des": 1948, "se, ": 1949, "like the ": 1950, ",\u201d he ": 1951, "ton": 1952, " re": 1953, "hill": 1954, "government": 1955, " km\n\nCoastline: ": 1956, "English": 1957, "ho": 1958, " thing": 1959, "is a ": 1960, "!\u201d ": 1961, " G": 1962, "fix": 1963, "cott": 1964, "ed,\n": 1965, "church": 1966, "to do": 1967, "oper": 1968, "thou": 1969, "350": 1970, " December ": 1971, "rip": 1972, " he\n": 1973, "i ": 1974, "emp": 1975, "y and ": 1976, "nearly ": 1977, ", so": 1978, "s and\n": 1979, "e. But ": 1980, "iss": 1981, "le, ": 1982, "in that ": 1983, "the same ": 1984, "spec": 1985, "ought ": 1986, "e.\u201d\n\n\u201c": 1987, "e. \u201c": 1988, "live ": 1989, "oar": 1990, "rom": 1991, "to have ": 1992, "whales ": 1993, "observ": 1994, "pers": 1995, "tly ": 1996, "friend": 1997, "new ": 1998, "be s": 1999, "off ": 2000, "we\n": 2001, "know ": 2002, "ask": 2003, "road ": 2004, " million (f.o.b., ": 2005, "\n\nPorts: ": 2006, "mis": 2007, "atter": 2008, "ing; ": 2009, "\nthat ": 2010, "ince ": 2011, " through": 2012, "ort of ": 2013, "person": 2014, "point": 2015, "erv": 2016, "ot ": 2017, "ed her": 2018, " made ": 2019, "s.\n": 2020, "\u2019n": 2021, " her\n": 2022, "800": 2023, "whale-": 2024, "There ": 2025, "which the ": 2026, "This ": 2027, "return": 2028, "oll": 2029, "God": 2030, "e;\n": 2031, "November ": 2032, " did ": 2033, "was not ": 2034, "ress": 2035, "al d": 2036, "unc": 2037, ". So": 2038, "s of\n": 2039, "Mrs ": 2040, "in her ": 2041, " November ": 2042, "              ": 2043, "ays ": 2044, "they were ": 2045, "ed to\n": 2046, "et, ": 2047, "tion ": 2048, "It was ": 2049, "lean": 2050, "rather ": 2051, "others ": 2052, "held ": 2053, " show": 2054, "laid ": 2055, "France": 2056, "Republic": 2057, "190": 2058, "170": 2059, "700": 2060, ")\n\nPolitical parties and leaders: ": 2061, " million\n\nCurrency: ": 2062, " June ": 2063, "anim": 2064, "ited ": 2065, "fi": 2066, "north": 2067, " high": 2068, "captain": 2069, "would\n": 2070, "tell ": 2071, "to make ": 2072, "now, ": 2073, "something ": 2074, "ed as ": 2075, "bed": 2076, " head": 2077, "ism": 2078, " how": 2079, "ities ": 2080, "sol": 2081, "word ": 2082, "between ": 2083, "140": 2084, ".\n\nGDP: $": 2085, "har": 2086, "tear": 2087, "country ": 2088, "tail": 2089, "ence, ": 2090, " that the ": 2091, "I\u2019ll": 2092, "brea": 2093, "ian, ": 2094, " F": 2095, "ros": 2096, "IN": 2097, "ions ": 2098, "I am": 2099, "mouth": 2100, "best ": 2101, "itud": 2102, "stit": 2103, " car": 2104, " ha": 2105, "eless ": 2106, "to st": 2107, "? I": 2108, "except ": 2109, " said": 2110, "ez": 2111, "s--": 2112, "mak": 2113, "clear": 2114, "bre": 2115, "kind": 2116, "ling ": 2117, " bl": 2118, "step": 2119, "gaz": 2120, "pot": 2121, " sail": 2122, " sa": 2123, "ness, ": 2124, "hur": 2125, "ilit": 2126, "gentlem": 2127, "\u2019ve ": 2128, "\n\nCapital: ": 2129, "ek": 2130, "through the ": 2131, "es of the ": 2132, "ended ": 2133, "; th": 2134, "up and ": 2135, "You ": 2136, "level": 2137, "ally": 2138, "e (": 2139, "pain": 2140, "Par": 2141, "ake ": 2142, "us, ": 2143, "And": 2144, "dep": 2145, "child": 2146, ". There ": 2147, "they": 2148, "rac": 2149, "ai": 2150, ", and he ": 2151, "to him": 2152, "120": 2153, "\n\nTerrain: ": 2154, ",9": 2155, "econd ": 2156, "lost ": 2157, "will be ": 2158, "That ": 2159, " sea": 2160, "tend": 2161, ", sir": 2162, "tern": 2163, "all, ": 2164, "the c": 2165, "wonder": 2166, "er,\n": 2167, " bo": 2168, "see": 2169, "leave ": 2170, "yard": 2171, "have\n": 2172, "tin": 2173, " she had ": 2174, "4\n": 2175, "110": 2176, "Party ": 2177, "\n\nType: ": 2178, " ships (1,000 GRT or over) totaling ": 2179, "here": 2180, "Michael": 2181, "erc": 2182, " their\n": 2183, "eav": 2184, "consider": 2185, "vel": 2186, "ind ": 2187, "amb": 2188, "jump": 2189, "still ": 2190, "ons": 2191, "ame ": 2192, "ing him": 2193, ". We ": 2194, " come ": 2195, "East ": 2196, "117": 2197, "GDP": 2198, "- ": 2199, "economy ": 2200, "          ": 2201, "nation": 2202, "ometimes ": 2203, "ed with ": 2204, "coast": 2205, "div": 2206, " saw": 2207, "ation, ": 2208, "int ": 2209, "already ": 2210, " thought ": 2211, "ing,\n": 2212, "man, ": 2213, "in\u2019": 2214, "h, ": 2215, "again ": 2216, "to-": 2217, "clo": 2218, "strang": 2219, "befor": 2220, "ed them": 2221, "stra": 2222, "father": 2223, "\n\nEthnic divisions: ": 2224, "Clare ": 2225, "itch": 2226, "vessel": 2227, "leep": 2228, "thre": 2229, "Afric": 2230, "A ": 2231, "ing to the ": 2232, ", I ": 2233, "hon": 2234, "deck": 2235, "al c": 2236, "plain": 2237, "rather": 2238, "wait": 2239, "produc": 2240, "Japan": 2241, "bu": 2242, "March ": 2243, "750": 2244, " km, ": 2245, "!\n": 2246, "ate": 2247, "West ": 2248, "ger": 2249, "close ": 2250, "lan": 2251, "age, ": 2252, ". For": 2253, " dec": 2254, "hun": 2255, "ext": 2256, "serv": 2257, "ing about ": 2258, ".\u201d": 2259, "antly ": 2260, "often": 2261, "Yes": 2262, "oh": 2263, "talk": 2264, "\n\nExchange rates: ": 2265, " million; expenditures $": 2266, ";\npartners--": 2267, "of a\n": 2268, "Now": 2269, "ent, ": 2270, "perm": 2271, "art ": 2272, "Stat": 2273, "ream": 2274, "On": 2275, "col": 2276, " po": 2277, "view": 2278, "around": 2279, "this": 2280, "No, ": 2281, "per ": 2282, "earn": 2283, "usp": 2284, "account": 2285, "were s": 2286, "don": 2287, "def": 2288, "y of ": 2289, "ie": 2290, "\u2014\u201d\n\n\u201c": 2291, "gun": 2292, "450": 2293, " July ": 2294, "% of the ": 2295, "Mon": 2296, "f ": 2297, " and the ": 2298, "lack": 2299, ". F": 2300, "fanc": 2301, " sid": 2302, "sleep": 2303, " many ": 2304, "est\n": 2305, "matter": 2306, "ed, \u201c": 2307, " make ": 2308, ".\n\nA": 2309, "part ": 2310, "poor ": 2311, "its\n": 2312, "mp": 2313, "a good ": 2314, "e. The ": 2315, "in\nthe ": 2316, " though": 2317, "prec": 2318, "ision": 2319, "a,\n": 2320, "Ma": 2321, "380": 2322, "6\n": 2323, "1.5": 2324, "\n\nFlag: ": 2325, "II": 2326, " as the ": 2327, "So ": 2328, "together": 2329, "ser": 2330, "fellow": 2331, "had been ": 2332, "ively ": 2333, "island ": 2334, "on the\n": 2335, "field": 2336, "thus ": 2337, " that, ": 2338, "chas": 2339, "; so": 2340, "reason": 2341, "couldn\u2019t ": 2342, " half": 2343, "however, ": 2344, "both": 2345, ",0": 2346, "Tess, ": 2347, ".\u2014The ": 2348, "fast": 2349, "III": 2350, "ary": 2351, "thr": 2352, "duc": 2353, "e, as ": 2354, "harpoone": 2355, "tar": 2356, "Now, ": 2357, "between": 2358, "dog": 2359, "\u2014the ": 2360, "conf": 2361, "elf": 2362, "I\u2019ve ": 2363, "along the ": 2364, "ken": 2365, "he\u2019s ": 2366, "comm": 2367, " back": 2368, "non": 2369, "things ": 2370, "t and ": 2371, "down the ": 2372, "sy": 2373, " say ": 2374, "o\n": 2375, "rate ": 2376, " them ": 2377, " sub": 2378, "ron": 2379, "expect": 2380, "s. The ": 2381, "1,000": 2382, "manufactur": 2383, "Then ": 2384, "650": 2385, "Arab": 2386, "USSR": 2387, "% other": 2388, "%, US ": 2389, "\n\nAgriculture: accounts for ": 2390, "pec": 2391, "is not ": 2392, "stat": 2393, " much": 2394, "er\u2019s ": 2395, "feet ": 2396, "kind ": 2397, "rib": 2398, " comm": 2399, "vic": 2400, "chief": 2401, " am": 2402, ":\n\n\u201c": 2403, "ous\n": 2404, "door ": 2405, "ystem": 2406, " with ": 2407, "ely\n": 2408, "none ": 2409, "\u2019t ": 2410, "s.\n\n\u201c": 2411, "cand": 2412, "mark": 2413, "which, ": 2414, "hom": 2415, "pir": 2416, "i, ": 2417, "woman ": 2418, "board": 2419, "ed a ": 2420, "day, ": 2421, "ion of the ": 2422, "te": 2423, "er-": 2424, "interest": 2425, "cool": 2426, "rit": 2427, "of him": 2428, "early ": 2429, "ram": 2430, "Christian": 2431, "voic": 2432, "east ": 2433, "TU": 2434, "put": 2435, " and\n": 2436, "North ": 2437, "- Geography\nTotal area: ": 2438, " to be ": 2439, "no s": 2440, "My ": 2441, "which was ": 2442, "fresh": 2443, "ably ": 2444, "in my ": 2445, " after": 2446, "you are ": 2447, "prof": 2448, "bla": 2449, "far ": 2450, "ing of ": 2451, "rest ": 2452, "much ": 2453, "it; ": 2454, "up the ": 2455, "claim": 2456, "112": 2457, "\n\nImports: $": 2458, ";\nUS--Ambassador ": 2459, "P), ": 2460, "e.\n": 2461, "trac": 2462, "jaw": 2463, "ould": 2464, "region": 2465, "offic": 2466, "ed s": 2467, "till ": 2468, "bas": 2469, "a st": 2470, "rest": 2471, "ies, ": 2472, " short": 2473, "hid": 2474, "includ": 2475, "ally\n": 2476, "cabin": 2477, "a th": 2478, "ances ": 2479, "!\u201d she ": 2480, "s: ": 2481, "Ital": 2482, "product": 2483, "gricultur": 2484, "s;\npartners--": 2485, "\n\nExternal debt: $": 2486, ")\n\nExports: $": 2487, "Sp": 2488, "ing the\n": 2489, "there, ": 2490, "also ": 2491, ". E": 2492, "that he ": 2493, "er of the ": 2494, "we s": 2495, " mar": 2496, "thy ": 2497, "more than ": 2498, "able, ": 2499, " things ": 2500, " hav": 2501, "lock": 2502, "n\u2019t": 2503, "wards ": 2504, "kn": 2505, "to do ": 2506, "ents ": 2507, "ature ": 2508, "flow": 2509, "ible ": 2510, "that, ": 2511, "natur": 2512, "asked ": 2513, "body": 2514, "largest ": 2515, "maid": 2516, "ground ": 2517, "Hook": 2518, "% meadows and\npastures; ": 2519, " May ": 2520, "pan": 2521, "are s": 2522, "ome s": 2523, " this\n": 2524, "\n    ": 2525, " pla": 2526, "children ": 2527, "iam": 2528, "ing of the ": 2529, "each ": 2530, "does ": 2531, "would not ": 2532, "origin": 2533, "re ": 2534, "fro": 2535, "letter": 2536, "winter": 2537, " stand": 2538, ". C": 2539, "perhaps ": 2540, "FA": 2541, "dead": 2542, "iss ": 2543, "est.": 2544, " km\n": 2545, ",5": 2546, "% agriculture, ": 2547, "hap": 2548, "wall": 2549, "main": 2550, "which\n": 2551, "sel": 2552, "ott": 2553, "t was ": 2554, "soul": 2555, "ular": 2556, "wild ": 2557, "dead ": 2558, ". So ": 2559, ", or ": 2560, "better": 2561, "listen": 2562, "increas": 2563, "n\u2019t\n": 2564, "e. I": 2565, " away ": 2566, " cl": 2567, "s, but ": 2568, "express": 2569, "stair": 2570, "of her": 2571, "ES": 2572, "construction": 2573, "west ": 2574, "ivers": 2575, "1980": 2576, "Socialist ": 2577, "livestock": 2578, "\n\n- Government\nLong-form name: ": 2579, "Car": 2580, "tow": 2581, "learn": 2582, "above ": 2583, " may ": 2584, "rea": 2585, "Americ": 2586, "turn ": 2587, "Not ": 2588, "less than ": 2589, "October ": 2590, "of these ": 2591, "s, and\n": 2592, "it\u2014": 2593, "temper": 2594, "er, and ": 2595, "began ": 2596, "knew": 2597, "home ": 2598, "118": 2599, "sugar": 2600, "XV": 2601, "to a ": 2602, "        ": 2603, "AL": 2604, "ing out ": 2605, "an in": 2606, "raw": 2607, "Captain ": 2608, "As ": 2609, "fur": 2610, "wide ": 2611, "exc": 2612, "better ": 2613, "ed to the ": 2614, "regular": 2615, ". What ": 2616, "tom": 2617, "concern": 2618, "gla": 2619, "dem": 2620, "lar": 2621, "pull": 2622, "ye, ": 2623, "ts, ": 2624, "him, ": 2625, "bra": 2626, " dis": 2627, "ing her ": 2628, "glad ": 2629, ",000; ": 2630, "textiles, ": 2631, "PR": 2632, "late ": 2633, " co": 2634, "\n\n\u201c": 2635, "great": 2636, "sec": 2637, "cal": 2638, " might ": 2639, "ans": 2640, "e_": 2641, "bal": 2642, "spir": 2643, "ck": 2644, "New York": 2645, "sever": 2646, ". G": 2647, "beg": 2648, "oon": 2649, "from the\n": 2650, ". THE": 2651, "my\n": 2652, ", so ": 2653, "al and ": 2654, "too, ": 2655, "olit": 2656, "ed\u2014": 2657, "EA": 2658, ". That ": 2659, "sing": 2660, "walk": 2661, "wal": 2662, ".\u201d\n\n\u201cWell, ": 2663, ",\u201d he said": 2664, "480": 2665, "                        ": 2666, "                  ": 2667, "\n\nAgriculture: ": 2668, " TV": 2669, "Islands ": 2670, " K": 2671, "ways ": 2672, "ides ": 2673, "aid": 2674, "I can": 2675, "ese, ": 2676, "eak": 2677, "trans": 2678, "ones ": 2679, "aint ": 2680, "hold ": 2681, "respect": 2682, "unn": 2683, "tood ": 2684, "so\n": 2685, "ually ": 2686, "as he ": 2687, "General ": 2688, "cano": 2689, " R": 2690, " system": 2691, "115": 2692, "780": 2693, " km\n\nMaritime claims:": 2694, "\n\nNational holiday: ": 2695, "1,0": 2696, " cargo, ": 2697, "s! ": 2698, "ing in the ": 2699, "stand ": 2700, "first": 2701, "ous, ": 2702, "rig": 2703, "ed me ": 2704, "miss": 2705, ". In ": 2706, "chair": 2707, "true ": 2708, "ed out ": 2709, "sequ": 2710, "es;\n": 2711, "grew": 2712, "fron": 2713, "sum": 2714, "born": 2715, "s for ": 2716, "her\n": 2717, "firm": 2718, "125": 2719, "114": 2720, "                    ": 2721, " February ": 2722, "% arable land; ": 2723, ";\n\n": 2724, "); commodities--": 2725, "Clar": 2726, " E": 2727, ". As ": 2728, "isc": 2729, "forc": 2730, "oud": 2731, " mil": 2732, "among the ": 2733, "green ": 2734, "all this ": 2735, "gain": 2736, "stern": 2737, "d, ": 2738, "ious": 2739, "ame\n": 2740, "hung": 2741, "ature": 2742, "mall ": 2743, "having ": 2744, "udden": 2745, "gold": 2746, "raft ": 2747, "a; ": 2748, "Turk": 2749, "internation": 2750, "1983": 2751, "130": 2752, "280": 2753, "regist": 2754, "\n\nMilitary manpower: males 15-49, ": 2755, "% permanent crops; ": 2756, "all s": 2757, "six": 2758, "e; but ": 2759, "order ": 2760, "In ": 2761, " then": 2762, "wav": 2763, "; \u201c": 2764, "in p": 2765, "s\n(": 2766, "depart": 2767, "old\n": 2768, "ific": 2769, "her, ": 2770, "iec": 2771, "ion, ": 2772, "ss ": 2773, "der ": 2774, "young ": 2775, "man\u2019s ": 2776, "ready ": 2777, "comes ": 2778, "won\u2019t ": 2779, "eri": 2780, "hard ": 2781, "cross": 2782, "count": 2783, "hang": 2784, "event": 2785, "; so ": 2786, "other\n": 2787, "below": 2788, "ector": 2789, "I didn\u2019t ": 2790, "340": 2791, "3 ": 2792, ")\n\nExecutive branch: president, ": 2793, " FM, ": 2794, "France ": 2795, "%\n": 2796, "Ad": 2797, "sn": 2798, "mb": 2799, "ild": 2800, "cel": 2801, "ally, ": 2802, "Cour": 2803, "which had ": 2804, "io ": 2805, "whether": 2806, "It is ": 2807, "th\n": 2808, "when they ": 2809, "moment": 2810, "pur": 2811, "especially ": 2812, " me, ": 2813, "arriv": 2814, "alt": 2815, "pleas": 2816, "place": 2817, "ings, ": 2818, " pres": 2819, "cour": 2820, "Don\u2019t ": 2821, "necess": 2822, "selv": 2823, "when he ": 2824, "exist": 2825, "rich": 2826, " dollar": 2827, "Marian": 2828, "1.6": 2829, "towards ": 2830, "coun": 2831, "fort": 2832, "vast ": 2833, "if it ": 2834, "ture ": 2835, "sometimes ": 2836, "ities": 2837, " ma": 2838, "eh": 2839, "gent": 2840, "this\n": 2841, "ins ": 2842, "fill": 2843, "fore": 2844, "there\u2019s ": 2845, "iff": 2846, "mod": 2847, "seen": 2848, "sat ": 2849, "edge ": 2850, "fast ": 2851, " as\n": 2852, "e.\u201d\n\n": 2853, "post": 2854, "DA": 2855, "milk": 2856, "Wendy": 2857, "--last held ": 2858, ")\n\nIndustrial production: growth rate ": 2859, " (January 1990),\n": 2860, "able\n": 2861, "ture": 2862, "pol": 2863, "eye ": 2864, "bes": 2865, "some": 2866, "ate, ": 2867, "bel": 2868, "I am ": 2869, "school": 2870, "differ": 2871, "arb": 2872, "wid": 2873, "at last ": 2874, "ium": 2875, "ant, ": 2876, "edg": 2877, "uss": 2878, "would": 2879, "mother ": 2880, "Is": 2881, "aid ": 2882, ". Then ": 2883, "you can": 2884, "ose ": 2885, "lower ": 2886, "od ": 2887, "river ": 2888, "to her": 2889, ");": 2890, ".\n\n\n": 2891, "International ": 2892, "\n\nInland waterways: ": 2893, "\n\nLegal system: ": 2894, "\n\nLegislative branch: unicameral ": 2895, "9,": 2896, "Tess\u2019s ": 2897, "En": 2898, "hab": 2899, "chool": 2900, "\u2019s": 2901, " for ": 2902, " she\n": 2903, "low ": 2904, "impl": 2905, "May ": 2906, "an old ": 2907, "process": 2908, "et\n": 2909, " put ": 2910, "bit": 2911, " dist": 2912, "ject": 2913, "!\n\n": 2914, "eful": 2915, " say, ": 2916, "ugg": 2917, "dollar": 2918, "pow": 2919, "fuel": 2920, "to her ": 2921, "7\n": 2922, "11 ": 2923, "FRG": 2924, ", U": 2925, "1.4": 2926, "Electricity: ": 2927, "EC ": 2928, "Jonah": 2929, "uel": 2930, ". He was ": 2931, "val": 2932, "bul": 2933, "receiv": 2934, "eath": 2935, "ose\n": 2936, "ing in ": 2937, "free ": 2938, ".\n\u201c": 2939, ". R": 2940, "ult ": 2941, "repli": 2942, "princip": 2943, "quiet": 2944, "get": 2945, "fine ": 2946, "ient": 2947, " sc": 2948, ". His ": 2949, "fool": 2950, "Indian": 2951, "escap": 2952, "in d": 2953, "hardly ": 2954, "ual ": 2955, ".\n\nS": 2956, "ON": 2957, "may be ": 2958, "; and the ": 2959, "straight ": 2960, "in which": 2961, "father ": 2962, "both ": 2963, "agu": 2964, "summ": 2965, "\u2019re ": 2966, "industri": 2967, "116": 2968, "; note--": 2969, " (1985": 2970, "Party, ": 2971, "Durbeyfield": 2972, " out ": 2973, "a and ": 2974, ".\n\n\u201cI": 2975, "es\u2014": 2976, "sav": 2977, "ass ": 2978, "ater": 2979, ", or": 2980, "ici": 2981, "part of the ": 2982, ", it ": 2983, "ier": 2984, "ed from": 2985, "four ": 2986, "join": 2987, "chap": 2988, " came ": 2989, "chance ": 2990, "might": 2991, "I got ": 2992, "ing her": 2993, "foreign": 2994, "le of ": 2995, "ff": 2996, "mur": 2997, "rose ": 2998, "ink ": 2999, "ga": 3000, "CA": 3001, "Flask": 3002, "Island ": 3003, "113": 3004, "chemical": 3005, " km,\n": 3006, "% other; includes ": 3007, ")\n\nExecutive branch: ": 3008, " DWT; includes ": 3009, " (next to be held ": 3010, "umm": 3011, "round the ": 3012, "In the ": 3013, "lim": 3014, "Christian ": 3015, "engag": 3016, "employ": 3017, "upper": 3018, " here ": 3019, "omething ": 3020, "common": 3021, "on a ": 3022, "for the\n": 3023, "e. H": 3024, "I\u2019m": 3025, " some": 3026, "cloth": 3027, "she": 3028, "nor ": 3029, "was": 3030, ". Then": 3031, "oup": 3032, "                      ": 3033, "\n\nClimate: ": 3034, "chemicals, ": 3035, ",000 ": 3036, "ty": 3037, "stor": 3038, "mann": 3039, "ross": 3040, "Pol": 3041, "eer": 3042, "ely": 3043, "coff": 3044, "hous": 3045, " heard ": 3046, ". On": 3047, "where": 3048, "ring": 3049, "ray": 3050, "every": 3051, "e the ": 3052, "whisper": 3053, " a st": 3054, "iously ": 3055, "natural ": 3056, "words ": 3057, "1982": 3058, "nobody ": 3059, "uan": 3060, " August ": 3061, "DP": 3062, "singular--": 3063, ");\n\nHead of Government--Prime Minister ": 3064, "ate\n": 3065, " of\n": 3066, "eak ": 3067, "pra": 3068, "; he ": 3069, "ount": 3070, "blow": 3071, "Comm": 3072, "e. S": 3073, "Why ": 3074, "epar": 3075, " beg": 3076, "about the ": 3077, " into the ": 3078, " it": 3079, "particular": 3080, "short": 3081, "ember": 3082, "matter ": 3083, "ing for": 3084, "Or": 3085, "ben": 3086, ". At ": 3087, "utt": 3088, "olic": 3089, "dig": 3090, "ler": 3091, ", and then": 3092, "At ": 3093, "s\u2019": 3094, "strange ": 3095, "cow": 3096, "ual": 3097, "oft": 3098, "iqu": 3099, " par": 3100, " pass": 3101, "happ": 3102, "tradition": 3103, "uk": 3104, "they had ": 3105, "5\n": 3106, ") = 100": 3107, "o (": 3108, "d\u2019Urbervill": 3109, "ets ": 3110, "ref": 3111, "alm": 3112, "just": 3113, "een": 3114, "gall": 3115, "pal": 3116, "wo": 3117, "isl": 3118, "family ": 3119, "activ": 3120, "ated": 3121, "por": 3122, "ubl": 3123, "getting ": 3124, " had\n": 3125, "unt": 3126, "ided ": 3127, " through the ": 3128, "desp": 3129, "grav": 3130, "iet": 3131, "econd": 3132, "open ": 3133, "gar": 3134, "struc": 3135, "I should ": 3136, "rail": 3137, "trad": 3138, "begun": 3139, ", D": 3140, "Liber": 3141, "220": 3142, "330": 3143, "199": 3144, " April ": 3145, "world's ": 3146, " million; Western\n(non-US) countries, ODA and OOF bilateral commitments (1970-87), $": 3147, "\n\nHighways: ": 3148, " (from ": 3149, " fit for military\nservice; ": 3150, " W": 3151, "arch": 3152, "certain": 3153, "mot": 3154, "all his ": 3155, "as it ": 3156, "each other": 3157, "whalem": 3158, "river": 3159, "ers, and ": 3160, "became ": 3161, "sha": 3162, "lor": 3163, " soon": 3164, "ertain": 3165, " against ": 3166, "notic": 3167, "irt": 3168, " can ": 3169, "ross ": 3170, "ain ": 3171, "ession": 3172, "going to ": 3173, "bank": 3174, "spok": 3175, "ody ": 3176, "Israel": 3177, "215": 3178, "760": 3179, "8\n": 3180, "1984": 3181, " Is": 3182, "population": 3183, " deaths/1,000 population (1990)\n\nNet migration rate: 0 migrants/1,000 population (1990)\n\nInfant mortality rate: ": 3184, "Council of ": 3185, " billion; expenditures $": 3186, "gaug": 3187, "% of labor force": 3188, "Izz": 3189, "out, ": 3190, "own\n": 3191, "onder": 3192, "\u2014\u201c": 3193, "can\u2019t ": 3194, "voice ": 3195, "important ": 3196, "steel": 3197, "any\n": 3198, "vers": 3199, "regard": 3200, "ission": 3201, "have been ": 3202, " mon": 3203, " mor": 3204, "e se": 3205, "ool": 3206, "to go ": 3207, "yourself": 3208, "to my ": 3209, "umbl": 3210, "hands ": 3211, "fa": 3212, "won": 3213, "ated by ": 3214, "s:": 3215, "all d": 3216, "band": 3217, "eau": 3218, "major": 3219, "ana": 3220, "360": 3221, "State ": 3222, " (1987": 3223, "tourism": 3224, "Lu": 3225, "Royal ": 3226, "ith": 3227, "night, ": 3228, "I see ": 3229, "goes ": 3230, "ure, ": 3231, "mighty ": 3232, "El": 3233, " ap": 3234, " air": 3235, "ke, ": 3236, "vol": 3237, "west": 3238, "country": 3239, "carri": 3240, "life": 3241, "easy ": 3242, "circumst": 3243, "very\n": 3244, "only\n": 3245, "no more ": 3246, "ken ": 3247, "sla": 3248, "to be\n": 3249, "little\n": 3250, "ll": 3251, "of his\n": 3252, "well ": 3253, "gas": 3254, "ified ": 3255, "real ": 3256, "; and\n": 3257, ".\nThe ": 3258, "mix": 3259, "on, and ": 3260, "econom": 3261, "!\u201d cried ": 3262, "ation of the ": 3263, "lower": 3264, "um, ": 3265, "260": 3266, "119": 3267, "\n\nTerrain: mostly ": 3268, "% (": 3269, "equipment, ": 3270, "full ": 3271, "sor": 3272, "whale\u2019s ": 3273, "..": 3274, "Pro": 3275, "\nL": 3276, "ship ": 3277, "wind ": 3278, "least ": 3279, "else": 3280, "after the ": 3281, "row ": 3282, "such ": 3283, " this": 3284, " str": 3285, "pic": 3286, "omin": 3287, "to take ": 3288, "IS": 3289, "when\n": 3290, "pit": 3291, "to keep": 3292, "if he ": 3293, "pped ": 3294, "at\u2019s ": 3295, "book": 3296, "anch": 3297, " that he ": 3298, "indeed, ": 3299, "wag": 3300, "happen": 3301, "e?\u201d\n\n\u201c": 3302, "los": 3303, " didn\u2019t ": 3304, "domin": 3305, " million (c.i.f., ": 3306, " km n": 3307, "Unemployment rate: ": 3308, "\n\nNational holiday: Independence Day, ": 3309, " (1986": 3310, "president": 3311, "HE": 3312, "Pequod ": 3313, "es in ": 3314, "MO": 3315, " hand ": 3316, "trouble ": 3317, "eir": 3318, "al h": 3319, "arl": 3320, "enn": 3321, "dam": 3322, "I would ": 3323, "soon as ": 3324, "water, ": 3325, "e? ": 3326, "else ": 3327, "reason ": 3328, "pointed ": 3329, "American ": 3330, "wis": 3331, "ling": 3332, "improv": 3333, "found": 3334, ".\n\nWh": 3335, "rang": 3336, "e. He ": 3337, "e seem": 3338, "wood ": 3339, "du": 3340, "makes ": 3341, "ird": 3342, "stead": 3343, "speak": 3344, "black ": 3345, "position": 3346, ": A": 3347, "s with": 3348, "Then": 3349, "Forc": 3350, "duke ": 3351, "\n6": 3352, "Miss ": 3353, "union": 3354, "4 ": 3355, "crops--": 3356, "December ": 3357, "1% ": 3358, "\n\n- Communications\nHighways: ": 3359, " 1": 3360, "olog": 3361, "le\n": 3362, "said, ": 3363, "or s": 3364, " call": 3365, "raf": 3366, "in their": 3367, "heart": 3368, "front ": 3369, "ech": 3370, "left": 3371, " in\n": 3372, "kne": 3373, "there is ": 3374, "sign": 3375, "foot ": 3376, "half-": 3377, "rust": 3378, "like\n": 3379, "direc": 3380, "cat": 3381, "ever, ": 3382, "ess\n": 3383, "I\u2019ll ": 3384, "hair": 3385, "of st": 3386, "rubb": 3387, "more\n": 3388, " hop": 3389, " ass": 3390, "dry ": 3391, "alv": 3392, "urn": 3393, "rab": 3394, "annu": 3395, "labor": 3396, "Protest": 3397, ", E": 3398, "270": 3399, "430": 3400, "I couldn\u2019t ": 3401, "21 ": 3402, " km; ": 3403, "] (": 3404, "% (1988)\n\n": 3405, "bananas": 3406, "2.5": 3407, "1.2": 3408, "XI": 3409, "Whale ": 3410, ", in ": 3411, "however": 3412, "roy": 3413, "play": 3414, " most ": 3415, "which is ": 3416, "breath": 3417, "ed to be ": 3418, "heart ": 3419, "trem": 3420, "everything ": 3421, "industr": 3422, "struck": 3423, " col": 3424, "week": 3425, "of a s": 3426, "been\n": 3427, "that was ": 3428, " mean": 3429, "mel": 3430, "aus": 3431, "aint": 3432, "ning ": 3433, ". All": 3434, "eat": 3435, "now\n": 3436, "must be ": 3437, "s on the ": 3438, "beginn": 3439, "pil": 3440, " acc": 3441, ".\n\n\n\n\nCHAPTER ": 3442, "ering ": 3443, "wrong": 3444, "arms ": 3445, "elect": 3446, "anything": 3447, "Peleg": 3448, "O ": 3449, "Ab": 3450, "flat ": 3451, "when she ": 3452, "880": 3453, "149": 3454, "189": 3455, ",\nS": 3456, "\n\nDiplomatic representation: ": 3457, "1.8": 3458, "\n\nAid: US commitments, including Ex-Im (FY70-88), $": 3459, "\n\nDiplomatic representation: Ambassador ": 3460, " km paved, ": 3461, ");\nresults--percent of vote by party NA;\nseats--(": 3462, "8,": 3463, "nigger ": 3464, "what\n": 3465, "alone ": 3466, "\nof the ": 3467, "Gre": 3468, "e seen": 3469, "length": 3470, "dom": 3471, "s at ": 3472, "zz": 3473, "e, that ": 3474, " sur": 3475, ". How": 3476, "dream": 3477, "quar": 3478, "\n\nC": 3479, "talk ": 3480, "have s": 3481, "I went ": 3482, "drew": 3483, "of their ": 3484, " side ": 3485, "31": 3486, "AP": 3487, "son ": 3488, "outh ": 3489, "if you": 3490, "EN": 3491, "press": 3492, "mir": 3493, "languag": 3494, "thing, ": 3495, "Ahab, ": 3496, "ely, ": 3497, "Dr": 3498, "National": 3499, "crop": 3500, "Pacific Ocean\n": 3501, "al produc": 3502, "uz": 3503, " est.)\n\nExports: $": 3504, "mailing address is ": 3505, " deaths/1,000 population (1990)\n\nNet migration rate: - ": 3506, "; Chancery at\n": 3507, "Social ": 3508, "nigger": 3509, "Pip": 3510, "_, ": 3511, "            ": 3512, "stre": 3513, "what": 3514, "bed ": 3515, "rad": 3516, "cheer": 3517, "bro": 3518, "lack ": 3519, "cover": 3520, "attemp": 3521, "for him": 3522, "big": 3523, "lit ": 3524, ". An": 3525, "of it": 3526, "thing\n": 3527, "ee, ": 3528, "to me ": 3529, "th of ": 3530, "brid": 3531, "ed; and ": 3532, ": \u201c": 3533, "Jo": 3534, "point ": 3535, ";\nand ": 3536, "s, \u201c": 3537, "Per": 3538, "Austral": 3539, "fat": 3540, "phosph": 3541, "290": 3542, " deaths/1,000 population (1990)\n\nNet migration rate: ": 3543, "trade ": 3544, "TV; ": 3545, "Strait ": 3546, "Assembl": 3547, "1.0": 3548, "radio relay ": 3549, "1 A": 3550, "% of GNP": 3551, "Spanish": 3552, "To": 3553, "outhern": 3554, "rif": 3555, "rob": 3556, "death": 3557, "Col": 3558, "generally ": 3559, ". If": 3560, "Man": 3561, "pac": 3562, " happ": 3563, " hor": 3564, "of those ": 3565, "everybody ": 3566, "viol": 3567, "-B": 3568, "oud ": 3569, "ident ": 3570, "It\u2019s ": 3571, " through ": 3572, " mark": 3573, "stant": 3574, " myself": 3575, "arn": 3576, "su": 3577, ". To": 3578, "!\u201d said ": 3579, "fetch": 3580, "foo": 3581, ". There was ": 3582, "s,\nand ": 3583, "s. But ": 3584, "no m": 3585, "power": 3586, "Ha": 3587, "drop": 3588, "s for": 3589, "reached ": 3590, "we had ": 3591, "yes": 3592, "invest": 3593, "OR": 3594, "230": 3595, "660": 3596, "659": 3597, "210": 3598, "Q": 3599, "Soviet ": 3600, " million (": 3601, " (plural--": 3602, "September ": 3603, " (1985)\n\nFiscal year: calendar year\n\n- Communications\nRailroads: ": 3604, ")\n- Geography\nTotal area: ": 3605, "Washington, DC\n\nLand boundaries: none\n\nCoastline: ": 3606, "%, Japan ": 3607, "2.0": 3608, "US Embassy)": 3609, "Sperm Whal": 3610, "Gr": 3611, "Up": 3612, "s\nand ": 3613, "God ": 3614, "os ": 3615, "bea": 3616, "doub": 3617, "for his ": 3618, "myst": 3619, "With": 3620, "off the ": 3621, "belong": 3622, "few ": 3623, "wash": 3624, "y s": 3625, "term": 3626, ", for ": 3627, "business ": 3628, "erg": 3629, "char": 3630, "an un": 3631, "dropp": 3632, " again ": 3633, "fol": 3634, "ut, ": 3635, "he would ": 3636, "ement, ": 3637, "ek ": 3638, "pret": 3639, "here, ": 3640, "hel": 3641, "minut": 3642, "mal": 3643, "hail": 3644, "I know": 3645, " to b": 3646, "ood ": 3647, "AD": 3648, "I\u2019d ": 3649, ", and she ": 3650, "govern": 3651, ", R": 3652, "\n9": 3653, "\n\n    ": 3654, "y (": 3655, " (July 1990), growth rate ": 3656, "teleph": 3657, "\n\n- Defense Forces\nBranches: ": 3658, ", UN, UNESCO, UPU": 3659, "Flor": 3660, "1988);\ncommodities--": 3661, " (US Embassy)": 3662, "ory": 3663, "bon": 3664, "ence of ": 3665, "Pr": 3666, "afterno": 3667, "marin": 3668, "ilt ": 3669, "rack": 3670, "ack ": 3671, "curr": 3672, "probably ": 3673, "Ac": 3674, " hour": 3675, " among": 3676, "act ": 3677, "Captain": 3678, ". Well, ": 3679, "ban": 3680, "a sh": 3681, "carp": 3682, " had": 3683, "tea": 3684, "morning": 3685, "anybody ": 3686, "ed the\n": 3687, "soon ": 3688, " you": 3689, "remember": 3690, "complet": 3691, "real": 3692, "cer": 3693, "between the ": 3694, "past ": 3695, "ially ": 3696, "kind of ": 3697, "women": 3698, "anz": 3699, "ime ": 3700, " by": 3701, "list": 3702, "lap": 3703, " adv": 3704, "yp": 3705, ".\n\nH": 3706, " cap": 3707, "your m": 3708, "luck": 3709, "le-": 3710, "ary\n": 3711, "es: ": 3712, "ean ": 3713, "q": 3714, "Mil": 3715, "production": 3716, "2,000": 3717, "680": 3718, "Jan": 3719, "deforestation": 3720, "telephone ": 3721, "\n\n- Communications\nRailroads: ": 3722, "Constitution": 3723, "Sa": 3724, "ese\n": 3725, "whether ": 3726, "discover": 3727, "gen": 3728, "aul": 3729, "als ": 3730, "together ": 3731, "ollect": 3732, "rev": 3733, "thod": 3734, "\nin": 3735, "hard": 3736, "imagin": 3737, "ould\n": 3738, ". I\n": 3739, "narrow": 3740, "rend": 3741, "ept ": 3742, "eag": 3743, "litt": 3744, "morn": 3745, "tric": 3746, "spr": 3747, " back ": 3748, "radi": 3749, "lightly ": 3750, "uls": 3751, "might be ": 3752, "HO": 3753, " bas": 3754, "more than": 3755, "old man": 3756, "your\n": 3757, "domestic": 3758, "fet": 3759, "oliv": 3760, "gentleman": 3761, "ior": 3762, "\n ": 3763, "including ": 3764, "\n8": 3765, "258": 3766, "\n5": 3767, "165": 3768, "DR": 3769, "Mrs. Darl": 3770, "ei": 3771, "Republic of ": 3772, "Day, ": 3773, "\n(since ": 3774, " January ": 3775, "October": 3776, "gram": 3777, " to s": 3778, "drag": 3779, "taken": 3780, "either": 3781, " from": 3782, "I thought ": 3783, "ten ": 3784, "with a\n": 3785, ". It is ": 3786, "various ": 3787, "ed m": 3788, "broad ": 3789, "burn": 3790, " says ": 3791, "ator": 3792, "wild": 3793, "foot": 3794, "further": 3795, "jack": 3796, "no mor": 3797, "become ": 3798, "io": 3799, "lash": 3800, "ead of ": 3801, "ston": 3802, " min": 3803, "morning ": 3804, "ocial": 3805, "question ": 3806, "Com": 3807, "ener": 3808, "break": 3809, "one of ": 3810, "qual": 3811, "iti": 3812, "their\n": 3813, "ed with the ": 3814, "servic": 3815, "days ": 3816, "spect": 3817, "eyes": 3818, ".\u201d\n\n\u201cBut ": 3819, "no long": 3820, "fra": 3821, "ond ": 3822, "Central ": 3823, "Cam": 3824, "May": 3825, "235": 3826, "610": 3827, "370": 3828, "growth ": 3829, "\n\nDisputes: ": 3830, "; partners--": 3831, "%\n\nImports: $": 3832, "\n\nLegal system: based on ": 3833, " est.)\n\nInflation rate (consumer prices): ": 3834, "TV": 3835, "rice, ": 3836, "irst ": 3837, "as a ": 3838, "bird": 3839, "to them": 3840, "try, ": 3841, " day": 3842, "ion of ": 3843, "ocean": 3844, " pre": 3845, "ern ": 3846, "beneath": 3847, "in a": 3848, "gather": 3849, "raz": 3850, "?\n": 3851, "to go": 3852, "judg": 3853, "land, ": 3854, "ated\n": 3855, "cop": 3856, "stone ": 3857, "ivil": 3858, "dim": 3859, "further ": 3860, "indeed ": 3861, "ed;": 3862, " a little ": 3863, ".\n\nIt was ": 3864, "le, and ": 3865, ", and then ": 3866, "conv": 3867, "e,\nand ": 3868, "command": 3869, "quit": 3870, "reserv": 3871, "tain ": 3872, "fact ": 3873, "with the\n": 3874, "ste": 3875, "us\n": 3876, "rul": 3877, "ew ": 3878, "direction": 3879, "upper ": 3880, "by the\n": 3881, "lady ": 3882, "Pequod": 3883, "what\u2019s ": 3884, "owned ": 3885, "urb": 3886, "everything": 3887, "journ": 3888, "land\n": 3889, "ation\n": 3890, "fores": 3891, "German": 3892, "!_": 3893, "Ah": 3894, "Nav": 3895, "grain": 3896, "\n7": 3897, "390": 3898, "900": 3899, "245": 3900, "Tink": 3901, "South Afric": 3902, "February ": 3903, " (next to be held\n": 3904, "with runways 1,220-2,439 m\n\nTelecommunications: ": 3905, " est.); commodities--": 3906, "1.3": 3907, "(s); adjective--": 3908, "%;\nseats--(": 3909, "% (1989)\n\n": 3910, "ays:\n\n\u201c": 3911, "Mo": 3912, "Ex": 3913, "Ahab\u2019s ": 3914, "as well": 3915, "strong": 3916, "bottom": 3917, "lies ": 3918, "aut": 3919, "taken ": 3920, "Har": 3921, "fail": 3922, "fisher": 3923, "urk": 3924, "are the ": 3925, "an and ": 3926, "ried ": 3927, "brother": 3928, "general": 3929, "all right": 3930, ", for": 3931, "ting": 3932, "thick": 3933, "fing": 3934, "gin ": 3935, "weather": 3936, " he": 3937, " sk": 3938, "rist": 3939, "do you": 3940, "sure ": 3941, " stood ": 3942, "als, ": 3943, "idd": 3944, "most\n": 3945, "ingle ": 3946, "out the ": 3947, "fright": 3948, "gri": 3949, "e. And ": 3950, "ship\u2019s ": 3951, "cried ": 3952, "cou": 3953, "two\n": 3954, " since ": 3955, "\u2019m": 3956, "bout ": 3957, "walked ": 3958, " they": 3959, "course ": 3960, "s was ": 3961, "lands ": 3962, "ox": 3963, "ize ": 3964, " they had ": 3965, "St. ": 3966, "omm": 3967, "foreign ": 3968, "British": 3969, "used": 3970, "economic": 3971, "195": 3972, "338": 3973, "198": 3974, "248": 3975, "1979": 3976, "olomb": 3977, " March ": 3978, "natural gas, ": 3979, " product": 3980, "timber, ": 3981, "\n\nAid: ": 3982, "\n\nExclusive fishing ": 3983, "General in ": 3984, " October ": 3985, "O, IC": 3986, "Her": 3987, " in his ": 3988, "whatever ": 3989, " bel": 3990, "seems ": 3991, "abil": 3992, "ages ": 3993, "say, ": 3994, "of some ": 3995, "fire ": 3996, " serv": 3997, "Bar": 3998, "till the ": 3999, "Atlant": 4000, "ures ": 4001, "to be s": 4002, "Co": 4003, "ither": 4004, "swe": 4005, "y\u2014": 4006, "build": 4007, "where the ": 4008, "which he ": 4009, "at all": 4010, "compl": 4011, " much ": 4012, "fter": 4013, "board ": 4014, "ade ": 4015, "not the ": 4016, "evil": 4017, ", at ": 4018, "For ": 4019, "instant": 4020, "entirely ": 4021, "ed on ": 4022, "bab": 4023, " cur": 4024, "a few": 4025, "embl": 4026, "long\n": 4027, " they were ": 4028, "Nov": 4029, "but the ": 4030, "bor": 4031, "wat": 4032, "coming ": 4033, "eous ": 4034, " to his ": 4035, "hea": 4036, "sist": 4037, "plant": 4038, ", she ": 4039, " after ": 4040, "relig": 4041, " that she ": 4042, "D ": 4043, " stat": 4044, "ly.\n\n\u201c": 4045, "an hour": 4046, "capital ": 4047, ": s": 4048, "240": 4049, "218": 4050, "448": 4051, "Franc": 4052, "iron ore, ": 4053, "-meter gaug": 4054, ", WHO, WIPO, WMO": 4055, " 2": 4056, "1.7": 4057, ", IBRD, ICA": 4058, "products, ": 4059, "(s": 4060, "we was ": 4061, "_I_": 4062, "Fish": 4063, "iver": 4064, "fore ": 4065, "your f": 4066, "One ": 4067, "dart": 4068, "es, the ": 4069, "living ": 4070, "oil, ": 4071, "Spain": 4072, "proper": 4073, "angu": 4074, "cannot ": 4075, "ather": 4076, "440": 4077, "must": 4078, "either ": 4079, "storm": 4080, "pris": 4081, "in some ": 4082, "ing as ": 4083, "who\n": 4084, "EL": 4085, "ed for ": 4086, "against the ": 4087, "thou ": 4088, "iron ": 4089, "wait ": 4090, "preh": 4091, "ly, and ": 4092, ", because ": 4093, "e, and\n": 4094, "\n\n\nCHAPTER ": 4095, "carried ": 4096, "along ": 4097, "cent ": 4098, "nak": 4099, "Canad": 4100, "who was ": 4101, " her, ": 4102, "resp": 4103, "flu": 4104, "I _": 4105, " met": 4106, "if you ": 4107, "coal": 4108, "tran": 4109, "iel": 4110, "include ": 4111, "ices": 4112, "villag": 4113, "illa": 4114, " total": 4115, "159": 4116, "166": 4117, "213": 4118, "285": 4119, "CP": 4120, " est.)\n\n": 4121, "Democrat": 4122, "ian(s); adjective--": 4123, "\n\nClimate: tropical": 4124, "volcan": 4125, "cocon": 4126, "in south": 4127, "INTELSAT": 4128, "s; partners--": 4129, "usk": 4130, "ote ": 4131, "agre": 4132, "ith ": 4133, "?\u201d ": 4134, "susp": 4135, "sect": 4136, "in b": 4137, "dang": 4138, "hy": 4139, "as they ": 4140, "charm": 4141, "believe ": 4142, " how ": 4143, "result": 4144, "cit": 4145, "eat ": 4146, "\u2019t\n": 4147, "way\n": 4148, "through ": 4149, " such ": 4150, "tabl": 4151, "ed it": 4152, "look at ": 4153, "Can": 4154, "cloud": 4155, "tobacco": 4156, "experienc": 4157, "to\nthe ": 4158, "beef": 4159, "reck": 4160, "ubb": 4161, "RO": 4162, "scen": 4163, "ing\u2014": 4164, "heav": 4165, "?\u201d\n\n\u201cNo": 4166, "I want ": 4167, "ifi": 4168, "doc": 4169, "stay": 4170, "anx": 4171, "surfac": 4172, "system": 4173, "cash": 4174, "of cour": 4175, "economic ": 4176, "as she ": 4177, "236": 4178, "379": 4179, "129": 4180, "410": 4181, "335": 4182, "Jam": 4183, "Republic ": 4184, "PC": 4185, "ian\n\nEthnic divisions: ": 4186, "AU": 4187, "% other\n\nEnvironment: ": 4188, "); telephone [": 4189, "DC": 4190, ", WTO\n\nDiplomatic representation: Ambassador ": 4191, "s);\n1 ": 4192, "Tr": 4193, "oss": 4194, "ird ": 4195, "ignor": 4196, "devil": 4197, "so much": 4198, "fo": 4199, ", they ": 4200, "cut ": 4201, "vo": 4202, "ed on the ": 4203, "wheel": 4204, "Do ": 4205, "ers (": 4206, "tree ": 4207, "instant ": 4208, "-head": 4209, "in and ": 4210, "lav": 4211, " hands ": 4212, "ances": 4213, " being ": 4214, "purpos": 4215, "dark ": 4216, "to myself": 4217, "I, ": 4218, "ign ": 4219, "nex": 4220, "temp": 4221, " consider": 4222, "lid ": 4223, " head ": 4224, "; then ": 4225, "bec": 4226, ".\n\nHe ": 4227, "piec": 4228, " dep": 4229, "beautiful": 4230, "caus": 4231, "ank ": 4232, "consist": 4233, "ers; ": 4234, ", was ": 4235, "given ": 4236, "limit": 4237, "nature": 4238, "s.\u201d\n\n\u201c": 4239, "English ": 4240, "mill": 4241, "countries ": 4242, "Guinea": 4243, ".\u201d\n\nHe ": 4244, "265": 4245, "295": 4246, " she was ": 4247, "that she ": 4248, "Re": 4249, "election": 4250, "includes ": 4251, "% (1989 est.)\n\n": 4252, " km\n\nPorts: ": 4253, " telephones; stations--": 4254, "\n\nTerritorial sea: ": 4255, "textil": 4256, "Labor ": 4257, "radio re": 4258, "self-sufficient in ": 4259, "June ": 4260, "dairy": 4261, "Moby Dick": 4262, "ay\n": 4263, "LE": 4264, "ie ": 4265, " there": 4266, "contin": 4267, "unch": 4268, "caught ": 4269, "pip": 4270, ".\n\nB": 4271, "leap": 4272, "ore, ": 4273, "?\n\n": 4274, " cont": 4275, "if\n": 4276, "; that ": 4277, " sto": 4278, "toss": 4279, "e\nthe ": 4280, "there\n": 4281, "ye": 4282, "no f": 4283, "contra": 4284, "gan": 4285, "compan": 4286, "er; ": 4287, "could": 4288, "ly, \u201c": 4289, "), and ": 4290, ". When ": 4291, "fel": 4292, "Indian Oce": 4293, "develop": 4294, "scar": 4295, "Bel": 4296, "Rom": 4297, "remained ": 4298, " thre": 4299, "the": 4300, "streng": 4301, "appar": 4302, "lab": 4303, "view ": 4304, "275": 4305, "van": 4306, "prim": 4307, "standing ": 4308, "ly. \u201c": 4309, "IR": 4310, "former ": 4311, "believ": 4312, "facilit": 4313, "fish, ": 4314, "official": 4315, ".\u201d\n\nThe ": 4316, "   ": 4317, "185": 4318, "occur": 4319, "ilitary ": 4320, "loc": 4321, "isput": 4322, " process": 4323, "499": 4324, "315": 4325, "197": 4326, "785": 4327, "ana ": 4328, ", WHO, WMO": 4329, ");\ncommodities--": 4330, "hoist side": 4331, "%\n\nExternal debt: $": 4332, " (official); ": 4333, "franc": 4334, " (July 1990), growth rate 0.": 4335, "communication": 4336, ", EC": 4337, "labor force": 4338, "we got ": 4339, "Nantucket": 4340, "rot": 4341, "Sam": 4342, "him\n": 4343, "que": 4344, "ould ": 4345, "\u2014_": 4346, "boat, ": 4347, "ir ": 4348, "Mr. ": 4349, "dest": 4350, "agon": 4351, "to re": 4352, "largely ": 4353, "nois": 4354, "eral ": 4355, "high ": 4356, ", though": 4357, " something ": 4358, "I a": 4359, "Who": 4360, "grand ": 4361, "uly ": 4362, "fam": 4363, "pea": 4364, "out, and ": 4365, "wand": 4366, "gether": 4367, "one of them": 4368, " there was ": 4369, "e, he ": 4370, "ause ": 4371, "floor": 4372, "disappear": 4373, "hamm": 4374, "met ": 4375, "one. ": 4376, "go, ": 4377, "Cong": 4378, "; then": 4379, "i-": 4380, "consc": 4381, "over\n": 4382, "; though": 4383, "becaus": 4384, "angel": 4385, "eyes, ": 4386, "ibl": 4387, "truth": 4388, "iar": 4389, "priv": 4390, "fter ": 4391, "independ": 4392, "party ": 4393, "udd": 4394, "with m": 4395, "belief": 4396, "Never": 4397, "encounter": 4398, "tel": 4399, "hal": 4400, " claim": 4401, "and a ": 4402, "he\u2019d ": 4403, "175": 4404, "436": 4405, "212": 4406, "770": 4407, "205": 4408, "495": 4409, "376": 4410, "359": 4411, "225": 4412, "109": 4413, "Vietnam": 4414, "crude oil, ": 4415, "ing (": 4416, "Council of Minist": 4417, "FRG ": 4418, "% m": 4419, "Australia": 4420, "\n\nOther political or pressure groups: ": 4421, "% (1987)\n\n": 4422, "Congres": 4423, "machinery, ": 4424, "Well, I": 4425, "duk": 4426, "Mrs. Grose ": 4427, "All": 4428, "Jer": 4429, "_.\n\n\u201c": 4430, "Bal": 4431, "the sea": 4432, "agn": 4433, " small": 4434, "e, and the ": 4435, "ed by\n": 4436, "uddenly ": 4437, "circ": 4438, "knew ": 4439, "trang": 4440, "distinc": 4441, "care ": 4442, "little s": 4443, "sound": 4444, "ed-": 4445, " prov": 4446, "eless": 4447, "wise ": 4448, "god": 4449, "you could ": 4450, "plan": 4451, " strang": 4452, "in a s": 4453, " ain\u2019t ": 4454, "calm": 4455, " have\n": 4456, "ution": 4457, "ed, but ": 4458, "possibl": 4459, "clud": 4460, "inde": 4461, "I felt ": 4462, "vag": 4463, "ustom": 4464, " black": 4465, "o P": 4466, "uts, ": 4467, "itu": 4468, "writt": 4469, "band ": 4470, ", not ": 4471, "excit": 4472, ", a ": 4473, "inhabit": 4474, "impress": 4475, "accord": 4476, "tempor": 4477, "March": 4478, "\u2014that ": 4479, "itude ": 4480, "main ": 4481, "oub": 4482, "capit": 4483, "ic d": 4484, "quarter": 4485, "[": 4486, "] ": 4487, "plat": 4488, " away": 4489, "with her ": 4490, "adequ": 4491, "Just": 4492, "gravel": 4493, "1978": 4494, "108": 4495, "316": 4496, "288": 4497, "325": 4498, "465": 4499, "214": 4500, "909": 4501, "61": 4502, "Korea": 4503, "% in ": 4504, "with runways 2,440-3,659 m;\n": 4505, ",6": 4506, "chairman": 4507, "\n\nJudicial branch: ": 4508, "partners--": 4509, "coffee, ": 4510, "territory of ": 4511, "iy": 4512, "Communist": 4513, "Bo": 4514, "elet": 4515, "case ": 4516, "ic, ": 4517, "stri": 4518, "monst": 4519, "Hol": 4520, "descri": 4521, "oce": 4522, "Sir": 4523, "ens ": 4524, "tro": 4525, "eaven": 4526, "John ": 4527, "moon": 4528, "est and ": 4529, "with a": 4530, " bro": 4531, "taking ": 4532, "and\nthe ": 4533, "passed ": 4534, "on this ": 4535, "whaling ": 4536, "ark ": 4537, "gloom": 4538, "seemed to": 4539, "quart": 4540, "place, ": 4541, "uous ": 4542, "fash": 4543, "at last": 4544, "cold ": 4545, "e should ": 4546, "when, ": 4547, "-like ": 4548, "once": 4549, "with him": 4550, "ed, the ": 4551, ",\nthe ": 4552, "with a s": 4553, "asc": 4554, "so that ": 4555, "dev": 4556, " in the\n": 4557, "e\nand ": 4558, "while, ": 4559, "e\nof ": 4560, "port ": 4561, "in the s": 4562, " near": 4563, "mitt": 4564, "had not ": 4565, "faith": 4566, ", my ": 4567, "asleep": 4568, " knew": 4569, "or the ": 4570, "?\u201d said ": 4571, ",\u201d cried ": 4572, "eter": 4573, "ants ": 4574, "cast": 4575, "very": 4576, "it would ": 4577, ".\n\nTh": 4578, "flash": 4579, "it is": 4580, "Fin": 4581, "employment": 4582, " THE": 4583, "Part": 4584, "China ": 4585, "treat": 4586, "African": 4587, "314": 4588, "217": 4589, "460": 4590, "Revolutionary ": 4591, "nigg": 4592, "San ": 4593, "offshore ": 4594, "\n\nSuffrage: ": 4595, ");\n\nHead of Government--": 4596, "Unemployment rate: NA%\n\nBudget: revenues $": 4597, "7.": 4598, "roll-on/roll-off cargo, ": 4599, "1 Atlantic Ocean INTELSAT": 4600, "% of GDP, or $": 4601, "% irrigated\n\nEnvironment: ": 4602, "% services, ": 4603, "\n\nSuffrage: universal at age ": 4604, "foodstuffs, ": 4605, "Huck": 4606, "Durbeyfield ": 4607, "Pacif": 4608, "tong": 4609, "al-": 4610, "catch": 4611, "fly": 4612, "load": 4613, "gro": 4614, "navig": 4615, "hil": 4616, "illion": 4617, "before the ": 4618, "air ": 4619, "ce of ": 4620, "; they ": 4621, "pursu": 4622, "I will": 4623, "you to": 4624, "broken": 4625, "you have ": 4626, "boys ": 4627, "visible ": 4628, "bill": 4629, "y of the ": 4630, "aj": 4631, " there, ": 4632, "number ": 4633, " hel": 4634, "I sh": 4635, "dress": 4636, "pat": 4637, ", F": 4638, "wick": 4639, "ing\nthe ": 4640, "eason": 4641, " pl": 4642, "raft": 4643, "common ": 4644, "shall ": 4645, "ommun": 4646, "often ": 4647, " off": 4648, "Polynes": 4649, "ircl": 4650, "reckon": 4651, ")\n\nL": 4652, "hist": 4653, "dur": 4654, "ustr": 4655, "administ": 4656, "ese": 4657, "flag of ": 4658, "o\u2019 ": 4659, "recent ": 4660, "eut": 4661, "345": 4662, "346": 4663, "795": 4664, "not accepted ": 4665, " herself": 4666, "Federal ": 4667, "Organization": 4668, ")\n\n- ": 4669, "1.9": 4670, "legislative ": 4671, "resourc": 4672, "O, IDA, I": 4673, "export ": 4674, "% of GDP and ": 4675, " million, per capita $": 4676, "\n\nJudicial branch: Supreme Cour": 4677, "\n\nLanguage: English": 4678, " container, ": 4679, "LO, IMF, IMO, INTELSAT": 4680, "judged ": 4681, "VI": 4682, "IL": 4683, "AC": 4684, "lowly ": 4685, "William": 4686, "bey": 4687, "you would ": 4688, "it was\n": 4689, "Europe": 4690, "blood": 4691, "distance ": 4692, "we are ": 4693, "eight ": 4694, "object": 4695, "; for ": 4696, "New": 4697, "exclaim": 4698, "driv": 4699, "all m": 4700, "e ship": 4701, "med": 4702, " hol": 4703, "unless ": 4704, "MA": 4705, "men, ": 4706, "wil": 4707, "middle ": 4708, "inch": 4709, "meant ": 4710, "oft ": 4711, "squ": 4712, " seemed ": 4713, "opin": 4714, " hair": 4715, "That\u2019s ": 4716, "wore ": 4717, "lag": 4718, "rick": 4719, "beyond ": 4720, "Sund": 4721, "broke ": 4722, "deg": 4723, " I had ": 4724, "let me ": 4725, "\u2014\n\n\u201c": 4726, "aff": 4727, "es; and ": 4728, "ipp": 4729, ", is ": 4730, "sharp": 4731, "sheep": 4732, "ital": 4733, "ing down": 4734, "ant\n": 4735, "find": 4736, "gam": 4737, "vert": 4738, "oci": 4739, "exactly ": 4740, "kiss": 4741, "ctic": 4742, ". I was ": 4743, ".\nS": 4744, "Mexic": 4745, "reli": 4746, "wig": 4747, "asp": 4748, "e: ": 4749, "given": 4750, "\u201d\n\n": 4751, "or two": 4752, " did": 4753, "iness ": 4754, "TO": 4755, "moder": 4756, "recogn": 4757, "employs ": 4758, "one-": 4759, "waited ": 4760, "Cor": 4761, "Sw": 4762, "ution ": 4763, "disput": 4764, "aire": 4765, "if they ": 4766, "Georg": 4767, "House of ": 4768, "t (": 4769, "429": 4770, "209": 4771, "239": 4772, "418": 4773, "41": 4774, "Brazil": 4775, "Indones": 4776, " memb": 4777, "note--": 4778, "\n\nAirports: ": 4779, "\n\nType: republic\n\nCapital: ": 4780, "); results--": 4781, ", Ital": 4782, "consumer good": 4783, "unimproved earth": 4784, " million (1988": 4785, "machinery and ": 4786, "none; ": 4787, "with runways 2,440-3,659 m; ": 4788, "Commun": 4789, "Jim ": 4790, "\n CHAPTER ": 4791, "all the\n": 4792, "._": 4793, "Indian ": 4794, "ers of the ": 4795, "yself": 4796, "in c": 4797, "what was ": 4798, "extrem": 4799, ". When": 4800, "paus": 4801, "fun": 4802, "upon his ": 4803, "? A": 4804, "will not ": 4805, "est, ": 4806, "lord": 4807, "Sen": 4808, "ary, ": 4809, "influ": 4810, "peril": 4811, " behind ": 4812, "flung": 4813, "plank": 4814, "ed into the ": 4815, "edly ": 4816, " thought": 4817, " minut": 4818, "ame s": 4819, "yes, ": 4820, "now and ": 4821, "um ": 4822, " pur": 4823, "effect": 4824, "in him": 4825, "pri": 4826, "fla": 4827, "lamp": 4828, "something": 4829, "suddenly ": 4830, ", the\n": 4831, "descend": 4832, "AM": 4833, "so s": 4834, "sho": 4835, "horse ": 4836, " aff": 4837, "e some ": 4838, "vac": 4839, "at least ": 4840, "object ": 4841, "k and ": 4842, "What\u2019s ": 4843, "times, ": 4844, "Ahab ": 4845, "ervic": 4846, "character": 4847, "ordin": 4848, "nin": 4849, " a th": 4850, "affect": 4851, ". If ": 4852, "if the ": 4853, "ador": 4854, "rought ": 4855, "vertical": 4856, "time, and ": 4857, "Mad": 4858, "dle ": 4859, "it.\u201d\n\n\u201c": 4860, "413": 4861, "416": 4862, "490": 4863, "145": 4864, "415": 4865, "216": 4866, "446": 4867, "51": 4868, ".\u201d\n\nShe ": 4869, "ember\n": 4870, "FY": 4871, "\n\n- Government\nLong-form name: Republic of ": 4872, "prime minister, ": 4873, " with permanent-surface runways;\nnone with runways over 3,659 m; ": 4874, "1,5": 4875, "stations--": 4876, "Caribbe": 4877, "Commission": 4878, "crude oil": 4879, " (1985)\n\nFiscal year: ": 4880, "Imports: $": 4881, "hadn\u2019t ": 4882, "meet": 4883, " del": 4884, ".\u201d \u2014_": 4885, "ford": 4886, "has been": 4887, "our\n": 4888, "ed in his ": 4889, "Let ": 4890, " see": 4891, " plain": 4892, "\n\nS": 4893, "write ": 4894, "inist": 4895, "peculiar": 4896, "were the ": 4897, "towards the ": 4898, "ity of the ": 4899, "ole ": 4900, "rever": 4901, "virt": 4902, "all that ": 4903, "blu": 4904, "selves ": 4905, ", I\n": 4906, "ates, ": 4907, "s; but ": 4908, "flood": 4909, "side, ": 4910, "univers": 4911, "vest": 4912, "table ": 4913, ". Though": 4914, ", and they ": 4915, "most": 4916, "cern": 4917, "on\nthe ": 4918, "oot": 4919, "time. ": 4920, "who, ": 4921, "agg": 4922, "to this ": 4923, "Ev": 4924, "ax": 4925, "Look": 4926, "visit": 4927, "crow": 4928, "ity\n": 4929, "cons": 4930, "chain": 4931, "while the ": 4932, " dog": 4933, "lon": 4934, " ask": 4935, "know what ": 4936, "!\u201d he ": 4937, "France, ": 4938, "organ": 4939, "village ": 4940, "Islands, ": 4941, "soil": 4942, "used ": 4943, "y, the ": 4944, "If ": 4945, "ental": 4946, " coast": 4947, "var": 4948, " tow": 4949, "link": 4950, "transport": 4951, " Island": 4952, "wife ": 4953, "ula": 4954, "eal ": 4955, "control": 4956, "Bas": 4957, "179": 4958, "child ": 4959, "435": 4960, "799": 4961, "128": 4962, "105": 4963, "Wendy, ": 4964, "Peter, ": 4965, "Islands\n": 4966, "Feder": 4967, "jor": 4968, " (C": 4969, " km2\n\nComparative area: slightly smaller than ": 4970, "State and Head of Government--President ": 4971, ", UPU": 4972, "vegetables, ": 4973, "Ports: ": 4974, " stations--": 4975, "stitution": 4976, "C, ITU": 4977, " million, including\ncapital expenditures of $": 4978, "1981": 4979, "vehic": 4980, "Su": 4981, "\nGRT/": 4982, "NP": 4983, ", which ": 4984, "heaven": 4985, " thou": 4986, "rise ": 4987, "clim": 4988, "conveni": 4989, "ing their": 4990, "time": 4991, "harpoon": 4992, "ever\n": 4993, "ats ": 4994, "ench": 4995, "stream": 4996, "ive\n": 4997, "s with ": 4998, " step": 4999, "this, ": 5000, "stud": 5001, "long, ": 5002, "in a\n": 5003, "tap": 5004, "you may ": 5005, "to sp": 5006, "lam": 5007, " spo": 5008, "harm": 5009, " sl": 5010, "month": 5011, "RE": 5012, "will\n": 5013, "ery, ": 5014, "ave ": 5015, ", J": 5016, ",\u2019": 5017, " cr": 5018, "ferr": 5019, "Church": 5020, "beverag": 5021, "done": 5022, "ed down": 5023, "tell you": 5024, "cod": 5025, "effect ": 5026, ". She was ": 5027, "All ": 5028, "might have ": 5029, "eward": 5030, "what he ": 5031, "ounc": 5032, "lantern": 5033, "TE": 5034, "Air": 5035, "wan": 5036, ", In": 5037, " bulk": 5038, "Maur": 5039, "eral": 5040, "commer": 5041, "dair": 5042, "Bur": 5043, "coal, ": 5044, "449": 5045, "470": 5046, "488": 5047, "768": 5048, "336": 5049, "176": 5050, "238": 5051, "439": 5052, "ugar": 5053, "Netherlands ": 5054, "Pakist": 5055, ", IAEA, IBRD, ICA": 5056, " products, ": 5057, " GRT/": 5058, "Fron": 5059, "----------------------------------------------------\nCountry:  ": 5060, " (198": 5061, " (mailing address is ": 5062, "NW, Washington DC 20008; telephone (202) ": 5063, "Movement (": 5064, "P. O. Box ": 5065, "git ": 5066, "ulp": 5067, "Cha": 5068, "iction": 5069, "ancient ": 5070, ", by ": 5071, "Ber": 5072, "wam": 5073, "ier ": 5074, "Mac": 5075, "in, and ": 5076, "Sperm Whale ": 5077, "\nm": 5078, "ed. ": 5079, "mast-head": 5080, "lightn": 5081, " they\n": 5082, "bound": 5083, "up\n": 5084, ";\u2014": 5085, "me\n": 5086, "mok": 5087, "story ": 5088, "much as ": 5089, "ude ": 5090, ", like ": 5091, "top ": 5092, "up to": 5093, "loo": 5094, " at last ": 5095, "plent": 5096, "ing away ": 5097, "les, ": 5098, "upon\n": 5099, " bec": 5100, "flew": 5101, "interval": 5102, "morning, ": 5103, "I\u2019m ": 5104, "room ": 5105, " coun": 5106, "just\n": 5107, "e was ": 5108, "fig": 5109, "hat ": 5110, "figure ": 5111, "es are ": 5112, "known ": 5113, "les": 5114, "AB": 5115, "yst": 5116, "small ": 5117, "When ": 5118, "opp": 5119, "ux": 5120, " this, ": 5121, "ed\nthe ": 5122, "dro": 5123, "ance\n": 5124, "posed ": 5125, "ses ": 5126, "running ": 5127, "I h": 5128, "til": 5129, "no h": 5130, "advanc": 5131, "Bildad": 5132, "timber": 5133, "vari": 5134, "inquir": 5135, "Day ": 5136, "depend": 5137, "station": 5138, "is it ": 5139, "in the world": 5140, "ecur": 5141, "elev": 5142, "cry": 5143, "contribut": 5144, "Air ": 5145, "138": 5146, "228": 5147, "748": 5148, "106": 5149, "ina ": 5150, "                          ": 5151, "Cent": 5152, "% arable land; NEGL% permanent crops; ": 5153, "Avenue ": 5154, "% (FY": 5155, " billion\n\nCurrency: ": 5156, "\n\nPipelines: ": 5157, ")\n\nC": 5158, " km2\n\nComparative area: slightly larger than ": 5159, "%, other ": 5160, " (1989 est.)\n\n": 5161, " (July 1990), growth rate 2.": 5162, "% (1986": 5163, ",000 telephones; stations--": 5164, "Vice President ": 5165, "Roman Catholic": 5166, "\n(next to be held ": 5167, "vegetabl": 5168, "2-": 5169, "coup": 5170, "compulsory ICJ jurisdiction": 5171, "overseas ": 5172, "                   ": 5173, ",\u201d I say": 5174, "gown": 5175, "His ": 5176, "stir": 5177, "s a ": 5178, "pli": 5179, "Dutch": 5180, "atic": 5181, "to that ": 5182, "dread": 5183, "noble ": 5184, "to sh": 5185, "attle ": 5186, "grim": 5187, "prom": 5188, "emor": 5189, "s to the ": 5190, "voyag": 5191, " short ": 5192, "ight, ": 5193, "tol": 5194, " then ": 5195, "miles ": 5196, "itation": 5197, "it and ": 5198, "considerable ": 5199, "particularly ": 5200, "I did ": 5201, "ioned ": 5202, "natural": 5203, "ut\n": 5204, "exam": 5205, "umin": 5206, ",\u201d said the ": 5207, "Bul": 5208, "in one ": 5209, "meas": 5210, " brea": 5211, "in\u2019 ": 5212, "independent ": 5213, "of the s": 5214, "least": 5215, "explain": 5216, "educ": 5217, "egg": 5218, "ebr": 5219, "such a ": 5220, "_\n": 5221, "alarm": 5222, "e said ": 5223, "seen ": 5224, "George ": 5225, "ouse": 5226, "alk": 5227, "ed. The ": 5228, " a moment ": 5229, "breakfast": 5230, "st\n": 5231, "weather ": 5232, "\nS": 5233, "ear ": 5234, "friend ": 5235, "theless, ": 5236, "rage ": 5237, "could\n": 5238, ".\u201d\n\n\u201cAnd ": 5239, "revol": 5240, "machin": 5241, ". In the ": 5242, "on my ": 5243, "e, S": 5244, "perceiv": 5245, "uty ": 5246, "\u2019tis ": 5247, " N": 5248, "S ": 5249, "weak": 5250, "companion": 5251, "employment ": 5252, "worked ": 5253, " continu": 5254, "growth": 5255, "ecret": 5256, "bud": 5257, "?\u201d\n\n\u201cYes": 5258, "148": 5259, "405": 5260, "223": 5261, "665": 5262, "1975": 5263, ",\u201d she said": 5264, ",\nW": 5265, "equipment": 5266, "islative ": 5267, "NEGL": 5268, "evelopment ": 5269, "zinc": 5270, "opposition": 5271, "Development Bank, IFAD, IFC, I": 5272, ", UN": 5273, "10 ": 5274, ") annually\n\nDefense expenditures: ": 5275, "ialect": 5276, "), $": 5277, "chemical tanker, ": 5278, "\n\nExtended economic zone: 200 nm;\n\nTerritorial sea: 12 nm": 5279, " (next to be\nheld ": 5280, "\n\nSuffrage: universal at age 18\n\nElections:\n": 5281, "December 1989": 5282, "\n\n- Economy\nOverview: The ": 5283, "predomin": 5284, " km gravel": 5285, "tanker, ": 5286, " billion (f.o.b., ": 5287, "ian dollar": 5288, " (July 1990), growth rate 3.": 5289, "\n\nExtended economic zone: 200 nm;\n\nTerritorial sea: 12 nm\n\nDisputes: ": 5290, " d\u2019Urbervill": 5291, "riend": 5292, "XL": 5293, "yn": 5294, ". Her ": 5295, "Lond": 5296, "eed": 5297, "ed from ": 5298, "immediately ": 5299, "shall": 5300, ".\u201d\n": 5301, "proceed": 5302, "fifty ": 5303, "iber": 5304, "est of ": 5305, "uge ": 5306, "mist": 5307, "whales, ": 5308, "be, ": 5309, "inform": 5310, "s of s": 5311, "artic": 5312, "Bank": 5313, "Pal": 5314, "feet": 5315, ", when ": 5316, "wea": 5317, "Ther": 5318, "thern ": 5319, "forward": 5320, "\u201d ": 5321, "win": 5322, "ves ": 5323, "commerc": 5324, "nigh": 5325, "s? ": 5326, "unk": 5327, ". For ": 5328, "whol": 5329, ". But\n": 5330, " having ": 5331, "repe": 5332, "ve": 5333, "Pres": 5334, "Cape ": 5335, "ed my ": 5336, "\u201d\u2014": 5337, "erable ": 5338, "box": 5339, "ness of ": 5340, "e. A": 5341, "pois": 5342, "blank": 5343, ", and a ": 5344, "neck": 5345, "ado": 5346, " af": 5347, "heavy ": 5348, "ran ": 5349, "gett": 5350, " had been": 5351, " ag": 5352, "answer ": 5353, "resh": 5354, "PU": 5355, "worth": 5356, "gold ": 5357, "occup": 5358, " carri": 5359, "glad": 5360, " hom": 5361, "iment": 5362, "bly ": 5363, "I wish": 5364, "fut": 5365, "When": 5366, "-h": 5367, "King": 5368, "promis": 5369, "more": 5370, "?\u201d she ": 5371, ",\nbut ": 5372, "mus": 5373, "ers and ": 5374, " a-": 5375, "experi": 5376, "ot, ": 5377, "I can\u2019t ": 5378, "change ": 5379, "coco": 5380, "How ": 5381, "; there ": 5382, "Char": 5383, "Jord": 5384, "remark": 5385, "state ": 5386, "\u201d\n\n\u201c": 5387, "y at ": 5388, "AT": 5389, "prob": 5390, "ert ": 5391, "ily": 5392, "on her ": 5393, "746": 5394, "378": 5395, "375": 5396, "905": 5397, "328": 5398, "Leban": 5399, "improved earth": 5400, "\n\nContinental shelf: ": 5401, " (1988": 5402, " with runways 2,440-3,659 m; ": 5403, "1.1": 5404, " billion (f.o.b., 1989": 5405, "tank": 5406, " with permanent-surface runways;\n": 5407, "foodstuff": 5408, ",8": 5409, "(1985": 5410, ")\n\nExternal debt: $": 5411, " billion (": 5412, " kW capacity; ": 5413, "Street ": 5414, "gwyne ": 5415, "Vir": 5416, "Work": 5417, "Ger": 5418, "Lat": 5419, "glo": 5420, "se-": 5421, ". He s": 5422, "whale": 5423, "irty ": 5424, "ance of ": 5425, "compar": 5426, " so\n": 5427, "proach": 5428, "infer": 5429, "ed\nby ": 5430, "I saw": 5431, "y, but ": 5432, "ourn": 5433, "rolled ": 5434, "ly the ": 5435, "s it ": 5436, "; some ": 5437, "just as ": 5438, "magn": 5439, "ed in\n": 5440, "money ": 5441, "creature": 5442, "may": 5443, "idence ": 5444, " inter": 5445, " I\n": 5446, "el, ": 5447, "worse ": 5448, ",\u201d says ": 5449, "yiel": 5450, "e; the ": 5451, "anchor": 5452, "wool": 5453, "that they ": 5454, "; for": 5455, "I must ": 5456, "tell me ": 5457, "furn": 5458, "in such": 5459, "feel ": 5460, "half ": 5461, "tropical ": 5462, "udden ": 5463, "rolling ": 5464, "entire ": 5465, "fortun": 5466, "awful": 5467, "cil": 5468, "it had ": 5469, "es were ": 5470, "eam": 5471, "upon the\n": 5472, "Stra": 5473, "ceiv": 5474, ". He\n": 5475, "I do": 5476, "; the\n": 5477, "iding ": 5478, "Pet": 5479, "sent ": 5480, "dd": 5481, "twenty ": 5482, "ino": 5483, "; she ": 5484, "?\u201d he ": 5485, "Aye, ": 5486, " start": 5487, "there are ": 5488, "Roman": 5489, "well-": 5490, "alter": 5491, "pract": 5492, "determin": 5493, ", and was ": 5494, "cab": 5495, ",\u201d he said ": 5496, "numerous ": 5497, "to come ": 5498, "ication": 5499, ". Of": 5500, "emoc": 5501, "limb": 5502, "ration": 5503, "ao": 5504, "ious\n": 5505, "sk ": 5506, "\n\nA": 5507, "during the ": 5508, "White Whal": 5509, "you\u2019re ": 5510, "Portug": 5511, " consist": 5512, " servic": 5513, "which she ": 5514, "mainly ": 5515, "evelop": 5516, "natural gas": 5517, "man of the ": 5518, "135": 5519, "475": 5520, "312": 5521, "259": 5522, "126": 5523, "249": 5524, "339": 5525, "319": 5526, "fishing ": 5527, "Government ": 5528, "dependent ": 5529, "Territor": 5530, "Saudi Arab": 5531, "agas": 5532, "Western": 5533, "rugged ": 5534, ", cop": 5535, "Senate ": 5536, "\n\nConstitution: ": 5537, "economy": 5538, "Force\n\nMilitary manpower: males 15-49, ": 5539, " times the size of ": 5540, " billion; ": 5541, "s); 1 ": 5542, "liquefied gas, ": 5543, "axial": 5544, "s\n\nNatural resources: ": 5545, "2% ": 5546, "Governor ": 5547, " (since NA": 5548, " earth station": 5549, " administ": 5550, "FY89": 5551, "Crick": 5552, "Dec": 5553, "Hon": 5554, "ers\n": 5555, "ed him ": 5556, "you must ": 5557, ", too": 5558, "Leviathan": 5559, " mak": 5560, "mouth ": 5561, "Parliament ": 5562, "erious ": 5563, "people": 5564, "boats ": 5565, "onc": 5566, "it of ": 5567, "st the ": 5568, "rigg": 5569, "I do ": 5570, "captain ": 5571, "ount ": 5572, "shoulder": 5573, "me, and ": 5574, "wel": 5575, "e. B": 5576, "advent": 5577, "writ": 5578, "first\n": 5579, " pr": 5580, "ork": 5581, "used to": 5582, "some s": 5583, "aver": 5584, "cheek": 5585, "ply": 5586, "unt ": 5587, "ove ": 5588, "wak": 5589, "shook": 5590, "alway": 5591, "certainly ": 5592, "Ver": 5593, "old, ": 5594, "widow": 5595, "etern": 5596, "ertain ": 5597, "cast ": 5598, "ential": 5599, "cu": 5600, "s, and the ": 5601, "outside ": 5602, "tou": 5603, "det": 5604, "until": 5605, " dr": 5606, "short ": 5607, "not to ": 5608, "resum": 5609, "etermin": 5610, " heav": 5611, "author": 5612, " thy ": 5613, "retty ": 5614, "awn": 5615, "establish": 5616, "white\n": 5617, "East": 5618, "uper": 5619, "mile ": 5620, "ral": 5621, "tub": 5622, "ettl": 5623, "has been ": 5624, "duce ": 5625, "une ": 5626, "White ": 5627, "ilk": 5628, "field ": 5629, "manufactured ": 5630, "t\u2019": 5631, "Rad": 5632, "to you": 5633, " activ": 5634, "?\u201d\n\n\u201cWhy, ": 5635, "extensive ": 5636, "Riv": 5637, "States ": 5638, "reflect": 5639, "169": 5640, "720": 5641, "226": 5642, "139": 5643, "365": 5644, "309": 5645, "655": 5646, "229": 5647, "775": 5648, "735": 5649, ".\n\nShe ": 5650, "wheat, ": 5651, "Hong Kong": 5652, "Pap": 5653, "ua ": 5654, " member": 5655, "primarily ": 5656, "Council of Ministers (": 5657, "\n\nLeaders:\nChief of ": 5658, "LO, IMF, I": 5659, "limited ": 5660, "atellite ": 5661, "Arm": 5662, "cabinet)\n\nLegislative branch: unicameral ": 5663, "industrial": 5664, "\n\nAid: US commitments, including Ex-Im (FY": 5665, "Associ": 5666, "\n\nMember of: ": 5667, "Consulate ": 5668, "Assembly": 5669, "with runways over 3,659 m; ": 5670, "dependent territory of the UK": 5671, "fishing, ": 5672, "% (1988 est.)\n\n": 5673, "Confeder": 5674, "C, I": 5675, "SO, I": 5676, "Los Angel": 5677, "%, P": 5678, "I want": 5679, " says:\n\n\u201c": 5680, "Mrs. G": 5681, " CHAPTER ": 5682, "Do": 5683, "brain": 5684, "in any ": 5685, "extra": 5686, " down ": 5687, "exceed": 5688, "nature ": 5689, "in-": 5690, "frequ": 5691, "I was\n": 5692, "ford ": 5693, "revenu": 5694, "spout": 5695, "south": 5696, "instinc": 5697, "oth": 5698, "for her ": 5699, "neg": 5700, "pet": 5701, "a half": 5702, "th-": 5703, "OO": 5704, "s of m": 5705, "nail": 5706, "suff": 5707, "ed upon the ": 5708, "boy ": 5709, "in it": 5710, "sense ": 5711, "contr": 5712, "comfort": 5713, "from\nthe ": 5714, " am ": 5715, "hood": 5716, "ing my ": 5717, "public": 5718, "I sup": 5719, " sharp": 5720, "itter": 5721, "witch": 5722, "lines ": 5723, "ing a\n": 5724, "ension": 5725, "edd": 5726, "pick": 5727, "somehow": 5728, "now, and ": 5729, "I never": 5730, "feeling ": 5731, "hast": 5732, "ingu": 5733, " been": 5734, " see, ": 5735, " on the ": 5736, ".\n\nThey ": 5737, " star": 5738, "full of ": 5739, "super": 5740, "women ": 5741, "of them ": 5742, " man ": 5743, "in its ": 5744, "across ": 5745, " does ": 5746, "goods, ": 5747, ".\u2019": 5748, "ight\n": 5749, "deser": 5750, "brow": 5751, "reat": 5752, "twent": 5753, "marri": 5754, "ase ": 5755, "over his ": 5756, "forth": 5757, "prise ": 5758, "ili": 5759, "; not ": 5760, "general ": 5761, "good-": 5762, "in\u2019t ": 5763, "nur": 5764, "ia; ": 5765, "imply ": 5766, "end of the ": 5767, ", then": 5768, "ret ": 5769, ". J": 5770, "olv": 5771, "ed of ": 5772, "wet ": 5773, "perm ": 5774, "Parliament": 5775, "the sk": 5776, "military ": 5777, "period": 5778, "usual": 5779, "every\n": 5780, "frequent ": 5781, "Antarctic": 5782, "s and the ": 5783, "urely ": 5784, "rout": 5785, "bask": 5786, "explo": 5787, "PP": 5788, "Ro": 5789, "force ": 5790, ". He had ": 5791, "tomat": 5792, "if she ": 5793, " south": 5794, "1970": 5795, "188": 5796, "279": 5797, "459": 5798, "155": 5799, "428": 5800, "158": 5801, "399": 5802, "136": 5803, "you\u2019ve ": 5804, "Moroc": 5805, "deputy ": 5806, "NA; ": 5807, "2,0": 5808, "Popular ": 5809, "National Assembly--last held ": 5810, " petroleum, oils, and lubricant": 5811, " (1989 est.)\n----------------------------------------------------\nCountry:  ": 5812, "ulu": 5813, "\n\nLegislative branch: bicameral ": 5814, "% (1989)\n\nUnemployment rate: ": 5815, "copra": 5816, "\n- Geography\nTotal area: ": 5817, " station": 5818, "major ": 5819, "\n\nNote: located ": 5820, "Europe ": 5821, " billion (c.i.f., ": 5822, "Malays": 5823, "1988); commodities--": 5824, "\u2019Urbervill": 5825, ". Tess ": 5826, " Clare ": 5827, "Right ": 5828, "letter ": 5829, "osp": 5830, "ies\n": 5831, "King ": 5832, " sw": 5833, "with a b": 5834, "told me ": 5835, " that was ": 5836, "respect ": 5837, "ery": 5838, "aught ": 5839, "rear": 5840, "Greenland ": 5841, ". St": 5842, "for some ": 5843, "irec": 5844, "rope ": 5845, " home ": 5846, "hat": 5847, " better": 5848, "ed into ": 5849, "manag": 5850, "trag": 5851, "perhaps, ": 5852, "has\n": 5853, ", as the ": 5854, "ace ": 5855, "careful": 5856, "enough to": 5857, "Yet ": 5858, "all these ": 5859, "ivory ": 5860, "ing this ": 5861, "not only ": 5862, " began ": 5863, "far as ": 5864, "precis": 5865, "guess": 5866, "understand ": 5867, "e so ": 5868, "good\n": 5869, "could see ": 5870, "possible ": 5871, "There was ": 5872, "runn": 5873, "atisfi": 5874, "strain": 5875, "neither ": 5876, "there were ": 5877, " drop": 5878, "If": 5879, "ets, ": 5880, "to se": 5881, "commun": 5882, "emn": 5883, "ique ": 5884, "lifted ": 5885, " than the ": 5886, "earch": 5887, "ed; but ": 5888, "Po": 5889, "obl": 5890, "evening ": 5891, "chill": 5892, "reveal": 5893, "ifferent ": 5894, ". I had ": 5895, "I said ": 5896, "lands": 5897, "to put ": 5898, "a con": 5899, "looked at ": 5900, "rav": 5901, "red\n": 5902, "id\n": 5903, "past": 5904, "it\nwas ": 5905, "remains ": 5906, "an h": 5907, "bet": 5908, "he said ": 5909, ": the ": 5910, "of its ": 5911, "iffer": 5912, "-d": 5913, "el ": 5914, "job": 5915, "genc": 5916, "quad": 5917, "dropped ": 5918, "pound": 5919, "her s": 5920, "Hind": 5921, "tropical": 5922, "nick": 5923, "industry ": 5924, "dairy ": 5925, "679": 5926, "320": 5927, "477": 5928, "178": 5929, "425": 5930, "730": 5931, "740": 5932, "469": 5933, "ate; ": 5934, "Union ": 5935, "Argent": 5936, "Guard": 5937, "a, T": 5938, " production": 5939, " nm": 5940, "Liberation ": 5941, "); 1 ": 5942, "Development Bank": 5943, " est.);\ncommodities--": 5944, ")\n\nJudicial branch: ": 5945, " (1989": 5946, "% Roman Catholic, ": 5947, ")\n\n- Government\nLong-form name: ": 5948, "\n\nMember of: ACP, AfDB": 5949, "food, ": 5950, "70-87), $": 5951, "HO, I": 5952, "1,9": 5953, ", IFAD, IFC, I": 5954, " fit for military servic": 5955, "boundary ": 5956, "by-and-": 5957, "Marlot": 5958, "Trantrid": 5959, " kill": 5960, "Great ": 5961, "Leg": 5962, "ET": 5963, "prepar": 5964, "cro": 5965, "on that ": 5966, ", some ": 5967, "NE": 5968, "bell": 5969, "ighty ": 5970, "y\u2019s ": 5971, "to con": 5972, " seen": 5973, "blood ": 5974, "erous ": 5975, "As": 5976, "World ": 5977, "lead ": 5978, "Cur": 5979, " known": 5980, "knock": 5981, "shad": 5982, ". Yet ": 5983, "within": 5984, "head, ": 5985, "key ": 5986, "s have ": 5987, "themselves ": 5988, "faction": 5989, "s he ": 5990, "jol": 5991, "where he ": 5992, "s of a": 5993, "ing it": 5994, "to give ": 5995, "conclud": 5996, "that it ": 5997, "house, ": 5998, "stopp": 5999, "spot ": 6000, "eph": 6001, "lie ": 6002, "ation, and ": 6003, "fairly ": 6004, "cle": 6005, "ing himself": 6006, "cann": 6007, "che": 6008, "I found ": 6009, "rim": 6010, ". One ": 6011, "never\n": 6012, "liqu": 6013, "lipp": 6014, "ye s": 6015, "middle of the ": 6016, "unknown": 6017, "saf": 6018, " hum": 6019, "fluk": 6020, "difficult": 6021, "haw": 6022, "aught": 6023, "civil": 6024, ", and s": 6025, "ese s": 6026, "ate s": 6027, " cri": 6028, "individ": 6029, ".\n\nIn": 6030, "pite ": 6031, "ed;\n": 6032, "therefore ": 6033, "terrible ": 6034, " on ": 6035, "thor": 6036, "fog": 6037, "relief": 6038, "if we ": 6039, " that\u2019s ": 6040, " are ": 6041, "yell": 6042, "ence\n": 6043, "acqu": 6044, "South": 6045, "padd": 6046, "apt": 6047, ". They\n": 6048, " both": 6049, " plat": 6050, "s as ": 6051, "unders": 6052, "eption": 6053, "season": 6054, "two or three ": 6055, "where\n": 6056, "I m": 6057, "tun": 6058, "presence ": 6059, "for it": 6060, " sever": 6061, "ict": 6062, "garden": 6063, "call ": 6064, "graz": 6065, "effor": 6066, "SC": 6067, "gon": 6068, "I don\u2019t know": 6069, "reas": 6070, "eny": 6071, "param": 6072, ")\n\nA": 6073, "for them": 6074, "stretch": 6075, "Western ": 6076, "earthquak": 6077, "s) ": 6078, "trust": 6079, " her s": 6080, "tour": 6081, "aur": 6082, "governor": 6083, "Sme": 6084, "recogniz": 6085, "368": 6086, "326": 6087, "629": 6088, "455": 6089, "420": 6090, "489": 6091, "710": 6092, "1992": 6093, ". She had ": 6094, " husband": 6095, "a\n    ": 6096, "       ": 6097, "January ": 6098, " crop": 6099, "at of arms ": 6100, " million;\n": 6101, " metric ": 6102, "; has ": 6103, "CCC": 6104, "1,220-2,439 m\n\nTelecommunications:": 6105, ")\n\nInflation rate (consumer prices): ": 6106, " billion;\nOPEC bilateral aid (1979-89), $": 6107, "none (": 6108, ")\n\nTerrain: ": 6109, "plural--": 6110, "\n\nClimate: tropical; ": 6111, "transport ": 6112, "FM, ": 6113, "LO, I": 6114, "%, UK ": 6115, "Wheat Council": 6116, "; telephone (202) ": 6117, "DF": 6118, "U ": 6119, "griculture ": 6120, "cargo, ": 6121, "  (": 6122, "Mary Jan": 6123, "d\u2019Urberville ": 6124, "LXX": 6125, "oubl": 6126, "ower ": 6127, "ed by a ": 6128, "mere ": 6129, "valu": 6130, "Gab": 6131, "within the ": 6132, "Ham": 6133, "ing at the ": 6134, "sort ": 6135, "s. A": 6136, "s had ": 6137, "ive, ": 6138, "require": 6139, "prot": 6140, "wreck": 6141, "joy": 6142, "per, ": 6143, "than the ": 6144, "Fre": 6145, "you see ": 6146, "es! ": 6147, "Cap": 6148, "town ": 6149, "out of s": 6150, "ed to b": 6151, "ibly ": 6152, "ical\n": 6153, "though the ": 6154, "vain": 6155, " have s": 6156, "forecast": 6157, "voy": 6158, "Prov": 6159, "the first ": 6160, "weep": 6161, "on a": 6162, "in an ": 6163, " in a ": 6164, "design": 6165, "rican": 6166, "low-": 6167, "s\u2019 ": 6168, "told him": 6169, "potatoes, ": 6170, "you\u2019ll": 6171, "mu": 6172, " bear": 6173, "face, ": 6174, "out and ": 6175, "morrow": 6176, "here\u2019s ": 6177, "ed at the ": 6178, "lying ": 6179, "eem": 6180, "previ": 6181, "hot ": 6182, "ured": 6183, "were, ": 6184, "es and\n": 6185, "however ": 6186, "rose": 6187, "fold": 6188, "as, ": 6189, "to help": 6190, "or of ": 6191, "uct": 6192, "grat": 6193, "waters ": 6194, "intens": 6195, "ose s": 6196, "inno": 6197, " know ": 6198, "ext ": 6199, "oblig": 6200, "declar": 6201, "Cub": 6202, "craft ": 6203, " by\n": 6204, ".\u201d\n\n\u201cWhat ": 6205, "hood ": 6206, "ency ": 6207, "chin": 6208, " he\u2019s ": 6209, "tlantic Oce": 6210, "foolish": 6211, ". He said ": 6212, "mother\u2019s ": 6213, "ing th": 6214, "before": 6215, "usually ": 6216, "oke ": 6217, "European": 6218, " cor": 6219, "Starbuck ": 6220, "clothing, ": 6221, "danc": 6222, "y is ": 6223, "lef": 6224, "fruit": 6225, "uary\n": 6226, "lem": 6227, "Philipp": 6228, "no d": 6229, "k of ": 6230, "Sil": 6231, "extend": 6232, "reached the ": 6233, "got\n": 6234, "Inter": 6235, "adel": 6236, "diamond": 6237, "limest": 6238, "**": 6239, "709": 6240, "729": 6241, "323": 6242, "276": 6243, "255": 6244, "385": 6245, "278": 6246, "355": 6247, "408": 6248, "445": 6249, ". She\n": 6250, "Tai": 6251, "Puerto Ric": 6252, "NZ": 6253, "Eastern ": 6254, "Party of ": 6255, "\n\nElections:\n": 6256, " elected": 6257, " billion (December 1989": 6258, "at age ": 6259, "economic activ": 6260, "Inflation rate (consumer prices): ": 6261, "urani": 6262, "Supreme Cour": 6263, ", INTERPOL, I": 6264, "%;\npartners--": 6265, "petroleum, ": 6266, "triangle ": 6267, "1 AM, ": 6268, "\n\nExecutive branch: ": 6269, ";\nUS--": 6270, " km bitumin": 6271, "\n\n- Government\nLong-form name: none\n\nType: ": 6272, "t\n\nLeaders:\nChief of State--": 6273, " km\n\nMaritime claims:\n\nContiguous zone: ": 6274, "Deput": 6275, ", IAEA": 6276, " short-sea passenger, ": 6277, "%, others ": 6278, "they was ": 6279, "reak": 6280, "sea, ": 6281, "beat": 6282, "than\n": 6283, "es in the ": 6284, "we have ": 6285, "yl": 6286, "err": 6287, "fifte": 6288, "er s": 6289, "hak": 6290, "mut": 6291, "publ": 6292, "ved ": 6293, "shot ": 6294, "!\u2019": 6295, " account ": 6296, "do\n": 6297, "ing again": 6298, "gone": 6299, "possibly ": 6300, "tall": 6301, " better ": 6302, "lodg": 6303, "connect": 6304, "sitt": 6305, "in their ": 6306, "wonderful": 6307, "eath ": 6308, ".\n\nAt ": 6309, ". No": 6310, "ed himself": 6311, "for a\n": 6312, "tick": 6313, "you will": 6314, "contain": 6315, "up, and ": 6316, "rememb": 6317, " did not ": 6318, " save ": 6319, ".\nBut ": 6320, "Queequeg, ": 6321, "Good ": 6322, "! the ": 6323, "eech": 6324, "a man ": 6325, "Now ": 6326, "condition": 6327, "ular ": 6328, "age of ": 6329, "OW": 6330, "ignific": 6331, "IT": 6332, "histor": 6333, "for a": 6334, "grand": 6335, " account": 6336, "with\nthe ": 6337, "arg": 6338, "deck, ": 6339, "rod": 6340, " spir": 6341, "a man": 6342, " people ": 6343, "sight ": 6344, "native ": 6345, "ated, ": 6346, ".\n\n\u201cH": 6347, " special": 6348, "ing for ": 6349, "Japan, ": 6350, "all about ": 6351, "beside ": 6352, "ily, ": 6353, "fir": 6354, "ometim": 6355, "-hol": 6356, "ense": 6357, "shov": 6358, "fect ": 6359, "should": 6360, "thought": 6361, "forward ": 6362, " addition": 6363, "ing on the ": 6364, " over": 6365, "fly ": 6366, "from her ": 6367, "Europ": 6368, "which has ": 6369, "fect": 6370, "ber ": 6371, "Pequod\u2019s ": 6372, " pretty ": 6373, "liter": 6374, "Swed": 6375, "s\nof ": 6376, "African ": 6377, "ane": 6378, "path": 6379, "\u2019m ": 6380, "tig": 6381, "repeat": 6382, " produc": 6383, "tech": 6384, "Steelk": 6385, "Lake ": 6386, "most important ": 6387, "imilar to the ": 6388, "ICA": 6389, "fav": 6390, "310": 6391, "344": 6392, "628": 6393, "789": 6394, "715": 6395, "437": 6396, "318": 6397, "745": 6398, "726": 6399, "708": 6400, "1976": 6401, "lago": 6402, "goods ": 6403, "poul": 6404, "Iraq": 6405, "national ": 6406, "GNP": 6407, "'s\n": 6408, "compulsory ICJ jurisdiction\n\nNational holiday: ": 6409, "Minist": 6410, ")\n\nElectricity: ": 6411, "es: s": 6412, "PU, I": 6413, ");\ntelephone [": 6414, "\n----------------------------------------------------\nCountry:  ": 6415, "Vall": 6416, "rainy season": 6417, "TU, NAM, O": 6418, "children born/woman (1990)\n\nNationality: noun--": 6419, "atural resourc": 6420, ", UK": 6421, "Union (": 6422, "% to ": 6423, "DB--Inter-American ": 6424, " bulk\n\nCivil air: ": 6425, "raw material": 6426, "transportation ": 6427, "% of population": 6428, "10 +": 6429, "Tom Sawy": 6430, "it warn\u2019t ": 6431, "\u2019bout ": 6432, "Tess had ": 6433, "ower": 6434, "Sup": 6435, "ze ": 6436, "Danish": 6437, "he could ": 6438, "glanc": 6439, "glass": 6440, "es that ": 6441, "mong": 6442, "tee": 6443, "Of": 6444, "Islands": 6445, "pen": 6446, "stone, ": 6447, "ordinary ": 6448, "ing from the ": 6449, "peop": 6450, "wast": 6451, " hill": 6452, "Pacific ": 6453, "Pacific Oce": 6454, "shr": 6455, "obser": 6456, "es to ": 6457, "previous ": 6458, " straight ": 6459, " deep": 6460, "y that ": 6461, "vell": 6462, "whalemen": 6463, "partly ": 6464, "iest ": 6465, "preach": 6466, "window ": 6467, "this is ": 6468, "zen": 6469, "PO": 6470, "gig": 6471, "almost\n": 6472, "teeth": 6473, "o\u2019clock": 6474, "_you_": 6475, "I think ": 6476, "enough ": 6477, "time\n": 6478, "skin": 6479, " too": 6480, "lic": 6481, "horri": 6482, "ing ab": 6483, " help": 6484, "conscious": 6485, ", his ": 6486, "ST": 6487, "mach": 6488, "_that": 6489, "flesh": 6490, "ans, ": 6491, "cam": 6492, "takes ": 6493, "not, ": 6494, "relat": 6495, "rum": 6496, "cend": 6497, "edi": 6498, "fle": 6499, "Syri": 6500, "s of the\n": 6501, "itive ": 6502, " heart ": 6503, "conduc": 6504, " then, ": 6505, "moke ": 6506, "divid": 6507, "it; and ": 6508, "power ": 6509, " with the ": 6510, "es. The ": 6511, "allowed ": 6512, "I will ": 6513, "\u2019s, ": 6514, "Ethiop": 6515, "erself": 6516, "murder": 6517, "I won\u2019t ": 6518, "fight": 6519, ".\n\n\u201cWhat ": 6520, "ghost": 6521, " couldn\u2019t ": 6522, "on; ": 6523, "ing was ": 6524, "way, and ": 6525, "spread ": 6526, "lose ": 6527, "passion": 6528, ". It\u2019s ": 6529, "plain ": 6530, ". My ": 6531, "Kingdom": 6532, "istance ": 6533, "lace ": 6534, "ing their ": 6535, "widely ": 6536, "Pan": 6537, "ian\n": 6538, "elected ": 6539, "tribut": 6540, "stretched ": 6541, "trib": 6542, "hus": 6543, "edom": 6544, "straw": 6545, "vice ": 6546, "narrow ": 6547, "cattle, ": 6548, "ij": 6549, "ment of ": 6550, "277": 6551, "738": 6552, "498": 6553, "479": 6554, "644": 6555, "219": 6556, "790": 6557, "765": 6558, "305": 6559, "759": 6560, "485": 6561, "ite, ": 6562, "Yugoslavi": 6563, "calendar year": 6564, "an(s); adjective--": 6565, "an\n\nEthnic divisions: ": 6566, "Muslim": 6567, ", singular--": 6568, "Econom": 6569, " million; Communist countries (1970-88),\n$": 6570, ")\n\nFiscal year: ": 6571, "O, I": 6572, "NA\n\n": 6573, "food processing, ": 6574, "% government": 6575, "1989)\n\nPolitical parties and leaders: ": 6576, "GDP: $": 6577, "-meter gauge, ": 6578, "GRT/": 6579, "territory of the US": 6580, ".\n\nGNP: $": 6581, " km, S": 6582, "economy is ": 6583, " est.": 6584, "Industri": 6585, "radio": 6586, "y\n\nCapital: ": 6587, "Western (non-US) countries, ODA and OOF bilateral commitment": 6588, "boundary with ": 6589, "), white, and ": 6590, " billion,\nincluding capital expenditures of $": 6591, " (since\n": 6592, "e\n\nDefense expenditures: ": 6593, "President": 6594, "non-": 6595, "Christian, ": 6596, "10 -": 6597, "-H": 6598, "Mid": 6599, ". _": 6600, " appear": 6601, "well, ": 6602, "empty ": 6603, "rown": 6604, "twel": 6605, "uzz": 6606, "equal ": 6607, "Nantucket ": 6608, "account ": 6609, "Oce": 6610, "ing and\n": 6611, "branch": 6612, ", as if": 6613, "conscious ": 6614, "sal": 6615, "ing from": 6616, "ror": 6617, "arpo": 6618, "anxious ": 6619, "desert": 6620, " my\n": 6621, "give me ": 6622, "TER": 6623, "neighbor": 6624, "leviath": 6625, "pon": 6626, "travell": 6627, " fur": 6628, "he, ": 6629, "nothing but ": 6630, "to their": 6631, " at all": 6632, "immedi": 6633, "to say": 6634, " pers": 6635, "kick": 6636, "no doub": 6637, " befor": 6638, " dark": 6639, "cut": 6640, "imilar": 6641, "the sun": 6642, "remov": 6643, "ceed": 6644, ". But the ": 6645, "you\u2014": 6646, "color": 6647, " or": 6648, "becom": 6649, "crushed ": 6650, "began": 6651, "haps ": 6652, "trop": 6653, "still\n": 6654, "; a ": 6655, "spot": 6656, "OF": 6657, "depos": 6658, "mbol": 6659, "self-": 6660, "ed from the ": 6661, "the best ": 6662, "his": 6663, "behind": 6664, "leas": 6665, "s s": 6666, "ine, ": 6667, "number": 6668, "wholly ": 6669, ", in": 6670, "adv": 6671, "ities, ": 6672, "done, ": 6673, "to hear": 6674, "excellent ": 6675, "ention": 6676, "his own": 6677, "race ": 6678, "upon her ": 6679, "was that ": 6680, "Em": 6681, "What": 6682, "great\n": 6683, ". It\n": 6684, "highest ": 6685, "curious ": 6686, "knowl": 6687, "flam": 6688, "used to ": 6689, "ism ": 6690, "La": 6691, "\nto ": 6692, "_he": 6693, "bread": 6694, "wasn\u2019t ": 6695, "recover": 6696, "keel": 6697, " as a ": 6698, "Mart": 6699, "triumph": 6700, "Lou": 6701, " person": 6702, "Fran": 6703, "self": 6704, "solut": 6705, "arrang": 6706, "ption": 6707, "iness": 6708, "struck ": 6709, "side": 6710, "ments ": 6711, "irst": 6712, "]": 6713, "verag": 6714, "marine ": 6715, "intellig": 6716, "up in": 6717, "their f": 6718, "tack": 6719, "whe": 6720, "member": 6721, "\nD": 6722, "ture of ": 6723, "relation": 6724, "sem": 6725, "pirates ": 6726, "talked ": 6727, "ulates ": 6728, "er (": 6729, "cane, ": 6730, "\u2019t, ": 6731, "Orlean": 6732, "indigenous ": 6733, "\n\nH": 6734, "bb": 6735, "you _": 6736, "Som": 6737, "716": 6738, "478": 6739, "329": 6740, "608": 6741, "202": 6742, "426": 6743, "289": 6744, "809": 6745, "438": 6746, "er B": 6747, "Rob": 6748, "chamber ": 6749, "aine ": 6750, "prime minister,\n": 6751, "lower house or ": 6752, " (1984": 6753, "total ": 6754, "earth station": 6755, "a\n- Geography\nTotal area: ": 6756, "Assembly--last held ": 6757, "Exports: $": 6758, "\n\nCurrency: ": 6759, "Islamic ": 6760, "1992);\nresults--": 6761, " billion, including\ncapital expenditures of $": 6762, " AM, no FM, ": 6763, "May to ": 6764, "1 with": 6765, " km2\n\nComparative area: slightly ": 6766, "griculture": 6767, "5.": 6768, "2,5": 6769, "sistence ": 6770, " crops--": 6771, " (plural--dollar": 6772, ", Saint ": 6773, "1 April-31 March": 6774, ", IWC--International ": 6775, "Liberal ": 6776, "ist-side ": 6777, "er capita ": 6778, "Progressive ": 6779, "humid": 6780, "Finn": 6781, "there warn\u2019t ": 6782, "?_": 6783, "Tess was ": 6784, " II": 6785, "HAPTER C": 6786, "mortal": 6787, "making ": 6788, ".\n\n\u201cAnd ": 6789, "eight": 6790, "killed ": 6791, "esc": 6792, " close ": 6793, "To ": 6794, "\u2014a ": 6795, "barb": 6796, "stro": 6797, "by a ": 6798, ", now": 6799, "iev": 6800, " spec": 6801, "-head ": 6802, "returned ": 6803, ". Some ": 6804, "breez": 6805, "al m": 6806, "s; s": 6807, "leaves ": 6808, "herd": 6809, "it the ": 6810, "atis": 6811, "ing me ": 6812, "e. I ": 6813, "thing about ": 6814, "negro": 6815, "pill": 6816, "not be ": 6817, "but, ": 6818, "\nwas ": 6819, ". With": 6820, "ss, ": 6821, "Land": 6822, "?\u201d\n\n\u201cOh, ": 6823, "e\u2019ll": 6824, "; a": 6825, "of a b": 6826, "hadow": 6827, "s of his ": 6828, "tid": 6829, " plac": 6830, "what the ": 6831, "I, \u201c": 6832, "deal": 6833, "stick": 6834, "abo": 6835, "laz": 6836, "suc": 6837, "eness": 6838, "third ": 6839, "o and ": 6840, "western": 6841, "et and ": 6842, "attered ": 6843, "en and ": 6844, "mas": 6845, "notice ": 6846, "mistak": 6847, "of a c": 6848, "Ah, ": 6849, "hundred ": 6850, ", but the ": 6851, "to him ": 6852, "OM": 6853, "lur": 6854, "chan": 6855, "Prince ": 6856, "me and ": 6857, "glance ": 6858, "lot": 6859, "hot": 6860, "Wher": 6861, "energ": 6862, " Ar": 6863, " small ": 6864, "worn": 6865, "which I": 6866, "dra": 6867, "went on": 6868, "nothing, ": 6869, " us": 6870, "I\u2014": 6871, "bad ": 6872, "ing ac": 6873, "cess ": 6874, "mark ": 6875, "eleph": 6876, "s; the ": 6877, "ipel": 6878, "associ": 6879, "wrot": 6880, "Norweg": 6881, "ugust ": 6882, "feder": 6883, "-sc": 6884, "subject ": 6885, "a P": 6886, "British ": 6887, "; yet ": 6888, "life, ": 6889, "stay ": 6890, " pra": 6891, "palm": 6892, " clos": 6893, "beheld ": 6894, "dat ": 6895, "eason ": 6896, "pupil": 6897, "\n\n\nCHAPTER C": 6898, "population ": 6899, "Nether": 6900, "reform": 6901, "she could ": 6902, "Channel": 6903, "208": 6904, "417": 6905, "769": 6906, "313": 6907, "107": 6908, "690": 6909, "1993": 6910, "Of course ": 6911, "fruit, ": 6912, "Atlantic Ocean\n": 6913, "emal": 6914, "2,4": 6915, "% other; includes NEGL% irrigated\n\nEnvironment: ": 6916, "a, K": 6917, "only party--": 6918, "1993);\nresults--": 6919, "DB--Islamic ": 6920, ", WFTU": 6921, "\n\nFlag: three equal horizontal bands of ": 6922, "3.5": 6923, "% (1989 est.)\n\nInflation rate (consumer prices): ": 6924, "% Muslim, ": 6925, "president ": 6926, "NA%": 6927, "NA%\n\n": 6928, " km electrifi": 6929, "NA\n\nIndustrial production: growth rate NA%\n\nElectricity: ": 6930, "6% ": 6931, "Party": 6932, "6.": 6933, "NA\n----------------------------------------------------\nCountry:  ": 6934, "$) per US$1--": 6935, " km2; includes ": 6936, "prime minister, Cabinet": 6937, ");\nresults--": 6938, " civil law system": 6939, "*, ": 6940, "DB": 6941, ";\nthere are ": 6942, " 4": 6943, "a;\n": 6944, ", Al": 6945, "developed ": 6946, "0.9": 6947, "--last held on ": 6948, "IV": 6949, "quir": 6950, "Sur": 6951, "lear": 6952, "consum": 6953, "dust": 6954, "ification": 6955, ".\nH": 6956, "pig": 6957, " these\n": 6958, "viv": 6959, "whales": 6960, "eth": 6961, "is that ": 6962, "tless ": 6963, "Commonweal": 6964, "arpoone": 6965, "length ": 6966, "being": 6967, "able s": 6968, "them\n": 6969, "ior ": 6970, "amm": 6971, "floating ": 6972, "shark": 6973, "forty ": 6974, "possess": 6975, "opportun": 6976, "Where ": 6977, "nine ": 6978, "perhap": 6979, "slowly ": 6980, "reef": 6981, "noon": 6982, "? What ": 6983, "es of\n": 6984, "wedd": 6985, "it? ": 6986, "ilver": 6987, "arc": 6988, "grasp": 6989, "about": 6990, "infl": 6991, "xim": 6992, "second ": 6993, "formed ": 6994, "usion": 6995, "ceive ": 6996, "ies of ": 6997, "gradu": 6998, " particular": 6999, "hour ": 7000, "rant ": 7001, "Paul": 7002, "ist, ": 7003, " the": 7004, "exas": 7005, "ish\n": 7006, "wrink": 7007, "gin": 7008, "mount": 7009, "vig": 7010, "whirl": 7011, "bed, ": 7012, " hard ": 7013, " keep": 7014, "ell ": 7015, "looking at ": 7016, "double ": 7017, "whale. ": 7018, "kin": 7019, "inner": 7020, "completely ": 7021, "it was not ": 7022, "you s": 7023, "bent ": 7024, "ances, ": 7025, "at this ": 7026, "touch ": 7027, "yet, ": 7028, "Mediterran": 7029, "England": 7030, "bottom ": 7031, ".\n\nAnd ": 7032, "surpris": 7033, "several ": 7034, "yester": 7035, "in his\n": 7036, "maritime ": 7037, "provid": 7038, "main-": 7039, "cen": 7040, "helm": 7041, "gang": 7042, "eed ": 7043, " says the ": 7044, "uggl": 7045, "they are ": 7046, "ies and ": 7047, "some\n": 7048, " port": 7049, "father\u2019s ": 7050, "coc": 7051, "arrow": 7052, "jest": 7053, "dign": 7054, "mention": 7055, "wondrous ": 7056, "grown": 7057, "issu": 7058, "Perhaps ": 7059, "carry": 7060, "; and, ": 7061, " hard": 7062, "best": 7063, "human": 7064, "alf": 7065, "away, ": 7066, "had been\n": 7067, "in her": 7068, "push": 7069, "long as ": 7070, "oppos": 7071, "oon ": 7072, "ive s": 7073, "Nam": 7074, "with that ": 7075, "poss": 7076, "imper": 7077, "Starbuck, ": 7078, "sound ": 7079, "Dutch ": 7080, "e such": 7081, "Tashte": 7082, "an C": 7083, "to me, ": 7084, "oy ": 7085, "enter ": 7086, "he is ": 7087, "extern": 7088, "OOK": 7089, " them, ": 7090, "eur": 7091, "started ": 7092, "before\n": 7093, "hoist": 7094, "\u2019Tis ": 7095, "down and ": 7096, "I heard ": 7097, "North": 7098, "Austri": 7099, "white, ": 7100, "bin": 7101, "lands, ": 7102, "medi": 7103, " done ": 7104, "Barb": 7105, "e!\u201d\n\n": 7106, "provinc": 7107, "Ash": 7108, "ulture": 7109, "Indian Ocean\n": 7110, "es.\u201d\n\n\u201c": 7111, "ommunication": 7112, "; there is a ": 7113, "declin": 7114, "able to ": 7115, "a, B": 7116, "forgot ": 7117, "April": 7118, "i,\n": 7119, "427": 7120, "889": 7121, "886": 7122, "668": 7123, "414": 7124, "676": 7125, "725": 7126, "736": 7127, "1960": 7128, "Territory ": 7129, "Singap": 7130, "7 ": 7131, "ECD": 7132, " (FY": 7133, "lead, ": 7134, ")\n\nJudicial branch: Supreme Cour": 7135, "ate--last held ": 7136, "1988 (next to be held ": 7137, ", WSG": 7138, "gas ": 7139, " est.)\n\nIndustrial production: growth rate ": 7140, "3.0": 7141, "1 January ": 7142, "ministrat": 7143, "Front (": 7144, "\n\nSuffrage: universal at age 18\n\nElections:\nPresident--last held ": 7145, ", FAO, G-77, GATT": 7146, "ervice ": 7147, "1,8": 7148, "% other\n\nReligion: ": 7149, "), J": 7150, "2.9": 7151, "British monarch, ": 7152, "Council (": 7153, "white band": 7154, "% (1988)\n\nInflation rate (consumer prices): ": 7155, "\n\nComparative area: slightly ": 7156, "Deputy Prime Minister ": 7157, "MF": 7158, "frigerated cargo, ": 7159, "\n\nDefense expenditures: ": 7160, "; there are ": 7161, "\n\nLeaders:\nChief of State--": 7162, "Consulates General in ": 7163, "San Francisco": 7164, "% arable land; 1% permanent crops; ": 7165, "forestry": 7166, "\n\nElections:\nPresident--last held ": 7167, "2.4": 7168, "FAO, G-77, GATT": 7169, " million; ": 7170, "center": 7171, "O, IDA,\nI": 7172, " Atlantic Ocean\n": 7173, "I warn\u2019t ": 7174, "y-and-": 7175, "\u2019n ": 7176, "I reckon": 7177, "ents": 7178, "HAPTER": 7179, "Ram": 7180, "set": 7181, "Town": 7182, "Reg": 7183, "ountain": 7184, "* ": 7185, "thank": 7186, "among ": 7187, "ouch": 7188, "ing on": 7189, "oop": 7190, "animal": 7191, "es\nand ": 7192, "roar": 7193, "wake ": 7194, "Eli": 7195, "different ": 7196, "\n\n\nC": 7197, "trong": 7198, "with her": 7199, "abs": 7200, "plung": 7201, "onder ": 7202, "cook": 7203, "no one ": 7204, "into the\n": 7205, "ocial ": 7206, "enough to ": 7207, "inqu": 7208, ".\n\nIt ": 7209, "ght ": 7210, "Cz": 7211, "decid": 7212, " seat": 7213, "eet": 7214, "address": 7215, "desir": 7216, "private ": 7217, "business": 7218, "oot ": 7219, "tell you ": 7220, " to m": 7221, "cord": 7222, "at that ": 7223, "must have ": 7224, "him, and ": 7225, "appro": 7226, " at the\n": 7227, " out": 7228, "whatever": 7229, "odd ": 7230, "dar": 7231, "re-": 7232, "walk ": 7233, " without ": 7234, "why, ": 7235, "No ": 7236, ", where ": 7237, "lain": 7238, "ription": 7239, " contain": 7240, "one, and ": 7241, "little": 7242, "tom ": 7243, "a, and ": 7244, "smil": 7245, "all in ": 7246, "er than ": 7247, "with s": 7248, " again, ": 7249, "; but\n": 7250, "occupied ": 7251, "woman, ": 7252, "I know ": 7253, "High": 7254, "on,\n": 7255, "buck": 7256, "torn": 7257, "ouse ": 7258, "ed that the ": 7259, "wom": 7260, "comb": 7261, "clam": 7262, "ing along": 7263, "ral ": 7264, "net": 7265, "this was ": 7266, "_\u2014": 7267, "! The ": 7268, ",\nand the ": 7269, "hither": 7270, "vin": 7271, "during ": 7272, "ed their": 7273, "Lord": 7274, "Dur": 7275, " between ": 7276, "Stubb, ": 7277, "ripp": 7278, "terror": 7279, "forget ": 7280, "inclin": 7281, "ctic ": 7282, ". Y": 7283, "April ": 7284, ".\n\nF": 7285, "ivision": 7286, "atta": 7287, "local": 7288, "boat\u2019s ": 7289, " pull": 7290, "neigh": 7291, "ubject ": 7292, " strong": 7293, "minute ": 7294, "ing-room": 7295, "I shall ": 7296, "countri": 7297, "rol": 7298, " believ": 7299, " dur": 7300, "atu": 7301, "bour": 7302, "you don\u2019t ": 7303, "it out ": 7304, "islands ": 7305, "AY": 7306, "of course ": 7307, "gold, ": 7308, "acts ": 7309, " can\u2019t ": 7310, "718": 7311, "713": 7312, "605": 7313, "468": 7314, "269": 7315, "317": 7316, "224": 7317, "409": 7318, "778": 7319, "705": 7320, "614": 7321, "712": 7322, "670": 7323, "620": 7324, "299": 7325, "424": 7326, "\n Chapter ": 7327, "Mr. Darl": 7328, "married ": 7329, "?\u201d\n\n\u201cWell, ": 7330, "Tootl": 7331, "Niger": 7332, "Panam": 7333, "Tob": 7334, "Yemen": 7335, "based on": 7336, "republic": 7337, "illicit ": 7338, "USSR ": 7339, "% construction": 7340, "is the only party;\nseats--(": 7341, ", CCC, C": 7342, ";\nChancery at ": 7343, "fertiliz": 7344, " km total": 7345, "\n\nNote: strategic loc": 7346, "3.8": 7347, "2.3": 7348, "MF, I": 7349, "products ": 7350, "1 Indian Ocean INTELSAT": 7351, "ector ": 7352, "\n\nTelecommunications: ": 7353, "centered in the ": 7354, "five-pointed star": 7355, "(plural--": 7356, "francs (": 7357, "; stations--": 7358, "zone: 200 nm;\n\nTerritorial sea: ": 7359, "bauxite, ": 7360, "Queen ELIZABETH II (since 6 February 1952": 7361, "Alli": 7362, "commodities--": 7363, "tourism, ": 7364, "1989 (next to be held ": 7365, "4,0": 7366, "refined ": 7367, "10% ": 7368, "-88": 7369, " km gravel, ": 7370, "CC": 7371, "                     ": 7372, " (US Consulate General)": 7373, "_is": 7374, "I reckon ": 7375, "I says:\n\n\u201c": 7376, "I\n Chapter ": 7377, "labour": 7378, "Talboth": 7379, "HAL": 7380, "Aff": 7381, ", to ": 7382, "at least": 7383, "go\n": 7384, "Gen": 7385, "wound": 7386, "Que": 7387, "modern": 7388, "chanc": 7389, "Here ": 7390, "irc": 7391, "Green": 7392, "71": 7393, "coast ": 7394, "charg": 7395, "erson": 7396, ". (_": 7397, " self": 7398, ",\n    ": 7399, "age\n": 7400, "atter ": 7401, "ed in the\n": 7402, "o-": 7403, "; but the ": 7404, "able": 7405, "growing ": 7406, "or other": 7407, "Hook ": 7408, "jud": 7409, "to say ": 7410, "spar": 7411, " down the ": 7412, "why": 7413, "ed to s": 7414, "a very ": 7415, "bag": 7416, "e to ": 7417, "from that ": 7418, "quiet ": 7419, "ies; ": 7420, " place ": 7421, "Eng": 7422, "nerv": 7423, "indefin": 7424, "a strang": 7425, "ing over ": 7426, "lips ": 7427, "ellow": 7428, "riot": 7429, "favor": 7430, "with them": 7431, "org": 7432, "mult": 7433, "ready": 7434, "ing st": 7435, "at the\n": 7436, " break": 7437, ".\nA": 7438, "damp": 7439, "I b": 7440, "oward": 7441, "eck": 7442, "or d": 7443, "hib": 7444, "of it ": 7445, "ing.\n\n\u201c": 7446, "sens": 7447, "a\ns": 7448, " so much": 7449, "for\nthe ": 7450, "requir": 7451, "orous ": 7452, "well as ": 7453, "into his ": 7454, "drawn": 7455, "tast": 7456, "Malay": 7457, "corner": 7458, "bright": 7459, "ummer": 7460, "ulous ": 7461, "fid": 7462, "aye, ": 7463, "no mean": 7464, "ial\n": 7465, " above ": 7466, "Vic": 7467, ". From": 7468, "ation and ": 7469, ". \u2018": 7470, "prison": 7471, " as he ": 7472, "imple ": 7473, "mom": 7474, "_me": 7475, "gently ": 7476, " count": 7477, "way of ": 7478, "mild ": 7479, "tip": 7480, "before, ": 7481, "goat": 7482, "net ": 7483, "ght": 7484, " that they ": 7485, "to their ": 7486, "knows ": 7487, "trees ": 7488, "Are ": 7489, "has": 7490, "steam": 7491, "in a c": 7492, "variet": 7493, "sperm ": 7494, "ile\n": 7495, ". A ": 7496, "loose ": 7497, "heavily ": 7498, "s. I": 7499, "Captain Ahab": 7500, "horizon": 7501, "deem": 7502, "nap": 7503, "doubl": 7504, "for that ": 7505, "did\n": 7506, "the sam": 7507, "; it ": 7508, "a great ": 7509, "urch ": 7510, "somebody ": 7511, "ibil": 7512, "peri": 7513, "ed about ": 7514, "off, ": 7515, "blind": 7516, "liber": 7517, "! And ": 7518, "consid": 7519, "atural ": 7520, " shall": 7521, ",\nB": 7522, "take the ": 7523, ", and so": 7524, "Alger": 7525, "July ": 7526, "requ": 7527, "lovely ": 7528, "ization": 7529, "Miss": 7530, "cry ": 7531, "trade wind": 7532, "problem": 7533, "home": 7534, " cried ": 7535, "There\u2019s ": 7536, "uggest": 7537, "across the ": 7538, "zon": 7539, "till\n": 7540, " kind ": 7541, " believe ": 7542, "ing around ": 7543, "territorial": 7544, "woods ": 7545, "-w": 7546, "icip": 7547, "e\n(": 7548, "enterpris": 7549, "rug": 7550, "Tun": 7551, "for c": 7552, "want to ": 7553, "423": 7554, "744": 7555, "369": 7556, "885": 7557, "675": 7558, "717": 7559, "412": 7560, "609": 7561, "358": 7562, "246": 7563, "labor ": 7564, "tir": 7565, ". Why, ": 7566, "BR": 7567, "lovak": 7568, "Dominic": 7569, "Bank ": 7570, "Nic": 7571, "Seneg": 7572, "itzer": 7573, "Trinid": 7574, "organization": 7575, "New Zealand": 7576, "cultiv": 7577, "15,": 7578, " provinces (": 7579, " (from UK)\n\nConstitution: ": 7580, "producer of ": 7581, "M,\n": 7582, " district": 7583, "t\n\nLeaders:\nChief of State--President ": 7584, "economy, ": 7585, "Jewish": 7586, "\n\nClimate: temper": 7587, "franc (plural--franc": 7588, "network": 7589, "red (top": 7590, ", sugar": 7591, "\n\nLegal system: based on English common law": 7592, "\n\nLand use: 0% arable land; 0% permanent crops; 0": 7593, "consists of an ": 7594, " million,\nincluding capital expenditures of $": 7595, "times the size of ": 7596, "pollution": 7597, "2.8": 7598, "Workers'": 7599, "in north": 7600, "Chicago, ": 7601, "export earning": 7602, "accounts for about ": 7603, "% (1987": 7604, "5% ": 7605, "Development ": 7606, " with permanent-surface runways;\nnone with runways over 3,659 m; 1 ": 7607, "two-third": 7608, "Marian ": 7609, "Aunt S": 7610, "VII": 7611, "key": 7612, "Bud": 7613, "ief": 7614, " prom": 7615, "pleasant ": 7616, "; and he ": 7617, "Old ": 7618, "ais": 7619, "earth ": 7620, "Very ": 7621, "years, ": 7622, "illy ": 7623, "head, and ": 7624, "Ed": 7625, "suppos": 7626, "afraid ": 7627, "Gaz": 7628, "ios": 7629, "indirec": 7630, "ing. ": 7631, "emer": 7632, "ING": 7633, "icular ": 7634, "interest ": 7635, "es, and\n": 7636, "flour": 7637, " throw": 7638, "bulwar": 7639, "voyage ": 7640, "it all": 7641, "fowl": 7642, "som": 7643, "for my ": 7644, "quarter-": 7645, "sailor": 7646, "like this": 7647, "ias": 7648, "what is ": 7649, "conce": 7650, "e. It was ": 7651, "grap": 7652, "nel": 7653, " house ": 7654, "on bo": 7655, "finish": 7656, "ubber": 7657, "shadow": 7658, "ry, ": 7659, "rant": 7660, "long-": 7661, "harpo": 7662, "of such": 7663, "ing.\n\n": 7664, "\u2014not ": 7665, "occupi": 7666, "manner": 7667, "company ": 7668, "resolv": 7669, "with their": 7670, "wond": 7671, "of the sea": 7672, "current ": 7673, "brok": 7674, "comfortable ": 7675, "trying to ": 7676, "lot of ": 7677, "New Zeal": 7678, "s.\u201d\n\n": 7679, " here, ": 7680, "went": 7681, "eye": 7682, "furnit": 7683, " had been ": 7684, "being s": 7685, "wards the ": 7686, "fall ": 7687, ";\nbut ": 7688, "se\n": 7689, "twist": 7690, " add": 7691, "sman": 7692, "tell him": 7693, " un": 7694, "ly,\n": 7695, "maintain": 7696, "ious, ": 7697, "ed upon": 7698, "ld": 7699, "me. ": 7700, "ufficiently ": 7701, "first time ": 7702, "trick": 7703, "with a p": 7704, "terr": 7705, "! But ": 7706, "does not ": 7707, "; as ": 7708, " ho": 7709, "Jack": 7710, "uccess": 7711, "certain ": 7712, "lot ": 7713, "ing to\n": 7714, ", as he ": 7715, "Jud": 7716, "fif": 7717, "popular": 7718, "we could ": 7719, "made me ": 7720, "for me ": 7721, " kind": 7722, "impos": 7723, "dash": 7724, "more s": 7725, "no, ": 7726, "ure\n": 7727, "money": 7728, "went\n": 7729, "so, ": 7730, "ates": 7731, "fil": 7732, "up to ": 7733, "_you": 7734, "eli": 7735, "rick ": 7736, "of her\n": 7737, "oung": 7738, "broad": 7739, " about\n": 7740, "ily\n": 7741, "bad": 7742, "my": 7743, "ember ": 7744, "onom": 7745, "going": 7746, "whole\n": 7747, " stand ": 7748, "ly and ": 7749, "nect": 7750, " mov": 7751, "whisk": 7752, "thern": 7753, "got": 7754, "Australi": 7755, "total": 7756, "local ": 7757, "Az": 7758, "s. \u201c": 7759, "measur": 7760, "defin": 7761, "-and-": 7762, "), C": 7763, "hu": 7764, "outhern ": 7765, " to the\n": 7766, "party": 7767, "Africa ": 7768, "ite s": 7769, "an-": 7770, ",\u201d he s": 7771, "flank": 7772, "CH": 7773, "ine": 7774, "ans ": 7775, "Europe, ": 7776, "whoop": 7777, "drif": 7778, "pump": 7779, "maybe ": 7780, "later": 7781, "exchange ": 7782, "Lak": 7783, "for you": 7784, "watched ": 7785, "Northern": 7786, "domest": 7787, "flush": 7788, "go and ": 7789, "ired": 7790, "a new": 7791, "valley": 7792, " mountain": 7793, "DE": 7794, "Port": 7795, "get\n": 7796, "corner ": 7797, "419": 7798, "398": 7799, "322": 7800, "349": 7801, "719": 7802, "298": 7803, "779": 7804, "737": 7805, "168": 7806, "406": 7807, "348": 7808, "456": 7809, ",\u201d Wendy ": 7810, "Liz": 7811, "Nib": 7812, "folk": 7813, "Ichab": 7814, "Ric": 7815, "aic": 7816, "United Nations ": 7817, "1 J": 7818, " pric": 7819, "national": 7820, "none--landlocked\n\nMaritime claims: none--landlocked": 7821, "% industry, ": 7822, "Committ": 7823, ",\nU": 7824, "US--": 7825, ", including ": 7826, "\n\nIllicit drugs: ": 7827, "Police ": 7828, "Alban": 7829, "Workers ": 7830, ")\n\nMember of": 7831, "\n\nPipelines: crude oil, ": 7832, "5 ": 7833, "1 years ": 7834, "Arabic": 7835, "a, S": 7836, "effective ": 7837, ", NAM, O": 7838, "Islam": 7839, " dinar": 7840, ") = 100 centimes\n\nExchange rates: ": 7841, " (J": 7842, " bulk, ": 7843, "\n\nAdministrative divisions: none (": 7844, "High C": 7845, "1990);\nresults--": 7846, "icraft": 7847, "\n\nFiscal year: ": 7848, "\n\n- Defense Forces\nNote: defense is the responsibility of the ": 7849, "\n\nFlag: three ": 7850, "cassav": 7851, " km2\n\nComparative area: about ": 7852, "3 nm": 7853, "force": 7854, "Conserv": 7855, "e\n\nHighways: ": 7856, "* (": 7857, "Force, ": 7858, "C, ICA": 7859, "3.2": 7860, "6 ": 7861, "APO New York 0": 7862, "MO, I": 7863, "; formerly ": 7864, " Hu": 7865, "; about ": 7866, "usable; ": 7867, "; soil erosion": 7868, "fish catch": 7869, " Clar": 7870, " billion (f.o.b., 1988); commodities--": 7871, "rael": 7872, "I wouldn\u2019t ": 7873, ", and says:\n\n\u201c": 7874, "vill": 7875, "IX": 7876, "ory\n": 7877, "erch": 7878, "gay ": 7879, "Dan": 7880, "uth": 7881, "sad": 7882, ":\n": 7883, "IG": 7884, "aim": 7885, "Ann": 7886, "a C": 7887, "at his ": 7888, "that is ": 7889, "gate ": 7890, "ife ": 7891, "-c": 7892, "attack": 7893, "shor": 7894, "es, but ": 7895, "year ": 7896, "s his ": 7897, "enormous ": 7898, "on board ": 7899, "weal": 7900, "an\u2019s ": 7901, "ships ": 7902, "gal": 7903, "cher": 7904, "iter": 7905, "lak": 7906, "the most ": 7907, "for s": 7908, "travel": 7909, " thousand ": 7910, "esides, ": 7911, "sch": 7912, "when I ": 7913, "Do you": 7914, "crim": 7915, "Pat": 7916, "truck": 7917, "in a m": 7918, "econ": 7919, "outer": 7920, " kept ": 7921, "craft": 7922, " would ": 7923, "resembl": 7924, "subject": 7925, "entered ": 7926, "about\n": 7927, "I never ": 7928, "ffl": 7929, "even\n": 7930, "announc": 7931, " sor": 7932, "throw": 7933, "could be ": 7934, "ouldn\u2019t ": 7935, "es,\nand ": 7936, ", and that ": 7937, "otherwise ": 7938, "a S": 7939, " busin": 7940, " a moment": 7941, "ing, but ": 7942, "save ": 7943, "yellow ": 7944, "extraordinary ": 7945, "took the ": 7946, "New Zealand ": 7947, "ed and\n": 7948, "attention": 7949, "jur": 7950, "motion": 7951, " circ": 7952, "wra": 7953, "\u2014but ": 7954, "quickly ": 7955, "plainly ": 7956, "looks ": 7957, "we were ": 7958, "it,\n": 7959, "estim": 7960, "aughter": 7961, "orm": 7962, "RT": 7963, "Who ": 7964, " among the ": 7965, "Sand": 7966, "Me": 7967, "approach": 7968, "enjoy": 7969, "burst ": 7970, "wret": 7971, "?\u2019": 7972, "\u2019st ": 7973, "aris": 7974, "indiffer": 7975, "we went ": 7976, " into ": 7977, "ushed ": 7978, "ations, ": 7979, "merely ": 7980, "on the other": 7981, "by, ": 7982, "ed out": 7983, "there, and ": 7984, "desper": 7985, ". Now": 7986, "craw": 7987, "again, ": 7988, "hunter": 7989, "; so that ": 7990, "a coup": 7991, "chance": 7992, "typh": 7993, "at\nthe ": 7994, "should be ": 7995, "of all": 7996, "with some ": 7997, "one,\n": 7998, "undred": 7999, " there\u2019s ": 8000, "ympath": 8001, " contin": 8002, "s about ": 8003, " mur": 8004, "so as ": 8005, "uneas": 8006, "arily ": 8007, "all of ": 8008, "reckoned ": 8009, "any other ": 8010, "coil": 8011, "ing off": 8012, "umber": 8013, "ooth": 8014, "Wat": 8015, "Peru": 8016, ", in the ": 8017, "e.\n\nThe ": 8018, "omet": 8019, ". They were ": 8020, "shap": 8021, "cruis": 8022, " below": 8023, "nar": 8024, "says ": 8025, "edge of the ": 8026, "Will": 8027, "separ": 8028, "OL": 8029, "tit": 8030, " combination": 8031, "round and ": 8032, "ency": 8033, "convers": 8034, "shut ": 8035, "nic": 8036, "He s": 8037, "ers,\n": 8038, "mine ": 8039, "from its ": 8040, "ago ": 8041, "Solom": 8042, "happy ": 8043, "\nB": 8044, "material": 8045, "tor ": 8046, "lover": 8047, "Portuguese ": 8048, "we\u2019d ": 8049, "yri": 8050, "gue, ": 8051, "a min": 8052, "377": 8053, "324": 8054, "458": 8055, "758": 8056, "389": 8057, "306": 8058, ".\u201d\n\n\u201cYou": 8059, " he said": 8060, "Chair": 8061, "Her ": 8062, "river, ": 8063, "Ba": 8064, "Belgium": 8065, "echos": 8066, "jibout": 8067, "Strip": 8068, "issa": 8069, "Ur": 8070, "Executive ": 8071, " seats ": 8072, "ternational ": 8073, "% a": 8074, ",\nK": 8075, "National Assembly (": 8076, "NW, Washington DC 20008": 8077, "one-third ": 8078, "food and ": 8079, "fruits, ": 8080, "Force ": 8081, "copper, ": 8082, "judicial review of ": 8083, "WT; includes ": 8084, "with runways ": 8085, " with runways\n1,220-2,439 m\n\nTelecommunications: ": 8086, " km\n\nMaritime claims:\n\nContiguous zone: 12 nm;": 8087, ")\n\nFlag": 8088, "olitical part": 8089, "European ": 8090, " coastal": 8091, "Movement ": 8092, " (de facto": 8093, "equipment ": 8094, "tlantic Ocean INTELSAT": 8095, " km\n\nMaritime claims:\n\nContinental shelf: 200 meters or to depth of exploitation;": 8096, "Party\n(": 8097, "4.5": 8098, "$) = 100 cents\n\nExchange rates: ": 8099, "0% forest and woodland; 100": 8100, ";\ntelephone (202) ": 8101, "2.1": 8102, "a, M": 8103, "AHO": 8104, " (including ": 8105, "upper ho": 8106, "wage ": 8107, "% manufactur": 8108, "reservations": 8109, " reach military age (": 8110, "3% ": 8111, "3,0": 8112, "SP": 8113, " Massachusetts Avenue ": 8114, " km 1.435-meter standard gaug": 8115, "% (1988)\n\nElectricity: ": 8116, " births/1,000 population (1990)\n\nDeath rate: 7": 8117, "NR": 8118, "%; ": 8119, ", INTERPOL, IPU, I": 8120, "carrier, ": 8121, "\n\nLabor force: ": 8122, "gray ": 8123, "         ": 8124, "US Consular Agency)": 8125, "wuz": 8126, ",\u201d I": 8127, "\n\nT": 8128, "oom": 8129, "Queen ": 8130, "allah": 8131, "bat": 8132, "Cast": 8133, "Del": 8134, "remind": 8135, "PE": 8136, "-S": 8137, " prof": 8138, "Thou": 8139, "whom ": 8140, "\nun": 8141, "e shall": 8142, "Lord ": 8143, "waves ": 8144, "yards ": 8145, "proph": 8146, "er was ": 8147, "bid": 8148, "armac": 8149, ", had ": 8150, "ful\n": 8151, "near the ": 8152, "t\u2019s ": 8153, "gard": 8154, "mud": 8155, "then\n": 8156, " nam": 8157, "carry ": 8158, " boat": 8159, "Nantuck": 8160, "ooper": 8161, "10,": 8162, "whale\n": 8163, "s!": 8164, "thousand ": 8165, "being\n": 8166, "on and ": 8167, "Ret": 8168, "Ter": 8169, "crowd": 8170, "like s": 8171, "s from ": 8172, "en; ": 8173, "owned": 8174, "ing a s": 8175, "Egypt": 8176, " comp": 8177, "ences ": 8178, "long time ": 8179, " between": 8180, "New Bed": 8181, "pack": 8182, "eap": 8183, "low, ": 8184, ",\u201d and ": 8185, " hundred ": 8186, "gn": 8187, " poss": 8188, "ociet": 8189, "understand": 8190, "clus": 8191, "stop": 8192, "opposite ": 8193, "central ": 8194, "chimn": 8195, "to\ns": 8196, "ches ": 8197, " bad ": 8198, "market": 8199, "rung": 8200, "duty ": 8201, "stuff": 8202, "! S": 8203, "at of ": 8204, "ently, ": 8205, "pag": 8206, " bound": 8207, " sleep": 8208, "cul": 8209, "han": 8210, "nec": 8211, "ollar": 8212, "character ": 8213, ", un": 8214, ". Not ": 8215, ", as if ": 8216, "Off": 8217, "the only ": 8218, "scarc": 8219, "old man ": 8220, "winter ": 8221, "on to ": 8222, "Gibral": 8223, "can be ": 8224, "less\n": 8225, "need ": 8226, "ide, ": 8227, "obvi": 8228, "drun": 8229, " consc": 8230, " comes ": 8231, "knew that ": 8232, "inted ": 8233, "mort": 8234, "s. And ": 8235, "any mor": 8236, "liked ": 8237, " of his ": 8238, "fitt": 8239, "mild": 8240, "boom": 8241, "settl": 8242, "its, ": 8243, "ull ": 8244, ", if ": 8245, "master": 8246, "to pro": 8247, " shark": 8248, "it?\u201d\n\n\u201c": 8249, "by this ": 8250, "concent": 8251, "exha": 8252, " complet": 8253, "dut": 8254, "company": 8255, " cre": 8256, "start ": 8257, " for the ": 8258, "lady": 8259, "hog": 8260, "rapidly ": 8261, "trap": 8262, "Did ": 8263, "directly ": 8264, " Con": 8265, " provinc": 8266, " disc": 8267, "ufacture": 8268, "blem": 8269, "provides ": 8270, " he said ": 8271, "as an ": 8272, "surface ": 8273, "altern": 8274, "mid-": 8275, "tied ": 8276, "Because ": 8277, "Bang": 8278, "been d": 8279, "corp": 8280, "Abra": 8281, "monarch": 8282, "then the ": 8283, " course ": 8284, "Gulf": 8285, "vehicle ": 8286, "impression": 8287, "grown ": 8288, "ness and ": 8289, "this time ": 8290, "pt ": 8291, "are you": 8292, "_him": 8293, "Hawai": 8294, "success": 8295, " mile ": 8296, "en d": 8297, "nurs": 8298, "cres": 8299, "Turkish": 8300, "Jul": 8301, "ritor": 8302, "she would ": 8303, "?\u201d asked ": 8304, "hydrop": 8305, "Tran": 8306, "Mary": 8307, " husband ": 8308, "669": 8309, "776": 8310, "798": 8311, "266": 8312, "156": 8313, "395": 8314, "296": 8315, "colour": 8316, "avig": 8317, "Fij": 8318, "Ku": 8319, "Liby": 8320, "Luxembourg": 8321, "awi": 8322, "zamb": 8323, "States\n": 8324, "Venezuel": 8325, "Zamb": 8326, "cannabis ": 8327, "i M": 8328, "5.0": 8329, "vice president": 8330, "1991);\nresults--": 8331, ", NA": 8332, "hoist side ": 8333, "sistence farm": 8334, " (fixed rat": 8335, "reach military age (": 8336, "; hot, ": 8337, "Trade Union": 8338, "compulsory ": 8339, "capital expenditures of NA": 8340, " (1989)\n\n": 8341, " km; refined products, ": 8342, "12 nm": 8343, "% industry and ": 8344, "% of labor force ": 8345, ")\n\nLeaders:\nChief of State--": 8346, "LZSG": 8347, " bands of ": 8348, "mining, ": 8349, " km 1.000": 8350, " submarine cabl": 8351, "House of Representatives": 8352, "based on the ": 8353, "Pacific Ocean INTELSAT": 8354, "negligible": 8355, "twice the size of ": 8356, "% (1988": 8357, "corn, ": 8358, " reach military age (18) annually\n\nDefense expenditures: ": 8359, ")\n\nLabor force: ": 8360, "\n\n- Economy\nOverview: The economy is ": 8361, "; desertification": 8362, "3,000": 8363, "Economic ": 8364, " telephon": 8365, "consumer goods, ": 8366, "\n\nLand boundaries: none\n\nCoastline: ": 8367, "independents ": 8368, " refin": 8369, " petroleum, oils, and lubricants (POL) tanker, ": 8370, "monsoon": 8371, "; Chanc": 8372, "Federation of ": 8373, "% (1989 est.)\n\nUnemployment rate: ": 8374, " relay": 8375, "DP ": 8376, "trade union": 8377, "\n\nOrganized labor: ": 8378, "electronic": 8379, "6.5": 8380, "Organ": 8381, "airy": 8382, "anyway": 8383, "they\u2019d ": 8384, "Vicar": 8385, "dairyman": 8386, "Mr Clar": 8387, "ness\n": 8388, "ster": 8389, "US, ": 8390, "aloft ": 8391, "gul": 8392, "igg": 8393, "pool": 8394, "narrat": 8395, "ity, and ": 8396, "let us ": 8397, "Mos": 8398, "in a p": 8399, "e of the ": 8400, "seemed to ": 8401, " themselves ": 8402, ".\n\n\u201cThe ": 8403, "expand": 8404, "vast": 8405, ". There is ": 8406, "\nto the ": 8407, "impossible ": 8408, "to meet ": 8409, "them, ": 8410, "strik": 8411, " be\n": 8412, "ato": 8413, "ousand": 8414, "antic ": 8415, "landscap": 8416, "vall": 8417, " because ": 8418, "I say": 8419, "do not ": 8420, "to be the ": 8421, "test": 8422, "elm": 8423, "or two ": 8424, ".\n\nAs ": 8425, "pocket": 8426, " towards ": 8427, "ather ": 8428, "queer": 8429, "from a ": 8430, "with my ": 8431, " Can": 8432, "drink": 8433, "mass": 8434, "invol": 8435, "visibl": 8436, "tu": 8437, "udder": 8438, "sed ": 8439, " settl": 8440, "any rat": 8441, "somewhat ": 8442, "at once ": 8443, "to sleep": 8444, "stranger": 8445, "bol": 8446, "to think": 8447, "less, ": 8448, " mad": 8449, "Sunday": 8450, "offer": 8451, "big ": 8452, "ether": 8453, "perfectly ": 8454, "antim": 8455, "light, ": 8456, "from him": 8457, "wife": 8458, "fixed ": 8459, "delic": 8460, "ity and ": 8461, "you might ": 8462, "refl": 8463, "admir": 8464, "coffee ": 8465, "glimp": 8466, " bes": 8467, "sweet ": 8468, "e:": 8469, "AND": 8470, "therefore, ": 8471, "I feel": 8472, "ed for the ": 8473, "living": 8474, " ben": 8475, "earli": 8476, "the bot": 8477, "Tar": 8478, "owl": 8479, "burg": 8480, "cargo": 8481, " hold ": 8482, "otion": 8483, "joy ": 8484, "ester": 8485, "tried to ": 8486, " priv": 8487, "for a s": 8488, "\u2014as ": 8489, "preced": 8490, "come\n": 8491, "vot": 8492, "surround": 8493, "affair": 8494, "ed in a ": 8495, "ed\nto ": 8496, "\u2014that\u2019s ": 8497, ". I have ": 8498, "agger": 8499, "figure": 8500, "ousand ": 8501, "advant": 8502, "lovel": 8503, "incor": 8504, " something": 8505, " been ": 8506, " part ": 8507, "incip": 8508, "inside ": 8509, "notion": 8510, "it, but ": 8511, "sak": 8512, "from her": 8513, "\u2019v": 8514, "ing, \u201c": 8515, "weet": 8516, "on\u2019t ": 8517, "; it was ": 8518, "Ben": 8519, "QU": 8520, ". Un": 8521, "horse": 8522, "ers of ": 8523, "Daggoo": 8524, "emotion": 8525, "ina": 8526, ".\u201d\n\nS": 8527, "Am": 8528, "it would be ": 8529, "shout": 8530, "tal ": 8531, "ached ": 8532, "ceas": 8533, "regular ": 8534, "ity is ": 8535, ". Their": 8536, "y: ": 8537, "ince\n": 8538, "olitical": 8539, "intend": 8540, "central": 8541, "had a ": 8542, "no n": 8543, "are not ": 8544, "abandon": 8545, "s), ": 8546, "forgotten": 8547, "New Guinea": 8548, "constitutional": 8549, ", and it ": 8550, "each other ": 8551, "remember ": 8552, "\n\n\u201c\u2018": 8553, "plann": 8554, "you get ": 8555, " and s": 8556, "estimated ": 8557, " a minut": 8558, "younger ": 8559, "minor": 8560, "e with ": 8561, "ahar": 8562, "cle ": 8563, " dear": 8564, "Antill": 8565, "Pen": 8566, "murm": 8567, "DS": 8568, "umber ": 8569, "724": 8570, "698": 8571, "888": 8572, "396": 8573, "559": 8574, "755": 8575, "640": 8576, " John": 8577, "star ": 8578, "Stark": 8579, "rode ": 8580, "ondur": 8581, "Hung": 8582, "Kir": 8583, "Zimbab": 8584, "ity (": 8585, "ethn": 8586, "lan, ": 8587, "\n\nMember of: ADB": 8588, "ESCAP": 8589, ", FAO, G-77": 8590, "a ma": 8591, "% irrigated\n\nEnvironment: subject ": 8592, "claims ": 8593, "agricultural": 8594, " km2\n\nComparative area: slightly less than ": 8595, " (official), ": 8596, "unicip": 8597, "financial": 8598, " billion (1988": 8599, "SAT": 8600, " est.)\n\nOrganized labor: ": 8601, ")\n\nIndependence: none (": 8602, "Council ": 8603, "ission ": 8604, " (January 1990), ": 8605, "customary law": 8606, "Force": 8607, "Anglic": 8608, "economy has ": 8609, " telephones;\n": 8610, "Japan ": 8611, ".  ": 8612, "24 nm;": 8613, "1994);\nresults--": 8614, " products ": 8615, " earth station\n\n- Defense Forces\nBranches: ": 8616, "Chamber of ": 8617, " (1987)\n----------------------------------------------------\nCountry:  ": 8618, ");\n1 ": 8619, "\n\n- Communications\n": 8620, "i (": 8621, "\n\nContinental shelf: 200 meters or to depth of exploitation;": 8622, "4% ": 8623, " (associ": 8624, "1 July-30 June": 8625, " combination ore/": 8626, "alumin": 8627, " 8": 8628, "industrial ": 8629, "labor force ": 8630, "11,": 8631, "shrimp": 8632, " DWT": 8633, "5%, ": 8634, " km double ": 8635, "it for m": 8636, "negoti": 8637, "FC, I": 8638, "December 1988": 8639, "pl.); adjective--": 8640, " of working a": 8641, "products--": 8642, "Independ": 8643, "% Muslim": 8644, "; satellite earth stations--": 8645, "D), ": 8646, "US Consulate)": 8647, "I reckoned ": 8648, "_was": 8649, "I knowed ": 8650, "\u2019ee ": 8651, "Clare\u2019s ": 8652, "Stre": 8653, "Christm": 8654, "Fed": 8655, "lask": 8656, "\u00e6": 8657, "By ": 8658, ". Her": 8659, "num": 8660, " possi": 8661, ", this ": 8662, "osph": 8663, "cup": 8664, "I might ": 8665, " draw": 8666, " sav": 8667, "I mean": 8668, " plant": 8669, "ild ": 8670, " hand, ": 8671, " polic": 8672, " never ": 8673, " thus ": 8674, "ld ": 8675, ", and so ": 8676, "esh": 8677, " with his ": 8678, " along": 8679, " mean ": 8680, "? S": 8681, "-of-": 8682, " at least ": 8683, ",\nthat ": 8684, " commer": 8685, "oast": 8686, "forest": 8687, "ipl": 8688, " a min": 8689, "(_": 8690, "clock": 8691, " SAILOR.\n": 8692, " stra": 8693, " domestic": 8694, "Grenad": 8695, "Den": 8696, " depend": 8697, " cargo": 8698, "Equator": 8699, "Greec": 8700, "ufficient ": 8701, "630": 8702, "476": 8703, "009": 8704, "625": 8705, "1994": 8706, "699": 8707, "I ought ": 8708, "Brun": 8709, "Denmark": 8710, ", Is": 8711, "Mic": 8712, ", San ": 8713, "Revolution": 8714, "EMA": 8715, " TV; ": 8716, "Army, ": 8717, "2,9": 8718, ", dry ": 8719, "% agriculture": 8720, ")\n\nJudicial branch: Supreme Court (": 8721, "electr": 8722, " passenger, ": 8723, "\n\n- Defense Forces\nBranches: Army, Navy, Air Force, ": 8724, "% indigenous ": 8725, "accounts for ": 8726, "Communist countries (1970-88), $": 8727, "1.067": 8728, "(top": 8729, "M, ": 8730, "-meter ": 8731, "ADB": 8732, "ELA": 8733, "Houst": 8734, "APO": 8735, "%\n(1989": 8736, " billion (c.i.f., 1989": 8737, "3.6": 8738, " crude oil": 8739, " accep": 8740, "FAO, GATT": 8741, "7-": 8742, "\n\nAid: donor--": 8743, ", UN, UNESCO, UPU, WFTU": 8744, "agric": 8745, "12,": 8746, "EU": 8747, " July (": 8748, " cargo,\n": 8749, "Army ": 8750, " est.)\n----------------------------------------------------\nCountry:  ": 8751, "percent of vote by party NA;\nseats--(": 8752, " with\nrunways 1,220-2,439 m\n\nTelecommunications: ": 8753, "Popul": 8754, "Court of Appeal": 8755, " km pav": 8756, "Democrac": 8757, "); note--": 8758, " passenger-": 8759, "                            ": 8760, ".\n\nCHAPTER ": 8761, "reckon ": 8762, "exic": 8763, "ey\n": 8764, "universal": 8765, " years ": 8766, "elin": 8767, " death": 8768, "terri": 8769, "iful": 8770, "chee": 8771, "ecut": 8772, "-met": 8773, "elec": 8774, "jurisdiction": 8775, "Social": 8776, "mbassad": 8777, "improved ": 8778, "% Roman Catholic": 8779, "Assembly (": 8780, ", CCC": 8781, "70-": 8782, "% arable land; 0% permanent crops; ": 8783, "Cons": 8784, "ivil law system": 8785, " with permanent-surface runway": 8786, "abinet": 8787, "NW, Washington DC 2000": 8788, "Consulates ": 8789, "$1": 8790, " countri": 8791, "Highways: ": 8792, "31 ": 8793, " monarch": 8794, "roll-on/roll-off": 8795, "ter-": 8796, "Levia": 8797, "Li": 8798, "Lab": 8799, "busin": 8800, "beh": 8801, "poin": 8802, "espec": 8803, "Antar": 8804, "anci": 8805, "ered in the ": 8806, "Geor": 8807, "ourc": 8808, "Nig": 8809, "Republ": 8810, "ministrative ": 8811, "urrenc": 8812, "MO, INTELSAT": 8813, ", UNESCO": 8814, "\n\n- Defense Forces\nNote: defense is the responsibil": 8815, ")\n\nLeaders:\nChief of ": 8816, "ist-": 8817, "NW, Washington DC": 8818, "president, ": 8819, "etroleum": 8820, "shore ": 8821, "leng": 8822, "fem": 8823, "establ": 8824, " betwe": 8825, "eop": 8826, "ither ": 8827, "mpath": 8828, "ity; ": 8829, "cham": 8830, "\u2019T": 8831, "uffici": 8832, "Braz": 8833, "based ": 8834, " accoun": 8835, "formerly ": 8836, "1991": 8837, "desertification": 8838, "Representativ": 8839, ", WTO": 8840, "lubricant": 8841, "no FM, ": 8842, "AEA": 8843, "Industrial production: growth rate ": 8844, "Economy\nOverview: ": 8845, "1990), ": 8846, " (1985)\n\nFiscal year: calendar year": 8847, ")\n\nM": 8848, "Ambassador ": 8849, "renc": 8850, "Mor": 8851, "entire": 8852, "ingt": 8853, "irth": 8854, "I\u2019": 8855, "utiful": 8856, "PEC": 8857, "refin": 8858, "eder": 8859, "constitution": 8860, "% servic": 8861, "1990)\n\n": 8862, ")\n----------------------------------------------------\nCountry:  ": 8863, "ICJ": 8864, "by party NA": 8865, ";\nseats--(": 8866, "equal horizontal bands of ": 8867, ", including\n": 8868, " million kWh produc": 8869, "\n\nEnvironment: subject ": 8870, "\n\n- Defense Forces\nBranches: Army, ": 8871, "onweal": 8872, ", WHO": 8873, " permanent-surface ": 8874, "US$1--": 8875, ", sing": 8876, "US Consulate General)": 8877, "arp": 8878, "Jon": 8879, "ulate ": 8880, "clin": 8881, "Chief": 8882, "arable ": 8883, "uliar": 8884, "ners": 8885, "gel": 8886, "Egyp": 8887, "Bild": 8888, "eet ": 8889, "undred ": 8890, " act": 8891, "lare ": 8892, "loy": 8893, "izontal": 8894, "gain ": 8895, "plural": 8896, "located ": 8897, "ufactur": 8898, "veget": 8899, "political ": 8900, "prime minist": 8901, ", UN, UNESCO": 8902, "based on ": 8903, "US Consulate ": 8904, "with runways over ": 8905, "y\n(": 8906, "liam": 8907, "-89": 8908, "zone: ": 8909, ") = 100 cents\n\nExchange rates: ": 8910, "Inland waterways: ": 8911, "\n\nMilitary manpower: ": 8912, "2,439 m": 8913, "Aven": 8914, "baux": 8915, "Oc": 8916, "Im": 8917, "icial": 8918, " population": 8919, "tended ": 8920, "ensive ": 8921, "Dep": 8922, "eleg": 8923, "opul": 8924, "minist": 8925, "twice ": 8926, "seat": 8927, "quest": 8928, " with\n": 8929, "reven": 8930, "ides, ": 8931, "gyp": 8932, "drug": 8933, "Yem": 8934, "landlocked": 8935, "cabinet)\n\nLegislative branch: ": 8936, "Prime Minister ": 8937, "Political parties and leaders: ": 8938, "expenditures $": 8939, "OPEC bilateral aid (1979-89), $": 8940, ", WMO": 8941, "Economy\nOverview": 8942, "%\n(": 8943, "iteracy: ": 8944, "\n\nCoastline: ": 8945, ") = 100 cent": 8946, "processing, ": 8947, "electrifi": 8948, "TERPOL": 8949, "Chamb": 8950, ", IBR": 8951, "O, IDA": 8952, "livesto": 8953, "zone: 200 nm;\n\nTerritorial sea: 12 nm": 8954, "\n\nDisput": 8955, "NTERPOL": 8956, "chemical ": 8957, "iet ": 8958, "essel": 8959, "and-": 8960, "Rev": 8961, "dition": 8962, "bot": 8963, "commod": 8964, "former": 8965, " born": 8966, " app": 8967, "annel": 8968, "lig": 8969, "esto": 8970, "ecutive ": 8971, "ric ": 8972, "olution": 8973, "SCAP": 8974, "ouse of ": 8975, "jor ": 8976, "raq": 8977, "pril": 8978, "NTELSAT": 8979, "efense ": 8980, "18\n\nElections:\n": 8981, "etro": 8982, "Western\n(non-US) countries, ODA and OOF bilateral commitments (1970-87), $": 8983, "s (POL) ": 8984, "uffrage: ": 8985, " permanent-surface runway": 8986, "\n\nNatural resourc": 8987, "Organized labor: ": 8988, ")\n\nLeg": 8989, "al system: ": 8990, "\n\nNote:": 8991, "200 nm;": 8992, "abin": 8993, "hael": 8994, "ic Oce": 8995, "ATT": 8996, "exact": 8997, "tex": 8998, "ouble ": 8999, "triang": 9000, " cour": 9001, "fru": 9002, " band": 9003, "Phil": 9004, "answ": 9005, "custom": 9006, "fore, ": 9007, "ations": 9008, "limat": 9009, "betwe": 9010, "udi": 9011, "tem": 9012, "\n\nTer": 9013, "of v": 9014, "Wor": 9015, "., ": 9016, "Ill": 9017, " beh": 9018, "percent of vote ": 9019, "Defense ": 9020, "ilitary servic": 9021, "\n\n- ": 9022, "Gener": 9023, "expenditures ": 9024, "Rail": 9025, " meters ": 9026, " Cons": 9027, " nm;": 9028, "s (POL) tanker, ": 9029, "assa": 9030, "Mov": 9031, "rict": 9032, "le s": 9033, " bit": 9034, "able; ": 9035, "occas": 9036, "cabl": 9037, "idn\u2019t ": 9038, "circum": 9039, "chem": 9040, "ross the ": 9041, "y)": 9042, "idly ": 9043, "ong-": 9044, "fiv": 9045, "inea": 9046, "birth": 9047, "ivid": 9048, "ifficult": 9049, "wr": 9050, "hoist ": 9051, "RG": 9052, "People": 9053, "1952": 9054, "ublic": 9055, "chab": 9056, "e--": 9057, "Government": 9058, "uslim": 9059, "\n\nContinental shelf: 200": 9060, "anufactur": 9061, "FAD, I": 9062, " (1989)\n\nIndustri": 9063, "al production: growth rate ": 9064, " kWh": 9065, "% other; includes NEGL": 9066, "compulsory ICJ": 9067, "-sufficient in ": 9068, "1 Indian Oce": 9069, "% irrigated": 9070, "growth rate ": 9071, "ustry ": 9072, " (from UK": 9073, " major ": 9074, "18) annually\n\nDefense expenditures: ": 9075, "Deputy ": 9076, "Pipelines: ": 9077, "Court of ": 9078, "potato": 9079, "ograph": 9080, "gress": 9081, " common ": 9082, "ocket": 9083, "forgot": 9084, "inar": 9085, "ilitary\n": 9086, "\u00e9": 9087, "ago, ": 9088, "perfect": 9089, "afra": 9090, "transp": 9091, "\n\nD": 9092, "\n\nM": 9093, "igr": 9094, "vil": 9095, "Ass": 9096, "olom": 9097, "laim": 9098, "hapter ": 9099, "Darl": 9100, "accepted ": 9101, "ternation": 9102, "Sov": 9103, "GNP: $": 9104, ",\nincluding ": 9105, ", IFAD, I": 9106, "female (1990)\n\nTotal fertility rate: ": 9107, "izontal bands of ": 9108, "s (1970-87), $": 9109, "irports: ": 9110, " with\nrunways ": 9111, "Embass": 9112, "ilitary manpower: ": 9113, "limate: ": 9114, "Navy, ": 9115, "dministrative ": 9116, "Vice ": 9117, "English common law": 9118, "NTERPOL, I": 9119, "Belg": 9120, "\n\nEnvironment": 9121, "five-": 9122, "\n\nType: republic": 9123, "====": 9124, "lod": 9125, " compl": 9126, "Peop": 9127, "tle, ": 9128, "ranch": 9129, "izon": 9130, "anish": 9131, " dom": 9132, "ne ": 9133, "ord ": 9134, "alla": 9135, "efin": 9136, "earning": 9137, "s of an ": 9138, "Portugu": 9139, " pos": 9140, "Jap": 9141, "_I": 9142, "Supre": 9143, "ependent ": 9144, "15-": 9145, "Representatives": 9146, "President--last held ": 9147, "five-pointed ": 9148, "aterial": 9149, "last held ": 9150, "\n\nEx": 9151, "% industr": 9152, "Independence ": 9153, " military ": 9154, "\n\nElection": 9155, "\n\n- Defense Forces\nBranches: Army, Navy, Air ": 9156, "ODA and OOF": 9157, "3,659 m; ": 9158, "1.000": 9159, "marine cabl": 9160, "US Cons": 9161, "an INTELSAT": 9162, "Supreme ": 9163, "TELSAT": 9164, "udi Arab": 9165, "State and Head of Government--": 9166, "\n\nExtended economic ": 9167, "frigerated ": 9168, "\n\nLand bound": 9169, " petroleum": 9170, "itz": 9171, "land; ": 9172, "eadow": 9173, "imag": 9174, "chim": 9175, "polit": 9176, "nock": 9177, "Soc": 9178, "oulder": 9179, "stran": 9180, "Over": 9181, "resent": 9182, "ural": 9183, "Kor": 9184, "struction": 9185, "rateg": 9186, " hus": 9187, "iffic": 9188, "ilater": 9189, "icit ": 9190, "Infant mortality rate: ": 9191, " migrant": 9192, "al system": 9193, " house or ": 9194, "NESCO": 9195, "landlock": 9196, "People\nPopulation: ": 9197, "Nation": 9198, "to be held ": 9199, "\n\nMember of: A": 9200, "NA%\n\nElectricity: ": 9201, "70-88), $": 9202, "POL) ": 9203, "runways ": 9204, "Other political or pressure groups: ": 9205, " commitment": 9206, "1,220-2,439 m\n\nTelecommunications: ": 9207, "atell": 9208, "0% forest and woodland; ": 9209, "males 15-49, ": 9210, " material": 9211, "New Yor": 9212, "\n C": 9213, "icular": 9214, "poll": 9215, "ren ": 9216, "tob": 9217, "usin": 9218, "eaders": 9219, "ject ": 9220, "et m": 9221, "mail": 9222, "popul": 9223, "fric": 9224, "ox ": 9225, "ebt": 9226, "Washington, DC": 9227, "App": 9228, "bicameral ": 9229, "\n\nCommunist": 9230, " kWh per capita (1989)\n\nIndustri": 9231, "Religion: ": 9232, "s\n\nExchange rates: ": 9233, " km p": 9234, "judicial re": 9235, "al production": 9236, "anguage: ": 9237, "Note: ": 9238, " billion;\n": 9239, "Cabinet": 9240, "s (19": 9241, "ilitary\nservic": 9242, "\n\nElections:": 9243, "machinery ": 9244, "atellite earth": 9245, "-sufficient ": 9246, "labor for": 9247, "........": 9248, "Coun": 9249, "Lib": 9250, "urch": 9251, ".\n\nC": 9252, "ecause ": 9253, "excell": 9254, "or for": 9255, "habit": 9256, "Moby D": 9257, "\n\nL": 9258, "GL": 9259, "id: ": 9260, " bet": 9261, "the siz": 9262, "cabinet": 9263, "cess": 9264, "Chief of ": 9265, "ivil ": 9266, "male, ": 9267, "urrency: ": 9268, ", per capita $": 9269, "Government\nLong-form name: ": 9270, " passeng": 9271, "Roman Cath": 9272, "WC--International ": 9273, "FTU": 9274, "D, ICA": 9275, "financ": 9276, "Represent": 9277, "liquefied ": 9278, "banan": 9279, "Puerto ": 9280, "\n\nFlag:": 9281, "UK ": 9282, "ent-": 9283, "\n\nN": 9284, "atic ": 9285, "judic": 9286, "ghter": 9287, "elp": 9288, "ountri": 9289, " permanent ": 9290, "Christ": 9291, " catch": 9292, "larger": 9293, "ultur": 9294, "fertil": 9295, "uer": 9296, "ieve ": 9297, "oust": 9298, "Equ": 9299, "Gul": 9300, "responsibil": 9301, "graph": 9302, " km2": 9303, "estern": 9304, "(202) ": 9305, "% industry ": 9306, "reach military age ": 9307, "including\n": 9308, "universal at age ": 9309, "griculture: ": 9310, " (official": 9311, " (next ": 9312, "\n\nEnvironment: s": 9313, "SG": 9314, "Political part": 9315, "-77": 9316, "/1,000": 9317, " population (1990)\n\n": 9318, "ery at ": 9319, "revenues ": 9320, "s, and lubricant": 9321, "elected": 9322, "\n\nCapital": 9323, ", or $": 9324, "radio ": 9325, "ewish": 9326, "US Consulate General": 9327, "s, including ": 9328, "eless, ": 9329, "respons": 9330, "Aunt ": 9331, "HAPTER ": 9332, "estic": 9333, " a mom": 9334, "Ven": 9335, "whis": 9336, "wondr": 9337, "customary ": 9338, "third": 9339, "diam": 9340, "POL": 9341, "\n\nNot": 9342, "irrig": 9343, ", oil": 9344, "representation": 9345, "1.435-meter standard gaug": 9346, "none with runways over 3,659 m; ": 9347, "General": 9348, " ships (1,000 GRT or over) total": 9349, "vironment": 9350, "FAO, G-77": 9351, "ingap": 9352, "70-87": 9353, "),\n$": 9354, ") = ": 9355, "une": 9356, "countries (19": 9357, "FAO": 9358, " Jul": 9359, " km\n\nMaritime claim": 9360, " with runways\n": 9361, "SR": 9362, "Prime Minist": 9363, " aid ": 9364, "US)": 9365, "Brit": 9366, "view of ": 9367, "and H": 9368, "Dea": 9369, "Washingt": 9370, "sider": 9371, "orig": 9372, "ber, ": 9373, "imil": 9374, "by D": 9375, "onic": 9376, "ultiv": 9377, "Bir": 9378, "lau": 9379, "Ge": 9380, "ohn": 9381, "Trade ": 9382, "Wend": 9383, "ootl": 9384, "use: ": 9385, "\n\nLeg": 9386, "expenditures of ": 9387, "runway": 9388, "de facto": 9389, "ard gaug": 9390, "1.435": 9391, "3,659 m": 9392, "eaders:\n": 9393, "elecommunication": 9394, "Communications\n": 9395, "1,220-2,439 m": 9396, "ibbe": 9397, "\n\nMember of: ACP": 9398, "er capita (1989)\n\nIndustri": 9399, "dministrative divisions: ": 9400, "ers'": 9401, "Francisco": 9402, "consumer ": 9403, "tlant": 9404, ", WHO, WIPO": 9405, " fit for military\nservic": 9406, ", GATT": 9407, "15-49, ": 9408, " major transport air": 9409, "\n\nLegislative branch: ": 9410, "refined products, ": 9411, "annually": 9412, "telephone [": 9413, "\n\nF": 9414, "rade ": 9415, "two-": 9416, "erchant ": 9417, "lub": 9418, "itime ": 9419, "New York ": 9420, "Tash": 9421, "\"": 9422, "negligibl": 9423, "erchant marine: ": 9424, "Organized labor": 9425, "Embassy at ": 9426, "ivil air: ": 9427, "compuls": 9428, " jurisdiction": 9429, "Yugos": 9430, "er capit": 9431, " km d": 9432, "; satellite earth": 9433, " strategic loc": 9434, "\n\nEnvironment: ": 9435, "territory ": 9436, "2,440-": 9437, "Unemployment ": 9438, "OPEC": 9439, " peop": 9440, "flation ": 9441, "real growth rate ": 9442, "1,000 GRT or over) total": 9443, "ivil law": 9444, "ternal debt": 9445, " (since 6": 9446, "1,220": 9447, ")\n\nEx": 9448, "Industrial production: growth rate NA%\n\nElectricity: ": 9449, "M, O": 9450, "smaller than ": 9451, "ong Kong": 9452, "Political parties and leaders": 9453, "fri": 9454, "larger than ": 9455, "\n\nDiplomatic representation: A": 9456, "eban": 9457, " Sawy": 9458, "Life ": 9459, " Chapter ": 9460, "diction": 9461, " bul": 9462, "levi": 9463, "equip": 9464, "clusive ": 9465, "Lev": 9466, "friger": 9467, "Pac": 9468, "igrant": 9469, "iday": 9470, "elig": 9471, "f.": 9472, "Birth rate: ": 9473, " permanent-": 9474, "fDB": 9475, "Communist countries (1970-88),\n$": 9476, "Gover": 9477, ") = 100 centim": 9478, "none\n\nType: ": 9479, "\n\n- Defense Forces\nNote: ": 9480, "Defense Forc": 9481, "ic loc": 9482, "Chic": 9483, "ternal d": 9484, " km2; ": 9485, "uerto ": 9486, ") annually": 9487, "unicameral ": 9488, "thnic d": 9489, " petroleum, oil": 9490, "defense ": 9491, ");\n\nH": 9492, "ommunist": 9493, "s for about ": 9494, "WC--": 9495, " Arab": 9496, ", WIPO": 9497, "% meadows and pastur": 9498, " (s": 9499, ":  ": 9500, "Other ": 9501, "seas ": 9502, "icam": 9503, "ounter": 9504, "Med": 9505, "cru": 9506, " asked ": 9507, "prime ": 9508, "bove ": 9509, " capac": 9510, "veni": 9511, "cogn": 9512, "enorm": 9513, " short-": 9514, " holiday": 9515, "epend": 9516, "ustri": 9517, "----------------------------------------------------\n": 9518, "iplomatic ": 9519, ")\n\nIndependence: ": 9520, "Budget: revenues ": 9521, "49, ": 9522, "rainy s": 9523, "seats--(": 9524, "State--": 9525, "ports: $": 9526, " short-sea": 9527, "Political parties and l": 9528, "flation rate ": 9529, " strateg": 9530, "equal hor": 9531, "tlantic Ocean\n": 9532, "a (1989)\n\nIndustri": 9533, "embourg": 9534, "assachus": 9535, "D, I": 9536, "gas, ": 9537, "jective--": 9538, "Amer": 9539, "\n\nTelecommunication": 9540, " bilateral aid ": 9541, " ships (": 9542, "-of": 9543, "igen": 9544, " km\n\n": 9545, "Defense Forces\n": 9546, "1990),\n": 9547, "IPO": 9548, "US Consular Agenc": 9549, "&": 9550, "umph": 9551, "Eur": 9552, "Mary ": 9553, "andon": 9554, "prices": 9555, "villa": 9556, "veh": 9557, "): ": 9558, "mater": 9559, "New Y": 9560, "epted ": 9561, "held\n": 9562, "Maritime ": 9563, "cannab": 9564, " per ": 9565, "Maritime claim": 9566, "--------------------------------": 9567, "US Embass": 9568, "mbassador ": 9569, "12 nm;": 9570, "runways\n": 9571, "Chanc": 9572, "Navy, Air ": 9573, "Western\n(non-US) countries, ODA and OOF bilateral commitment": 9574, "\n\nComparative area: ": 9575, "es\n\nExchange rates: ": 9576, "mailing address ": 9577, ")\n\nLegislative branch: ": 9578, " 2000": 9579, "(1979": 9580, "), whit": 9581, "1.435-met": 9582, "fiel": 9583, "NW": 9584, "\n\nMember of: ACP, A": 9585, ") per ": 9586, "----": 9587, "irl": 9588, "Tal": 9589, "two or": 9590, "rifi": 9591, "pastur": 9592, "jib": 9593, "earthqu": 9594, "the size of ": 9595, "aux": 9596, " combin": 9597, "ompar": 9598, "gressive ": 9599, "thi": 9600, "neglig": 9601, "wist": 9602, "Geograph": 9603, "omparative ": 9604, "iplomatic representation": 9605, "iplom": 9606, "crops; ": 9607, "US commitments, including Ex-Im (FY": 9608, "pril ": 9609, "\n\nComparative area: about ": 9610, "\n\nContinental shelf: 200 meters or ": 9611, "assachusetts Avenue ": 9612, "leum": 9613, "ember of": 9614, "mailing add": 9615, "s--(": 9616, "1 Jul": 9617, "ivisions: ": 9618, "change rat": 9619, " adjective--": 9620, "ourg": 9621, "\n\nLand use: 0% arable land; 0% permanent crops; ": 9622, "form nam": 9623, "(202": 9624, "\n\nEthnic d": 9625, "ternal debt: $": 9626, "Branches: ": 9627, "; includes ": 9628, "ype: ": 9629, "to depth of exploitation;": 9630, " countries, ": 9631, "viron": 9632, "Joh": 9633, "forest and woodland; ": 9634, "awy": 9635, "Mrs. ": 9636, "\u2032": 9637, "Durbey": 9638, "\n\nE": 9639, "Zeal": 9640, "Bed": 9641, "s:\n\n\u201c": 9642, " shelf": 9643, "aggoo": 9644, " SAILOR": 9645, "\u0153": 9646, "elop": 9647, "ELI": 9648, "stret": 9649, "TEL": 9650, "ashington ": 9651, "{": 9652, "}": 9653, "WT": 9654, "Illicit drugs: ": 9655, "Other political or pressure group": 9656, " construction": 9657, " pressure ": 9658, "1,000 GRT or ": 9659, "New York 0": 9660, "40-": 9661, " (January ": 9662, "Appeal": 9663, "anguag": 9664, "al production: ": 9665, " kWh p": 9666, "Democ": 9667, "akist": 9668, "erosion": 9669, "defense is the responsibil": 9670, "capital expenditures of ": 9671, "Communist countries (19": 9672, "\n\nContiguous zone: ": 9673, "\n\n- Defense Forces\n": 9674, "children born/woman (1990)\n\nNationality: ": 9675, " of work": 9676, "\n\nNational holiday: Independence ": 9677, "area: slightly ": 9678, "results--": 9679, "ashington DC": 9680, "Nations ": 9681, " (1990)\n\n": 9682, "gover": 9683, "uffrag": 9684, "jectiv": 9685, "Roy": 9686, "fant ": 9687, "assachusetts ": 9688, "partners": 9689, "trid": 9690, " birth": 9691, "acco": 9692, "eget": 9693, "AIL": 9694, "female ": 9695, "Trin": 9696, "pup": 9697, "\u00ea": 9698, " Agenc": 9699, "expenditur": 9700, "Unemployment rate: NA%\n\n": 9701, "\n\nElectricity: ": 9702, "only party;\nseats--(": 9703, " bitumin": 9704, ": $": 9705, "US Consul": 9706, "Western (": 9707, "oastline: ": 9708, " monarch, ": 9709, "to depth of ": 9710, "Queen ELIZABETH II": 9711, " teleph": 9712, "0% arable land; 0% permanent crops; ": 9713, "lavi": 9714, "1,000 GRT": 9715, "over) total": 9716, ", per capita ": 9717, " common law": 9718, "Los ": 9719, "ilateral": 9720, "tinental shelf": 9721, "Chancery at ": 9722, "ports: ": 9723, "icameral ": 9724, "craft\n\nAirports: ": 9725, "); adjective--": 9726, "DB--Inter-": 9727, "Budget": 9728, "transport air": 9729, " kW": 9730, "il erosion": 9731, "f.o.b., ": 9732, "US commitments, including Ex-Im": 9733, "ecast": 9734, "HAP": 9735, "ETH": 9736, "\u00a3": 9737, "Railroad": 9738, "nment": 9739, "Engl": 9740, "\u00e8": 9741, "Sperm ": 9742, "Washington, ": 9743, ")\n\nF": 9744, "over)": 9745, "to dep": 9746, "expend": 9747, "calend": 9748, "tinental": 9749, "ing add": 9750, "line: ": 9751, "f.o.b": 9752, "ODA": 9753, "forest and wood": 9754, "s/1,000": 9755, "only party": 9756, "\n\n- Communications\nRailroad": 9757, "deforest": 9758, "ead of Government--": 9759, "APO ": 9760, "\n\nNational holiday": 9761, "percent of vote by party NA": 9762, " telephones": 9763, "territory of the UK": 9764, "NW, W": 9765, "ashingt": 9766, "\n\nFlag": 9767, "State and H": 9768, "DB--": 9769, "3,659 m;\n": 9770, "Inland water": 9771, " perman": 9772, "or forc": 9773, "ODA and OOF bilateral commitment": 9774, "thiop": 9775, "P. O. B": 9776, "= ": 9777, "males ": 9778, "igration ": 9779, "% permanent ": 9780, "Relig": 9781, "1.435-meter stand": 9782, "Lux": 9783, " June": 9784, "exploitation": 9785, "with runways 2,440-": 9786, "eros": 9787, "commodities": 9788, "ritorial": 9789, "iscal ": 9790, " (fixed ": 9791, "children born/woman (1990)\n\n": 9792, "ies and l": 9793, "expenditures: ": 9794, "Octo": 9795, "Inter-": 9796, "WC": 9797, "\n\nCon": 9798, "--------": 9799, "....": 9800, "efied ": 9801, "Rep": 9802, "al hor": 9803, "uary ": 9804, " live ": 9805, "Mr. D": 9806, "intel": 9807, "juris": 9808, "\u00f9": 9809, "children born": 9810, "stren": 9811, "chus": 9812, "\u00e0": 9813, "Branch": 9814, "Ex-Im": 9815, "-Im": 9816, "iscal year": 9817, "Total ": 9818, "ate)": 9819, "Life expectancy at birth: ": 9820, "non-US) countries, ": 9821, "itment": 9822, "% meadow": 9823, "pastures; ": 9824, "ation ore/": 9825, ". O. B": 9826, "icit drug": 9827, "children born/woman (1990)\n\nNationality: noun": 9828, "Francis": 9829, "non-US)": 9830, "capital expenditures of $": 9831, "SCO": 9832, "People\n": 9833, "Other political ": 9834, "dministrative d": 9835, "\n\nDiplomatic representation": 9836, "Independenc": 9837, "ery at\n": 9838, "er stand": 9839, "\n\nExclusive ": 9840, "roll-on/": 9841, "Parliam": 9842, "\n\nMaritime claim": 9843, "% arable ": 9844, "nig": 9845, "expenditure": 9846, "Domin": 9847, "Tot": 9848, "ong K": 9849, ")\n\nConstitution": 9850, "change rates: ": 9851, "abor force: ": 9852, "Counc": 9853, "facto": 9854, " (plural--franc": 9855, "Urb": 9856, "zone: 200 nm;": 9857, "31 March": 9858, "ications\n": 9859, ")\n\nTer": 9860, "Western\n(": 9861, "1,220-": 9862, "2,439": 9863, " (1990)\n\nBirth rate: ": 9864, "c.i.f., ": 9865, "to be held\n": 9866, "Nationality: ": 9867, "ivil air": 9868, "or pressure group": 9869, "o.": 9870, "ial re": 9871, "wy": 9872, "ar year": 9873, "National holiday": 9874, " deaths/1,000 population (1990)\n\n": 9875, "wyne ": 9876, "ervill": 9877, "trou": 9878, "Dut": 9879, "\u05d7": 9880, "\u05d5": 9881, "\u03f0": 9882, "\u03b7": 9883, "\u03c4": 9884, "\u03bf": 9885, "\u03c2": 9886, "\u0152": 9887, "ELIZ": 9888, "eelk": 9889, "\u00e2": 9890, "roll-": 9891, "c.": 9892, "Judicial": 9893, "Economy\n": 9894, "Illicit drug": 9895, "c.i.": 9896, "GRT": 9897, "OOF": 9898, "Population": 9899, "Death rate: ": 9900, " bilateral": 9901, "==": 9902, "=": 9903, " live birth": 9904, "s and pastur": 9905, "Net migration rate: ": 9906, "Population: ": 9907, "Total fertility rate: ": 9908, "try:  ": 9909, "none--": 9910, "s/1,000 population (1990)\n\nInfant mortality rate: ": 9911, "of vote ": 9912, "iterran": 9913, "to be\nheld ": 9914, "% irrig": 9915, "rain: ": 9916, "manpower": 9917, "tinental shelf: ": 9918, " meters or ": 9919, "Nant": 9920, "Judicial b": 9921, "land area: ": 9922, "1 April-": 9923, " kW capac": 9924, " kWh produc": 9925, "LZ": 9926, "c.i.f": 9927, "1 April": 9928, "defense is the ": 9929, " deaths/1,000 live births (": 9930, "1990)\n\nLife expectancy at birth: ": 9931, "female (": 9932, "1990)\n\nTotal fertility rate: ": 9933, "Venez": 9934, "% ind": 9935, "cent of vote ": 9936, "Religion": 9937, "- Geography\nTotal ": 9938, "an Cath": 9939, "ong-form name: ": 9940, "US$1": 9941, "anuary ": 9942, "to depth of exploitation": 9943, "erchant marin": 9944, " at age ": 9945, "Austr": 9946, "ore/": 9947, "Overview": 9948, " (since 6 February 1952": 9949, "forest and ": 9950, "\n\nConstitution": 9951, "ized labor": 9952, "area: ": 9953, "ate--": 9954, "noun": 9955, " (July ": 9956, "Government--": 9957, ", including\ncapital expenditures of $": 9958, "\n\nEl": 9959, "ectric": 9960, " bilateral aid (1979-89": 9961, "iscal year: ": 9962, ".); adjective--": 9963, "ritorial sea": 9964, "(1979-89": 9965, "3,659": 9966, " pressure group": 9967, " (since 6 February ": 9968, " GRT": 9969, "\n\nEn": 9970, "donor--": 9971, "assachuset": 9972, "s, including Ex-Im": 9973, "none\n\nCoastline: ": 9974, "goti": 9975, "\nLong-form name: ": 9976, "----------------": 9977, "thn": 9978, "renad": 9979, "----------------------------------------------------": 9980, "ritory ": 9981, "rate: ": 9982, "\u00ef": 9983, "\u00e7": 9984, "opport": 9985, "expectanc": 9986, "opulation": 9987, "\u00c6": 9988}