{", ": 0, "\n": 1, " ": 2, "s": 3, "ed ": 4, "s ": 5, "in": 6, "-": 7, "ing ": 8, "d": 9, "p": 10, "the ": 11, "and ": 12, ", and ": 13, "t": 14, "e": 15, "er": 16, "y": 17, "; ": 18, "c": 19, "on": 20, "al": 21, "or": 22, "e, ": 23, "it ": 24, "m": 25, "b": 26, "it": 27, "a ": 28, "g": 29, "to ": 30, "of ": 31, "en": 32, "4": 33, "s, ": 34, "was ": 35, "in ": 36, "S": 37, "ing": 38, " s": 39, "3": 40, ",\n": 41, "5": 42, "f": 43, "2": 44, "9": 45, "an": 46, "I": 47, "6": 48, "e\n": 49, "es ": 50, "e ": 51, "is ": 52, "a": 53, "k": 54, "7": 55, "l": 56, "A": 57, "o": 58, "i": 59, "n": 60, "un": 61, "es": 62, "re": 63, "B": 64, "8": 65, "st": 66, "y ": 67, "\u2014": 68, "C": 69, "ar": 70, "at": 71, "ed": 72, "h": 73, " the ": 74, "that ": 75, "th": 76, "_": 77, "for": 78, "ch": 79, "of the ": 80, "u": 81, "er ": 82, "to": 83, "el": 84, "r": 85, "w": 86, "H": 87, "an ": 88, "not ": 89, "M": 90, " and ": 91, "D": 92, "P": 93, "ic": 94, "all": 95, "you": 96, " m": 97, "L": 98, "v": 99, "at ": 100, "in the ": 101, "as ": 102, "T": 103, "he ": 104, "ur": 105, "il": 106, "ly ": 107, "R": 108, " d": 109, " b": 110, " h": 111, "t ": 112, "on ": 113, " that ": 114, "or ": 115, "\u2019s ": 116, "I ": 117, " c": 118, " (": 119, "with": 120, "one ": 121, "et": 122, "am": 123, "id": 124, "y, ": 125, ".\n\n": 126, " p": 127, "es, ": 128, "10": 129, "e s": 130, "19": 131, "no": 132, "F": 133, "sh": 134, " a": 135, "N": 136, "us": 137, "1": 138, "is": 139, "(": 140, "ad": 141, "en ": 142, "\u2019": 143, "up": 144, "had ": 145, "his ": 146, "E": 147, "ent": 148, "18": 149, "ol": 150, "and\n": 151, "im": 152, "ed\n": 153, " to": 154, "ra": 155, "al ": 156, "for ": 157, ". ": 158, "12": 159, "ir": 160, "14": 161, "as": 162, "ed, ": 163, "G": 164, "16": 165, "ter": 166, "ac": 167, "la": 168, "all ": 169, "s\n": 170, "13": 171, "ut": 172, "15": 173, "are ": 174, ", I": 175, ";\n": 176, "y\n": 177, "you ": 178, "17": 179, "30": 180, "what ": 181, "j": 182, ".\n\n\u201c": 183, "O": 184, ".\u201d\n\n\u201c": 185, " as ": 186, "e. ": 187, "20": 188, "we ": 189, ";": 190, " of ": 191, "now": 192, "; and ": 193, "with ": 194, "ag": 195, "25": 196, "ent ": 197, "s and ": 198, "they ": 199, "con": 200, "ri": 201, "the\n": 202, "sp": 203, "V": 204, "K": 205, "), ": 206, "ation": 207, "ul": 208, " in": 209, "ing\n": 210, "! ": 211, "qu": 212, "er, ": 213, "on the ": 214, "ro": 215, "70": 216, "40": 217, "she ": 218, "35": 219, " th": 220, "ant": 221, "om": 222, "by ": 223, "but ": 224, "90": 225, "J": 226, "to the ": 227, "out ": 228, " a ": 229, "ea": 230, "em": 231, "% ": 232, "e, and ": 233, "79": 234, "%, ": 235, "ing, ": 236, "est": 237, " st": 238, "iv": 239, "out": 240, "ab": 241, "so": 242, "a\n": 243, "were ": 244, "45": 245, "29": 246, "75": 247, "60": 248, "W": 249, "bl": 250, "28": 251, "go": 252, "of\n": 253, " the\n": 254, "26": 255, "old ": 256, "k ": 257, "ist": 258, "man": 259, "and": 260, "ex": 261, "her ": 262, "ou": 263, "ion": 264, "49": 265, "ind": 266, ",": 267, "would ": 268, "88": 269, "her": 270, " f": 271, "z": 272, "like ": 273, "\u201c": 274, "le ": 275, "um": 276, "et ": 277, "over": 278, "pl": 279, "this ": 280, "o ": 281, " his ": 282, "my ": 283, "65": 284, "him": 285, "be": 286, "ay": 287, "39": 288, "36": 289, "ed the ": 290, "ill": 291, "est ": 292, "if": 293, "s of ": 294, "ing the ": 295, "ap": 296, "46": 297, "le": 298, "78": 299, "?\u201d\n\n\u201c": 300, "op": 301, "os": 302, ".\n": 303, "38": 304, "ha": 305, "be ": 306, "wa": 307, ". I": 308, "our": 309, "off": 310, "per": 311, "own": 312, "ed to": 313, "48": 314, "a, ": 315, "ers ": 316, "76": 317, "? ": 318, " he ": 319, "%": 320, "ey": 321, "its ": 322, "ish": 323, "s, and ": 324, "which": 325, "only ": 326, " at ": 327, ". The ": 328, "fl": 329, "other ": 330, "ate ": 331, "ow": 332, "me ": 333, "from": 334, "ot": 335, "se": 336, "end": 337, ".\u201d\n\n": 338, "s; ": 339, "any ": 340, "e; ": 341, "d ": 342, "ther": 343, "23": 344, "able ": 345, ")\n\n": 346, "res": 347, "have ": 348, "ear": 349, "ever": 350, "about ": 351, "of": 352, "ated ": 353, "24": 354, "1 ": 355, " sh": 356, "1,": 357, "the s": 358, "ers": 359, "long": 360, ". \u201c": 361, "tim": 362, "ly": 363, "no ": 364, "down": 365, "\ns": 366, "ong": 367, "0": 368, "\nthe ": 369, "); ": 370, "NA": 371, "ome ": 372, "50": 373, "ic ": 374, "it was ": 375, "U": 376, "ang": 377, "tr": 378, " C": 379, "ak": 380, " con": 381, "ick": 382, "from the ": 383, "with the ": 384, "li": 385, "very ": 386, " had ": 387, " him": 388, "to\n": 389, "a s": 390, "e-": 391, "ed in": 392, " this ": 393, "for the ": 394, " her ": 395, " they ": 396, "ec": 397, "to be ": 398, "ell": 399, "there ": 400, ", the ": 401, "ous ": 402, "ig": 403, "co": 404, "The ": 405, "fac": 406, "od": 407, "ity ": 408, ", but ": 409, "from ": 410, "ence ": 411, ".": 412, "got ": 413, "    ": 414, "inc": 415, "ely ": 416, "68": 417, " she ": 418, "me": 419, "\n\n": 420, "way ": 421, "pro": 422, "00": 423, " A": 424, "ect": 425, "ant ": 426, "land": 427, "eg": 428, "ian": 429, "arm": 430, "ef": 431, "iz": 432, "ive ": 433, "ation ": 434, ". But ": 435, "22": 436, "of a": 437, "ship": 438, "!": 439, "s (": 440, "lo": 441, "other": 442, "ing a": 443, "time ": 444, ")": 445, "ary ": 446, "us ": 447, "way": 448, "ial": 449, "27": 450, "com": 451, "oc": 452, "ip": 453, "ed by ": 454, "ard": 455, "sc": 456, ", s": 457, "; but ": 458, "ob": 459, "ce ": 460, " her": 461, "could ": 462, "s. ": 463, "dis": 464, "Y": 465, "77": 466, ",\nand ": 467, "them": 468, "little ": 469, " I": 470, "fish": 471, "your": 472, "just ": 473, "an\n": 474, "se ": 475, "art": 476, "ess": 477, "tion": 478, "--": 479, "80": 480, "99": 481, "ted ": 482, "ia": 483, "most ": 484, "when ": 485, "went ": 486, " them": 487, "wh": 488, "so ": 489, "when": 490, "ion ": 491, "air": 492, "ast": 493, "which ": 494, "th ": 495, "lin": 496, ") ": 497, "of his ": 498, "more ": 499, "of s": 500, "33": 501, "rat": 502, " S": 503, " to ": 504, "oo": 505, "has ": 506, ". H": 507, ", S": 508, "though": 509, "2,": 510, "44": 511, "look": 512, "ed to ": 513, "2.": 514, "anc": 515, ", as ": 516, "37": 517, "id ": 518, "will": 519, "55": 520, "Wh": 521, "gra": 522, "then": 523, "1.": 524, "whal": 525, "ud": 526, "ther ": 527, ",000": 528, "at\n": 529, "form": 530, "ice ": 531, "par": 532, "ve ": 533, "was\n": 534, "of the\n": 535, "ust": 536, "ight": 537, "well": 538, "we": 539, "ew": 540, " km": 541, "thing": 542, "ance ": 543, "es\n": 544, "a m": 545, "where ": 546, ". S": 547, "ain": 548, "been": 549, "St": 550, "age ": 551, "ious ": 552, "ub": 553, "if ": 554, "car": 555, "ies ": 556, "And ": 557, " my ": 558, "ran": 559, "av": 560, "ful": 561, "it, ": 562, "know": 563, "ke ": 564, "enc": 565, "upon": 566, "to s": 567, "who": 568, "how": 569, "come ": 570, "66": 571, "34": 572, "ow ": 573, "ure": 574, "int": 575, "over ": 576, "do": 577, "bo": 578, "ever ": 579, "ug": 580, "Th": 581, "two": 582, "pos": 583, " n": 584, "ign": 585, "ally ": 586, "end ": 587, "get ": 588, " a\n": 589, "row": 590, "ev": 591, "in\n": 592, "ver": 593, ". A": 594, " their": 595, "ep": 596, "85": 597, "1989": 598, "t, ": 599, "ass": 600, "I was ": 601, "even": 602, "low": 603, "e\u2019s ": 604, "abl": 605, "69": 606, "US": 607, "of m": 608, "An": 609, "But ": 610, ": ": 611, "to m": 612, "ens": 613, "hear": 614, "an, ": 615, "Ahab": 616, "sea": 617, "first ": 618, "made ": 619, "uck": 620, "ge ": 621, "rem": 622, "cl": 623, "along": 624, "wor": 625, "can": 626, "ma": 627, "min": 628, "ts ": 629, "ment": 630, "He ": 631, "ness ": 632, " se": 633, "ound": 634, "ing s": 635, "ib": 636, "by the ": 637, "law": 638, "ce": 639, "ber": 640, "run": 641, ",\u201d": 642, " a s": 643, "a p": 644, "en, ": 645, "89": 646, "e\u2014": 647, "ess ": 648, " k": 649, "itt": 650, "by": 651, "the b": 652, "good ": 653, "47": 654, "ph": 655, "al\n": 656, "; the ": 657, "every ": 658, "a c": 659, "0.": 660, "ter ": 661, "_ ": 662, "day": 663, " so": 664, "95": 665, "ered ": 666, "ched ": 667, " have ": 668, "light": 669, "great ": 670, "1988": 671, " km ": 672, "ry ": 673, "mar": 674, "never ": 675, "king ": 676, "till": 677, "to b": 678, "National ": 679, "af": 680, "es and ": 681, "he was ": 682, "ard ": 683, "ash": 684, "tra": 685, "hand": 686, "ble ": 687, "head": 688, "ial ": 689, "Al": 690, "uc": 691, "vi": 692, "all the ": 693, "I\n": 694, "still": 695, "d\n": 696, " be": 697, "ies": 698, "their": 699, "Tess ": 700, "ian ": 701, "not": 702, "ight ": 703, "a b": 704, "?\u201d": 705, "right": 706, "Z": 707, "Ch": 708, "ure ": 709, "sa": 710, " about ": 711, "on, ": 712, "sk": 713, "one": 714, "before ": 715, "att": 716, "ed, and ": 717, "man ": 718, "n ": 719, "under": 720, "ah": 721, "liv": 722, " me ": 723, "last ": 724, "aw": 725, "des": 726, " million": 727, "; s": 728, "less ": 729, " do": 730, "white ": 731, "igh": 732, "67": 733, "\n(": 734, "ay ": 735, "pre": 736, "gr": 737, "m ": 738, "some ": 739, "pr": 740, "gl": 741, "der": 742, ", C": 743, "pp": 744, "e,\n": 745, ". T": 746, "cent": 747, "ger": 748, "11": 749, ". He ": 750, "any": 751, "t of ": 752, "3.": 753, "t\n": 754, "*": 755, "right ": 756, "mon": 757, "s,\n": 758, "ord": 759, "too": 760, " was ": 761, "tell": 762, " with": 763, "?": 764, ". Th": 765, " com": 766, "turn": 767, "cr": 768, "ric": 769, "without ": 770, "yet ": 771, "s of the ": 772, "fin": 773, "\u2019 ": 774, "work": 775, "back": 776, "it\n": 777, "ne": 778, "almost ": 779, "po": 780, "\u2019d ": 781, "two ": 782, "Mar": 783, "again": 784, "inter": 785, "room": 786, "while ": 787, "x": 788, "st ": 789, "said ": 790, "he had ": 791, "ch ": 792, ",\u201d said ": 793, "in s": 794, "because ": 795, "let ": 796, "good": 797, "mor": 798, "!\u201d\n\n": 799, "ide ": 800, "und": 801, "rec": 802, "ly\n": 803, "!\u201d": 804, "Jim": 805, " (since ": 806, "at the ": 807, "is the ": 808, "leg": 809, "inn": 810, "In": 811, "might ": 812, "),\n": 813, "imp": 814, "land ": 815, " their ": 816, "seem": 817, "part": 818, " ad": 819, "ere ": 820, "ed up": 821, "year": 822, " there ": 823, "oil": 824, "ine ": 825, ". B": 826, ", and the ": 827, "y-": 828, "read": 829, "3,": 830, " pro": 831, "top": 832, "es; ": 833, "must ": 834, "ity": 835, "ked ": 836, "gu": 837, "I w": 838, " billion": 839, "64": 840, "tri": 841, "ey ": 842, "32": 843, "do ": 844, "ult": 845, "been ": 846, "acc": 847, "  ": 848, "ly, ": 849, " has ": 850, "e.\n\n": 851, "he\n": 852, "ank": 853, " by ": 854, "rain": 855, "ov": 856, "ged ": 857, "who ": 858, "$": 859, "59": 860, "thing ": 861, " said ": 862, "ink": 863, "of a ": 864, "after": 865, "!\u201d\n\n\u201c": 866, "emb": 867, "ite ": 868, " M": 869, "ark": 870, "whale ": 871, "than": 872, "pass": 873, "ung": 874, "red ": 875, "sid": 876, "is\n": 877, "or\n": 878, "ty ": 879, "go ": 880, "ern": 881, "lea": 882, "light ": 883, "tre": 884, "ical": 885, "night": 886, "ous": 887, "ast ": 888, "tak": 889, "see ": 890, "gener": 891, "round ": 892, ". And ": 893, "74": 894, "str": 895, "au": 896, "of th": 897, "take ": 898, "ement": 899, "new": 900, "ss": 901, "bro": 902, "high": 903, ", that ": 904, "in his ": 905, "exp": 906, "% of ": 907, "him ": 908, "cre": 909, "found ": 910, "eas": 911, "old": 912, "lad": 913, "feel": 914, "inst": 915, "ist ": 916, "il ": 917, "es, and ": 918, "ook": 919, "e of ": 920, "enough": 921, "o, ": 922, "s the ": 923, "ail": 924, "a d": 925, "dec": 926, "er\n": 927, " to the ": 928, "bel": 929, "ack": 930, "tal": 931, "our ": 932, "ish ": 933, "ann": 934, "into": 935, "then ": 936, "\u2019s\n": 937, "br": 938, "ings ": 939, "ia ": 940, "never": 941, "de ": 942, "ing and ": 943, "war": 944, "outh": 945, "dist": 946, "ical ": 947, "going ": 948, " km total; ": 949, "ad ": 950, "orn": 951, "tain": 952, "tl": 953, "ort": 954, "What ": 955, "a f": 956, "\u201d": 957, "at\u2019s ": 958, "e sh": 959, "uch": 960, "did ": 961, "head ": 962, "ed and ": 963, "ild": 964, "ort ": 965, "comm": 966, ")\n": 967, "ile ": 968, "up ": 969, "ery ": 970, "No": 971, "and, ": 972, "cur": 973, "Island": 974, "s.\n\n": 975, "ath": 976, "lat": 977, " of the ": 978, "mer": 979, "42": 980, "water": 981, "ks ": 982, "mat": 983, "lik": 984, " ther": 985, "ull": 986, ". It ": 987, "58": 988, "on\n": 989, "eal": 990, "hor": 991, ", \u201c": 992, "he": 993, "s--": 994, "ment ": 995, "ing-": 996, "UK": 997, "ut ": 998, "en\n": 999, "She ": 1000, " est.)\n\n": 1001, "og": 1002, "ing his ": 1003, "own ": 1004, "a h": 1005, "Ar": 1006, "body ": 1007, "X": 1008, " hear": 1009, "side ": 1010, ", P": 1011, "sm": 1012, " J": 1013, " a m": 1014, "had": 1015, "87": 1016, "wi": 1017, "mo": 1018, "pla": 1019, "now ": 1020, ". Wh": 1021, "will ": 1022, "give ": 1023, "Afric": 1024, "Angel": 1025, "ar ": 1026, "to d": 1027, ". O": 1028, "es of ": 1029, "98": 1030, "ven": 1031, "into the ": 1032, "looked ": 1033, "equ": 1034, "ush": 1035, "put ": 1036, "it is ": 1037, "over the ": 1038, ", and\n": 1039, "far": 1040, "day ": 1041, "ue ": 1042, "through": 1043, "came ": 1044, "ound ": 1045, "open": 1046, "is, ": 1047, "whit": 1048, "\nand ": 1049, ");\n": 1050, "1987": 1051, "Mr": 1052, "ily ": 1053, "Well, ": 1054, "56": 1055, "ck ": 1056, "100": 1057, "at, ": 1058, "every": 1059, "remain": 1060, "roll": 1061, "eb": 1062, " a p": 1063, "one, ": 1064, "ood": 1065, "ck": 1066, "du": 1067, "ond": 1068, "43": 1069, "of them": 1070, "don\u2019t ": 1071, "none": 1072, "told ": 1073, "Nor": 1074, "ing m": 1075, "ory ": 1076, "k, ": 1077, "73": 1078, "eel": 1079, " T": 1080, "your ": 1081, "ed with": 1082, " in ": 1083, "EC": 1084, "lif": 1085, "gh": 1086, "ise ": 1087, "ge": 1088, "di": 1089, "\u2018": 1090, "ire": 1091, "ret": 1092, " a b": 1093, "s: ": 1094, "vis": 1095, "72": 1096, "night ": 1097, ", M": 1098, "earth": 1099, "ta": 1100, "a-": 1101, ");\nresults--": 1102, "ome": 1103, "said": 1104, "nothing ": 1105, "iss": 1106, "I d": 1107, "after ": 1108, "nam": 1109, " some ": 1110, "fe": 1111, "there": 1112, "1\n": 1113, "lim": 1114, "rop": 1115, ". They ": 1116, "port": 1117, "riv": 1118, "eyes ": 1119, "face ": 1120, "ee ": 1121, "cas": 1122, "ress": 1123, " be ": 1124, "say": 1125, "lar": 1126, "?\u201d\n\n": 1127, "Con": 1128, "all\n": 1129, "sur": 1130, "always ": 1131, "ye ": 1132, "cri": 1133, " hand": 1134, "wind": 1135, "that": 1136, "giv": 1137, "You": 1138, "ward": 1139, "bur": 1140, "to p": 1141, "than ": 1142, "and s": 1143, "199": 1144, "ry": 1145, "app": 1146, "ain\u2019t ": 1147, "ost ": 1148, " see ": 1149, "ood ": 1150, "around ": 1151, "warn\u2019t ": 1152, "oul": 1153, "ead": 1154, "being ": 1155, "eep": 1156, "of\nthe ": 1157, "lay ": 1158, "Stubb": 1159, "rag": 1160, "for\n": 1161, "\u2019ll": 1162, ".\n\nThe ": 1163, "ore ": 1164, "ham": 1165, "of her ": 1166, "President ": 1167, "ied ": 1168, "in the\n": 1169, "hav": 1170, "amp": 1171, " sp": 1172, "s are ": 1173, "lov": 1174, "near": 1175, "that\n": 1176, "n\u2019t ": 1177, "Whal": 1178, "Queequeg": 1179, "ce, ": 1180, "Gu": 1181, ".5": 1182, "ee": 1183, "oun": 1184, "boat": 1185, "three ": 1186, " him ": 1187, ", c": 1188, "nor": 1189, "such": 1190, "half": 1191, "whole ": 1192, "1986": 1193, "% of GDP": 1194, "ct": 1195, "and the ": 1196, "ead ": 1197, "ough": 1198, "62": 1199, "4,": 1200, ".0": 1201, "atch": 1202, "ing h": 1203, " these ": 1204, " a c": 1205, "ence": 1206, "      ": 1207, "- Geography\nTotal area: ": 1208, "much": 1209, "red": 1210, "add": 1211, "ed him": 1212, "sub": 1213, "I c": 1214, "ed that ": 1215, "girl": 1216, "food ": 1217, "ock": 1218, "rep": 1219, ", he ": 1220, "000": 1221, " me": 1222, "uch ": 1223, " bo": 1224, "ates ": 1225, " three ": 1226, "I had ": 1227, "'": 1228, "morn": 1229, "prov": 1230, "road": 1231, "% arable land; ": 1232, "dr": 1233, ". M": 1234, "follow": 1235, "63": 1236, "% permanent crops; ": 1237, "some": 1238, " in the ": 1239, "ese ": 1240, "inv": 1241, " say": 1242, "had\n": 1243, "world": 1244, " D": 1245, "ren": 1246, " know": 1247, "upon the ": 1248, "ed; ": 1249, "ing to": 1250, "produc": 1251, "their ": 1252, "ed in ": 1253, "fer": 1254, "left ": 1255, " km2; land area: ": 1256, "tw": 1257, "sup": 1258, "s\u2014": 1259, "erv": 1260, ". It was ": 1261, "ing, and ": 1262, " hav": 1263, "quite ": 1264, ". She ": 1265, "with\n": 1266, "ently ": 1267, "Europ": 1268, "didn\u2019t ": 1269, "% forest and woodland; ": 1270, "with a ": 1271, "aus": 1272, "young": 1273, "wher": 1274, " at the ": 1275, "rel": 1276, " more ": 1277, "soon": 1278, "not\n": 1279, "Democratic ": 1280, "\n\nLand use: ": 1281, "ection": 1282, "gre": 1283, "even ": 1284, "men": 1285, "was the ": 1286, "corn": 1287, "done ": 1288, "200": 1289, "government ": 1290, "ith": 1291, " his\n": 1292, "s were ": 1293, "it\u2019s ": 1294, "mast": 1295, "flo": 1296, "oll": 1297, "21": 1298, "reach": 1299, "wr": 1300, "ump": 1301, "ed his ": 1302, ":": 1303, "back ": 1304, "ost": 1305, "raw": 1306, "should ": 1307, "in a ": 1308, "\n\n- People\nPopulation: ": 1309, "\n\nType: ": 1310, " total, ": 1311, "large ": 1312, "cont": 1313, "mil": 1314, "boy": 1315, "ris": 1316, " again": 1317, "farm": 1318, "ess, ": 1319, "emp": 1320, "ho": 1321, "ose ": 1322, "English": 1323, "ins": 1324, "had been": 1325, "de": 1326, "wood": 1327, "cap": 1328, "Ind": 1329, "; th": 1330, "ember": 1331, "star": 1332, "s that ": 1333, ", B": 1334, "Sp": 1335, "52": 1336, ", W": 1337, "try": 1338, "a (": 1339, " B": 1340, "ream": 1341, "once ": 1342, "s in ": 1343, "tern": 1344, "Chin": 1345, "another ": 1346, "fair": 1347, "led ": 1348, ".\u2014": 1349, "word": 1350, "think": 1351, "of h": 1352, "Pro": 1353, "island": 1354, "en the ": 1355, "to h": 1356, ". D": 1357, "ward ": 1358, "one\n": 1359, "fi": 1360, "\u2019t": 1361, "away ": 1362, ". I ": 1363, "next ": 1364, "appear": 1365, "did not ": 1366, "ers, ": 1367, " produc": 1368, "leep": 1369, "uff": 1370, "fur": 1371, "stand": 1372, " down": 1373, "elect": 1374, "e se": 1375, "er and ": 1376, "saw": 1377, "mother": 1378, "54": 1379, "\n\nNatural resources: ": 1380, " (July 1990), growth rate ": 1381, "ement ": 1382, "ried ": 1383, "al s": 1384, "1990": 1385, "e, but ": 1386, "ince ": 1387, "al, ": 1388, "2 ": 1389, " births/1,000 population (1990)\n\nDeath rate: ": 1390, "long ": 1391, "Tom": 1392, "by\n": 1393, " car": 1394, " think": 1395, "keep": 1396, "Inflation rate (consumer prices): ": 1397, " must ": 1398, " pla": 1399, "bec": 1400, " deaths/1,000 live births (1990)\n\nLife expectancy at birth: ": 1401, "eath": 1402, " a d": 1403, "want ": 1404, "clo": 1405, "Un": 1406, "\n\nExchange rates: ": 1407, " est.": 1408, "here ": 1409, "upon ": 1410, "te": 1411, "They ": 1412, "felt ": 1413, "er of ": 1414, "Union": 1415, "People's ": 1416, "French": 1417, "ited ": 1418, "ix": 1419, "ance": 1420, "pres": 1421, "may ": 1422, "It was ": 1423, " per": 1424, "as\n": 1425, " is ": 1426, "e and ": 1427, "eak": 1428, " though": 1429, "\u2019ll ": 1430, "/": 1431, " he s": 1432, "act": 1433, "ativ": 1434, "tru": 1435, "also": 1436, "ani": 1437, ", d": 1438, "rew": 1439, "want": 1440, ". There ": 1441, "sail": 1442, "jud": 1443, "ean": 1444, "ed her ": 1445, "loc": 1446, "It ": 1447, "main": 1448, "ense ": 1449, "last": 1450, "to c": 1451, "drop": 1452, "% (1990)\n\nBirth rate: ": 1453, "\n\n\n": 1454, "grow": 1455, "ness": 1456, "az": 1457, "himself": 1458, "wat": 1459, "!\u2014": 1460, "(19": 1461, "economy ": 1462, "Budget: revenues $": 1463, "f ": 1464, "ting ": 1465, ", A": 1466, " than ": 1467, "make ": 1468, "dom": 1469, "you\n": 1470, "hol": 1471, "mark": 1472, "\n\nAdministrative divisions: ": 1473, "\n\nEthnic divisions: ": 1474, "Unemployment rate: ": 1475, "XX": 1476, "out\n": 1477, "ized ": 1478, "foo": 1479, "; h": 1480, "ll": 1481, " H": 1482, "against ": 1483, "-b": 1484, "thought ": 1485, ",\nI": 1486, " years male, ": 1487, "\n\nCapital: ": 1488, "tor": 1489, "UN": 1490, "\n\nLanguage: ": 1491, "1 A": 1492, "rea": 1493, "ones": 1494, "ext": 1495, "I s": 1496, "ire ": 1497, "held ": 1498, "Council": 1499, "ect ": 1500, "ating ": 1501, "way, ": 1502, "heard ": 1503, "\n\nReligion: ": 1504, "petroleum": 1505, "ic\n": 1506, "round": 1507, "o\u2019": 1508, "exc": 1509, "his\n": 1510, "ot ": 1511, " but ": 1512, "tell ": 1513, "whil": 1514, "door": 1515, "Peter ": 1516, "hap": 1517, "each": 1518, "e, the ": 1519, "si": 1520, "mall": 1521, "pur": 1522, "small": 1523, "hum": 1524, " years female (1990)\n\nTotal fertility rate: ": 1525, "sun": 1526, "ti": 1527, "Comm": 1528, "oy": 1529, "South ": 1530, "I have ": 1531, "jo": 1532, "took": 1533, "ali": 1534, "ff": 1535, "comp": 1536, "Well": 1537, "86": 1538, "% other": 1539, "\n\nLiteracy: ": 1540, "ould": 1541, "500": 1542, " l": 1543, " than": 1544, " ac": 1545, "since ": 1546, "; real growth rate ": 1547, "ingly ": 1548, "        ": 1549, "ook ": 1550, "sw": 1551, "of this ": 1552, "ore": 1553, "ind ": 1554, "Peter": 1555, "would have ": 1556, "96": 1557, "3\n": 1558, ".3": 1559, " km\n\nMaritime claims:": 1560, " much": 1561, "reg": 1562, ". In": 1563, "ature": 1564, ".8": 1565, "call": 1566, "help": 1567, "there was ": 1568, "watch": 1569, "dep": 1570, "\u2014and ": 1571, " on": 1572, "ing that ": 1573, "same ": 1574, "eng": 1575, " de ": 1576, "5,": 1577, "Wendy ": 1578, ", p": 1579, "es,\n": 1580, "ei": 1581, "lip": 1582, "one of the ": 1583, "seemed ": 1584, "TU": 1585, "y, and ": 1586, ",\u201d ": 1587, "del": 1588, "place ": 1589, "fore": 1590, "wal": 1591, "bar": 1592, "ale ": 1593, "flag": 1594, " that\n": 1595, "kill": 1596, " through": 1597, "natur": 1598, "larg": 1599, "employ": 1600, "turned ": 1601, "ew ": 1602, "under ": 1603, "I don\u2019t ": 1604, "natural ": 1605, " million kWh produced,\n": 1606, "rip": 1607, "mak": 1608, "brea": 1609, "ount": 1610, "sto": 1611, "ater": 1612, "yet": 1613, "New ": 1614, "ative ": 1615, "57": 1616, "\n\n- Government\nLong-form name: ": 1617, "O, I": 1618, ".9": 1619, "1985": 1620, "rom": 1621, "plac": 1622, "ed in the ": 1623, "hand ": 1624, "ation of ": 1625, ", G": 1626, "     ": 1627, "Sea": 1628, " himself": 1629, "these ": 1630, "fix": 1631, "97": 1632, "\n0": 1633, ") per US$1--": 1634, ". F": 1635, "ek": 1636, "into ": 1637, "read ": 1638, " ship": 1639, "tain ": 1640, "import": 1641, "AP": 1642, " re": 1643, "ately ": 1644, "ree ": 1645, "vol": 1646, "thou": 1647, "Sh": 1648, "ird": 1649, "ick ": 1650, "cal": 1651, "den": 1652, " ab": 1653, "bow": 1654, "ez": 1655, "of my ": 1656, "\u2019t ": 1657, "94": 1658, "th, ": 1659, "known": 1660, "ing a ": 1661, "four": 1662, "as the ": 1663, "claim": 1664, " still": 1665, "you c": 1666, " sa": 1667, "53": 1668, "nation": 1669, "imm": 1670, "wif": 1671, "but": 1672, "e she ": 1673, " seem": 1674, "e so": 1675, ",\u201d she ": 1676, "- ": 1677, ".7": 1678, "partners--": 1679, "gone ": 1680, "eer": 1681, "ing to ": 1682, "chang": 1683, "full": 1684, "IC": 1685, "gentlem": 1686, "84": 1687, "Tess": 1688, "allow": 1689, "world ": 1690, "vent": 1691, "yself": 1692, "water ": 1693, "for m": 1694, "wer": 1695, "wom": 1696, "US ": 1697, "ished ": 1698, ".\u201d ": 1699, "that the ": 1700, " for": 1701, "befor": 1702, ".2": 1703, "mb": 1704, " it ": 1705, "new ": 1706, "prec": 1707, " L": 1708, "Why, ": 1709, ", T": 1710, "fear": 1711, ". L": 1712, "dark": 1713, "uty ": 1714, "uck ": 1715, "tur": 1716, "hel": 1717, "\n\n\u201c": 1718, "arch": 1719, "of that ": 1720, "ustr": 1721, "s to ": 1722, "lead": 1723, "black": 1724, " could ": 1725, "ouldn\u2019t ": 1726, ", O": 1727, "sist": 1728, "ich": 1729, "ed by the ": 1730, "col": 1731, "set ": 1732, " thought ": 1733, "pot": 1734, "bla": 1735, ".\n\nA": 1736, "AR": 1737, " part": 1738, "ped ": 1739, ".4": 1740, "\n\nIndependence: ": 1741, " kWh per capita (1989)\n\nIndustries: ": 1742, "val": 1743, "it, and ": 1744, "mod": 1745, "ing up": 1746, "ett": 1747, "tar": 1748, "AN": 1749, "self": 1750, "continu": 1751, "\n\nNote: ": 1752, "cor": 1753, "them ": 1754, "Oh, ": 1755, " that": 1756, "clos": 1757, "know ": 1758, "life ": 1759, "cla": 1760, "ilit": 1761, "machin": 1762, "300": 1763, "let": 1764, "vel": 1765, "amb": 1766, " a h": 1767, " can": 1768, "March ": 1769, "Communist ": 1770, "would be ": 1771, "per ": 1772, "bu": 1773, "food": 1774, "                        ": 1775, " children born/woman (1990)\n\nNationality: noun--": 1776, "find ": 1777, " cl": 1778, "kind ": 1779, "ten": 1780, ". W": 1781, "ject": 1782, "lay": 1783, "a little ": 1784, "wid": 1785, "that\u2019s ": 1786, "quick": 1787, "\n\nCivil air: ": 1788, "ros": 1789, "many ": 1790, "ne ": 1791, "years ": 1792, "were\n": 1793, " ha": 1794, " some": 1795, "; so": 1796, " don\u2019t ": 1797, "ident": 1798, ": s": 1799, ");\ncommodities--": 1800, ",000 kW capacity; ": 1801, "Party (": 1802, "%,\n": 1803, "ould ": 1804, "but\n": 1805, "crew": 1806, "or, ": 1807, "Pol": 1808, "ably ": 1809, "ibl": 1810, "direc": 1811, "e.\n\n\u201c": 1812, "lig": 1813, ")\n\nConstitution: ": 1814, "\n\n- Defense Forces\nBranches: ": 1815, " (1988), ": 1816, "ust ": 1817, "what": 1818, "enter": 1819, " such": 1820, "usp": 1821, "coff": 1822, "under the ": 1823, "met": 1824, " think ": 1825, "iet": 1826, "people ": 1827, "boat ": 1828, "]": 1829, "GNP": 1830, " km2\n\nComparative area: slightly ": 1831, "says:\n\n\u201c": 1832, "deep": 1833, "among": 1834, "nar": 1835, "John": 1836, "rid": 1837, "num": 1838, "itself": 1839, "ute ": 1840, " str": 1841, "beg": 1842, "e; and ": 1843, "area": 1844, "\n\nImports: $": 1845, ".6": 1846, " AM, ": 1847, "awa": 1848, ". P": 1849, "to see ": 1850, "fron": 1851, " so ": 1852, "ome\n": 1853, "could not ": 1854, "start": 1855, ", or ": 1856, "she was ": 1857, "ilitary ": 1858, "agricultur": 1859, "reck": 1860, "pris": 1861, "did": 1862, "get": 1863, "gent": 1864, "ent\n": 1865, "ing at ": 1866, "oci": 1867, "government": 1868, "(s); adjective--": 1869, " (1986), ": 1870, "For": 1871, "whom": 1872, "There ": 1873, "with his ": 1874, "ru": 1875, "draw": 1876, "to his ": 1877, "ystem": 1878, "mp": 1879, "aid ": 1880, "oup": 1881, "lack": 1882, " bel": 1883, "oub": 1884, "ik": 1885, "for a ": 1886, "try ": 1887, "fully ": 1888, "United ": 1889, "rap": 1890, "export": 1891, "                ": 1892, "franc": 1893, "Starbuck": 1894, "work ": 1895, "ans": 1896, "rock": 1897, "-s": 1898, "ept": 1899, "ber ": 1900, "includ": 1901, " (1987), ": 1902, " those ": 1903, "is a ": 1904, "answer": 1905, "mind ": 1906, "town": 1907, "fall": 1908, "quar": 1909, "mid": 1910, "others ": 1911, "time, ": 1912, " did ": 1913, ". N": 1914, "es (": 1915, "83": 1916, " billion (": 1917, "Party (P": 1918, "east": 1919, "consider": 1920, "arb": 1921, "utter": 1922, "ons ": 1923, "October ": 1924, "bear": 1925, "gave ": 1926, " cent": 1927, "\u2019ve ": 1928, ") and ": 1929, "industri": 1930, "'s ": 1931, "atter": 1932, "erc": 1933, "tom": 1934, "wea": 1935, " he had ": 1936, "ken": 1937, "lan": 1938, "earn": 1939, "house ": 1940, "%\n\nLabor force: ": 1941, "\n\nExternal debt: $": 1942, ")\n\nPolitical parties and leaders: ": 1943, "ity of ": 1944, "ed it ": 1945, "How": 1946, "fell": 1947, "lean": 1948, "mean": 1949, "litt": 1950, "window": 1951, "ed.\n\n": 1952, "ance, ": 1953, "sl": 1954, "non": 1955, " short": 1956, " system": 1957, "93": 1958, "Electricity: ": 1959, ".1": 1960, " usable; ": 1961, " major transport aircraft\n\nAirports: ": 1962, "hab": 1963, " man": 1964, "ed on": 1965, "eav": 1966, " saw": 1967, "line ": 1968, "least ": 1969, "Ter": 1970, " do ": 1971, "tood ": 1972, "another": 1973, "sol": 1974, "Yes": 1975, "econom": 1976, "ian, ": 1977, "Ma": 1978, "y (": 1979, " total) ": 1980, ", WHO": 1981, "); commodities--": 1982, "En": 1983, "leav": 1984, "od ": 1985, ".\u201d": 1986, " up": 1987, "\nof ": 1988, "Cap": 1989, "how ": 1990, "down ": 1991, "flu": 1992, "y; ": 1993, "put": 1994, "band": 1995, "92": 1996, "pec": 1997, "Qu": 1998, "in, ": 1999, "e;": 2000, "ai": 2001, "when the ": 2002, " her\n": 2003, " (next to be held ": 2004, "itch": 2005, ". This ": 2006, "anim": 2007, "warm": 2008, "coun": 2009, "out of ": 2010, "ake ": 2011, "tend": 2012, "tly ": 2013, "then, ": 2014, "ible ": 2015, "one s": 2016, ". You": 2017, "Party ": 2018, "NEGL": 2019, "fast": 2020, "bre": 2021, " might ": 2022, "s in": 2023, "north": 2024, "idea": 2025, "wonder": 2026, "took ": 2027, "ought ": 2028, "mur": 2029, "s;\n": 2030, "herself": 2031, "stitution": 2032, "82": 2033, "I could ": 2034, "iam": 2035, ", N": 2036, "oud": 2037, ". The\n": 2038, "ok": 2039, "was, ": 2040, "use ": 2041, "reckon": 2042, "150": 2043, "1.4": 2044, " K": 2045, "mad": 2046, "ach": 2047, "view": 2048, "We ": 2049, "look ": 2050, "mov": 2051, "er,\n": 2052, "ity, ": 2053, "question": 2054, "was": 2055, "es the ": 2056, "IN": 2057, "whe": 2058, "div": 2059, "eral ": 2060, "looking ": 2061, "to get ": 2062, "ous\n": 2063, "iec": 2064, "cour": 2065, "laugh": 2066, "present ": 2067, "oh": 2068, "thing, ": 2069, "manufactur": 2070, "State ": 2071, ";\npartners--": 2072, "Car": 2073, "econd ": 2074, "bod": 2075, "touch": 2076, "ga": 2077, "be\n": 2078, "few": 2079, "as if": 2080, "mind": 2081, "chair": 2082, "wouldn\u2019t ": 2083, "ed.\n\n\u201c": 2084, "Indian Oce": 2085, " P": 2086, "French ": 2087, "\n\nCommunists: ": 2088, " cargo, ": 2089, "y the ": 2090, "king": 2091, "y,\n": 2092, "t of the ": 2093, "nothing": 2094, ".\n\nBut ": 2095, "why ": 2096, "process": 2097, "rit": 2098, " stand": 2099, "lor": 2100, " with ": 2101, "h, ": 2102, "DB": 2103, "6,": 2104, "tanker, ": 2105, " him, ": 2106, " may ": 2107, "les ": 2108, "out of the ": 2109, "though ": 2110, "al h": 2111, "present": 2112, "lag": 2113, "ition": 2114, "father": 2115, "rab": 2116, "AS": 2117, "crop": 2118, "ors ": 2119, "ously ": 2120, "ress ": 2121, "ben": 2122, "pretty ": 2123, "rush": 2124, " mon": 2125, "ing about ": 2126, "from\n": 2127, "moment ": 2128, "show": 2129, "ts, ": 2130, "anuary ": 2131, "ically ": 2132, "whose ": 2133, "ser": 2134, "away": 2135, " before ": 2136, "bas": 2137, "the d": 2138, "they": 2139, "Mal": 2140, "stor": 2141, "yard": 2142, "who had ": 2143, "..": 2144, "ing in": 2145, "ome s": 2146, "an a": 2147, "ay, ": 2148, "duc": 2149, "have been": 2150, " mor": 2151, ",\u2014": 2152, "need": 2153, "umb": 2154, "ed at ": 2155, "th of ": 2156, "ia\n": 2157, "                  ": 2158, "FRG": 2159, ", WMO": 2160, " billion, per capita $": 2161, " (plural--": 2162, "Gre": 2163, "-p": 2164, "So": 2165, "really ": 2166, "\u2019em": 2167, "you know": 2168, "rac": 2169, "ari": 2170, ")\n\nL": 2171, " deaths/1,000 population (1990)\n\nNet migration rate: ": 2172, "gricultur": 2173, "called ": 2174, "Pacific Oce": 2175, " by the ": 2176, "of their": 2177, "account": 2178, "serv": 2179, "house": 2180, "plain": 2181, "heav": 2182, "ye, ": 2183, " acc": 2184, "P ": 2185, "rose ": 2186, "pir": 2187, "1,220-2,439 m\n\nTelecommunications: ": 2188, "% (1988)\n\n": 2189, "I can": 2190, "myself": 2191, "ate": 2192, "this": 2193, "hun": 2194, "cop": 2195, "def": 2196, "if I": 2197, "both": 2198, "lam": 2199, "fect": 2200, "yellow": 2201, "mostly ": 2202, "rup": 2203, "she\n": 2204, "% other; includes ": 2205, "% meadows and pastures;\n": 2206, "Now": 2207, "t\u2019s ": 2208, "ground": 2209, "s, the ": 2210, "you, ": 2211, "no\n": 2212, "love ": 2213, " sup": 2214, "rough": 2215, "famil": 2216, "International ": 2217, "USSR": 2218, "CC": 2219, "II": 2220, "s; and ": 2221, "s;": 2222, "wear": 2223, "Stat": 2224, "elf": 2225, "ago": 2226, " say ": 2227, "those ": 2228, "me, ": 2229, "stood ": 2230, "times ": 2231, "men ": 2232, "ies, ": 2233, "only": 2234, "Per": 2235, "vil": 2236, ", K": 2237, "group": 2238, "180": 2239, " (1989), ": 2240, "US Embassy)": 2241, "HAPTER ": 2242, "tow": 2243, "Cour": 2244, "ful ": 2245, "are\n": 2246, "art ": 2247, "cover": 2248, "to the\n": 2249, "first": 2250, "ia, ": 2251, "s in the ": 2252, ", with": 2253, "ular": 2254, "rig": 2255, "don": 2256, " or ": 2257, " dollar": 2258, "Arab": 2259, "\n\n- Communications\nRailroads: ": 2260, "\n\nMilitary manpower: males 15-49, ": 2261, "7,": 2262, "Mo": 2263, "rais": 2264, "occasion": 2265, "?\u2014": 2266, " to\n": 2267, "represent": 2268, "kept ": 2269, "fet": 2270, "cess": 2271, " he was ": 2272, "eason": 2273, "Forc": 2274, "Nav": 2275, "600": 2276, "TV": 2277, "Cons": 2278, "say ": 2279, "e! ": 2280, "behind ": 2281, "stand ": 2282, "thern": 2283, "track": 2284, "children": 2285, "fre": 2286, "Oh": 2287, "EL": 2288, " mean": 2289, "oft": 2290, "ened ": 2291, " sub": 2292, "dur": 2293, "woman": 2294, ", L": 2295, "trade ": 2296, "she had ": 2297, "250": 2298, "2\n": 2299, "ess\n": 2300, "gla": 2301, "fort": 2302, "atur": 2303, " should ": 2304, "to a": 2305, "sir": 2306, "ack ": 2307, "order": 2308, "consc": 2309, "in this ": 2310, "pose ": 2311, "sil": 2312, "ing them": 2313, "ually ": 2314, "ubb": 2315, "\n\n\nCHAPTER ": 2316, "400": 2317, "160": 2318, "gaug": 2319, "Cha": 2320, "leng": 2321, "ition ": 2322, "ing it ": 2323, "fa": 2324, "I know": 2325, " (from ": 2326, "\n\nNational holiday: ": 2327, "\n\nDiplomatic representation: Ambassador ": 2328, "can ": 2329, "green": 2330, ", which": 2331, " comm": 2332, "iar": 2333, "Yes, ": 2334, "ause ": 2335, "Sen": 2336, "troubl": 2337, "raft ": 2338, "brought ": 2339, "whale, ": 2340, "er-": 2341, "gain": 2342, "aint ": 2343, "does ": 2344, "ed. \u201c": 2345, "was a ": 2346, "ral ": 2347, "five ": 2348, "iron": 2349, "\u2019re ": 2350, "Western": 2351, "including ": 2352, "\n\nLand boundaries: ": 2353, "\n\nMerchant marine: ": 2354, "HE": 2355, "name ": 2356, " the s": 2357, "wish": 2358, "ations ": 2359, "in m": 2360, "iev": 2361, "ission": 2362, "sever": 2363, " hour": 2364, "irt": 2365, "ific": 2366, "busin": 2367, "ious": 2368, "dear": 2369, "too ": 2370, "temper": 2371, "hour": 2372, "ents ": 2373, "ed for": 2374, "fru": 2375, " Is": 2376, "product": 2377, "Assembl": 2378, ")\n\nOrganized labor: ": 2379, " (1988": 2380, "radio re": 2381, "AL": 2382, "hop": 2383, "less": 2384, "ceed": 2385, "from his ": 2386, "just": 2387, "on his ": 2388, "Captain ": 2389, "particular": 2390, "wards ": 2391, "hold": 2392, "eful": 2393, "they\n": 2394, ", with ": 2395, "nor ": 2396, "servic": 2397, "ox": 2398, "q": 2399, " February ": 2400, "C, I": 2401, "log": 2402, "ird ": 2403, "bea": 2404, "neg": 2405, "each ": 2406, "mall ": 2407, "fig": 2408, "ER": 2409, "Geor": 2410, "Austral": 2411, "nigg": 2412, ";\nseats--(": 2413, " billion (f.o.b., ": 2414, "ying ": 2415, "poor": 2416, "bes": 2417, "pra": 2418, "fire": 2419, "Not ": 2420, "pointed ": 2421, "blue ": 2422, "ee, ": 2423, "anything ": 2424, "knew": 2425, "mountain": 2426, "lab": 2427, ", H": 2428, "\n\n- Economy\nOverview: ": 2429, "% (1989 est.)\n\n": 2430, "10 ": 2431, ")\n----------------------------------------------------\nCountry:  ": 2432, "; Embassy at ": 2433, " migrants/1,000 population (1990)\n\nInfant mortality rate: ": 2434, " September ": 2435, "Nantuck": 2436, "eness ": 2437, "son": 2438, "anish": 2439, "ati": 2440, "like a ": 2441, "fr": 2442, "less than ": 2443, "pap": 2444, "think ": 2445, " des": 2446, "se, ": 2447, "iet ": 2448, "like the ": 2449, ",\u201d he ": 2450, "to be\n": 2451, "fool": 2452, "ton": 2453, "bra": 2454, "gold": 2455, "hill": 2456, ", U": 2457, " km\n\nCoastline: ": 2458, " (next ": 2459, "aid": 2460, " thing": 2461, "!\u201d ": 2462, "ous, ": 2463, " G": 2464, "cott": 2465, "ed,\n": 2466, "church": 2467, "to do": 2468, "oper": 2469, "ual": 2470, "pow": 2471, "350": 2472, "--last held ": 2473, " December ": 2474, " (1986": 2475, "ides ": 2476, " he\n": 2477, "certain": 2478, "i ": 2479, "y and ": 2480, "nearly ": 2481, ", so": 2482, "su": 2483, "s and\n": 2484, "ool": 2485, "e. But ": 2486, " beg": 2487, "hous": 2488, "le, ": 2489, "May ": 2490, "in that ": 2491, "the same ": 2492, "iron ": 2493, "spec": 2494, "e.\u201d\n\n\u201c": 2495, "e. \u201c": 2496, "live ": 2497, "iqu": 2498, "dollar": 2499, "domin": 2500, "Part": 2501, "oar": 2502, "% ind": 2503, "\n\nEx": 2504, "to have ": 2505, "whales ": 2506, "selves ": 2507, "ordin": 2508, "observ": 2509, "pers": 2510, "friend": 2511, "be s": 2512, "ign ": 2513, "umin": 2514, "off ": 2515, "gas": 2516, "we\n": 2517, "minist": 2518, "ross ": 2519, "ask": 2520, "position": 2521, "road ": 2522, "Liber": 2523, "CP": 2524, " million (f.o.b., ": 2525, " TV": 2526, "\n\nPorts: ": 2527, "d\u2019Urbervill": 2528, "mis": 2529, "Whale ": 2530, "ing; ": 2531, "isc": 2532, "evil": 2533, "pleas": 2534, "\nthat ": 2535, "ort of ": 2536, "person": 2537, "point": 2538, "differ": 2539, "voy": 2540, "ed her": 2541, "ning ": 2542, "anch": 2543, " made ": 2544, "Can": 2545, "s.\n": 2546, "\u2019n": 2547, "ization": 2548, "Turk": 2549, "800": 2550, "mailing address is ": 2551, "Clar": 2552, "Sperm ": 2553, "whale-": 2554, "bot": 2555, "which the ": 2556, "arp": 2557, "This ": 2558, "return": 2559, "God": 2560, "e;\n": 2561, "ore, ": 2562, "November ": 2563, " prov": 2564, "inde": 2565, "was not ": 2566, "lash": 2567, "al d": 2568, "unc": 2569, ". So": 2570, "s of\n": 2571, "Mrs ": 2572, "in her ": 2573, "fri": 2574, " November ": 2575, "              ": 2576, "ays ": 2577, "fif": 2578, "oce": 2579, "they were ": 2580, "ed to\n": 2581, "et, ": 2582, "tion ": 2583, "ubl": 2584, "itation": 2585, "rather ": 2586, " dist": 2587, "ugg": 2588, "edge ": 2589, " show": 2590, "laid ": 2591, "s:": 2592, "France": 2593, "Republic": 2594, "190": 2595, "170": 2596, "700": 2597, "Roman Catholic": 2598, ") = 100 cent": 2599, " million\n\nCurrency: ": 2600, " June ": 2601, "quir": 2602, " high": 2603, "captain": 2604, "ey\n": 2605, "would\n": 2606, "to make ": 2607, "Or": 2608, "now, ": 2609, "something ": 2610, "ed as ": 2611, "bed": 2612, "ium": 2613, " head": 2614, "ism": 2615, "ond ": 2616, "Dep": 2617, " how": 2618, "ustom": 2619, "ities ": 2620, "PU": 2621, "word ": 2622, "between ": 2623, "; there ": 2624, "140": 2625, "population": 2626, "Republic of ": 2627, "Judicial branch: Supreme Cour": 2628, ".\n\nGDP: $": 2629, "ture": 2630, "har": 2631, "tear": 2632, "os ": 2633, "country ": 2634, "bul": 2635, "tail": 2636, "important ": 2637, "yst": 2638, "whalem": 2639, "ence, ": 2640, " heard ": 2641, " that the ": 2642, "whol": 2643, " min": 2644, "I\u2019ll": 2645, "iffer": 2646, "struc": 2647, "t (": 2648, "gas, ": 2649, "\n\nAid: US commitments, including Ex-Im (FY": 2650, "70-88), $": 2651, " F": 2652, "ions ": 2653, "I am": 2654, "alm": 2655, "mouth": 2656, "best ": 2657, "outh ": 2658, "itud": 2659, "sav": 2660, "stit": 2661, "y s": 2662, "var": 2663, "eless ": 2664, "reas": 2665, "to st": 2666, "? I": 2667, "Stra": 2668, "adv": 2669, "except ": 2670, " said": 2671, "CA": 2672, "\n\nClimate: ": 2673, "uel": 2674, "clear": 2675, "hil": 2676, "kind": 2677, "ling ": 2678, " bl": 2679, "step": 2680, "gaz": 2681, " sail": 2682, "ness, ": 2683, "temp": 2684, "hur": 2685, "explo": 2686, "through the ": 2687, "ves ": 2688, "mann": 2689, "prob": 2690, "es of the ": 2691, "row ": 2692, "ended ": 2693, "upper": 2694, "lef": 2695, "ark ": 2696, "American ": 2697, "occup": 2698, "ould\n": 2699, "up and ": 2700, "Cong": 2701, "You ": 2702, "level": 2703, "arms ": 2704, "ally": 2705, "lower": 2706, "Cent": 2707, "e (": 2708, "198": 2709, "ty": 2710, "pain": 2711, "Par": 2712, "us, ": 2713, "And": 2714, "child": 2715, "break": 2716, ", and he ": 2717, "to him": 2718, "lands ": 2719, "olom": 2720, "120": 2721, "\n\nDisputes: ": 2722, "FAO, G-77": 2723, "\n\nTerrain: ": 2724, ",9": 2725, "Work": 2726, "Sa": 2727, "hea": 2728, "lost ": 2729, "will be ": 2730, "That ": 2731, " sea": 2732, ", sir": 2733, "all, ": 2734, "the c": 2735, "epar": 2736, "eat": 2737, "cat": 2738, "see": 2739, "rang": 2740, "leave ": 2741, "have\n": 2742, "s for": 2743, "happ": 2744, "tin": 2745, " she had ": 2746, "4\n": 2747, "110": 2748, "DP": 2749, ", IBRD, ICA": 2750, "), $": 2751, "\n\nHighways: ": 2752, " ships (1,000 GRT or over) totaling ": 2753, "O, IDA": 2754, " passeng": 2755, "tourism": 2756, "here": 2757, "Michael": 2758, " their\n": 2759, "omin": 2760, "jump": 2761, "still ": 2762, "ons": 2763, "ame ": 2764, " says ": 2765, "ing him": 2766, ". We ": 2767, " come ": 2768, "East ": 2769, "117": 2770, "Franc": 2771, "Lu": 2772, "GDP": 2773, "telephone [": 2774, "Ger": 2775, "          ": 2776, "ometimes ": 2777, "mot": 2778, "ed with ": 2779, "coast": 2780, "ourn": 2781, "ation, ": 2782, "int ": 2783, "already ": 2784, "ing,\n": 2785, "man, ": 2786, "in\u2019": 2787, "again ": 2788, "to-": 2789, "strang": 2790, "ed them": 2791, "stra": 2792, "Ports: ": 2793, "\n\nLeaders:\nChief of State--": 2794, "Clare ": 2795, "vessel": 2796, "thre": 2797, "zz": 2798, "A ": 2799, "arl": 2800, "ing to the ": 2801, "vers": 2802, "rev": 2803, ", I ": 2804, "hon": 2805, "deck": 2806, "al c": 2807, "rather": 2808, "olic": 2809, "wait": 2810, " af": 2811, "Japan": 2812, "750": 2813, "Jan": 2814, "fishing ": 2815, " km, ": 2816, "Exports: $": 2817, "Commun": 2818, "HAPTER": 2819, "!\n": 2820, "\u2014_": 2821, "-head": 2822, "West ": 2823, "uddenly ": 2824, "close ": 2825, "iter": 2826, "carri": 2827, "age, ": 2828, ". For": 2829, " dec": 2830, "antly ": 2831, "often": 2832, "Bel": 2833, "talk": 2834, "O ": 2835, "ary\n": 2836, "hoist ": 2837, "Industrial production: growth rate ": 2838, " telephones; stations--": 2839, "% (1989)\n\n": 2840, " million; expenditures $": 2841, "of a\n": 2842, "ent, ": 2843, "perm": 2844, "On": 2845, " po": 2846, "around": 2847, "No, ": 2848, "ieve ": 2849, "were s": 2850, "iel": 2851, "experi": 2852, "ery, ": 2853, "y of ": 2854, "ie": 2855, "\u2014\u201d\n\n\u201c": 2856, "gun": 2857, "estic": 2858, "450": 2859, "\n\nMember of: A": 2860, " (1987": 2861, " July ": 2862, "% of the ": 2863, "ter-": 2864, "All": 2865, "Mon": 2866, " and the ": 2867, "fanc": 2868, " sid": 2869, "sleep": 2870, " many ": 2871, "bey": 2872, "est\n": 2873, "matter": 2874, "ed, \u201c": 2875, " make ": 2876, "part ": 2877, "poor ": 2878, "ivil": 2879, "ident ": 2880, "its\n": 2881, "compan": 2882, "a good ": 2883, "e. The ": 2884, "in\nthe ": 2885, "ision": 2886, "a,\n": 2887, "ustry ": 2888, "380": 2889, "6\n": 2890, "republic": 2891, "president": 2892, "1.5": 2893, "\n\nFlag: ": 2894, " as the ": 2895, "So ": 2896, "together": 2897, "ern ": 2898, "fellow": 2899, "had been ": 2900, "ively ": 2901, "island ": 2902, "on the\n": 2903, "ech": 2904, "field": 2905, "thus ": 2906, " that, ": 2907, "ude ": 2908, "chas": 2909, "reason": 2910, "clus": 2911, "ettl": 2912, "couldn\u2019t ": 2913, " half": 2914, "however, ": 2915, "yes": 2916, "radi": 2917, "ral": 2918, "vert": 2919, "union": 2920, "Muslim": 2921, "FM, ": 2922, ",0": 2923, "Tess, ": 2924, ".\u2014The ": 2925, "III": 2926, "ary": 2927, "eir": 2928, "Pr": 2929, "resp": 2930, "thr": 2931, "ers (": 2932, "e, as ": 2933, "harpoone": 2934, "Now, ": 2935, "between": 2936, "dog": 2937, "\u2014the ": 2938, "conf": 2939, "I\u2019ve ": 2940, "along the ": 2941, "he\u2019s ": 2942, " back": 2943, "things ": 2944, "t and ": 2945, "down the ": 2946, "sy": 2947, "Rom": 2948, "o\n": 2949, "rate ": 2950, "ject ": 2951, "Pequod": 2952, " them ": 2953, "ron": 2954, "expect": 2955, "s. The ": 2956, "ication": 2957, "1,000": 2958, "une ": 2959, "Then ": 2960, "economic": 2961, "650": 2962, "1 J": 2963, "December ": 2964, " km; ": 2965, "products, ": 2966, "%, US ": 2967, "\n\nAgriculture: accounts for ": 2968, "none (": 2969, "Que": 2970, "is not ": 2971, "fore ": 2972, "stat": 2973, "er\u2019s ": 2974, "ld ": 2975, "feet ": 2976, "rib": 2977, "vic": 2978, "chief": 2979, " am": 2980, ":\n\n\u201c": 2981, "test": 2982, "door ": 2983, "ely\n": 2984, "none ": 2985, "s.\n\n\u201c": 2986, "cand": 2987, "complet": 2988, "udd": 2989, "which, ": 2990, "hom": 2991, " met": 2992, "prim": 2993, "bout ": 2994, "i, ": 2995, "bin": 2996, "OR": 2997, "woman ": 2998, "uz": 2999, ", NA": 3000, "\n\nClimate: tropical": 3001, "\n C": 3002, "board": 3003, "ese\n": 3004, "ed a ": 3005, "day, ": 3006, "ion of the ": 3007, "char": 3008, "agn": 3009, "rif": 3010, "aul": 3011, "fir": 3012, "interest": 3013, "ular ": 3014, "cool": 3015, "eat ": 3016, "most\n": 3017, "liqu": 3018, "of him": 3019, "early ": 3020, "ram": 3021, "Christian": 3022, "voic": 3023, "ener": 3024, "east ": 3025, " and\n": 3026, "Air ": 3027, "North ": 3028, "islative ": 3029, "Council of Minist": 3030, "foodstuff": 3031, "; Chanc": 3032, "Mrs. G": 3033, "yn": 3034, "glo": 3035, " to be ": 3036, "no s": 3037, "aught ": 3038, "My ": 3039, "which was ": 3040, "fresh": 3041, "in my ": 3042, " after": 3043, "you are ": 3044, "prof": 3045, "dition": 3046, "far ": 3047, "ing of ": 3048, "rest ": 3049, "fol": 3050, "much ": 3051, "it; ": 3052, "mir": 3053, "commun": 3054, "up the ": 3055, "station": 3056, "ulates ": 3057, "112": 3058, "Gover": 3059, "-meter gaug": 3060, " (official": 3061, ";\nUS--Ambassador ": 3062, " km pav": 3063, "P), ": 3064, "percent of vote by party NA;\nseats--(": 3065, "e.\n": 3066, "trac": 3067, "jaw": 3068, "region": 3069, "curr": 3070, "offic": 3071, "ban": 3072, "ed s": 3073, "bor": 3074, "till ": 3075, "a st": 3076, "rest": 3077, "in\u2019t ": 3078, "big": 3079, "cer": 3080, "hid": 3081, "ally\n": 3082, "cabin": 3083, "a th": 3084, "ances ": 3085, "!\u201d she ": 3086, "fores": 3087, "field ": 3088, "Ital": 3089, "s;\npartners--": 3090, "improved earth": 3091, "atellite ": 3092, "NA%": 3093, "vegetabl": 3094, "with runways 2,440-3,659 m; ": 3095, ")\n\nExports: $": 3096, "\n\nLand boundaries: none\n\nCoastline: ": 3097, "ing the\n": 3098, "there, ": 3099, "also ": 3100, ". E": 3101, "that he ": 3102, "er of the ": 3103, "we s": 3104, " mar": 3105, " among": 3106, "thy ": 3107, "more than ": 3108, "osph": 3109, "able, ": 3110, " things ": 3111, "lock": 3112, "n\u2019t": 3113, "kn": 3114, "to do ": 3115, "rick": 3116, "ature ": 3117, "flow": 3118, "that, ": 3119, "asked ": 3120, "body": 3121, "largest ": 3122, "maid": 3123, "Q": 3124, "ground ": 3125, "forest": 3126, "ean ": 3127, "y at ": 3128, "British": 3129, "Hook": 3130, "% meadows and\npastures; ": 3131, "LO, IMF, I": 3132, "Army, ": 3133, "1.0": 3134, "Judicial branch: ": 3135, "Japan ": 3136, "\n\nLegal system: based on ": 3137, " May ": 3138, "General in ": 3139, "pan": 3140, "are s": 3141, " this\n": 3142, "\n    ": 3143, "children ": 3144, "ing of the ": 3145, "would not ": 3146, "origin": 3147, "re ": 3148, "anx": 3149, "clud": 3150, "fro": 3151, "ept ": 3152, "letter": 3153, "winter": 3154, "New Zeal": 3155, ". C": 3156, "perhaps ": 3157, "FA": 3158, "dead": 3159, "HO": 3160, "iss ": 3161, "course ": 3162, "est.": 3163, "FY": 3164, " km\n": 3165, ",5": 3166, ") annually\n\nDefense expenditures: ": 3167, "% agriculture, ": 3168, "Tr": 3169, "wall": 3170, "which\n": 3171, "sel": 3172, "ott": 3173, "t was ": 3174, "hapter ": 3175, "soul": 3176, " bet": 3177, "ither": 3178, "wild ": 3179, "dead ": 3180, ". So ": 3181, "better": 3182, "listen": 3183, "increas": 3184, "n\u2019t\n": 3185, "e. I": 3186, " away ": 3187, "ax": 3188, "s, but ": 3189, "ctic": 3190, "Pet": 3191, "express": 3192, "poin": 3193, "stair": 3194, "of her": 3195, "ES": 3196, "construction": 3197, "west ": 3198, "ivers": 3199, "pril": 3200, "1980": 3201, "Socialist ": 3202, "livestock": 3203, ")\n\n- ": 3204, ", UN, UNESCO, UPU": 3205, "learn": 3206, "above ": 3207, "Americ": 3208, "turn ": 3209, "of these ": 3210, "possibl": 3211, "s, and\n": 3212, "it\u2014": 3213, "er, and ": 3214, "gan": 3215, "began ": 3216, "reserv": 3217, "er than ": 3218, "March": 3219, "home ": 3220, "side": 3221, "118": 3222, "sugar": 3223, "NA%\n\n": 3224, "with runways ": 3225, "efense ": 3226, "US Consulate ": 3227, "\n\nExtended economic zone: 200 nm;\n\nTerritorial sea: 12 nm": 3228, "Ex": 3229, "XV": 3230, "to a ": 3231, "ing out ": 3232, "an in": 3233, "prom": 3234, "As ": 3235, "wide ": 3236, "better ": 3237, "ed to the ": 3238, "regular": 3239, ". What ": 3240, "ut\n": 3241, "concern": 3242, "middle ": 3243, "dem": 3244, "eleg": 3245, "pull": 3246, "him, ": 3247, "opul": 3248, "develop": 3249, "reli": 3250, " dis": 3251, "ing her ": 3252, "recogn": 3253, "glad ": 3254, "Portug": 3255, ",000; ": 3256, "textiles, ": 3257, " (1985)\n\nFiscal year: calendar year": 3258, "PR": 3259, "rot": 3260, "late ": 3261, " co": 3262, "great": 3263, "sec": 3264, "e_": 3265, "bal": 3266, "spir": 3267, "New York": 3268, ". G": 3269, "oon": 3270, "from the\n": 3271, ". THE": 3272, "my\n": 3273, "desert": 3274, "ator": 3275, "embl": 3276, ", so ": 3277, "al and ": 3278, "too, ": 3279, "olit": 3280, "ed\u2014": 3281, "ipp": 3282, "EA": 3283, ". That ": 3284, "hist": 3285, "ceiv": 3286, "til": 3287, "sing": 3288, "walk": 3289, ".\u201d\n\n\u201cWell, ": 3290, ",\u201d he said": 3291, "480": 3292, "\n\nAgriculture: ": 3293, "Islands ": 3294, "Pacif": 3295, "ways ": 3296, "ese, ": 3297, "trans": 3298, "ones ": 3299, "hold ": 3300, "respect": 3301, "unn": 3302, "so\n": 3303, " hel": 3304, "ank ": 3305, "consist": 3306, "as he ": 3307, "General ": 3308, "cano": 3309, "erself": 3310, " R": 3311, "SC": 3312, "Sw": 3313, "dair": 3314, "115": 3315, "780": 3316, "reach military age (": 3317, "1,0": 3318, "ification": 3319, "s! ": 3320, "weal": 3321, "ing in the ": 3322, "ousand ": 3323, "swe": 3324, "ed me ": 3325, "miss": 3326, ". In ": 3327, "priv": 3328, "gain ": 3329, "true ": 3330, "ed out ": 3331, " a mom": 3332, "sequ": 3333, "bab": 3334, "es;\n": 3335, "grew": 3336, "sum": 3337, "born": 3338, "s for ": 3339, "her\n": 3340, "firm": 3341, "125": 3342, "114": 3343, "                    ": 3344, "icit ": 3345, "% irrigated\n\nEnvironment: ": 3346, ";\n\n": 3347, "\n\nAid: ": 3348, "; telephone (202) ": 3349, "\u2019Urbervill": 3350, " E": 3351, "IL": 3352, ". As ": 3353, "forc": 3354, "Parliam": 3355, " mil": 3356, "Do ": 3357, "among the ": 3358, "hy": 3359, "green ": 3360, "all this ": 3361, "stern": 3362, " betwe": 3363, "uly ": 3364, "d, ": 3365, "ame\n": 3366, "undred ": 3367, "hung": 3368, "having ": 3369, "unt ": 3370, "udden": 3371, "cend": 3372, "a; ": 3373, "etermin": 3374, "based ": 3375, "White ": 3376, "transport": 3377, "internation": 3378, "1983": 3379, "130": 3380, "280": 3381, "dependent ": 3382, "San ": 3383, "regist": 3384, ", IAEA": 3385, "Development Bank": 3386, ", IFAD, IFC, I": 3387, ",\nincluding ": 3388, "NTERPOL, I": 3389, "US Cons": 3390, "% (1987": 3391, "oss": 3392, "ief": 3393, "all s": 3394, "six": 3395, "e; but ": 3396, "order ": 3397, "In ": 3398, " then": 3399, "wav": 3400, "; \u201c": 3401, "in p": 3402, "s\n(": 3403, "depart": 3404, "ato": 3405, "trang": 3406, "old\n": 3407, "her, ": 3408, "ion, ": 3409, "ss ": 3410, "der ": 3411, "young ": 3412, "man\u2019s ": 3413, "ready ": 3414, "comes ": 3415, "ution": 3416, "won\u2019t ": 3417, "eri": 3418, "hard ": 3419, "cross": 3420, "count": 3421, "hang": 3422, "event": 3423, "twent": 3424, "; so ": 3425, "other\n": 3426, " ask": 3427, "fect ": 3428, "chem": 3429, "below": 3430, "fiv": 3431, "ector": 3432, " bulk": 3433, "I didn\u2019t ": 3434, "340": 3435, "3 ": 3436, "crude oil, ": 3437, ")\n\nExecutive branch: president, ": 3438, "-89": 3439, " FM, ": 3440, ", including\ncapital expenditures of $": 3441, "France ": 3442, "GRT/": 3443, "%\n": 3444, ");\n1 ": 3445, "dairy": 3446, "Ad": 3447, "sn": 3448, "cel": 3449, "ally, ": 3450, "which had ": 3451, "lowly ": 3452, "io ": 3453, "whether": 3454, "It is ": 3455, "th\n": 3456, "when they ": 3457, "moment": 3458, "especially ": 3459, " me, ": 3460, "arriv": 3461, "alt": 3462, "place": 3463, "ings, ": 3464, " pres": 3465, "I sh": 3466, "Don\u2019t ": 3467, " contain": 3468, "scar": 3469, "necess": 3470, "selv": 3471, "when he ": 3472, "e said ": 3473, "exist": 3474, "rich": 3475, " cried ": 3476, "Fran": 3477, "ubject ": 3478, "Guinea": 3479, " hus": 3480, "Marian": 3481, "compulsory ICJ jurisdiction": 3482, "prime minister, ": 3483, "ivil ": 3484, "December 1989": 3485, "President--last held ": 3486, "); 1 ": 3487, "POL) ": 3488, " nm;": 3489, "% m": 3490, " meters ": 3491, "1.6": 3492, "towards ": 3493, "vast ": 3494, "if it ": 3495, "frequ": 3496, "erous ": 3497, "ture ": 3498, "sometimes ": 3499, "ities": 3500, " ma": 3501, "eh": 3502, "this\n": 3503, "ins ": 3504, "wise ": 3505, "fill": 3506, "fle": 3507, "there\u2019s ": 3508, "iff": 3509, "seen": 3510, "betwe": 3511, "sat ": 3512, "fast ": 3513, "quest": 3514, "AB": 3515, " as\n": 3516, "Soc": 3517, " cour": 3518, "verag": 3519, "e.\u201d\n\n": 3520, "post": 3521, "independ": 3522, "DA": 3523, "milk": 3524, "tribut": 3525, "Wendy": 3526, "Sov": 3527, "landlocked": 3528, "Represent": 3529, " (198": 3530, "export ": 3531, ")\n\nIndustrial production: growth rate ": 3532, "banan": 3533, " (January 1990),\n": 3534, "able\n": 3535, "pol": 3536, "eye ": 3537, "entire": 3538, "ate, ": 3539, "I am ": 3540, "school": 3541, " house ": 3542, "at last ": 3543, "ant, ": 3544, "edg": 3545, "uss": 3546, "would": 3547, "mother ": 3548, "Is": 3549, "thor": 3550, "band ": 3551, ". Then ": 3552, "you can": 3553, "lower ": 3554, "impress": 3555, "raft": 3556, "river ": 3557, "to her": 3558, ");": 3559, "elec": 3560, "genc": 3561, "Nether": 3562, ".\n\n\n": 3563, "Avenue ": 3564, "\n\nCurrency: ": 3565, "\n\nInland waterways: ": 3566, "\n\nLegal system: ": 3567, "\n\nLegislative branch: unicameral ": 3568, "tlantic Ocean INTELSAT": 3569, " (1989": 3570, "territory of the ": 3571, "\n\nContinental shelf: 200": 3572, "9,": 3573, "Tess\u2019s ": 3574, "chool": 3575, "\u2019s": 3576, " for ": 3577, " she\n": 3578, "low ": 3579, "impl": 3580, "an old ": 3581, "et\n": 3582, " put ": 3583, "bit": 3584, "Lab": 3585, "!\n\n": 3586, "ouble ": 3587, "agg": 3588, " say, ": 3589, "e:": 3590, "King": 3591, "epend": 3592, "fuel": 3593, "East": 3594, "to her ": 3595, "marine ": 3596, "stret": 3597, "7\n": 3598, "rol": 3599, " activ": 3600, "11 ": 3601, ", WTO": 3602, " aid ": 3603, " with permanent-surface runways;\nnone with runways over 3,659 m; ": 3604, "\n\nEnvironment": 3605, "Fron": 3606, "EC ": 3607, "Jonah": 3608, ". He was ": 3609, "immedi": 3610, "Dut": 3611, "stri": 3612, "receiv": 3613, "Will": 3614, "avig": 3615, "ose\n": 3616, "ing in ": 3617, "free ": 3618, ".\n\u201c": 3619, ". R": 3620, "ult ": 3621, "repli": 3622, "princip": 3623, "quiet": 3624, "Yet ": 3625, "fine ": 3626, "ient": 3627, " sc": 3628, ". His ": 3629, "Indian": 3630, "effect": 3631, "escap": 3632, "in d": 3633, "hardly ": 3634, "ual ": 3635, ".\n\nS": 3636, "ON": 3637, "may be ": 3638, "; and the ": 3639, "straight ": 3640, "popul": 3641, "in which": 3642, "father ": 3643, "both ": 3644, "retty ": 3645, "agu": 3646, "summ": 3647, "organ": 3648, "one-": 3649, "116": 3650, "Darl": 3651, "Washington, DC": 3652, "Organ": 3653, " (FY": 3654, "; note--": 3655, " (1985": 3656, "General": 3657, "Party, ": 3658, "Durbeyfield": 3659, "by D": 3660, "ET": 3661, " out ": 3662, "mist": 3663, "a and ": 3664, ".\n\n\u201cI": 3665, "peop": 3666, "es\u2014": 3667, "ass ": 3668, "wards the ": 3669, "ity of the ": 3670, ", or": 3671, "ici": 3672, "part of the ": 3673, ", it ": 3674, "ier": 3675, "ed from": 3676, "four ": 3677, "join": 3678, "chap": 3679, " came ": 3680, "chance ": 3681, "might": 3682, "I got ": 3683, "trop": 3684, "ing her": 3685, "foreign": 3686, "utiful": 3687, "le of ": 3688, "obl": 3689, "ink ": 3690, "Flask": 3691, "Island ": 3692, "udi": 3693, "House of ": 3694, "113": 3695, "ugar": 3696, "Revolution": 3697, "chemical": 3698, " km,\n": 3699, "DB--": 3700, "\n\nFlag:": 3701, ")\n\nExecutive branch: ": 3702, "\n\nSuffrage: universal at age 18\n\nElections:\n": 3703, "consumer good": 3704, " DWT; includes ": 3705, "Note: ": 3706, "Fed": 3707, "oft ": 3708, "umm": 3709, "round the ": 3710, "In the ": 3711, "ount ": 3712, "Christian ": 3713, "engag": 3714, "and H": 3715, "harpo": 3716, " here ": 3717, "imag": 3718, "omething ": 3719, "common": 3720, "on a ": 3721, "loo": 3722, "for the\n": 3723, "e. H": 3724, "I\u2019m": 3725, "Sund": 3726, "cloth": 3727, "lain": 3728, "she": 3729, "charac": 3730, " pl": 3731, ". Then": 3732, "coc": 3733, "vari": 3734, "there are ": 3735, " coast": 3736, "                      ": 3737, " km2": 3738, "chemicals, ": 3739, ",000 ": 3740, ", GATT": 3741, "M, O": 3742, ", WIPO": 3743, "roll-on/roll-off": 3744, "an INTELSAT": 3745, " km gravel": 3746, "least": 3747, "ross": 3748, "ely": 3749, "ats ": 3750, "crow": 3751, ". On": 3752, "where": 3753, "MA": 3754, "ring": 3755, "\n\nN": 3756, "ray": 3757, "e the ": 3758, "whisper": 3759, "ounc": 3760, " brea": 3761, " a st": 3762, "iously ": 3763, "words ": 3764, "feder": 3765, "-met": 3766, "vehic": 3767, "cabinet": 3768, "1982": 3769, "nobody ": 3770, "uan": 3771, "Feder": 3772, "note--": 3773, " August ": 3774, "NW, Washington DC 20008": 3775, "Communist countries (19": 3776, "\n\nPipelines: ": 3777, "singular--": 3778, "Assembly--last held ": 3779, ");\n\nHead of Government--Prime Minister ": 3780, "Organized labor: ": 3781, "Movement ": 3782, "boundary ": 3783, "Christ": 3784, "ate\n": 3785, "exic": 3786, "Lev": 3787, "shore ": 3788, " of\n": 3789, "eak ": 3790, "; he ": 3791, "Ther": 3792, "blow": 3793, "e. S": 3794, "Why ": 3795, "about the ": 3796, " into the ": 3797, " it": 3798, "short": 3799, "matter ": 3800, "ing for": 3801, ". At ": 3802, "utt": 3803, "wond": 3804, "meas": 3805, "dig": 3806, "ler": 3807, ", and then": 3808, "At ": 3809, "s\u2019": 3810, "strange ": 3811, "cow": 3812, "tou": 3813, " par": 3814, " pass": 3815, "tradition": 3816, "got": 3817, "uk": 3818, "they had ": 3819, "5\n": 3820, "tlantic Ocean\n": 3821, ") = 100": 3822, " stations--": 3823, "MO, INTELSAT": 3824, "o (": 3825, ",\u201d I": 3826, "ets ": 3827, "ref": 3828, "een": 3829, "gall": 3830, "pal": 3831, "wo": 3832, "alf": 3833, "thern ": 3834, "OO": 3835, "isl": 3836, "previ": 3837, "edd": 3838, "family ": 3839, "atis": 3840, "activ": 3841, "ated": 3842, "por": 3843, "cann": 3844, "getting ": 3845, " had\n": 3846, "unt": 3847, "ided ": 3848, " through the ": 3849, "desp": 3850, "grav": 3851, "ild ": 3852, "former": 3853, "eam": 3854, "econd": 3855, "open ": 3856, "lot": 3857, "gar": 3858, "I should ": 3859, " contin": 3860, "change ": 3861, "rail": 3862, "trad": 3863, "begun": 3864, ", D": 3865, "rug": 3866, "epted ": 3867, "_I": 3868, "220": 3869, "330": 3870, "1992": 3871, " April ": 3872, " crop": 3873, "% servic": 3874, "FTU": 3875, "SG": 3876, "izontal bands of ": 3877, "world's ": 3878, " million; Western\n(non-US) countries, ODA and OOF bilateral commitments (1970-87), $": 3879, " fit for military\nservice; ": 3880, "times the size of ": 3881, "abinet": 3882, " says:\n\n\u201c": 3883, " W": 3884, "all his ": 3885, "as it ": 3886, "each other": 3887, "perhap": 3888, " bec": 3889, "river": 3890, "ers, and ": 3891, "may": 3892, "became ": 3893, "eph": 3894, "sha": 3895, " soon": 3896, "ertain": 3897, " against ": 3898, "furn": 3899, "no d": 3900, "notic": 3901, " can ": 3902, "ain ": 3903, " cr": 3904, "ession": 3905, "going to ": 3906, ",\u201d he s": 3907, "bank": 3908, "spok": 3909, "Braz": 3910, "ody ": 3911, "Israel": 3912, "215": 3913, "760": 3914, "8\n": 3915, "1984": 3916, "only party": 3917, "Other political or pressure group": 3918, " deaths/1,000 population (1990)\n\nNet migration rate: 0 migrants/1,000 population (1990)\n\nInfant mortality rate: ": 3919, "Council of ": 3920, " billion; expenditures $": 3921, "% of labor force": 3922, "\n\n- Economy\nOverview: The ": 3923, "-sufficient in ": 3924, "Izz": 3925, "out, ": 3926, "tee": 3927, "own\n": 3928, "onder": 3929, "\u2014\u201c": 3930, "can\u2019t ": 3931, "voice ": 3932, "proach": 3933, "steel": 3934, "any\n": 3935, "regard": 3936, "have been ": 3937, "win": 3938, "to go ": 3939, "yourself": 3940, "to my ": 3941, "umbl": 3942, "hands ": 3943, "won": 3944, "nec": 3945, "imilar": 3946, "iffic": 3947, "ated by ": 3948, "Malay": 3949, "perm ": 3950, "all d": 3951, "ot, ": 3952, "peri": 3953, "eau": 3954, "uer": 3955, "major": 3956, "ana": 3957, "360": 3958, "responsibil": 3959, "\n\nContiguous zone: ": 3960, "cargo, ": 3961, "Royal ": 3962, "night, ": 3963, "I see ": 3964, "goes ": 3965, "ure, ": 3966, "trou": 3967, "mighty ": 3968, "El": 3969, "Green": 3970, " ap": 3971, " air": 3972, "ke, ": 3973, " spec": 3974, "west": 3975, "country": 3976, "life": 3977, "gyp": 3978, "comfort": 3979, "vell": 3980, "easy ": 3981, "circumst": 3982, "very\n": 3983, "only\n": 3984, "no more ": 3985, "ken ": 3986, "sla": 3987, "olv": 3988, "little\n": 3989, "of his\n": 3990, "well ": 3991, "ified ": 3992, "real ": 3993, "; and\n": 3994, ".\nThe ": 3995, "anguag": 3996, "mix": 3997, "on, and ": 3998, "!\u201d cried ": 3999, "arily ": 4000, "ation of the ": 4001, "um, ": 4002, "ritor": 4003, "260": 4004, "119": 4005, "\n\nTerrain: mostly ": 4006, "\n\nElections:\n": 4007, "% (": 4008, "refined ": 4009, "\n----------------------------------------------------\nCountry:  ": 4010, "plural--": 4011, "equipment, ": 4012, "1988); commodities--": 4013, " II": 4014, "Stre": 4015, " pr": 4016, "extra": 4017, "anci": 4018, "full ": 4019, "sor": 4020, "whale\u2019s ": 4021, "Of": 4022, "\nL": 4023, "ship ": 4024, "wind ": 4025, "irec": 4026, "else": 4027, "after the ": 4028, "such ": 4029, " this": 4030, "pic": 4031, "to take ": 4032, "le s": 4033, "IS": 4034, "when\n": 4035, "pit": 4036, "to keep": 4037, "if he ": 4038, " pers": 4039, "pped ": 4040, "ght": 4041, "tob": 4042, "eop": 4043, "book": 4044, " that he ": 4045, "indeed, ": 4046, "wag": 4047, "happen": 4048, "e?\u201d\n\n\u201c": 4049, "los": 4050, " didn\u2019t ": 4051, "-and-": 4052, "laim": 4053, "to dep": 4054, " million (c.i.f., ": 4055, " nm": 4056, "NA\n\n": 4057, " km n": 4058, "Force": 4059, "labor for": 4060, "\n\nNational holiday: Independence Day, ": 4061, "% (1988": 4062, " earth station": 4063, "Pequod ": 4064, "MO": 4065, " hand ": 4066, "I would ": 4067, " common ": 4068, "improv": 4069, ".\n\nWh": 4070, "edi": 4071, ": A": 4072, "ber, ": 4073, "Then": 4074, "ufactur": 4075, "\n6": 4076, "Miss ": 4077, "4 ": 4078, " bilateral": 4079, ")\n\nLegislative branch: ": 4080, "Islamic ": 4081, "\n\nDiplomatic representation": 4082, "OPEC": 4083, " million; ": 4084, "1% ": 4085, " petroleum, oils, and lubricant": 4086, "\n\n- Communications\nHighways: ": 4087, " 1": 4088, "capital expenditures of $": 4089, "\n\nDefense expenditures: ": 4090, "c.i.f., ": 4091, "le\n": 4092, "raf": 4093, "tlant": 4094, "ever, ": 4095, "I\u2019": 4096, "annu": 4097, "labor": 4098, "\n\n- Defense Forces\n": 4099, "nig": 4100, "possi": 4101, "Mrs. ": 4102, "\n\n\nC": 4103, "\n\nC": 4104, "press": 4105, "National": 4106, "New Y": 4107, "al produc": 4108, "ead of Government--": 4109, "Pip": 4110, "sider": 4111, "3,659 m": 4112, "\n\nEnvironment: ": 4113, "power": 4114, "s:\n\n\u201c": 4115, "659": 4116, "Econom": 4117, " million (": 4118, "eptember ": 4119, "Octo": 4120, "M, ": 4121, "ulate ": 4122, "pret": 4123, "mal": 4124, "on\u2019t ": 4125, "govern": 4126, "teleph": 4127, "\n\nEl": 4128, ", per capita $": 4129, "ountain": 4130, "marin": 4131, " had": 4132, "ially ": 4133, "ime ": 4134, "list": 4135, "yp": 4136, " cap": 4137, "lare ": 4138, "es: ": 4139, "telephone ": 4140, " km\n\n": 4141, "ectricity: ": 4142, "Constitution": 4143, "toge": 4144, "hard": 4145, "tric": 4146, "lightly ": 4147, "uls": 4148, "Day, ": 4149, "territory ": 4150, "irc": 4151, "ependent ": 4152, "ead of ": 4153, "jor ": 4154, "growth ": 4155, "to be held ": 4156, "urch": 4157, "raz": 4158, "beh": 4159, "ebruary ": 4160, "urk": 4161, "ublic": 4162, "rist": 4163, "sure ": 4164, "omm": 4165, "Ass": 4166, "icameral ": 4167, "runways ": 4168, " serv": 4169, "compl": 4170, "ade ": 4171, "Nov": 4172, "ember ": 4173, "Engl": 4174, "capital ": 4175, "Wend": 4176, "runway": 4177, " 2": 4178, "(s": 4179, "Joh": 4180, "angu": 4181, "cent ": 4182, "tran": 4183, "ices": 4184, " total": 4185, "prime minist": 4186, "Democrat": 4187, ": $": 4188, "INTELSAT": 4189, "Durbey": 4190, "ote ": 4191, "result": 4192, "\u2019t\n": 4193, "economic ": 4194, "Republic ": 4195, "DC": 4196, "vo": 4197, "nex": 4198, "countries ": 4199, "includes ": 4200, "with runways 2,440-": 4201, "\n\nTerritorial sea: ": 4202, "textil": 4203, "contin": 4204, "fel": 4205, "uffici": 4206, "official": 4207, "isput": 4208, "Prime Minister ": 4209, "results--": 4210, "labor force": 4211, "ir ": 4212, "and-": 4213, "I a": 4214, "fam": 4215, "go, ": 4216, "Jap": 4217, "party ": 4218, "tel": 4219, "eaders:\nChief of ": 4220, "Government\nLong-form name: ": 4221, ")\n\nEx": 4222, "circ": 4223, "capit": 4224, "ic d": 4225, "[": 4226, "gravel": 4227, "struction": 4228, "e--": 4229, "est and ": 4230, "ranch": 4231, "uous ": 4232, "eter": 4233, "\n\nSuffrage: ": 4234, ");\n\nHead of Government--": 4235, "1990), ": 4236, "\n\nLegislative branch: ": 4237, "\n\nSuffrage: universal at age ": 4238, "illion": 4239, "ommun": 4240, "Nation": 4241, "resourc": 4242, "unicameral ": 4243, " hol": 4244, "ital": 4245, "e: ": 4246, "\u201d\n\n": 4247, "TO": 4248, "ecutive ": 4249, "last held ": 4250, "\n\nAirports: ": 4251, "ternal debt: $": 4252, "Lib": 4253, "Indian ": 4254, "able; ": 4255, "rought ": 4256, "dle ": 4257, "crude oil": 4258, " (1985)\n\nFiscal year: ": 4259, "Imports: $": 4260, "\n\nS": 4261, "inist": 4262, "icular": 4263, "univers": 4264, "most": 4265, "cern": 4266, "izon": 4267, "y)": 4268, "ental": 4269, "jor": 4270, ", UPU": 4271, " GRT": 4272, "NP": 4273, "estern": 4274, "TE": 4275, "\n\nCon": 4276, "----------------------------------------------------\nCountry:  ": 4277, "iction": 4278, "bound": 4279, "ATT": 4280, "% irrigated": 4281, " (1989 est.)\n\n": 4282, "Brit": 4283, "ebr": 4284, "ouse": 4285, "employment ": 4286, "fertil": 4287, "equipment": 4288, "evelopment ": 4289, ", UN": 4290, "70-88": 4291, "Bank": 4292, "Pres": 4293, "usin": 4294, "resh": 4295, "\u201d\n\n\u201c": 4296, "AT": 4297, "gover": 4298, "\n\nContinental shelf: ": 4299, "tank": 4300, " with permanent-surface runways;\n": 4301, "area: ": 4302, " kW capacity; ": 4303, "Coun": 4304, "stran": 4305, "cil": 4306, "itime ": 4307, "dd": 4308, "emoc": 4309, "\n\nA": 4310, " servic": 4311, "evelop": 4312, "Chanc": 4313, " billion; ": 4314, "\n\nComparative ": 4315, "ork": 4316, "ove ": 4317, "whis": 4318, "\n\nLeaders:\nChief of ": 4319, "Arm": 4320, "\n\nMember of": 4321, "Assembly": 4322, "with runways over 3,659 m; ": 4323, "revenu": 4324, "deser": 4325, "ustri": 4326, " station": 4327, "\n\nF": 4328, "past": 4329, "bet": 4330, "tropical": 4331, "\n\nTelecommunication": 4332, "rain: ": 4333, "; includes ": 4334, "70-87), $": 4335, " fit for m": 4336, "irl": 4337, "NE": 4338, " bul": 4339, "tour": 4340, "Maritime claim": 4341, "1,220-2,439 m\n\nTelecommunication": 4342, "transport ": 4343, "LO, I": 4344, "chin": 4345, "tlantic Oce": 4346, "equip": 4347, "Starb": 4348, "pril ": 4349, "lem": 4350, "Supreme Cour": 4351, "ecutive branch: ": 4352, ";\nUS--": 4353, "ometim": 4354, "tig": 4355, "Minist": 4356, "children born/woman (1990)\n\nNationality: noun--": 4357, "atural resourc": 4358, "+": 4359, "Sup": 4360, "PO": 4361, "calendar year": 4362, "ular--": 4363, ")\n\nFiscal year: ": 4364, "ember of": 4365, "State--": 4366, "GDP: $": 4367, "Industri": 4368, "non-US) countries, ODA and OOF bilateral commitment": 4369, "President": 4370, "non-": 4371, "Oce": 4372, "TER": 4373, "\n\nH": 4374, "202": 4375, "==": 4376, "Independence: ": 4377, "earth station": 4378, "griculture": 4379, "er capita ": 4380, "mortal": 4381, " us": 4382, "ugust ": 4383, "ritorial": 4384, "the size of ": 4385, "ritory ": 4386, "2,4": 4387, "consum": 4388, "ies and ": 4389, "an C": 4390, "ulture": 4391, "ommunication": 4392, "capital expenditures of ": 4393, "ministrat": 4394, "\n\nComparative area: slightly ": 4395, "MF": 4396, "ght ": 4397, "ouse ": 4398, "Dur": 4399, "ivision": 4400, ")\n\nF": 4401, "countri": 4402, "WT": 4403, " km total": 4404, "MF, I": 4405, " (January ": 4406, "; stations--": 4407, "zone: 200 nm;\n\nTerritorial sea: ": 4408, "commodities--": 4409, " teleph": 4410, "); adjective--": 4411, "ellow": 4412, "mom": 4413, "ibil": 4414, "Austr": 4415, "atural ": 4416, "zon": 4417, "BR": 4418, "iscal year: ": 4419, "Democ": 4420, "Development ": 4421, "Bud": 4422, "rant": 4423, "ld": 4424, "Jud": 4425, "oung": 4426, "party": 4427, "Port": 4428, "US--": 4429, "Islam": 4430, " (J": 4431, " telephones": 4432, "abor force: ": 4433, "MO, I": 4434, "rael": 4435, "erch": 4436, ":\n": 4437, "ife ": 4438, "econ": 4439, "craft": 4440, "jur": 4441, "RT": 4442, "omet": 4443, "Ur": 4444, "ternational ": 4445, "% a": 4446, "WT; includes ": 4447, "olitical part": 4448, "telephone (202) ": 4449, "\n\nLabor force: ": 4450, "\n\nT": 4451, " nam": 4452, "gn": 4453, "stuff": 4454, "ollar": 4455, "mort": 4456, "ufac": 4457, "surface ": 4458, "thn": 4459, "compulsory ": 4460, " (1989)\n\n": 4461, "12 nm": 4462, " bands of ": 4463, "ether": 4464, "incip": 4465, "y: ": 4466, "olitical": 4467, "SAT": 4468, "\n\n- Communications\n": 4469, "it for m": 4470, "FC, I": 4471, "Independ": 4472, "lask": 4473, "\u00e6": 4474, "cup": 4475, "oast": 4476, "ipl": 4477, "ufficient ": 4478, "Mic": 4479, "% agriculture": 4480, "accounts for ": 4481, "-meter ": 4482, "ude oil": 4483, "FAO, G": 4484, "agric": 4485, "universal": 4486, " years ": 4487, "elin": 4488, " death": 4489, "iful": 4490, "ecut": 4491, "jurisdiction": 4492, "Social": 4493, "mbassad": 4494, "improved ": 4495, "70-": 4496, " with permanent-surface runway": 4497, "NW, Washington DC 2000": 4498, "$1": 4499, " countri": 4500, "Highways: ": 4501, "espec": 4502, "ourc": 4503, "Republ": 4504, "ministrative ": 4505, "urrenc": 4506, ", UNESCO": 4507, "NW, Washington DC": 4508, "president, ": 4509, "etroleum": 4510, "fem": 4511, "ity; ": 4512, "lubricant": 4513, "AEA": 4514, "Economy\nOverview: ": 4515, "Ambassador ": 4516, "renc": 4517, "ingt": 4518, "irth": 4519, "PEC": 4520, "refin": 4521, "eder": 4522, "1990)\n\n": 4523, "ICJ": 4524, "by party NA": 4525, ", including\n": 4526, " million kWh produc": 4527, " permanent-surface ": 4528, "US$1--": 4529, "Jon": 4530, "Chief": 4531, "arable ": 4532, "ners": 4533, "gel": 4534, " act": 4535, "loy": 4536, "izontal": 4537, "plural": 4538, "veget": 4539, "political ": 4540, ", UN, UNESCO": 4541, "based on ": 4542, "with runways over ": 4543, "liam": 4544, "zone: ": 4545, "Inland waterways: ": 4546, "\n\nMilitary manpower: ": 4547, "2,439 m": 4548, "Aven": 4549, "Oc": 4550, "Im": 4551, "icial": 4552, " population": 4553, "tended ": 4554, "seat": 4555, "reven": 4556, "Political parties and leaders: ": 4557, "expenditures $": 4558, "Economy\nOverview": 4559, "iteracy: ": 4560, "\n\nCoastline: ": 4561, "TERPOL": 4562, ", IBR": 4563, "livesto": 4564, "zone: 200 nm;\n\nTerritorial sea: 12 nm": 4565, "\n\nDisput": 4566, "NTERPOL": 4567, "essel": 4568, "Rev": 4569, "commod": 4570, " born": 4571, "esto": 4572, "olution": 4573, "ouse of ": 4574, "NTELSAT": 4575, "18\n\nElections:\n": 4576, "etro": 4577, "Western\n(non-US) countries, ODA and OOF bilateral commitments (1970-87), $": 4578, "uffrage: ": 4579, " permanent-surface runway": 4580, "\n\nNatural resourc": 4581, ")\n\nLeg": 4582, "al system: ": 4583, "200 nm;": 4584, "abin": 4585, "hael": 4586, "ic Oce": 4587, "tex": 4588, " band": 4589, "limat": 4590, "tem": 4591, "\n\nTer": 4592, "of v": 4593, "., ": 4594, "percent of vote ": 4595, "Defense ": 4596, "\n\n- ": 4597, "Gener": 4598, "expenditures ": 4599, "Rail": 4600, " Cons": 4601, "Mov": 4602, "occas": 4603, "idn\u2019t ": 4604, "circum": 4605, "ong-": 4606, "inea": 4607, "birth": 4608, "RG": 4609, "People": 4610, "Government": 4611, "uslim": 4612, "FAD, I": 4613, " (1989)\n\nIndustri": 4614, "al production: growth rate ": 4615, " kWh": 4616, "compulsory ICJ": 4617, "growth rate ": 4618, " major ": 4619, "Pipelines: ": 4620, "ograph": 4621, "ilitary\n": 4622, "\u00e9": 4623, "transp": 4624, "\n\nD": 4625, "\n\nM": 4626, "igr": 4627, "ternation": 4628, ", IFAD, I": 4629, "female (1990)\n\nTotal fertility rate: ": 4630, "s (1970-87), $": 4631, "irports: ": 4632, "Embass": 4633, "ilitary manpower: ": 4634, "limate: ": 4635, "dministrative ": 4636, "Peop": 4637, "Supre": 4638, "15-": 4639, "Independence ": 4640, " military ": 4641, "\n\nElection": 4642, "ODA and OOF": 4643, "3,659 m; ": 4644, "Supreme ": 4645, "TELSAT": 4646, "\n\nExtended economic ": 4647, "\n\nLand bound": 4648, " petroleum": 4649, "land; ": 4650, "eadow": 4651, "polit": 4652, "Over": 4653, "resent": 4654, "ural": 4655, "ilater": 4656, "Infant mortality rate: ": 4657, " migrant": 4658, "al system": 4659, "NESCO": 4660, "landlock": 4661, "People\nPopulation: ": 4662, " commitment": 4663, "atell": 4664, "males 15-49, ": 4665, "ren ": 4666, "eaders": 4667, "et m": 4668, "mail": 4669, "fric": 4670, "ebt": 4671, "\n\nCommunist": 4672, " kWh per capita (1989)\n\nIndustri": 4673, "Religion: ": 4674, " km p": 4675, "al production": 4676, "anguage: ": 4677, "s (19": 4678, "ilitary\nservic": 4679, "\n\nElections:": 4680, "-sufficient ": 4681, "or for": 4682, "\n\nL": 4683, "GL": 4684, "id: ": 4685, "the siz": 4686, "Chief of ": 4687, "male, ": 4688, "urrency: ": 4689, "Roman Cath": 4690, "D, ICA": 4691, "ent-": 4692, "atic ": 4693, "ountri": 4694, " permanent ": 4695, "ultur": 4696, "graph": 4697, "(202) ": 4698, "reach military age ": 4699, "including\n": 4700, "universal at age ": 4701, "griculture: ": 4702, "Political part": 4703, "-77": 4704, "/1,000": 4705, " population (1990)\n\n": 4706, "revenues ": 4707, "s, and lubricant": 4708, "\n\nCapital": 4709, "radio ": 4710, "s, including ": 4711, "respons": 4712, "POL": 4713, "irrig": 4714, ", oil": 4715, "representation": 4716, "none with runways over 3,659 m; ": 4717, " ships (1,000 GRT or over) total": 4718, "vironment": 4719, "70-87": 4720, ") = ": 4721, "countries (19": 4722, "FAO": 4723, " km\n\nMaritime claim": 4724, "SR": 4725, "Prime Minist": 4726, "US)": 4727, "Dea": 4728, "Washingt": 4729, "orig": 4730, "imil": 4731, "Bir": 4732, "lau": 4733, "Ge": 4734, "use: ": 4735, "\n\nLeg": 4736, "expenditures of ": 4737, "eaders:\n": 4738, "elecommunication": 4739, "Communications\n": 4740, "1,220-2,439 m": 4741, "er capita (1989)\n\nIndustri": 4742, "dministrative divisions: ": 4743, "consumer ": 4744, " fit for military\nservic": 4745, "15-49, ": 4746, " major transport air": 4747, "annually": 4748, "erchant ": 4749, "lub": 4750, "\"": 4751, "erchant marine: ": 4752, "Organized labor": 4753, "Embassy at ": 4754, "ivil air: ": 4755, "compuls": 4756, " jurisdiction": 4757, "er capit": 4758, "2,440-": 4759, "Unemployment ": 4760, "flation ": 4761, "real growth rate ": 4762, "1,000 GRT or over) total": 4763, "ternal debt": 4764, "1,220": 4765, "Political parties and leaders": 4766, "\n\nDiplomatic representation: A": 4767, "Life ": 4768, "diction": 4769, "Pac": 4770, "igrant": 4771, "iday": 4772, "elig": 4773, "f.": 4774, "Birth rate: ": 4775, " permanent-": 4776, "Defense Forc": 4777, "ternal d": 4778, " km2; ": 4779, ") annually": 4780, "thnic d": 4781, " petroleum, oil": 4782, ");\n\nH": 4783, "ommunist": 4784, "% meadows and pastur": 4785, ":  ": 4786, "Other ": 4787, "icam": 4788, "prime ": 4789, " capac": 4790, "cogn": 4791, " holiday": 4792, "----------------------------------------------------\n": 4793, "iplomatic ": 4794, "Budget: revenues ": 4795, "49, ": 4796, "seats--(": 4797, "ports: $": 4798, "Political parties and l": 4799, "flation rate ": 4800, "a (1989)\n\nIndustri": 4801, "D, I": 4802, "jective--": 4803, "Amer": 4804, " ships (": 4805, "Defense Forces\n": 4806, "1990),\n": 4807, "IPO": 4808, "&": 4809, "Eur": 4810, "prices": 4811, "veh": 4812, "): ": 4813, "Maritime ": 4814, " per ": 4815, "--------------------------------": 4816, "US Embass": 4817, "mbassador ": 4818, "Western\n(non-US) countries, ODA and OOF bilateral commitment": 4819, "mailing address ": 4820, " 2000": 4821, "fiel": 4822, "NW": 4823, ") per ": 4824, "----": 4825, "pastur": 4826, "ompar": 4827, "Geograph": 4828, "omparative ": 4829, "iplomatic representation": 4830, "iplom": 4831, "crops; ": 4832, "US commitments, including Ex-Im (FY": 4833, "leum": 4834, "mailing add": 4835, "s--(": 4836, "ivisions: ": 4837, "change rat": 4838, " adjective--": 4839, "form nam": 4840, "(202": 4841, "\n\nEthnic d": 4842, "Branches: ": 4843, "ype: ": 4844, " countries, ": 4845, "viron": 4846, "forest and woodland; ": 4847, "\u2032": 4848, "\n\nE": 4849, "Zeal": 4850, " shelf": 4851, "\u0153": 4852, "elop": 4853, "TEL": 4854, "ashington ": 4855, "{": 4856, "}": 4857, " pressure ": 4858, "1,000 GRT or ": 4859, "40-": 4860, "al production: ": 4861, " kWh p": 4862, "children born/woman (1990)\n\nNationality: ": 4863, "\n\nNational holiday: Independence ": 4864, "area: slightly ": 4865, "ashington DC": 4866, " (1990)\n\n": 4867, "uffrag": 4868, "jectiv": 4869, "Roy": 4870, "fant ": 4871, "partners": 4872, " birth": 4873, "eget": 4874, "female ": 4875, "\u00ea": 4876, "expenditur": 4877, "oastline: ": 4878, "1,000 GRT": 4879, "over) total": 4880, ", per capita ": 4881, "ilateral": 4882, "tinental shelf": 4883, "ports: ": 4884, "craft\n\nAirports: ": 4885, "Budget": 4886, "transport air": 4887, " kW": 4888, "f.o.b., ": 4889, "US commitments, including Ex-Im": 4890, "HAP": 4891, "\u00a3": 4892, "Railroad": 4893, "nment": 4894, "\u00e8": 4895, "Washington, ": 4896, "over)": 4897, "expend": 4898, "calend": 4899, "tinental": 4900, "ing add": 4901, "line: ": 4902, "f.o.b": 4903, "ODA": 4904, "forest and wood": 4905, "s/1,000": 4906, "\n\n- Communications\nRailroad": 4907, "\n\nNational holiday": 4908, "percent of vote by party NA": 4909, "NW, W": 4910, "ashingt": 4911, "\n\nFlag": 4912, "Inland water": 4913, " perman": 4914, "or forc": 4915, "ODA and OOF bilateral commitment": 4916, "= ": 4917, "males ": 4918, "igration ": 4919, "% permanent ": 4920, "Relig": 4921, "commodities": 4922, "iscal ": 4923, "children born/woman (1990)\n\n": 4924, "ies and l": 4925, "expenditures: ": 4926, "--------": 4927, "Rep": 4928, "uary ": 4929, " live ": 4930, "juris": 4931, "\u00f9": 4932, "children born": 4933, "\u00e0": 4934, "Branch": 4935, "Ex-Im": 4936, "-Im": 4937, "iscal year": 4938, "Total ": 4939, "Life expectancy at birth: ": 4940, "non-US) countries, ": 4941, "itment": 4942, "% meadow": 4943, "pastures; ": 4944, "children born/woman (1990)\n\nNationality: noun": 4945, "non-US)": 4946, "SCO": 4947, "People\n": 4948, "Other political ": 4949, "dministrative d": 4950, "Independenc": 4951, "roll-on/": 4952, "% arable ": 4953, "expenditure": 4954, "Tot": 4955, ")\n\nConstitution": 4956, "change rates: ": 4957, "Urb": 4958, "zone: 200 nm;": 4959, "ications\n": 4960, "Western\n(": 4961, "1,220-": 4962, "2,439": 4963, " (1990)\n\nBirth rate: ": 4964, "Nationality: ": 4965, "ivil air": 4966, "or pressure group": 4967, "o.": 4968, "ar year": 4969, "National holiday": 4970, " deaths/1,000 population (1990)\n\n": 4971, "ervill": 4972, "\u05d7": 4973, "\u05d5": 4974, "\u03f0": 4975, "\u03b7": 4976, "\u03c4": 4977, "\u03bf": 4978, "\u03c2": 4979, "\u0152": 4980, "\u00e2": 4981, "roll-": 4982, "c.": 4983, "Judicial": 4984, "Economy\n": 4985, "c.i.": 4986, "GRT": 4987, "OOF": 4988, "Population": 4989, "Death rate: ": 4990, "=": 4991, " live birth": 4992, "s and pastur": 4993, "Net migration rate: ": 4994, "Population: ": 4995, "Total fertility rate: ": 4996, "try:  ": 4997, "s/1,000 population (1990)\n\nInfant mortality rate: ": 4998, "of vote ": 4999, "% irrig": 5000, "manpower": 5001, "tinental shelf: ": 5002, "Nant": 5003, "Judicial b": 5004, "land area: ": 5005, " kW capac": 5006, " kWh produc": 5007, "c.i.f": 5008, " deaths/1,000 live births (": 5009, "1990)\n\nLife expectancy at birth: ": 5010, "female (": 5011, "1990)\n\nTotal fertility rate: ": 5012, "cent of vote ": 5013, "Religion": 5014, "- Geography\nTotal ": 5015, "an Cath": 5016, "ong-form name: ": 5017, "US$1": 5018, "erchant marin": 5019, " at age ": 5020, "Overview": 5021, "forest and ": 5022, "ized labor": 5023, "noun": 5024, " (July ": 5025, "Government--": 5026, "ectric": 5027, "ritorial sea": 5028, "3,659": 5029, " pressure group": 5030, "\n\nEn": 5031, "s, including Ex-Im": 5032, "none\n\nCoastline: ": 5033, "\nLong-form name: ": 5034, "----------------": 5035, "----------------------------------------------------": 5036, "rate: ": 5037, "\u00ef": 5038, "\u00e7": 5039, "expectanc": 5040, "opulation": 5041, "\u00c6": 5042}