{"S": 0, "\u00a7": 1, ")": 2, "\u00f0": 3, "N": 4, "\u00e8": 5, "\u00e0": 6, "}": 7, "\u0002": 8, "\u00fa": 9, "\u00f5": 10, "\u00cf": 11, "\u00f4": 12, "G": 13, "\u0014": 14, "_": 15, "\u00e9": 16, "\u001a": 17, "\u00d3": 18, "x": 19, "\u00a9": 20, "\u00a3": 21, "Q": 22, "\u0005": 23, "z": 24, "\u00e7": 25, "\u000e": 26, "|": 27, ">": 28, "\u00e1": 29, "U": 30, "\u00af": 31, "\u009c": 32, "H": 33, ":": 34, "\u00f1": 35, "\u009f": 36, "p": 37, "#": 38, "\u00c3": 39, "\u00b5": 40, "=": 41, "9": 42, "\u008a": 43, "\n": 44, "\u00ff": 45, "\u009e": 46, "8": 47, "D": 48, "\u00f3": 49, "C": 50, "\u00c2": 51, "T": 52, "\r": 53, "\u00bf": 54, "\u0010": 55, "<": 56, "\u00be": 57, "\u008f": 58, "\u00f7": 59, "\u00a8": 60, "4": 61, "\u0015": 62, "\u00fe": 63, "\u00f9": 64, "s": 65, "J": 66, "\u00b7": 67, "\u0086": 68, "\u0095": 69, "\"": 70, "\u0083": 71, "\u001d": 72, "g": 73, "\u009d": 74, "i": 75, "\u0082": 76, "y": 77, "\u0088": 78, "A": 79, "\u0001": 80, "\u00b0": 81, "t": 82, "\u0018": 83, "\u00d0": 84, "O": 85, "\u0089": 86, "\u007f": 87, "\u0091": 88, "\u00e2": 89, "\u00aa": 90, "\u00e3": 91, "\u00f8": 92, "\u00e6": 93, "\u00c1": 94, "W": 95, " ": 96, "\u00c0": 97, "\u0011": 98, "\u00d1": 99, "\u00a2": 100, "\u00ab": 101, "\u00a1": 102, "\u0080": 103, "\u00fb": 104, "`": 105, "\u00c5": 106, "\u00a0": 107, "\u00c4": 108, "a": 109, "\u0087": 110, "\u00ea": 111, "\u00da": 112, "\u00eb": 113, "\t": 114, "\u0017": 115, "\u000b": 116, "\u00fc": 117, "\u00fd": 118, "0": 119, "\f": 120, "k": 121, "\u0012": 122, "^": 123, "5": 124, "\u00df": 125, "\u0013": 126, "b": 127, "\u00d7": 128, "{": 129, "\u00ef": 130, "u": 131, "E": 132, "q": 133, "\u0081": 134, "\u00f2": 135, "\u0085": 136, "\u00bc": 137, "\u00d5": 138, "V": 139, "*": 140, "\u00e4": 141, "\u0090": 142, "j": 143, "\u0004": 144, "\u00f6": 145, "\u001e": 146, "h": 147, "\u00ed": 148, "\u00a5": 149, "\u00d8": 150, "\u00d4": 151, "\b": 152, "@": 153, "+": 154, "\u0094": 155, "K": 156, "n": 157, "\u00b2": 158, "\u00de": 159, "1": 160, "o": 161, "\u0000": 162, "\u00bd": 163, "(": 164, "\u00ba": 165, "\u001c": 166, "Z": 167, "\u0084": 168, "\u00ee": 169, "M": 170, "w": 171, "P": 172, "%": 173, "\u0097": 174, "X": 175, "\u00c8": 176, "\u008b": 177, "\u00d2": 178, "\u00ad": 179, "\u0006": 180, "\u00b4": 181, "\u00b3": 182, "\u0019": 183, "/": 184, "R": 185, "\u00a4": 186, "Y": 187, "!": 188, "~": 189, "\u009a": 190, "\u00dd": 191, "]": 192, "\u009c\u00e1": 193, "\u00ce": 194, "'": 195, "\u0016": 196, "\u0007": 197, "\u00d9": 198, "\u00ec": 199, "\u009b": 200, "\u0098": 201, "\u00cep": 202, "3": 203, "\u00db": 204, "\u00cd": 205, ".": 206, "r": 207, "\u001f": 208, "\u00e5": 209, "&": 210, "\u00c7": 211, "\u00b1": 212, ";": 213, "$": 214, "\u008d": 215, "d": 216, "\u0003": 217, "\u00ca": 218, "\u000f": 219, "\u00ac": 220, "\u00b8": 221, "7": 222, "9\u00c3": 223, "F": 224, "\u0092": 225, "\u00b9": 226, "\u00c6": 227, "\u00c9": 228, "\u001b": 229, "\\": 230, "\u00cc": 231, "e": 232, "\u00ae": 233, "\u00bb": 234, "\u008e": 235, "?": 236, "\u00a6\u00dd": 237, "M\u00bb": 238, "2": 239, "\u00a6": 240, "\u00dc": 241, "f": 242, "[": 243, "I": 244, "-": 245, "B": 246, "\u00d6": 247, "\u00cb": 248, "6": 249, "m": 250, "\u0099": 251, "\u00ca\u00d6": 252, "s\u0086": 253, "\u00a79\u00c3": 254, "c": 255, "\u0093": 256, "\u008c": 257, ",": 258, "v": 259, "l": 260, "L": 261, "\u0096": 262, "Ns\u0086": 263, "\u00d3n": 264, "#o": 265, "\u009bv": 266, "ek": 267, "\u0091\u00b7": 268, "S\u009c\u00e1": 269, "\u00b6": 270, "\u0099p": 271, "\u009b<": 272, "g8": 273, "\u0095\u00ad": 274, "4\u00bf": 275, "\u00ca\u00d6\u009bv": 276, "i\u007f": 277, "\u0095\u00ac": 278, "\u00e7\r": 279, "\u00e5k": 280, "\u00ad\u00df": 281, "\u00cc\u00b8": 282, "\u00b7\u007f": 283, "\u00b1\u0006": 284, "2\u00e1": 285, "6y": 286, "I|": 287, "e\u00c3": 288, "\u00e78": 289, "\u009e1": 290, "F\u00de": 291, "[\u00bf": 292, "G\u00aa": 293, "+Z": 294, "\u00e7\f": 295, "\u00cf\u0018": 296, "\u00d3\u009c\u00e1": 297, "\u00d6 ": 298, "\u00d2\u00ba": 299, "\u00aa\u0006": 300, "H\u00db": 301, "\u009a_": 302, "$m": 303, "\u0019Z": 304, "\u0011\u00b7": 305, "\u00c8\u00db": 306, "\u00acA": 307, "\u00d2\u00ff": 308, "\u00d2\u00b9": 309, "X\u0083": 310, "2\u00b5": 311, "l\u00f3": 312, "\u008fT": 313, "X\u00ab": 314, "\u00ac\u00f0": 315, "\u00d6\u00ef": 316, "\u00a7T": 317, "\u009bp": 318, "V\u00b5": 319, "9Z": 320, ")\u00cep": 321, "\u00cb\u0086": 322, "\u00ce\u001a": 323, "6\u00ed": 324, "#\u00d3n": 325, "G\u00a6\u00dd": 326, "b\f": 327, "$\u00be": 328, "\u00b2\u00b5": 329, "i\u00b7": 330, "\u0099)\u00b6": 331, "\u00a9\u00cep": 332, "n\u00fe": 333, "\u009e\u0086": 334, "\u00d3g\u009c": 335, "\u008aZ": 336, "<c": 337, "\f\u00ad": 338, "\u00ce\u0019": 339, "\u0095\u00ad6\u00ed": 340, "\u00d3\u00aa": 341, "+Y": 342, "\u00d9Z": 343, "\u008dg": 344, "\u00f5\u00e4": 345, "Y\u00e1": 346, "x\u00c7": 347, "\u009c\u00e7\f": 348, "\u009c5": 349, "\u008fU": 350, "M\u00b8": 351, "m\u00d9": 352, "\u0014\u00e78": 353, "6\u00ec": 354, "\u009c\u00e7\r": 355, "\u0092\u00f9": 356, "\u00e9\u00b3\u00ce": 357, "\u00e9\u00b7": 358, "\u00a7U": 359, "Np": 360, "\u00a5u": 361, "ekM\u00bb": 362, "V\u00b3": 363, "\u0082\u00dd": 364, "m\u00da": 365, "S\u00aa": 366, "\u0086\u0095": 367, "\u008aY": 368, "1\u001e": 369, "\u00cc\u0094\u00db": 370, "i\\": 371, "i]": 372, "\u00acU": 373, "\u00d6*": 374, "r\u00b5": 375, "/\u0093": 376, "\u00c4z": 377, "\u00b1W": 378, "\r+": 379, "\u00a3\u00d5": 380, "\u00b3\u00c3": 381, "\u00a9\u00d5": 382, "\u001aW": 383, "\u00d6\u00ed": 384, "\nu": 385, "4\u00ae": 386, "i\u00b3\u00ce": 387, "\u00c4y": 388, "(\u00f5": 389, "#\u00d5": 390, "\u00e9\u00cep": 391, "\u00b4\u00ae": 392, "\u00cf\u00fe": 393, "\u00c4\u0019": 394, "\u00f1\u008e": 395, "\u00cb\u00e4": 396, "\u00a2\u00a2": 397, "\u00c1n": 398, "G\u009c\u00e1": 399, "\u00bd%": 400, "Q\u00ea": 401, "N\u00a8": 402, "m\u00d8": 403, "s\u0080": 404, "\u00de\u0092": 405, "[\u009e": 406, "\u00d6x": 407, "\u00f4\u0096": 408, "\fG": 409, "\u00d3n\u00d5": 410, "\u00e9]": 411, "zK": 412, "\u00f2\u00b5": 413, "\u00ca}": 414, "\u00f5\u001e": 415, "\u00d6\u00ec": 416, "M\u009e": 417, "\u008f\r": 418, "\u00a7M\u00bb": 419, "\u00abK": 420, "\u00e9\u00d5": 421, "b\r": 422, "\u00e8S": 423, "\u009cG": 424, "\u00fa\u001a": 425, "\u00fdn": 426, "\u00c4\u001a": 427, "T\r": 428, "\u0085:": 429, "\u00b3\u0086": 430, ")\u00d5": 431, "\u009b\u0010": 432, "\u00cd}k": 433, "\u008d\u00bc": 434, "\u009c\u00ad": 435, "\u00e0\u00a7": 436, "#l": 437, "e\u00d2": 438, "\u0005\u00bb": 439, "\u0097\u00c9": 440, "\u00c6\u00b3": 441, "\u00ad\u00cf": 442, "\u0091\u00b6": 443, "\u00926": 444, "\u00859": 445, "\u0004m": 446, "=\f": 447, "t\u00ae": 448, "\u00f4\u00ae": 449, "\u00e7\u0001": 450, "V\u00e7": 451, "\u00ec\u00ad": 452, "\u00e4z": 453, "N\u009bv": 454, "\u00e5kM\u00bb": 455, "\u00ce\u0018": 456, "\b\u00db": 457, "\u008fP": 458, "V\u00b7": 459, "9\u00ce\u001a": 460, "\u009bq": 461, "B\u009c": 462, "\u00e8\u00f5": 463, "\u0087C": 464, "\n<": 465, "\u00c8\u00f5": 466, "\u0095\u00ad6\u00ec": 467, "\u001b\u00d7": 468, "\u009c3": 469, "\u00cd/": 470, "\u00d3nK": 471, "G\u0086": 472, "\u001a\u00ce": 473, "\u00f45": 474, ")\u00f6": 475, "z\u00f2": 476, "\u00d1\u00ea": 477, "6\u00e1": 478, "kv": 479, "s\u009c": 480, "\u00ebv": 481, "6 ": 482, "\u000e\u0086": 483, "\u00a1\u00f7": 484, "\u009f\u00fd": 485, "\u001e\u00ab": 486, "\u0094\u00fb": 487, "m\u00c2": 488, "F!": 489, "\u00ac\u00e9\u00bb": 490, "\u00cf\u007f": 491, "\u00a3\u00cep": 492, "\u00e2<": 493, "\u001e\u00a8": 494, "=\r": 495, "\u00daW": 496, "\u00e7\u008c": 497, "\u009c\u00e0": 498, "\u008d\u00bd": 499, "N)": 500, "\u00ca\u00d0": 501, "\u00fa\u008f": 502, "\u0092\u008c": 503, "\u0085\u001e": 504, "\u00ebw": 505, "\u00e9\\": 506, "\u00f5\u00bb": 507, "\u00b7<": 508, "\b\u00f5": 509, "\u0005:": 510, "u\u00bb": 511, "h\u00f5": 512, "\u00a5N": 513, "_'": 514, "\u009d+": 515, ":W": 516, "\u00ce\u0002": 517, "\u0097\f": 518, "F\u00d8": 519, "\\\u00ff": 520, "\u009d6\u00ed": 521, "b=": 522, "U\u0003": 523, "\u00d2\u00b8": 524, "\u00e6Jm": 525, "\u00d6\u00e7": 526, "m\u00db": 527, "G\u00af": 528, "\u00a7'": 529, "\u009d6\u00ec": 530, "\u007f\u00f6": 531, "\u00ea=": 532, "\u00c5,": 533, "\u00af\u008e": 534, "4z": 535, "\u0011\u00ea": 536, "\f\u00e7\r": 537, "\u00a2\u0096": 538, "+X": 539, "\u007fK\u00e4": 540, "\u009e9": 541, "\u008f_": 542, "\u00ffg": 543, "\u00ad\u00da": 544, "\u00b3\u009c": 545, "\u008f'": 546, "\u00a1b": 547, "\u00cfC": 548, "\u00de\u00bb": 549, "\u0014\u00ea": 550, "\u00a5\u00fe": 551, "\u00d0\u00a7": 552, "V\u0096": 553, "\u009au": 554, "\u00abs": 555, "dm": 556, "\u00c4m": 557, "\u009a\u00fa\u00d7": 558, "\u00bdy": 559, "\u0011\u00e9\u00b7": 560, "\u00a6\u00dc_": 561, "\u00a6\u00dd\u00fe": 562, "\u000bv": 563, "\u00b9\u00ff": 564, "9\u00c0": 565, "}\r": 566, "fJm": 567, "+Zm\u00da": 568, "Y\u00d3v": 569, "\u00026": 570, "\u00a6\u00cf9": 571, "t\u00db": 572, "M\u00df": 573, "N\u0095": 574, "\u0088\u00f3": 575, "\u00de!": 576, "\u0014y": 577, "\u00b4\u00db": 578, "\u00e8g": 579, "\u008fM\u00bb": 580, "\u00a3\u00d7": 581, "\u008dY": 582, "\\\u00e1": 583, "\u00e1N": 584, "\u0092S": 585, "9\u00ce\u0019": 586, "\u00ea<": 587, "i\u00cep": 588, "\u0096m\u00df": 589, "T\f": 590, "V\u00b0": 591, "E,": 592, "\u00eau": 593, "kw": 594, "z\u001a": 595, "\u00a3\u00c3": 596, "G\u0093": 597, "\u009dQ": 598, "\u009e\u00fe": 599, "\u009e\u00ff": 600, "\u00d5\u0003": 601, "\u0092\u009e": 602, "\u00e2=": 603, "\u00d7\u0091": 604, "\u00a7P": 605, "\u008f\u000e": 606, "1K": 607, "'\u008e": 608, "\u00a1N": 609, "b<": 610, "k\u0010": 611, "uF": 612, "\u00e7\u00a1": 613, "sK": 614, "\u00d6t\u00dd": 615, "\u009d6y": 616, "\u00cd:": 617, "\u0088\u00db": 618, "\u00ea\u0081": 619, "\u00eb\u0010": 620, "\u0014z": 621, "2Sl": 622, "\u00b1\u001e": 623, "\u009bw\u00fb": 624, "\u001eN": 625, "W\u00c7": 626, "\u00f43": 627, "\u00aeS": 628, "\u00b5\u00ff": 629, "\u00a6\u00cf:": 630, "\u00c2\u009c": 631, "$\u00a7": 632, "M\u00b8\u00bf": 633, "6\u00e3": 634, "\u00a6\u00dc": 635, "\u0086s\u0086": 636, "b\u0096": 637, "Sn": 638, "\u00d4\u00e78": 639, "g\f": 640, "\u00ed+": 641, "!N": 642, "tz": 643, "\u0004z": 644, "\u0094z": 645, "\\\u00e7": 646, "d\u00a6\u00da": 647, "\u00f4T": 648, "\u00e8\u00a8": 649, "\u008a\u008a": 650, "\u00bdv": 651, "\u00c1N": 652, "\u009fz": 653, "\u00aes": 654, "`\u00b7": 655, "\u00de\u00be": 656, "\u008f9\u00c3": 657, "\u001e\u001b": 658, "\u00ab\u00ec": 659, "CJ": 660, "\u00f9N": 661, "\u00cd9": 662, "\u00960": 663, "k9": 664, "zW": 665, "EE": 666, "\u009dV": 667, "k\u00eb^": 668, ":\u00a3": 669, "\u00f5:": 670, "&\u00ed": 671, "\u00c9\u00bb": 672, "q\u001e": 673, "\u00cf:": 674, "\u00b5\u00bb": 675, "\u00fa\u00dd": 676, "c\u00c3": 677, "\u00d1\u00eb": 678, "m\u00c7": 679, "s\u00ff": 680, "\u00d3g\u009d": 681, "\u00a7\u0014": 682, "\u00d4\u00ea": 683, "\u00e8\u00f3": 684, "\u00a6\u00dc\u0096": 685, "?\u00ee": 686, "t\u00ea": 687, "\u008cBN": 688, "\u00a9\u00c3": 689, "lA": 690, "\u00cd\u008a\u00eb": 691, "#\u00d7": 692, "\u0092_": 693, "\u0093\u00d1": 694, "\u00a5s": 695, "\u00b2\u00b5\u00a6\u00dd": 696, "\u00f4\u00db": 697, "i\u00b7k": 698, ")\u00b7": 699, "m\u00c9": 700, "cY": 701, "o]": 702, "}\u00fd": 703, "\u00a8\u001a": 704, "a\u00ab": 705, "8\u008f": 706, "5\u009c": 707, "\u009bq\u007f": 708, "\u00ae\u00f2": 709, "\u00ce\u001b": 710, "\u00059": 711, "\u00e1\u00d4": 712, "\u0018\u008f": 713, "\u0092\u009b": 714, "O\u001c": 715, "N\u00ab": 716, "\u0099\u00ef\u00f6": 717, "\u00c5-": 718, "6\u00ef\u00f6": 719, "J\u009d": 720, "=Q": 721, "\u008fC": 722, "ty": 723, "\u00a1\u00a2": 724, "\u00a8\u00a8": 725, "\u0095\u00a1": 726, "\u00d9\u00c3": 727, "\u00ae\u007f": 728, "\u00de\u00bc": 729, "\u00bf\u00d0": 730, "\u00ef]": 731, "\u00d6s": 732, "\u00f4)": 733, "\u00de\u00a2": 734, "\u00a7\u000e": 735, ">\u0086": 736, "\u00ab\u00e3": 737, "$\u00a6": 738, "\u00d2\u00bb\u00d7": 739, "f\\": 740, "Sw": 741, "\u00d6p": 742, "8j": 743, "b\u0015": 744, "QQ": 745, "\u0015\u0015": 746, "\u0086\u00af": 747, "_\u001c": 748, "\u0081\u00ca": 749, "<\u00ff": 750, "\f\u00e7\f": 751, "\u00d5\u00b9": 752, "\u00a7J": 753, "\u00d4z": 754, "\u00ef\u00f3": 755, "\u00cc\u00f7\u00fb": 756, "\u00fd/\u0093": 757, ",H": 758, "\u00dd\u00fc": 759, "\u009dn": 760, "%\u0018": 761, "\u008d\u00ba": 762, "\u0097\u00cf": 763, "b\u00af": 764, "\u00bcC": 765, "t\u00d9\u00e7": 766, "\u00eb<": 767, ";\u00d7": 768, "\u0005\u001e": 769, "O\u00f7": 770, "g\u008c": 771, "E-": 772, "\u00d3\u00c7": 773, "\u00e9\u00b7f": 774, "2Sm": 775, "\u00c9M": 776, "\u00883": 777, "\u00d5\u001a": 778, "\np": 779, "\u00f6i": 780, "4\u00e78": 781, "1\u00ea": 782, "\u00af#": 783, "\n=": 784, "\u0088\u00f5": 785, "\u00beN": 786, ".p": 787, "\u00cf\f": 788, "\u0082\u009c": 789, "\u0007(": 790, "\u00e7\u00ff": 791, "\u00bdE": 792, "|\u00ff": 793, "\u00f3\u00fd": 794, "\u00d3n\u00cd": 795, "\u00bf\u00e1": 796, "\u00fa\u0019": 797, "\u008cB": 798, "\u00f7\u00f7": 799, "\u00a7_": 800, "\u00e1\u0095": 801, "\u00ffC": 802, "\u0011\u00b6": 803, "\u0097\u00fa": 804, "\u00f3\u00d0": 805, "\u00f1\u001e": 806, "Y\u00b7\u007f": 807, "$\u00dd": 808, "w\u00ae": 809, "\u009d\u00eb\u00c9": 810, "o\u000e": 811, "\u0095\u00d3n": 812, "\u0014\u00b5": 813, "\u008aX": 814, "s\u00c6": 815, "\u0005\u000e": 816, "yZ": 817, "\u00f44": 818, "4\u00db": 819, "5\u00f5\u00af": 820, "\u00f7\u00b4": 821, "F*": 822, "\u00c4\u0018": 823, "\u00a1\u00a5": 824, "\u00b1V": 825, "\u00cb\u0018": 826, "\u0083\u00fe": 827, "\u0091\u00ea": 828, "\u0011\u00e7": 829, "t\u00e78": 830, "\u00f1\u00c8": 831, "%_": 832, "\u001dz": 833, "ED": 834, "V\u00b2": 835, "m\u00d5": 836, "\u00d3n\u00c1": 837, "\u00caz": 838, "\u0016\u00be": 839, "\u00178": 840, "\u00a5\u00ab": 841, "<s": 842, "\u000b\u0012": 843, "\u009d\u00eb": 844, "\u00fb\u00d1": 845, "Ob": 846, "V\u00b4\u00db\u00b5": 847, "/\u009f": 848, "\u00a8\u0019": 849, "V\u00b4\u00db": 850, "\u0095:": 851, "I\u00bb": 852, "\u0011\u00eb": 853, "+B": 854, "w\u00f9": 855, "\u00a5p": 856, "\u00c59": 857, "\u00a7\r": 858, "\u000b_": 859, "\u00c3+": 860, "\u00a4U": 861, "\u00ba\u001a": 862, "\u00f7\u00de": 863, "\u00d3n\u00ff": 864, "4\u00ea": 865, "\u00e7\u00af": 866, "\u00e8h": 867, "\f\u00a7": 868, "\u00d5\u00a5": 869, "\u00a8Q": 870, "O\u001f": 871, "\u00ba\u00fe": 872, ";\u00d7\u0093": 873, "\nr": 874, "g\u00bf": 875, "\u00f4z": 876, "+Zm\u00d9": 877, "\u009e\u008c": 878, "\u0093v": 879, "\u0014\u00b3": 880, "\u00f2\u009d": 881, "\"\"": 882, "\u00db\u00d7": 883, "$3": 884, "\u00be9": 885, "\u0092\u00af": 886, "p\u00ca": 887, "\u00af5": 888, "#n": 889, "A\u00ff": 890, "o_": 891, "z\u0019": 892, ":\u00dd": 893, "\u00eb\u0015": 894, "P5": 895, "\u00b2\u00ff": 896, "\u00b9\u00cf": 897, "t3": 898, "\u00d0\u00fb": 899, "_\u0003": 900, "g\u0086": 901, "\u00e9\u00e8": 902, "\u00c6\u00ac": 903, "k\u00c8": 904, "k<": 905, "\u0087\u007f": 906, "g\u00ff": 907, "\u00fb\u00fb": 908, "\u008b\u00d9": 909, "\u0086#": 910, "\u00eb\u00c9": 911, "M\u00bb\u00fd": 912, "f\u009c": 913, "e\u00f2": 914, "\u00a78": 915, "Db": 916, "X\u00c3": 917, "e\u00fe": 918, "d\u00a6\u00d9": 919, "\ns": 920, "\u00a7z\u00f2": 921, "f\u00be\u00b5": 922, "\u00e0\u00b7": 923, "\u0014\u00db": 924, "\u008a\u0089": 925, "~\u00b7": 926, "M\u00da": 927, "\u0081\u00d2": 928, "\u009fC": 929, "\u00e5\u00fe": 930, "\u00d7\u009a": 931, "K\u00fc": 932, "N#": 933, "\u00bdD": 934, "\u00bd\u00d1": 935, "4\u00d9\u00e7": 936, "?\u00fb": 937, "\u0014\u00eb": 938, "Q\u00eb": 939, "s\u009e": 940, "\u00ea\u00dc": 941, "=\u0018": 942, "T\u00ea": 943, "\u0086\u009bv": 944, "\u00e4m": 945, "\u00fe\u0097\u00c9": 946, "\u0088\u00f4\u00db": 947, "\u00e8o": 948, "+M": 949, "[\u00c3": 950, "C\u00a1": 951, "\u00cf\u001c": 952, "\u00b8f": 953, "C\u00ee": 954, "\u00bdb": 955, "\u0005\u00af": 956, "\u00bf[": 957, "\u00a5t": 958, "\u009d_": 959, "\u0018\u0085": 960, "\u00b7\u0087": 961, "IO": 962, "YY": 963, ">\u0089": 964, "\nt": 965, "{\u00fb": 966, "\u00cau": 967, "\u00a8G": 968, "e\u00ff": 969, "6\u00ef": 970, "\u00d3\u00af": 971, "\u00b8e": 972, "\u00e5>": 973, "\u00bd\u00a2": 974, "\u00a5w\u00ae": 975, "\u00f26": 976, "u:": 977, "\u00a6\u00dd\u00bd": 978, "%\u00f3": 979, "i\u00ff": 980, "\u00d1P": 981, "\u00b9\u00c3": 982, "\u00fa\u0014": 983, "\u009b\u0015\u00d6": 984, "(\u00f0": 985, "A\u00d2": 986, "\u00e6\u00be\u00b5": 987, "\u00dd\u00fd": 988, "\u00a7\u00a2": 989, "e>": 990, "\u0093w\u00d2": 991, "J\u00be": 992, ":\u00e5": 993, "\u008f\"": 994, "0\u00d5": 995, "\u0014\u00b4": 996, "\u00dd\u00fe": 997, "G\u00a8": 998, "\u00e6\\": 999, "1\n": 1000, "V\u00bf": 1001, "Z\u00ff": 1002, "2\u00e9": 1003, "\u00adi\u00b7": 1004, "|r": 1005, "N\u00b7": 1006, "s\u009c5": 1007, "\u008a\u0088": 1008, "\u0087|": 1009, "\u00fe\u0086": 1010, "\u00bd\u00f7": 1011, "C\u00be": 1012, "\u00cd\u00b8": 1013, "\u00cb6\u00ef": 1014, ":l\u00f3": 1015, "\u00e9\u00b7`": 1016, "=}": 1017, "\u0082=": 1018, "\u00a1\u001f": 1019, "\u00cc\u00d8\u00ae\u00b6": 1020, "\u00bfN": 1021, "\u00c5!": 1022, "!\u00df": 1023, "\u00cf9": 1024, "F\u00dd": 1025, "\u00e3\u001d": 1026, "Cz": 1027, "%<": 1028, "\u00cb\u00a5": 1029, "\u00e3Y": 1030, "\u009c\u00d2": 1031, "\u0093w": 1032, "\u000e\u0096": 1033, "1\u00e4": 1034, "\u008f\u00a2": 1035, "\u001f\u00f7": 1036, "\u00d2\u00ac": 1037, "N\u00f5\u00e4": 1038, "-}": 1039, "\u00ca\u009b\u00bf": 1040, "\u00ca\u00f9\u0018": 1041, "\u00c9\u00bb\u00e9": 1042, "N\u00a9": 1043, "\u0005d": 1044, "V\u00b4": 1045, "\u0097\r": 1046, "\u0099\u00b3\u00ce": 1047, "\u00a8\u00f5": 1048, "z1": 1049, "V\u009a": 1050, "\u00b1{": 1051, "\u0088\u00c5": 1052, "\u00f7\u00ae": 1053, "\u001bz": 1054, "x\u0086": 1055, "\u001a\u00b3": 1056, "\u0099t": 1057, "\u00fa*": 1058, "E\u00f7": 1059, "}\u0015": 1060, "\u009e\u00f9": 1061, "_\u007f": 1062, "#\u0015": 1063, "\u00e4\u0094": 1064, "Wy": 1065, "\u00e9\u00b7k": 1066, "\u00e1\u00c3": 1067, "\u00858": 1068, "\u00f59": 1069, ",a": 1070, "z\u00ec": 1071, "\u00ef\u0010": 1072, "\u00c5^": 1073, "\u00c9/\u009a": 1074, "\u00d8\u008f": 1075, "k8": 1076, "OD": 1077, "m\u00df": 1078, "\u00c4zm\u00d9": 1079, "\u00126": 1080, "k\u00cd": 1081, "\u00b5\t": 1082, "OC": 1083, "=\u00fe": 1084, "\u0013\u00df": 1085, "\u00b3%6": 1086, "\u00f0\u00ca": 1087, "\u00f4\u00ea": 1088, "z\u00fb": 1089, "G\u009a": 1090, "(\u00c4": 1091, "]g": 1092, "f\u00cf\u001e": 1093, "#m": 1094, "\u00c4zm\u00da": 1095, "\u0014b": 1096, "\u008f\u0000": 1097, "7\u00af": 1098, "i\u00d5": 1099, "\ry": 1100, "s\u009c3": 1101, ";\u00bb": 1102, "}N": 1103, "\u00aa3": 1104, "\u00cb\u00fc": 1105, "O|": 1106, "\u00fa\u009c": 1107, "J1": 1108, "\u00ffK": 1109, "7\u00ae": 1110, "i\u00b7`": 1111, "r\u00d7": 1112, "9\u00ce\u0018": 1113, "w\u00af'": 1114, "\u00cd\u009e": 1115, "\u00a1\u00a6\u00dd": 1116, "M\u0088\u00db": 1117, "\u00f4\u00db\u00b5": 1118, "K\u00fd": 1119, ">\u0000": 1120, "\u00d1K": 1121, "\u00a3\u00c9": 1122, "\u00cf\r": 1123, "\u00ef\u00ef": 1124, "\u0093\u00c7": 1125, "\u00e9\u00b7j": 1126, "\u00b3.": 1127, "\u00cc\u00f6": 1128, "\u00cey": 1129, "u9": 1130, "\u0014x": 1131, " \u00ff": 1132, "\u0092\u0098": 1133, "aN": 1134, "\u00be\u0006": 1135, "\u00f5\u0088": 1136, "\u00b7\u00ae": 1137, "\u00be\u00fe": 1138, "1{": 1139, "\u008b\u00dd": 1140, "\u00ad\u00d8": 1141, "]\u00e4": 1142, "\u00bd}": 1143, "K\u00e0": 1144, "\r6\u00ed": 1145, "\u00f3%6": 1146, "\u00adn": 1147, "\u00e9\u00b7h": 1148, "\u00a6\u00cf8": 1149, "\u0098\u00f5": 1150, "_?": 1151, "\r6\u00ec": 1152, "\u00d57": 1153, "\u00ab_": 1154, "\u001c\u00c5": 1155, "\u00a2\u00a1": 1156, "6\u00ea": 1157, "\u00ba\u0019": 1158, "\u00d7)": 1159, "&\u00ef": 1160, "*u": 1161, "\u00f47": 1162, "\u00eb\u00cd": 1163, "\u00d5\u00f6": 1164, "\u00d1\u00e7": 1165, "oI": 1166, "b\u00ad": 1167, "O\u00a2": 1168, "\u00e3\u0087": 1169, "\u0091\u0011": 1170, "\u00c4x": 1171, "/\u0081": 1172, "\u001fb": 1173, "\u00cb\u00fd": 1174, "\u00ce\u009b": 1175, "N\u00bc": 1176, "M\u00dfK": 1177, "\u00a7\u00fb": 1178, "\u00f4y": 1179, "j\u00dc": 1180, "\u00c2\u009d": 1181, "\u00ac\u00e7": 1182, "\u00fa$": 1183, "\u00e9\u00c3": 1184, "\u00cc\u00d9": 1185, "\r6y": 1186, "\u00efI": 1187, "\u00e5:": 1188, "\u008b\u00ee": 1189, "S\u0087": 1190, "\u008a\u0085": 1191, "\u00d8\u0083": 1192, "s%6": 1193, "\u00b9k": 1194, "r\u00ff": 1195, "\u0016$": 1196, "\u00e6{": 1197, "q\u00c3": 1198, "\u00e8Q": 1199, "Q\"": 1200, "\u00bf\u00c1": 1201, "\u00d3n/": 1202, "\u00f0\u0006": 1203, "\u009bu": 1204, "b\u009c": 1205, "\u00c26": 1206, "f{\u00fd": 1207, "B\u009d": 1208, "IW": 1209, ":\u001a": 1210, "\u00ac\u00e1": 1211, "Y\u00ce": 1212, "\u00dd\u007f": 1213, "\\\u00a6": 1214, "\u00dc\u00ff": 1215, "o\u00f3": 1216, "\u00959": 1217, "f\u00c5u": 1218, "W<": 1219, "\u000eP": 1220, "\u00e2\u009c": 1221, "\u00d4y": 1222, "\u00b1\u0086": 1223, "\u00b3n\u00fe": 1224, "\u007f\u00c3": 1225, "i\u00b7o": 1226, "\u00faY": 1227, "\u00a5\u0095": 1228, "\u00ea*": 1229, "8u": 1230, "oQ": 1231, "\u008a\u008b": 1232, "\u0010\u00fd": 1233, "Z\u0084": 1234, "6\u00e2\u00fe": 1235, "\u00a9\u00bb": 1236, ":\u0019": 1237, "Z\u00dd": 1238, "P3": 1239, "!\u00f5": 1240, "/\u00f5": 1241, "\u00d4^": 1242, "j\u00ce": 1243, "\u0092n": 1244, "o\u0010": 1245, "Q\u00e78": 1246, "\u00d3\u00dd": 1247, "\u0087\u00d5": 1248, "9\u00a5": 1249, ":\u00a4": 1250, "\u00e1\u00c8": 1251, "\u0015\u00ed": 1252, "\u00b1\"": 1253, "\u00cc\u00af\u0091\u0086": 1254, "\u001a5": 1255, "\u00d0\u00de": 1256, ">\u0088": 1257, "\u00cc\u00b8g": 1258, "\u001e\u009bv": 1259, "\u00d1\u00e6": 1260, "\u00af\u00adz": 1261, "i\u00b7f": 1262, "T\u00dd": 1263, "b6": 1264, "i\u00b7h": 1265, "\u00c5Z": 1266, "\\3": 1267, "g\r": 1268, "\u00c3\rY": 1269, "\u00fd\u00fd": 1270, "\u001e\u00bf": 1271, "\u0014\u00b0": 1272, "O\u00a1": 1273, "p\u00e4": 1274, "TT": 1275, "\u00d4x": 1276, "\u00e4\u00dd": 1277, "\u008aT": 1278, "|\u00f9": 1279, "\u00cb_": 1280, "\u00aa\u0081": 1281, "\u00ad\u00d9": 1282, "\u00b3\u00a6\u00ed": 1283, "%:": 1284, "\u00a6\u00dd\u009a": 1285, "\u009cS": 1286, "\u00f1\u00ce": 1287, "\u00d7/\u0091\u0086": 1288, "t5": 1289, "\u00ef^N": 1290, "\u00e3\u001c": 1291, "s.": 1292, "\u00d7Y": 1293, "\u00d1{": 1294, "'\u00a2": 1295, "\u00ad\u00e1": 1296, "\u009c7": 1297, "\u00d2\u00bb": 1298, "s\u00fe": 1299, "k:": 1300, "\u008d\u00b1": 1301, "\u00cf|": 1302, "\u00d9Z\u00d3n": 1303, "\u00e1\u0094": 1304, "\u0099\u00b2": 1305, "\u00d3b\f": 1306, "iV": 1307, "\u00d1!\u009d": 1308, "\u009c\u00cb\u0086": 1309, "26": 1310, "\u00b3N": 1311, "\u0014\u00e6": 1312, "z\u00ed": 1313, "\u00d3g": 1314, "\u00bau": 1315, "\u00ff<": 1316, "\u00efQ": 1317, "\u0016\u00ec": 1318, "\r\u00eb": 1319, "c\u00d7": 1320, "\u00f2J": 1321, "\u00d0\u00d1": 1322, "\u009dU": 1323, "\u00aex": 1324, "\r_": 1325, "\u00d3n\u00d7": 1326, "\u00d2\u00fe": 1327, "\u00e6\u009c": 1328, "\u009bw": 1329, "\u0007\u00fc": 1330, "(\u00c5": 1331, "j\u0081": 1332, "\u00c1?": 1333, "S\u00ec": 1334, "\u00f4\u00d9\u00e7": 1335, "\u001e\u0000": 1336, "3\u00df": 1337, "\u00b9\u00ce": 1338, "\u00bdt": 1339, "M\u00bbz": 1340, "\u00ab ": 1341, "\u00eb\u00fa": 1342, "S\u00d3n": 1343, "\u00f1\u00c3": 1344, ";\u00d8": 1345, "\u00b2\u00f9": 1346, "\u00bd\u00bd": 1347, "\u00e8\u0094": 1348, "DD": 1349, "B>": 1350, ":\u0085": 1351, "8r": 1352, "\u00fft": 1353, "s\u00ce": 1354, "\u00beM": 1355, "i\u00b7\u007f": 1356, "2\u00b5\u00a6\u00dd": 1357, "\u00caqK": 1358, "i\u00b7%": 1359, "\u00de\u00ba": 1360, "\u0019\u00ce\u001a": 1361, "\u00e5\u00af": 1362, "5g": 1363, "\u00ab\u00ed": 1364, "u\u009c": 1365, "m\u00df\u00ec": 1366, "6\u00e4": 1367, "\u0095\u00a6": 1368, "|\u00a7": 1369, "j\u008c": 1370, ",\u00db\u00bf": 1371, "I7": 1372, "\u00a1\u00a1": 1373, "\u00ccz": 1374, "\n1": 1375, "\u0012-": 1376, "\u008cU": 1377, "\u00cei": 1378, "\u0097\u00f9": 1379, "YZ": 1380, "\u00d3b\r": 1381, "\u00f9Z": 1382, "\u00faW": 1383, "\u009f\u00f5": 1384, "D\u009b\u00b4": 1385, "d>": 1386, "h\u00f3": 1387, "\u008b\u009c": 1388, "\u00edy": 1389, "r=": 1390, "\u009f\u00f0": 1391, "\u001d\f": 1392, "\u00fa=": 1393, "*\u00a3": 1394, "\u0094\u00e2\u0096": 1395, "N\u00ad": 1396, "\u007f\u00d9": 1397, "\u008aB": 1398, "\u009dx": 1399, "\u0098\u0091": 1400, "\u0087{": 1401, "\u00a8\u0091": 1402, "_\u000e": 1403, "G\u00aa\u00be": 1404, "\u00a3\u0015": 1405, "\u00c9)": 1406, "\ns\u009c": 1407, "\u00d3n\u00d0": 1408, "F\u00de\u009bv": 1409, "\u00f5\u00df": 1410, "\u0082\u009d": 1411, "\u001d\u00ef": 1412, "\u00ee9": 1413, "\u00ed\u00f6": 1414, "\u00a3\u0010": 1415, "\u00b4\u00d9\u00e7": 1416, "\u0011\u00ca": 1417, "\u001by": 1418, "\u00da\u00ac": 1419, "\u0007K": 1420, "\u00e5M\u00df": 1421, "\u00cb\u00fe": 1422, "\u00b5X": 1423, "\u00d1\u00e78": 1424, "\u00e9\u00b7o": 1425, "\u00a3\u00d4": 1426, "\u00b7\u00f9": 1427, "E\u001f": 1428, "+\u0086": 1429, "\u007f\u00a1": 1430, "r\u00b5\u00a6\u00dd": 1431, "4\u00db\u00b5": 1432, "I)": 1433, "\u0091\u00eb": 1434, "\u00a7\u00a1": 1435, "\u00faZ": 1436, "\u00f3\u00ff": 1437, "pS": 1438, "\u00c0\u00b5\u00f6": 1439, "\u00d5@": 1440, "\u00a0\u00ac\u009e": 1441, "\u00f8e": 1442, "S\u00ed": 1443, "\u00ad\u00ce": 1444, "VO": 1445, "@\u0082": 1446, "\u00e9\u00b1\u0006": 1447, "J\u00e0": 1448, "c\u00d4": 1449, "\u00c1\u00dd": 1450, "4y": 1451, "|\u009b\u00bf": 1452, "|\u0001": 1453, "\u0089=": 1454, "\u0091Q": 1455, "\u00d3\u00ff": 1456, "\u007f\u00dd": 1457, "\u00f5\u00f7": 1458, "\u00a6\u00c4\u001a": 1459, "\u0088\u00c4": 1460, "O\u001d": 1461, "Q\u00e1": 1462, "\u009brY": 1463, "^j": 1464, "\u00957\u007f": 1465, "\u00c9/\u009f": 1466, ">M\u00df": 1467, "\u0013\u00dd": 1468, "U\u00f6": 1469, "\u0083\u00cf": 1470, "\u00e7<": 1471, "\u0003\u0094": 1472, "\u009a=": 1473, "\u00d2\u00a2": 1474, "\u00a2C;": 1475, "\u008aC": 1476, "\u00dbx": 1477, "\u009f\u00ec": 1478, "S\u00af": 1479, "\u009f\u00ee": 1480, "{\u00ef": 1481, "\u00c7\u0087": 1482, ":\u00f5": 1483, "\u00c3W": 1484, "F+": 1485, "\u00cd\u0097": 1486, "N\u009b<": 1487, "y\u00fe": 1488, "\u0094b": 1489, "S\u0093": 1490, "\u00b4\u00db\u00b5": 1491, "3%6": 1492, "j\u0013": 1493, "\u00ad,": 1494, "\u00c5:": 1495, "9\u00e7": 1496, "\u00de\u00b9\u00a5\u00ff": 1497, "\u00f3\u009c": 1498, "\u0082\u00b2": 1499, "9Z\u00d3n": 1500, "J\u009c": 1501, "\n\u00c9": 1502, "\u00a7\u00a6\u00dd": 1503, "\u00f7\u00af": 1504, "M\u009eu": 1505, "\n\u001d": 1506, "\u0099)\u00b6\u009bv": 1507, "\u00c0\u00e9": 1508, "\u00fe\u00ce": 1509, "\u0016\u00ed": 1510, "\u00a8h": 1511, "\u0087\"": 1512, "\u0089\u0012": 1513, "\u00b2\u00b3": 1514, "N_": 1515, "3\u00c7": 1516, "\u00a6\u00c4m": 1517, "R\u0096": 1518, "y\u00e8": 1519, "{\u0086": 1520, "\u00e2\u0096": 1521, "\u00adB": 1522, "\u00ca=": 1523, "\u00e5h": 1524, "\u009e\u00eb": 1525, "\u00a7\u008e": 1526, "\u00ed\u00bc": 1527, "\u00f4\u00a9": 1528, "xp": 1529, "~\u009c": 1530, "]\u00c7": 1531, "qN": 1532, "mg": 1533, "\u00a2b": 1534, "8\u0083": 1535, "\u00d1\u008a": 1536, "\u00cc\u00d9\u00e7": 1537, "\u0014\u00e0": 1538, "\u0088\u00f4\u00db\u00b5": 1539, "\u0012n\u00d3": 1540, "<r": 1541, "%=": 1542, "\u001al\u00f3": 1543, "%\u00c1": 1544, "\u001es\u0086": 1545, "\u00b3\u00ce": 1546, "2\u009e": 1547, "\u009b\u00be\u0096": 1548, "\u00e4>": 1549, "8w": 1550, "\u0097K": 1551, "\u009fD": 1552, "\u00f21": 1553, "#oM\u00bb": 1554, "\u00a5\u00fd": 1555, "\u00cd/\u00f3": 1556, "\u00e6l": 1557, "\u0012%": 1558, "\u001d{": 1559, "\u0087\u00d1": 1560, "T#": 1561, "**": 1562, "#\u00c3": 1563, "\u00da\u00ce": 1564, "J\u00e8": 1565, "&\u00ef\u00a5": 1566, "\u00b9\u00c2": 1567, "\u00ed\u00fc\t": 1568, "W\u00d9": 1569, "\u00fa<": 1570, "!\u00fe": 1571, "\u00ae\u00ff": 1572, "\u009fE": 1573, "\u00beS": 1574, "\u00f4(": 1575, "\u009b\u00b4": 1576, "b=6\u00ed": 1577, "A\u007f": 1578, "n\u007f": 1579, "\u00ba=": 1580, "\u00d5\u00f1": 1581, "\u0005\u0089": 1582, "\u009f\u00ef": 1583, "\u00d7?": 1584, "\u00ad-": 1585, "M\u009c": 1586, "G\u00aa\u00ef'": 1587, "\u0097\u00c0": 1588, "zu": 1589, "\u00a6\u00dd\u00a2": 1590, "\u001d\u00dd": 1591, "\u0087\u00dd": 1592, "\u00e8oI": 1593, "\u008f^": 1594, "\u00a72\u00e1": 1595, "O\u007f": 1596, "\u00d3b6": 1597, "\u00fe\u00fe": 1598, "P\u00a2": 1599, "}\u0012": 1600, "/\u00f4": 1601, "O\u00bd": 1602, "\u00d0\u00a2": 1603, "\u009b\u00be": 1604, "\u00e8\u00f0": 1605, "\u00ab_\u00f6": 1606, "\u0018\u0084\u009c": 1607, "Y\u00c3": 1608, "%\u00f0": 1609, "d\u00a6": 1610, "_\u00f0": 1611, "\u001d\r": 1612, "\u0088u": 1613, "\u00a0A": 1614, "\u00d2\u00a7": 1615, "\u00b9\u00e3": 1616, "3g": 1617, "\u00f0\u00a7": 1618, "\u00a6\u00dd\u0090": 1619, "\u00885": 1620, "F$": 1621, "8v": 1622, "R\u00a7": 1623, "C\u00bf": 1624, "\u00e8`": 1625, "\u008f{": 1626, "\u00f8'": 1627, ">\u007f": 1628, "\u00cb\u00e7": 1629, "\u0099\u00e3": 1630, "\u00a2D": 1631, "\u009c9": 1632, "\u00df)": 1633, "\u008f\u000f": 1634, "\u00f6$": 1635, "\u0098\u00bd": 1636, "\u00a1D": 1637, "\u00a0j": 1638, "\u00156": 1639, "\u0019\u00ce\u0019": 1640, "\u0002\u0087": 1641, "]\u00fe": 1642, ")K": 1643, "\rn": 1644, "rK\u00e6": 1645, "\u00ea\u008c": 1646, "\u0089\u00bb": 1647, "\u00b9N": 1648, "\u00d5\u0019": 1649, "\u00fb\u00d7": 1650, "\u00ea\u00d2": 1651, "\u00ea/": 1652, "\u00a6\u00cb\u00e3v": 1653, "\u00897i": 1654, "x\u0082": 1655, "g<": 1656, "z{\u0086": 1657, "\u00e1\u009d": 1658, "\u00cd\u00ac": 1659, "(\u00f3": 1660, "\u0018\u00f0BN": 1661, "x\u00e4": 1662, "\u0017\u00bd": 1663, "\u0089\u0089": 1664, "\u009bY": 1665, "\u00a2\u00f7": 1666, "\u00d1\"": 1667, "Eb": 1668, "\u00ab#": 1669, "I|\u00fe": 1670, "3g\u008f": 1671, "\u0005_": 1672, "\u0099\u00b3\u00c7": 1673, "^F": 1674, "\u00ea\u0093": 1675, "\u00ff\u00b3": 1676, "\u0014\u0086": 1677, "\u00a4y": 1678, "\u00bdsK\u00fe": 1679, "\fS": 1680, "M\u0097\u00c6\u00ed": 1681, "nx": 1682, "cV": 1683, "[\u00b3": 1684, "?\u00a5\u00f2": 1685, "\u00a2M\u00da": 1686, "\u00abxv": 1687, ":m\u00da": 1688, "\u00b1\u0000": 1689, "G\u00bdy": 1690, "\u00d7\u009f": 1691, "(v": 1692, "\u00d79": 1693, "\u00ccx": 1694, "\u0086W": 1695, "C\u00ef": 1696, ";\u00dd": 1697, "\u008a\u00f6": 1698, "EB": 1699, "i\u00b7j": 1700, "\u00a6\u00ef": 1701, "\u00dbm": 1702, "|s": 1703, "\u00a8\u00f0": 1704, "\u00e5=": 1705, "\u00fa\u00dc": 1706, "\u00bb\u00fc": 1707, "\u00e9\u00e3": 1708, "m\u00c5\u00fd": 1709, "\u000e\u00fd": 1710, "\u00b2\u00e9": 1711, "\u00cf\u0090": 1712, "\u0090\u00fa": 1713, "\u00d1\u00e0": 1714, "\u00c9/\u0099": 1715, "$\u00be\u007f": 1716, "\u0081C": 1717, "q\u00ac": 1718, "\u009b\u00bf": 1719, "\u00e9\u00b7\u007f": 1720, "\u00df\u00dc": 1721, "\u00af\u00bf": 1722, "C\u00c9": 1723, "\u00cf^": 1724, "\u00d0(": 1725, "\u009f\u00f9": 1726, "\u00b2\u001f": 1727, "\u0083\u00bb": 1728, "\u00bf\u00d7": 1729, "\u00a5w": 1730, "+[": 1731, "\u00e9\u00d7": 1732, "\u0091G": 1733, "\u00a8}": 1734, "\u0088~": 1735, "\u0013\u0015": 1736, "\u001d\u00ee": 1737, "\u00c7\u00a8": 1738, "=\u00fc": 1739, "t\u00db\u00b5": 1740, "<\u009c": 1741, "G\u0087": 1742, "\u00bb\u00c9": 1743, "D\u0086v": 1744, "v\u00fb": 1745, "e\u007f": 1746, "\u00880": 1747, "\u00d0 ": 1748, "Q\u00e0": 1749, "\u0011\u008a": 1750, "\u001e\u00aa": 1751, "\u009e\u00fd": 1752, "\u00e59": 1753, "\u00cf\u00fa": 1754, "\u00e6l\u00f3": 1755, "\u00ef\u00bd": 1756, "f\\3": 1757, "\u00b3\u00a6\u00ec": 1758, "\u009b/\u008d\u00da": 1759, "H\u009c\u00e1": 1760, "\u0099\u00ec": 1761, "\u0006s\u0086": 1762, "\u00f7[": 1763, "\u00cf\u00f8": 1764, "fl": 1765, "p\u00d5": 1766, "m\u00c5\u00fc": 1767, "\u00eb\u0094": 1768, "B\u00c5": 1769, "\u0010\u00e4": 1770, "c\u00c9": 1771, "C\u00ea": 1772, "t)": 1773, "\u009e\u00e9": 1774, "f\u00dd\u00fe": 1775, "\u009c\u00bf": 1776, "\u0094\u00f4\u00db": 1777, "\u0097\u00fc": 1778, "\u0012\u00b5": 1779, "\u00be\u0086": 1780, "\u00fdG": 1781, "\u0099\u00b7\u001e": 1782, "\\\u00bf": 1783, "\u001e\u00be": 1784, "\u0092_?": 1785, "\u00e8\u00bd": 1786, "5\u00bb": 1787, "\u0095}": 1788, "\u007f\u00c0": 1789, "W\u0087\u0082\u0012r": 1790, "g\u008e": 1791, "zKM\u00bb": 1792, "\u008b\u0084": 1793, "\u00df\u0004": 1794, "\u00bc\u0092\u009e": 1795, "\u00c3\u0091": 1796, "G\u0080": 1797, "\u00c5\u00ec": 1798, "9\u0092\u009b": 1799, "\u00fa\u00f8p": 1800, "\u00ab\u007f": 1801, "^\u00a2": 1802, "1\u00e1": 1803, "\u00fb\u0080": 1804, "V\u00b1": 1805, "\u0095\u00cf": 1806, "\u0081\u0005": 1807, "\u00f3\u00fc": 1808, "k\u0015": 1809, "\u00f4\u0096\u009bv": 1810, "\u00c4\u0002": 1811, "\u00b7\u00af": 1812, "9\u007f": 1813, "\u00a0P": 1814, "\u0007H": 1815, "\u00a6\u00cf": 1816, "Ot": 1817, "\u00cf_": 1818, "\u00a5t\u00db": 1819, "\u0014;": 1820, "\u00ba<": 1821, "\u00a6\u00dd^": 1822, "\u00e8}": 1823, ":m\u00d9": 1824, "IN": 1825, "\u00af\u000f\u0004$\u00e5": 1826, "\u0080\u00a1": 1827, "\u008a\u00b3": 1828, "\u009dZ": 1829, "\u00e9\u00b7%": 1830, "N\u001d": 1831, "V\u0085": 1832, "{\u00da": 1833, "\u00ef\u00f4": 1834, "\u009dR": 1835, "OM\u00bb": 1836, "G\u00c7": 1837, "\u00fd,": 1838, "\u00a2\u001f": 1839, "\u00a1E": 1840, "*m": 1841, "O\u00fc": 1842, "k\u00eb^\u009bv": 1843, "\u00d9\u00e7": 1844, ")S": 1845, "\u00e5\u00f2": 1846, "]\u00d1": 1847, "\u0004\u00f7": 1848, "6\u00f3": 1849, "\u00f4R": 1850, "\u008au": 1851, "\u00d0\u00de\u0092": 1852, "X\u0090": 1853, "\u00db\u00bf": 1854, "b=6\u00ec": 1855, "\\\u00a7": 1856, "\u00fd9": 1857, "r\u00f9": 1858, "\u008a[": 1859, "\u009ar": 1860, "j\u00fb": 1861, "\u00d3\u00d1": 1862, "\u00d0VO": 1863, "IF": 1864, "\u00db\u00fc": 1865, "\u009e\u00f8": 1866, "\u008a1": 1867, "\u00c1\u0085": 1868, "\u007f\u00bd": 1869, "S\u00c7": 1870, "<u": 1871, "\f\u00ae": 1872, ")`": 1873, "\u00e7\u00f8": 1874, "\u001c\u00f7": 1875, "\u00bd=\u00c3": 1876, "\u00eas": 1877, "\u00a3\u00c0": 1878, "\u00bd+": 1879, "\u00f5n": 1880, "EY": 1881, "\u00e1\u009a": 1882, "\u001am\u00da": 1883, "\u00be\u00a7": 1884, "\u00e4\u00b8": 1885, "\u00e4\u0097\u00cd": 1886, "\n\u00bf": 1887, "\u00c9\u00b8": 1888, "\u0002S": 1889, "\nE": 1890, "\u009d\u00b7#": 1891, "\u00a9\u00c9": 1892, "K+": 1893, "[\u00b5": 1894, "\u00f4b": 1895, "/\u00f3": 1896, "[\u00b0": 1897, "\u00c0\u00e5": 1898, "\u008b\u00d7": 1899, "\u00d3n\u00c0": 1900, "\u00ef^": 1901, "\u00c1\u00e5\u00d6": 1902, "\u00871": 1903, "9%\u00f3": 1904, "\u0091(": 1905, "\u00c39\u00c3": 1906, "=\u00fd": 1907, "-y": 1908, "R<": 1909, "IL": 1910, "\u009b9": 1911, "\u00a3\u00cd": 1912, "\u00ab\u00da": 1913, "W\u00b5": 1914, "\u00f2\u00b5\u00a6\u00dd": 1915, "\u00cez": 1916, "\u00f0\u00e1\u00df": 1917, "B\u008f": 1918, "Y\u007f": 1919, "4\u00ff": 1920, "\u00e9-": 1921, "\u00dc\u00f0": 1922, "\u00c54": 1923, "f\u00cb": 1924, "\u00884": 1925, ")\u00cc\u00b8": 1926, "\u0085\"": 1927, "VQ": 1928, "\u008e\u00ee": 1929, "\u009a<": 1930, "\u009c;": 1931, "\u0012n": 1932, "\u00fd\u00c0": 1933, "\u009eu": 1934, "\u009d\u001e": 1935, "\u00a7{": 1936, "\u00eb\u00d4": 1937, "C\u00ec": 1938, "\u00ad\u00c2": 1939, "1\u00e6": 1940, "\u009f\u00f3": 1941, "\u008a\u009b": 1942, "f\u0097": 1943, "\u00f4\u00f1": 1944, "\u00f4\u00e78": 1945, "\u00dcr": 1946, "\u0088\u00e5": 1947, "q\u0006": 1948, "\u001f\u0000": 1949, "\u00e8\u0091": 1950, "\u00fa\u00a0": 1951, ";\u00fc": 1952, "\u009ap": 1953, "\u001f&\u00ef": 1954, "\u00cd}k\u00d3n": 1955, "^{": 1956, "\u00f6\u00de": 1957, "{\u00d7": 1958, "\u00eas\u009c": 1959, "\u00fd\r": 1960, "n\u00fd": 1961, "\u00d7\u007f": 1962, "\u00cfF": 1963, "\u00d3n\u00af": 1964, "<\u0001": 1965, "\u00d5\u0091": 1966, "\u00c9F": 1967, "\\\u00f1": 1968, "d\u00dd\u00a7": 1969, "\u00f44\u00db": 1970, "\u00ee\u00ec": 1971, "\u009e\t": 1972, "\u00e1\u00ab": 1973, "\u0001N": 1974, "3e": 1975, "xp\u00ef": 1976, "\u00f4Q": 1977, "]\u001e": 1978, "3b\u009e": 1979, "\u00eb\u00da": 1980, "\u000f\u00a2": 1981, "\u00e8\u00a3": 1982, "\u0019Z\u00d3n": 1983, "G\u009f": 1984, "\u00b7?": 1985, "\u00d9\u0092\u009b": 1986, "\u0001C": 1987, "\u00e0\u00ee": 1988, "\u00e9,": 1989, "\u0099\u00b7\u007f": 1990, "l\u00e1": 1991, "5\u009d": 1992, "N\u00bf": 1993, "m\u00b6": 1994, "\u0096\u00be": 1995, "\u00ae\u0019": 1996, "\u00f0\u00e1": 1997, "\u007f\u00a5": 1998, "\u00f9\u0018": 1999, "\u00d7\u00d6\u00bd": 2000, "\u00fa\u00b2": 2001, "\u00d3\u00fe": 2002, "\u0090\u00a7": 2003, "\u00a4\u00ab": 2004, "\u00d7-}": 2005, "\u0014\u0089": 2006, "\u00bb\u00fd": 2007, "\u00d1)\u0098\u00f6": 2008, "\u00f5\u00da": 2009, "\u00fe\u00a3": 2010, "\u009cR": 2011, "\u00cd\u00bb": 2012, "}\f": 2013, "\u00ae_": 2014, "\u0099_#\f": 2015, "\u00f4\u00db\u00b0": 2016, "4\u00ab": 2017, "\u008ai": 2018, "\u0018F\u00de": 2019, "6\u00b3": 2020, "4\u00db\u00b4": 2021, "\u0086)": 2022, "\u00b3\u00fe": 2023, "%\u00f2": 2024, "\n}": 2025, "M\u00b9,": 2026, "_&": 2027, "\u001c;": 2028, "\u0087\u000e": 2029, "\u008f\u008e": 2030, "mV": 2031, "S\u00d1": 2032, "\u00f8\u00e4": 2033, "\u009d\u001b": 2034, "\u001c\u00c4": 2035, "\u0089\u0011": 2036, "\u0097\u00fd": 2037, "(\u00c7": 2038, "hG": 2039, "\u001bx": 2040, "\u000e\u0090": 2041, "\u00ca1": 2042, "\u00cc\u0094c": 2043, "u@": 2044, "=\u00fa": 2045, "j\u00b0": 2046, "\u00b7|": 2047, "V\u0084": 2048, ":u": 2049, "y%<": 2050, "%k": 2051, "\u008f\u0093w": 2052, "\u009f\u00d2\u00f9": 2053, "UF": 2054, "9O": 2055, "s\u0086\u009bv": 2056, "\u00cc\u00db\u008f": 2057, "e=": 2058, "1\u00ac": 2059, "\u00e7=": 2060, "\u00cc\u00db": 2061, "\u00e8\u00b4": 2062, "KV": 2063, "\u00b1\u001b": 2064, "\u00d1\u00e4": 2065, "\u0088\u00f0": 2066, "8}": 2067, "\u00ea\u0014": 2068, "\u00afh": 2069, "\u000e\u00f8": 2070, "<b": 2071, "\u0097\u00f8": 2072, "U\u00bc": 2073, "\u00c9M\u00b3": 2074, "\u00ff\u00ec": 2075, "\u0099\u00ef": 2076, "\u00dcp": 2077, "\u00a7\u0002": 2078, ".\u0086": 2079, "b\u0090": 2080, "M\u0088": 2081, "k\u009c": 2082, "\u00e4;": 2083, "z\u00f3": 2084, "%0": 2085, "eh": 2086, "\u0019\u0092\u009b": 2087, "\u00d3e\u00f1\u00bb": 2088, "\u000e\u00fe": 2089, "\u00d6V": 2090, "p\u00ce": 2091, "\u0091\u0007": 2092, "\u00e6\u0097": 2093, "}y": 2094, "\u00ba\u00dd": 2095, "n\u00ff": 2096, "\u0092\u00e0": 2097, "R\u00d5": 2098, "3\u009c5": 2099, "[\u00be": 2100, "\u00d9\u00ce\u001a": 2101, "\u0011\u00e1": 2102, "\u0087<": 2103, "\u00a0\u00e9": 2104, "\u00afQ": 2105, "\u00bd\u001f": 2106, "\u00e8k": 2107, "F!'*": 2108, "\u00c8w": 2109, "\u00dal\u00f3": 2110, "\u00cex": 2111, "C\u009e": 2112, "\u0010\u00ef": 2113, "\u009c\u00c9M": 2114, "\u00f9\u00f3": 2115, "\u00aa\u008c": 2116, "\u00bc<": 2117, "\u00ef\u00bc": 2118, "\u00faX": 2119, "\u00887": 2120, "\f\u00c9M": 2121, "\u0018\u008fM\u00bb": 2122, "\u00b9\u00fe": 2123, "_\u00f6": 2124, "\u00859\u00ce\u001a": 2125, "\nD": 2126, "\u00cf\u009a": 2127, "OE": 2128, "\u0007v": 2129, "\u00af>": 2130, "\u0014\u00e4": 2131, "\u0087S": 2132, "\u00d7E": 2133, "O\u009f": 2134, "5\u00fe": 2135, "^G": 2136, "W\u00da": 2137, "\u008d:": 2138, "\u00e9\u00ee\u0019": 2139, "fW\u00c8\u00c3": 2140, "\u0002\u0015": 2141, "\u00ffq": 2142, "\fy": 2143, "\u00fb\u00a2": 2144, "\u008a\u0086": 2145, "\u0091h": 2146, "\u008f\u00b1": 2147, "{D": 2148, "D\u0016": 2149, "\u00058": 2150, "\u00de\u0095": 2151, "/\u00f0": 2152, "f\u0097\u00fa": 2153, "G\u009c": 2154, "[\u009d": 2155, "\u000e\u001f": 2156, "\u00f2\u00b4": 2157, "2Q\u008e": 2158, "d\u0097\u00cc": 2159, "\u00eft": 2160, "\\\u00e0": 2161, "\u009b\u00e9": 2162, "\u00a6\u00c4\u0019": 2163, "M\u00b9-": 2164, "\u00e7\u00ba": 2165, "\u00fa\u009d": 2166, "AW": 2167, "\u00b8`": 2168, "\u0002\u009c": 2169, "l\u00e7": 2170, "VG": 2171, "k\u00cf": 2172, "s\u009c0": 2173, "\u00a0\u00a7": 2174, "\u00f6\u00fe\u0004": 2175, "\u00c4\u001b": 2176, "\u00c1%\u0018": 2177, "#oJ": 2178, "g\u009c": 2179, "+\u00a6\u00dd": 2180, "b\u0001": 2181, "\u00e8\u0010": 2182, "\u00d5\u00bc": 2183, "\u009d\u00ec": 2184, "\u00f6*": 2185, "\u00a1\u00da": 2186, "\u00cb\u0080": 2187, "N\u00a0": 2188, "'\u00fb": 2189, "\u009dA": 2190, "\u00f4C": 2191, "\fz": 2192, "\u00ea\u001a": 2193, "\u00e8G": 2194, "\u000e\u00f7": 2195, "1\"": 2196, "\u00d4(": 2197, "\u00ecT": 2198, "\u00b7\u00f8": 2199, "\u00d7\u0087": 2200, "\u00ba1": 2201, "J\u00ef]": 2202, "S\u00a6\u00dd": 2203, "\u00a3\u00d3": 2204, "\u0019O": 2205, "\u00de\u00c2": 2206, "\u00f2\u001f": 2207, "k:n": 2208, "H\u00aa": 2209, "Q\u0089": 2210, "\u00f5\u00cd/\u00fb": 2211, "L\u00f7": 2212, "\u00e9S": 2213, "tZ": 2214, "\u00faT": 2215, "\nw": 2216, "\u00d9|": 2217, "\u00f97i": 2218, "\u001c\u00a1": 2219, "\u00d3\u00f7": 2220, "H\u00f3": 2221, "#\u00cf": 2222, "+Zm\u00d8": 2223, "\u00e7\u00fb": 2224, "\u00aa\u00b5": 2225, "\u00f4c": 2226, "\t\u00ef": 2227, "\u00ce\u00d4\u00f7": 2228, "\u0018\u00a7": 2229, "\u00d7|": 2230, "8\u00a7": 2231, "s\u00bb": 2232, "\u00f5\u00d9": 2233, "u\u00ca": 2234, "\u0090\u00ef": 2235, "2\u00ff": 2236, "\u00b7#": 2237, ":\u00a6": 2238, "\u00df\u00e0": 2239, "\u00f0\u00e4": 2240, "\f\u00af": 2241, "\u00ae\u008f": 2242, "\u00ab\u00c3\u00c1\t9": 2243, "\u00f2\u009e": 2244, "\u00fb\u00da": 2245, "\u00a7\"": 2246, "D\u00f7": 2247, "\u00f7\u00a3": 2248, "\u000eb": 2249, ":\u00f6": 2250, "4W": 2251, "\u00197i": 2252, "4\u00db\u00b0": 2253, "\u00fa/": 2254, "\u001bb": 2255, "\u00fe\u0096": 2256, "K\u00e7": 2257, "\u00cd\u009e=": 2258, "\u009c\u00f1": 2259, "\u0018\u00f5": 2260, "\u00aa\u00fb": 2261, "\u00f1\u001e\u009bv": 2262, "\u00bdw": 2263, "\u00beM\u00da": 2264, "\u0093q": 2265, "\u00a5\u00ff": 2266, "So": 2267, "5\u00f5\u00afM\u00bb": 2268, "\u00e1\u00aa": 2269, "\u001d\u00d5": 2270, "Z\u00fb": 2271, "\u00c4\u00d6": 2272, "\u0010\u00eb": 2273, "\u0098\u00a5": 2274, "d;": 2275, "j\u008d": 2276, "\u009as": 2277, "\u0097\u00ff": 2278, "\u00aeZ\u00fb": 2279, "r\u001f": 2280, "\u00ff\u0086": 2281, "\u00cd\u00bb\u00fd": 2282, "\u00e8\u00c7": 2283, "j\u00d2": 2284, "\u001a\u00f3": 2285, "3\u00df\u00ec": 2286, "\u0091\u00e6": 2287, "\u00ce\u00db\u0091": 2288, "\u00f5\u009e": 2289, "M\u0088\u00c6": 2290, "\u00aan": 2291, "\u00c4b": 2292, "OF": 2293, "f{": 2294, "\u0016\u00db": 2295, "Q\u00e4": 2296, "=\u00f0": 2297, "\u00df\u00f0": 2298, "\u00d9t": 2299, "\u00f4\u00f7\f": 2300, "\u0080S": 2301, "\u0087Q": 2302, "\u00f9p": 2303, "D\u0089": 2304, "c\u00d5": 2305, "S\u0086": 2306, "\u009dS": 2307, "\u00f4H": 2308, "\u00af7": 2309, "\u00d0\u008e": 2310, "\u0017\u00b3": 2311, "\u00149": 2312, "#\u0010": 2313, "$\u009b": 2314, "\u00fa1": 2315, "'8": 2316, "\u009b\u0011\u008c": 2317, "1\u001e\u009bv": 2318, "\u00de\u00c5": 2319, "\u0018j": 2320, "U\u0090": 2321, "z\u008f": 2322, "\u00f4\u00af": 2323, "t\u0010": 2324, "\u00a6\u00dc\u001d": 2325, "D9": 2326, "s\u00c3": 2327, "\u00b9\u00c0": 2328, "\u00aa0": 2329, "\u00f4A": 2330, "k\u0094": 2331, "\u00e2\f": 2332, "\u00e1\u00d0": 2333, "%3\u001e": 2334, "\u00f2=": 2335, "\u0005\u00fc": 2336, "\u00da\u00f3": 2337, "\u00c2\u008f": 2338, "\u00cf\u0004": 2339, "\u0011K": 2340, "\u00e8i\u00b7": 2341, "\u00c1\b": 2342, "\u0017\u00ae": 2343, "\u00b2\u009f": 2344, "\u0087}": 2345, "\u008fU}": 2346, "\u00eb9": 2347, "\t(\u00c7": 2348, "\u00b5\u00e4": 2349, "\u00d4\u00e0": 2350, "\u00f5\u00ca": 2351, "3\u00df\u00ed": 2352, "a\u0095": 2353, "\u0090\u00ff": 2354, "e|\u008c": 2355, "\u00b2\u00fc": 2356, "3\u009c": 2357, "\u00aep": 2358, "\u00fau": 2359, "P\u008f": 2360, "c\u00c8": 2361, ">\u008b": 2362, "Q\u008a": 2363, "\u00bd\u00fd": 2364, "\u000f\u00fb": 2365, "\u0010\u00fa": 2366, "\u00beQ": 2367, "\u00f4Z": 2368, "\u00f5\u00e6": 2369, "\u00edU": 2370, "\u00e7w": 2371, "_Z": 2372, "\u0082\u00af": 2373, "\u00ca\u00ce": 2374, "\u00e9\u00b7d": 2375, "\u00de\u00b8": 2376, "\u00a9\u00b7": 2377, "\u00cf8": 2378, "\u00c5\u0018": 2379, "P\u00e3": 2380, "\u0087\u00c7": 2381, "\u00eb\u00ac": 2382, "\u0082~": 2383, "h\u00bf": 2384, "xS": 2385, "\u0018\u00a5": 2386, "g\u00be": 2387, "\u00a7\u008f": 2388, "\u008as": 2389, "O\u0018": 2390, "p\u00cc": 2391, "\r\u001a": 2392, "r\u00f9\u0018": 2393, "\u00e5\u001e": 2394, "\u0096\u00ad": 2395, "\u00ef\\": 2396, "\u00ad\u007f": 2397, "\u00a3\u0012": 2398, "{\u00ee": 2399, "\u00eb:n": 2400, "\u001c?": 2401, "\u00a7\u00de": 2402, "e\u008c": 2403, "u~": 2404, "d\u0097\u00cd": 2405, "fl\u00f3": 2406, "\u0001)": 2407, "\u009c\u00f5": 2408, "\u00b7\u00a5": 2409, "e\u00c0": 2410, "\u00f5\u00f0": 2411, "\u00c5]": 2412, "\u00fd:": 2413, "\u0095\u00f20": 2414, "G\u00a1": 2415, ">|": 2416, "9\u00a5\u00fe": 2417, "Tf": 2418, "n\u00f8": 2419, "f\u00cf": 2420, "\u008cW": 2421, "h\u0010": 2422, "\u00afo": 2423, "\u009brZ": 2424, "\u00da\u009e\u00fe": 2425, "\u008a\u00b4": 2426, "\u00148": 2427, "\u00df\u00de": 2428, "\u001ft": 2429, "P\u00ed": 2430, "5@": 2431, "\b\u00b9": 2432, "\u00de\u00bc\u009c": 2433, "\u00b5F": 2434, "\u008d\u00bd+": 2435, "\u00dc3": 2436, "7i": 2437, "\u00bdw\u001e": 2438, "M\u00d0": 2439, "\u007f\u00e7": 2440, "\u00b9.": 2441, "\u0018\u00d6": 2442, "8%": 2443, "\u00bf\u00b8": 2444, "\u00c7w": 2445, "M\u00ba\u00bc": 2446, "\u00bf\u00ba": 2447, "\u00c0\u00ec": 2448, "\u00ca<": 2449, "\u00d7\u0085": 2450, "\u00f4J": 2451, "\u00ff]": 2452, "\u00d3\u0093": 2453, "|\u00a3": 2454, "\u00f4\u00db\u00b3": 2455, "\u00fe\u00e3": 2456, "\u00fa\u00f2": 2457, "\u00fd\u00c7": 2458, "ju": 2459, "\u00fb\u00d4": 2460, "\u00d1Q": 2461, "\u008f\u00fb": 2462, "\u00e6$": 2463, "\u00ff\u00ba": 2464, "J=": 2465, ".3": 2466, "2\u00bf": 2467, "\u00d3\u009c": 2468, "\u00adj": 2469, "\fG\u00a6\u00dd": 2470, "&\u00e3": 2471, "\u00cfu": 2472, ":\u00ac": 2473, "\u00be\u001c": 2474, "\u00bf\u00e0": 2475, "\u008cR": 2476, "r\u00b4": 2477, "k\u00be": 2478, "F\u00de\u0095": 2479, "\u00cc\u00db\u00bf": 2480, "\u00f5\u00d6": 2481, ".\u0019": 2482, "\u00d7}": 2483, "\u00bdG": 2484, "\u00e8\u00f2": 2485, "\u00ca\u00d6\u00b1\u0006": 2486, "eM\u00df": 2487, "\tZ": 2488, "\u00cf\u00e9|": 2489, "=~\u00b7": 2490, "\u00ac@": 2491, "2S": 2492, "-\u00b6": 2493, "7|": 2494, "\u00ff\u0004": 2495, "A\u00be": 2496, "\u00f9\u000e": 2497, "|\u009b\u00b4": 2498, "s\u00d7": 2499, "5\u00e4": 2500, "2\u00e0": 2501, "\u008a\u00c5": 2502, "\u00c7\u00aa": 2503, "I\u00e3": 2504, "\u00d0\u00b1": 2505, "N\u00aa": 2506, "\u00d3\u0086": 2507, "\u009fB": 2508, "\u00c3\u00a9": 2509, "\u0088r": 2510, "\u00b0\u00ca": 2511, "\u00f9\u00fe": 2512, "E\u00ee": 2513, "\u00d4{": 2514, "U}": 2515, "\u00e8\u00c5": 2516, "\u00f5}": 2517, "\u009c\u00e1\u00a6\u00dd": 2518, "[\u009f": 2519, "\u00c8?": 2520, "\u0018\u00f3": 2521, "\u008f5": 2522, "\u00b1\u001e\u009bv": 2523, "\u00e8i]": 2524, "\u009f?": 2525, "\u0012\u00a7": 2526, "\u00e9\u00ff": 2527, "\u00e8\u0090\u00ce": 2528, "\u00f5\u00d1": 2529, "\u00e4\u0097\u00cc": 2530, "<p": 2531, "\u00d6\u00e7\u00fc": 2532, "<\u0013": 2533, "\u00eb\u00be": 2534, "\u0083\u00a5": 2535, "\u00dd\u0018": 2536, "\u00e1\u00df": 2537, "\u00caw": 2538, "d\u00dd": 2539, "\u0007C": 2540, "\u0084^\u00ee": 2541, "\u009a\u00a0": 2542, "\u00ab\u00ea": 2543, "\u00cc\u0094": 2544, "\u00c8y": 2545, "\u009c\u0092\u00f9": 2546, "\u009c0": 2547, "\u0097\u00c3": 2548, "\u00fa_'": 2549, "\u00fas": 2550, "\u00fb\u00b5": 2551, ":<": 2552, "\u0097\u0006": 2553, "{z": 2554, "^\u00de": 2555, "\u00e8\u0097": 2556, "#\u00d7\u00ebv": 2557, "\u00979": 2558, "\u00d0t": 2559, "\u00adg": 2560, "!\u00d7": 2561, "\u00e1\u00de": 2562, "\u009e\u00c5": 2563, "\u00d8\u00bd": 2564, "\u00d44": 2565, "\u00fb\u00fb\u00fb": 2566, "\u0015\u0016": 2567, "\u00b6\u00db": 2568, "\u00f5\u0015": 2569, "\u00f7\u0088": 2570, "p\u00ef": 2571, "\u00f5@": 2572, "\u00f4\u00bf": 2573, "k\u00fe": 2574, "\u00ed_": 2575, "J\u00d6": 2576, "\u00e9\u0015": 2577, "\u00a7\u0011": 2578, "S\u0099p": 2579, "2\u001f": 2580, "]\u00f2": 2581, "?\u00eb": 2582, "\u00d5\u0018": 2583, "T8": 2584, "\u0082\u00c4": 2585, "\u00ce\u00ee": 2586, "\u00f2u": 2587, "\u00b7C": 2588, "8g": 2589, "6s": 2590, "\u00b5}": 2591, "f\u00dd\u00fc": 2592, "\u0013v": 2593, "\u0083\u00a4": 2594, "\u00b3\u009e": 2595, "\u00eb\u00e3": 2596, "6_\u001b\u00b4": 2597, "\u001ez": 2598, "N5": 2599, "\u00f44\u00ae": 2600, "\u00bd\u00aa": 2601, "w\u00af": 2602, "\u00f5\u00d0": 2603, ">\u00f4": 2604, "\u00e3\u00bb": 2605, "\u00ab\u00bc": 2606, "Ns\u0086\u009bv": 2607, "i\u00b1\u0006": 2608, "\u001bt": 2609, "\f\u00d2\u00ff": 2610, "\u00f0\u00ea": 2611, "ZZ": 2612, "\u00e0t": 2613, "\u00a7M\u009e": 2614, ":\u00a0": 2615, "\u00d4U": 2616, "\\\u00e6": 2617, "\u008fz\u00f2": 2618, "7\u00d3": 2619, "\u00cc\u00ba": 2620, "\u00a2\u00e1": 2621, "\u0082J1": 2622, "\u00f4^": 2623, "\u00f5\u0012": 2624, "?\u00d9": 2625, "\u00cc\u0094\u00dbM\u00bb": 2626, "tx": 2627, "S\u00d8": 2628, "\u00ccy": 2629, "8p": 2630, "\u00cay": 2631, "\u00f9G": 2632, "\u00b5\u00e6": 2633, "\u0017\u00ba": 2634, "\u00abx": 2635, "\u00dc0": 2636, "\u00f2\u00f9": 2637, "\u0099\u00b1]l": 2638, "\u00dam\u00da": 2639, "\u0096W": 2640, "\u00de\u00d7": 2641, "\u00b4\u00db\u00b4": 2642, "Y\u00ff": 2643, "\u00e6lW[": 2644, "\u00e6\u0097\u00fa": 2645, "\u009c\u00f3": 2646, "=~": 2647, "\u001dD": 2648, "\u00eap": 2649, "3b\u00ba\u00da": 2650, "3\u009c3": 2651, "W\u00e5\u00d6": 2652, "\u00f5\u00f5": 2653, "\u0099\u00ed": 2654, "\u00e9\u00b7\n": 2655, "\u00af\u00b3": 2656, "E\u00c2": 2657, "\u009c4": 2658, "\u0092_3": 2659, "\u008d\u00b0": 2660, "p\u00cd": 2661, "\u00f4\u00b0": 2662, "\u00fa\u00ef": 2663, "P\u00ec": 2664, "J\u00e7": 2665, "\u00df\u00e6": 2666, "\u008c\u009b\u00b4": 2667, "\u00ae\u00b7": 2668, "\u00d6\u00e1": 2669, "/]": 2670, "\u00be\u007f": 2671, "\u00b9|\u008c": 2672, "\u00ecG": 2673, "F/": 2674, "\u00e8i\\": 2675, "U7": 2676, "K\u00fe": 2677, "\u00c9M\u00b5": 2678, "\f\u00adi\u00b7": 2679, "\u00a4Np": 2680, "\u00f8\u0003": 2681, "\u00cap": 2682, "\u00edO\u007f": 2683, "\u0012\u009e": 2684, "9\u00ef": 2685, "\u00b2K\u00e6": 2686, "\u00bf\u0090": 2687, "J\u00e6": 2688, "3n\u00ff": 2689, "\u00a9j": 2690, "\u00f0B": 2691, "\u0013\u0012": 2692, "\u0091}": 2693, "\u001c9": 2694, "\u00c4\u009e": 2695, "\u00afG": 2696, "\u008e\u00f7": 2697, "\u008b\u00ec": 2698, "C9\u00c3": 2699, "\u00aby": 2700, "\u009b\u00fb": 2701, "\u00d5\u00af\u00fb": 2702, "[\u00cf": 2703, "\u008a\u00a6": 2704, "\u00f5Z": 2705, "\u00a9\u00fe": 2706, "\u00eb\u009c": 2707, "\u001e\u00aa\u00fb": 2708, "\u009a\u00fa\u00d7\u00a6\u00dd": 2709, "_)": 2710, "\u00d3n\u00c8": 2711, "n\u00d3": 2712, "\u00d7\u00c0": 2713, "\u00d2U\u00f6": 2714, "\u009c\u00a7": 2715, "2\u00f3\u00df": 2716, "M9": 2717, "\u008df\u00c4m": 2718, "\u00e5\u009bw": 2719, "\u0012Q\u008e": 2720, "\u009a_\u00e7": 2721, "\u00a9\u00f7": 2722, "\u00c4\u0014": 2723, "3\u009c0": 2724, "\u00e1\u0099": 2725, "\u0090\u00f2": 2726, "t\u00db\u00b4": 2727, "\u00df\u00e4": 2728, "\\'": 2729, "\u00b3\u00ff": 2730, "\u001dR": 2731, "*n\u00fe": 2732, "3_Z": 2733, "%6": 2734, "\u00bf\u00cf": 2735, "\u00f4\u00ff": 2736, "\u00f5\u00f2": 2737, "\u0012}": 2738, "u\u001e": 2739, "z\u008b": 2740, "/\u0094": 2741, "V\u00e6": 2742, "\u00f9]": 2743, "so": 2744, "\u007f\u009e": 2745, "\u0081\u001bz": 2746, "\u0084|": 2747, "=\u00f3": 2748, "<}": 2749, "_#": 2750, "+\u009e": 2751, "\u00d5~": 2752, "U\u00b9": 2753, "\"\u0096": 2754, "\u009f{": 2755, "!\u00d4": 2756, "\u00e0\u0085": 2757, "\u0089\u00ee": 2758, "\u0087^": 2759, "\u00a8X": 2760, "VA": 2761, "\u00a7)": 2762, "\u00b7~": 2763, "\u00ee\u0019": 2764, "\u0084!": 2765, "\u008cC": 2766, "]-": 2767, "\u00de\u00b9": 2768, "flW[": 2769, "[\u00b3.": 2770, "\u00d3b": 2771, "\u00eb\u00ef": 2772, "1\t9": 2773, "yu": 2774, "\u0004\u00a7": 2775, "f\u00dc": 2776, "\u008d\u001a": 2777, "\u00e6m\u00c7": 2778, "=\u0001": 2779, "\u0095\u00ad6\u00e1": 2780, "\u00ff\u0002": 2781, "C\u00fc": 2782, "/\u00f8": 2783, "\u009b\u0011\u00b7": 2784, "\u00ac\u00ac": 2785, "\u00d2\u00ca": 2786, "\u0014\u00e2": 2787, "\u00ea\u008d": 2788, "\u00859\u00ce\u0019": 2789, "\u00f4\u00db\u00bf": 2790, "\u00a79\u00c3M\u00bb": 2791, "\u00b4\u00db\u00b3": 2792, "\u00b4\u00db\u00b0": 2793, "\u00d7<": 2794, "5\u009e": 2795, "\u00d0\u00e0": 2796, "\u0089\u001f": 2797, "\u009d\u00a9\u00ef": 2798, "\u000f?": 2799, "\u0094\u00f3": 2800, "\u00fa!": 2801, "c\u00d0": 2802, "\u00de:": 2803, "\u00d7/": 2804, "\u001d:": 2805, "\u00fb\u00cf": 2806, "\fx": 2807, "\u00d2\u00fc": 2808, "5\u00df": 2809, "=6\u00ed": 2810, "\u00ee\u00ed": 2811, "\u009cA": 2812, "\u00f4\u0005": 2813, "\u00b5\u009e": 2814, "\u00c4!": 2815, "h\u0090\u00ce": 2816, "\u0095\u00c3": 2817, "\u009b\u0011\u00b6": 2818, "\u00ca\u00c9": 2819, "\u00f2/": 2820, "4\u00f7": 2821, "w\u0093": 2822, "\u00a7^": 2823, "\\\u00b5\u00f6": 2824, "\u00eb\u00bf": 2825, "\u00dcz": 2826, "}\u00fd\u00fd": 2827, ")\u00e8": 2828, "S\u00fd": 2829, "P\u008e": 2830, "\u00bd\u00a1": 2831, "\u00d3\u00ef\u00ef\u00ef": 2832, "P\u00fb": 2833, "Q{": 2834, "\u00c4\u00c4": 2835, "\u008b\u00de": 2836, "\u00efz": 2837, "\u00ac\u00a3\u0012S": 2838, "E\u00ec": 2839, "\u0092\u00f8": 2840, "\u008a\u0084": 2841, "_\u00eb": 2842, "`\u00ee": 2843, "\u00a4\u0094": 2844, "\u00dbm\u00b6": 2845, "\u0087\u00f9": 2846, "\n\u001c": 2847, "/\u0087": 2848, "~\u0096": 2849, "!\u0017\u00bb": 2850, "\u00b8\u00ce": 2851, "\u00e8\u0014": 2852, "\u00926\u00f3": 2853, "s6+\u00ad": 2854, "\u00d0<": 2855, "\u008f<": 2856, "\u00a79\u00c0": 2857, "\u0095\u00fc": 2858, "t\u00db\u00b0": 2859, "\u009d6": 2860, "t\u00db\u0092": 2861, "_S": 2862, "\u00db\u00e8": 2863, "\u00cd8": 2864, ",\u00ae": 2865, "\u00f4\u00e7": 2866, "\u00d8\u00a7": 2867, "\u0087\u0093": 2868, "\u00efE": 2869, "@\u00a1": 2870, "\u00d6\u00e8": 2871, "\u00da\u00f2": 2872, "\"6": 2873, "}|8": 2874, "\u009e*m": 2875, "\u00cf\u00f6": 2876, "\u00a7\u00da": 2877, "\u00f4\u00db\u00b4": 2878, "[\u00b4": 2879, "\u0090\u007f": 2880, "b\u00ae": 2881, "o\\": 2882, "\u00ca\u00d3": 2883, "]n": 2884, "'\u00ba": 2885, "V\u00b4\u00db\u00b0": 2886, "\u00db\u00ef": 2887, "],": 2888, "=N": 2889, "\u00c9t": 2890, "\u00af\u00c3": 2891, "\u001eE": 2892, "\u0099\u00b1]m": 2893, "\u00895": 2894, "\u0005S": 2895, "/\u00e4": 2896, "\u0086\u001a\u00b3": 2897, "AO": 2898, "\u00d9\u00a5\u00fe": 2899, "<A": 2900, "\u00cc\u00b8`": 2901, "\u00bc\u008e": 2902, "\u00eb\u00c8": 2903, "y%0": 2904, "\u0085\u0018": 2905, "\nz": 2906, "\u00ba*": 2907, "&$": 2908, "\u0098\u00f2": 2909, "\u00d7\u009b": 2910, "~\u00e0": 2911, "\u0087\u00fd": 2912, "\u001dB": 2913, "\u00bd\u00c7": 2914, "y\u00ce\u001a": 2915, "l\u00be7i": 2916, "\u0097C": 2917, "\u00a8\u00af": 2918, ":n": 2919, "4_\t": 2920, "N\u001b": 2921, "\u00f5F": 2922, "\u00a9\u0015": 2923, "`Z\u00fb": 2924, "1N": 2925, "\u00b3\u009c5": 2926, "\u001am\u00d9": 2927, "\u00d3\u00df": 2928, "J\u00b2": 2929, "\u00c5*": 2930, "l\u00f2": 2931, "\u00e5<": 2932, "\u0014\u00a9": 2933, "\u001e\u007f": 2934, "\u00ff\u009e": 2935, "\u0005\u0097\u00c8\u00c3": 2936, "\u00d6y": 2937, "z\u00e6\u0097\u00fd": 2938, "=V": 2939, ")\u0013": 2940, "\u0005\u00f2": 2941, "\u00a6\u00c4": 2942, "\u00be\u00be\u001c": 2943, "\u00ab9": 2944, "\u0083\u00cb\u00ad": 2945, "\u00f36": 2946, "\u0095X": 2947, "\u0089\f\u00ec": 2948, "\u00f7\u00b5": 2949, "_\u00e0": 2950, "\u00dc2": 2951, "\u00d7\u00d6\u00bc": 2952, "\u00cb\u00a4": 2953, "2\u00a6\u00ef": 2954, "2\u00b4": 2955, "\u009f>": 2956, "3n": 2957, "!\u00e4": 2958, "\u009e>": 2959, "\u00d7\u00c7": 2960, "\u00de ": 2961, "{\u00f9": 2962, "\u00b97\u007f": 2963, "+Zm\u00c2": 2964, "\u00a6\u00de": 2965, "\t\u007f": 2966, "\u00a3\u00cf": 2967, "\u00df\u00df": 2968, ".\u007f": 2969, "\u00df\u00e3": 2970, "\u00e4\u00f1": 2971, "\u0017\u00de": 2972, "1'": 2973, "\u00fa\u00f3": 2974, "\u001fD": 2975, "\u00a7\u00b1": 2976, "\u00f4D": 2977, "\u001c\u008b": 2978, "\u0089\u0016": 2979, "\u00f6\u00fe": 2980, "\u00d1\u00e1": 2981, "\u00bf\u00d2": 2982, "+Zm\u00db": 2983, "\u00fap": 2984, "W\u00e0N": 2985, "\u0004:": 2986, "\u0097\u0019": 2987, "\u0007\u0097[": 2988, "M\u009ep": 2989, "e\u009bw": 2990, "*\u00d0": 2991, "\u00a1\u00bd%": 2992, "\u0014\u008a": 2993, "k\u00fd": 2994, "\u00bf]": 2995, "\u00a6\u00cf\"": 2996, ";}": 2997, "\u009d\u00dd": 2998, "\u00e5\u0018": 2999, "\u00a0\u00ff": 3000, "\u00c6:": 3001, "\u00a8\u001b": 3002, ";\u00ba": 3003, "\u00e6\u0096": 3004, "\u00bcAO": 3005, "B/w": 3006, "\u0092_5": 3007, "\u00e2=6\u00ed": 3008, "t\u008a": 3009, "\u00ad\u00e7": 3010, "\u00ea\u00fb": 3011, "\u00c8\u007f": 3012, "\u0083\u00b8": 3013, "\u008a\u001c": 3014, "\u00d1t": 3015, "G\u00af\u00d6\u00ed": 3016, "\u00e2\u0090": 3017, "h\u00be\u0013": 3018, "i\u00ee": 3019, ")\u00c5-": 3020, "\u0012z": 3021, "O\u00de": 3022, "4\u00e1": 3023, "\u00b2\u00c6": 3024, "xu": 3025, "\u00a6\u00df": 3026, "\u00af\u00a9": 3027, "6#l": 3028, "\u00d3\u00a8": 3029, "`\u00c2": 3030, "k\u00ba": 3031, "\u0004b": 3032, "_\u0004": 3033, "=y": 3034, "\u00eb\u00ee": 3035, "m\u00fe": 3036, "1P": 3037, "\u0004b\u0015": 3038, "z/": 3039, "\u0082\u0015": 3040, "1\u00eb": 3041, "/t": 3042, "bb": 3043, "\u001c\u0089": 3044, "E{": 3045, "\u0089\u0015": 3046, "\u00b6\u00dbm\u00b6\u00dbm\u00b6": 3047, "\u00c88": 3048, "\u00fdw": 3049, "C\u008e": 3050, "7\u00f7": 3051, "E\u00ce": 3052, "\u00e78f": 3053, "\u00ed6\u00ec": 3054, "\u00af\u0081": 3055, "\u00ea\u00f8": 3056, "1\u00e0": 3057, "Dm": 3058, "g8`": 3059, "\u00b5:": 3060, "\u0086\u001a\u00b2": 3061, "\u00ca\u00d6\u009bp": 3062, "\u00a1\u00df": 3063, "\u0017\u00f3": 3064, "[\u0085": 3065, "\u00f5\u00b8": 3066, "\u00de\u00bb\u008f": 3067, "7\u007f": 3068, "\u00cc\u0094\u00db>": 3069, "s6": 3070, "\u0002\u000b": 3071, "M\u00d9": 3072, "NN": 3073, "r\\": 3074, "\u00d1&\u00ed": 3075, "\u000f.\u00b6": 3076, "\u00c9\u00bbN": 3077, "\u00f7\u00a5": 3078, "S\u00bdy": 3079, "G\u00d0": 3080, "\u00d7\u0093": 3081, "(\u00f2": 3082, "wv": 3083, "y\u00d3n": 3084, "\u00d6t": 3085, "\u0082\u00b7\u008c": 3086, "b1": 3087, "\u0099y\u00ef": 3088, "$z": 3089, "\u009b.": 3090, "g\u00a1": 3091, "Z\u00a6": 3092, "y\u0092\u009b": 3093, "\u00e8\u00a5": 3094, "\u0099p\u00cf": 3095, "\u00e2k": 3096, "\u00cd,": 3097, "\u00bf\u0002": 3098, "q\u009d": 3099, "\u00ea\u00a0": 3100, "\u00de\u00d1": 3101, "\u00eb\u00b8": 3102, "\u009b\u007f\u00bb": 3103, "\u00a2\u00a6\u00de": 3104, "\u0095\u00f8": 3105, "\u00ef\u00ba": 3106, "\u00b0\u00d5": 3107, "\u00d5W": 3108, "\u00a5X": 3109, "\u00ff\u00b8": 3110, "\u00c1\n": 3111, "Zu": 3112, "?\u00dd": 3113, "mSw\u00ce\u00be9": 3114, "\u00c2\u0015": 3115, "\u00e7\u008e": 3116, "\u00d7\u008b": 3117, "\u00df\u00e8": 3118, "\u00de \u00a7": 3119, "\u00ca\u00fe0": 3120, "LW": 3121, "iQ": 3122, "R+": 3123, ".\u0096": 3124, "\u0015\r": 3125, "\u00bc8w": 3126, "\u0012\u0099\u008f": 3127, "B=": 3128, "\u00d5\u00af": 3129, "\u001e\u00ab\u00bc": 3130, "\u00e9\u00b7W": 3131, "\u00ad\u00db": 3132, "\u0089\f\u00ed": 3133, "\u00f3.": 3134, "\u00fa\u00e5": 3135, "\u0012\u0019\u00da": 3136, "p\u00c0": 3137, "\u00ab:": 3138, "\u00a3\u00d0": 3139, "\u00a74\u00bf": 3140, "\u00e6)": 3141, "\u0015\u007f": 3142, "n\u00bf": 3143, "\u00f2\u009f": 3144, "M\u00bf\u00dd": 3145, "\u00d2\u00f8p": 3146, ";\u00ab": 3147, "\u00ebp": 3148, "\u00dd\u001e": 3149, "Y\u00b7|": 3150, "\u00cd\u00fd": 3151, "\u00dft": 3152, "\u00c4r\u00ba": 3153, "\u00fc2": 3154, "g\u009d": 3155, "m\u00f5\u00f1\u00bb": 3156, "#\u0010\u00aa": 3157, "\u00b36": 3158, "{\u00fd": 3159, "\u00fcR": 3160, "\u009f\u00b9": 3161, "\u0014\u00e7": 3162, "Ow": 3163, "\u00b1\u00ac": 3164, "\u00d6r": 3165, "\u00bb}": 3166, "\u00ce\u0086": 3167, "*\u008c": 3168, "*+": 3169, "C\u00ae": 3170, "\u0012\u00ff": 3171, "\u0092\u009d": 3172, "\u001a\u00bf": 3173, "\u00e9\u00f7\u00f7\u00f7": 3174, "\u009d}": 3175, "N\u00f6": 3176, "\u00eb\u00c2": 3177, "\u00c9\u00e3": 3178, "\u0094\u00ea": 3179, "&*": 3180, "\u00e8\u0083": 3181, "\u00ef}": 3182, "\u00c4\u008b": 3183, "\u00ab\u00e7": 3184, "\u00ddn": 3185, "rn\u00fe": 3186, "\u00df\u00e9": 3187, "`\u009f": 3188, "v\u00a7\u00bf": 3189, "\u001b\u00d2": 3190, "\u00ebs": 3191, "\u00f1\u0005": 3192, "5\u007f": 3193, "u\u00fc": 3194, "\u00c4zm\u00d8": 3195, "x\u00e7": 3196, "\u00b7\u0088": 3197, "F!'": 3198, "7~": 3199, "o\u00f4": 3200, "u\u00fd": 3201, "\u00e6\u00df": 3202, "\u00a7\u00fe": 3203, "8\u0017": 3204, "\u00c6\u00b2": 3205, "\u0011\u00e0": 3206, "G\u0098": 3207, "\u009f\u00f7": 3208, "f\u00c5=": 3209, "b\u00ac": 3210, "\u0099_#\r": 3211, "z)": 3212, "\u00df\u00e7": 3213, "\u008f_\u00ad\u00da": 3214, "\u00f8\u00e7": 3215, "\u008f\u00a1": 3216, "\u00d0o": 3217, "\u00fex": 3218, "\u0014c": 3219, "N\u00af": 3220, "T\u00db": 3221, ".\u0013": 3222, "\u0082\u00cb\u00e4a": 3223, "\u00b3\u00c6": 3224, "w\u00fa": 3225, "\u00f9\u00ff": 3226, "\u00a6\u00c4c": 3227, "\u00a1\u00c7": 3228, "\u00a7V": 3229, "rn": 3230, "\u00e9f": 3231, "o\u0003": 3232, "\u00e9^": 3233, "\\g": 3234, "t\u00dd": 3235, "\u00bc\u00f6": 3236, "\u00d9\u0097\f": 3237, "\u00d7F": 3238, "U\u00e1\u00e0\u0084\u009c": 3239, "\u001d\u00f0": 3240, "\u0011s": 3241, "\u00ef\u00f0": 3242, "q\u00ce": 3243, "<:": 3244, "\f5g": 3245, "\u00d4\u00e1": 3246, "\u00c4+": 3247, "O\u00bf\u00bf\u00be": 3248, "\u0093\u00fd": 3249, "\u00c4?": 3250, "Q\u0088": 3251, "\u00c7\u0093": 3252, "\u00f7\u00a4": 3253, "\u00cc\u00d9\u00e3": 3254, "\u00a6\u00dc&": 3255, "\u0005\"": 3256, "N\u001a": 3257, "\u00a3\u001e": 3258, "\u00a4C": 3259, "m\u00b5": 3260, "\u00aao": 3261, "\u00af\u00a7": 3262, "\u00f5\u00c4m": 3263, "w\u001c": 3264, "T\u0001": 3265, "\u00cf~": 3266, "4\u00bf\u00d3n": 3267, "\u00b7\f": 3268, "\u00af\u00f7": 3269, "\u0091\u00b7N": 3270, "M:": 3271, "/\u0092": 3272, "\u00d2J": 3273, "[\u00fc": 3274, "\u0094x": 3275, "s\u00fc": 3276, "<7": 3277, "\u00b1\u0018": 3278, "\u00df\u00dd": 3279, "\rQ": 3280, "\u008cB\u00bf[": 3281, "\u00aa\u0000": 3282, "\u007f\u00b3": 3283, "{\u007f\u0002": 3284, "\u00e5\u00f20": 3285, ":\u00be": 3286, "e8\u00a5": 3287, "\u0017\u00b8": 3288, "\u0097\u0088": 3289, "\u00b7\u00df": 3290, "\u00ce\u009bv": 3291, "k\u00bf": 3292, "s\u00c7": 3293, "\u00be\u0019": 3294, "Z\u00f8": 3295, "d\u00a6\u00cb\u00e4": 3296, "\u00c58": 3297, "\u0019\u00a5\u00fe": 3298, "G\u00af\u00d6\u00ec": 3299, "h}": 3300, "\u00d6*\u00e9": 3301, "M\u009es": 3302, "\u00b2\u000e": 3303, "\u00ae\u00fa": 3304, "\b\u00a5": 3305, "\u0088U": 3306, "\u00f4#": 3307, "\u00d2<": 3308, "\u0093\u00ef": 3309, "\u00bf\u00bd": 3310, "-\u00da": 3311, "\u00bb\u008e": 3312, "\u00f8!": 3313, "x\u00ea": 3314, "\u00a8\u00bd": 3315, "{\u00d1": 3316, "\u00ef\u00ec": 3317, "/g": 3318, "x\u00fa": 3319, "\\\u00f3": 3320, "\b\u00f0": 3321, "\u00026\u00f3": 3322, "\u0001\u00a3": 3323, "\u0011\u0011": 3324, "\tO": 3325, "\u00f2\u00eb": 3326, "\u009b(v": 3327, "\u00af\u00e9": 3328, "\u00aa5": 3329, "uI": 3330, "\f5": 3331, "U\u00fa": 3332, "/=": 3333, "b\u008c": 3334, "\u0095\u00de\u00bb": 3335, "\u00b2\u00b4": 3336, "f\u0097\u00f9": 3337, "e\u00f8": 3338, "M\u00bc": 3339, "\u00bb\u00ea": 3340, "\u00e21": 3341, "\u0092\u00bb": 3342, "\\2": 3343, "\u00db\u00ed": 3344, "\u00d4\u00e7": 3345, "\u00f5\u00dc": 3346, "X\u0080": 3347, "\u00d7t": 3348, "\u00ebq": 3349, "\u00b9\u00e1": 3350, "\u00e8\n": 3351, "\u00fc\t": 3352, ";S\u00df": 3353, "\u00ad\u00cc": 3354, "\u00f9\u0005": 3355, "\u00d5\u0002": 3356, "\u00a5E": 3357, "\u00a8\u0018": 3358, "\u00b1N": 3359, "\u00f6\u00a8": 3360, "\u000f\u00aa": 3361, "\u00f1\f": 3362, "\u00a7/": 3363, "\u008f]": 3364, "eg": 3365, "\u00d7\u00dd": 3366, "y%": 3367, "=\u007f": 3368, "\u00ad~": 3369, "\u00ee\u008f": 3370, "\u00f7\u0000": 3371, "\u00d6\u007f": 3372, "V\u00b4\u00db\u00b4": 3373, "\u0015>": 3374, "\u00c9p": 3375, "\u00a9\u00d7": 3376, "#\u0095": 3377, "\u00fdnK": 3378, "\u0095a": 3379, "\u00d2Q\u008e": 3380, "^\u00d1": 3381, "N\u00be": 3382, "j\u009b": 3383, "\u00f4\u00e6": 3384, ">9": 3385, "\u0005>": 3386, "\u00f47\u00a4": 3387, "y%\u00f3": 3388, "b\u00f7": 3389, "\u0088\u0088": 3390, "\u00ccT": 3391, "\u00a3\u00bd": 3392, "\u009dB": 3393, "\u00e3;": 3394, "\u00cep\u00d5": 3395, "{\u00ec": 3396, "\u00caR": 3397, "=\u00d6": 3398, "\u00d5k": 3399, "\u001e\u00a0": 3400, "t;": 3401, "\u009dW": 3402, "r\u00a6\u00ef": 3403, "TW": 3404, "\u00e2\u0019": 3405, "\u00aez\u00fb": 3406, "\u00d3o\u00f7": 3407, "M\u00b8;": 3408, "\u00ae\u00e8": 3409, "\u00f1\u0018": 3410, "$\u00dc": 3411, ".s": 3412, "\u00b7\u00a8": 3413, "=6\u00ec": 3414, "\u009es": 3415, "\u0083\u0080": 3416, "\u00be\u00af": 3417, "\u00d1U\u0019": 3418, "\u0019\u00d0": 3419, "\u00ae\u008b": 3420, "0\u008d\u00bc": 3421, "\u00e6W\u00c8\u00c3": 3422, "\u009d6 ": 3423, "O\u00dc": 3424, "\u00b9\u00dd": 3425, "b\u0010": 3426, "\u00fa\u00b5": 3427, "\\\u00b5": 3428, "\u00da\u0091\u00b7": 3429, "z\u00e9g\u00b8": 3430, "t\u00db\u00bf": 3431, "\u0014:": 3432, "bn": 3433, "\u0005\u00ba": 3434, "\u00b9\u00cc": 3435, "5\u00d1": 3436, "k\u009f": 3437, "j\u00d7\u00fd": 3438, "*\u0081": 3439, "#\u00d5w\u0093": 3440, "\u00ff\u00ed": 3441, "\u00c6M\u00da": 3442, "\u00ae\u00b3": 3443, "\u0012\u0019": 3444, "\u008b\u00ff": 3445, "q\u00dd": 3446, "o\u00f2": 3447, "\u008a\u00ba": 3448, "#\u00d5_": 3449, "\u001b{": 3450, "\u00d1So": 3451, "3\u00da": 3452, "\u00d2\u00bam\u00da": 3453, "z\u00fa": 3454, "\u00b1\u00ea": 3455, "\u0006<": 3456, "\u00d0\u008f": 3457, "\u009c:": 3458, "F<\u0010\u0093\u0095": 3459, "5\u00e6": 3460, "\u00a7\u00df\u00df\u00df": 3461, "D\u009e": 3462, "\u00de\u00fb": 3463, "\u0088}": 3464, "?\u00de": 3465, "\u00ccH": 3466, "7}": 3467, "\u00aa\u00be": 3468, "\u00ea\u00c8": 3469, "\u00af\u0016": 3470, "\u0083\u00c6": 3471, "x\u00f6": 3472, "\u00f6\u00bc": 3473, "\u000e9": 3474, "\u00c4*": 3475, "\u0014\u00ae": 3476, "\u00cf\u00f0": 3477, "\u00f1\u00dd": 3478, "`t": 3479, "m\u00e7": 3480, "\u00f97\u007f": 3481, "\u001e\u00bf[": 3482, "\u00b7}": 3483, "\u0082\u00fe": 3484, "\r\u00fe": 3485, "\n\u00de1": 3486, "R*": 3487, "\u00bf\u00a7": 3488, "\u008d\u00bd6\u00ec": 3489, "\u00a7\u00fd": 3490, "M\u00c7": 3491, "\u0017\u00af": 3492, "\u0017\u00f9": 3493, "\u00df\u00d5": 3494, "\u00882": 3495, "6#o": 3496, "y\u00c3": 3497, "t\u00db\u00b2": 3498, "U\u0019": 3499, "J\u00ee": 3500, "xw": 3501, "\u00a6\u00dc+": 3502, "\u00cd/\u00f5": 3503, "9\u00c3M\u00bb": 3504, "\u00e8\u00c4": 3505, "\u0011\u00e4": 3506, "\u00f3\u00e7": 3507, "\u00cf\u00156": 3508, "]\u0017": 3509, "\u00e0\f": 3510, "\u00d1V": 3511, "pJ": 3512, "e\u00f3": 3513, "4\u00db\u00b3": 3514, "\u00821\n": 3515, "\u00e2\u00ad": 3516, "\u00e9\u00b7\t": 3517, "\u00c1*": 3518, "\u00a3\u00da": 3519, "\u00cd\u008a=": 3520, "\u00e8\u00bf": 3521, "\u001b\u00fc": 3522, "\u00f3\u00c1": 3523, "\u00a5Y": 3524, "\u0005\u0095": 3525, "\u008eW": 3526, "r\u009f": 3527, "\u00e7\u00cf": 3528, "\u00e8f": 3529, "\u001a\u00cd\u0088\u00db": 3530, "\u00f5\u00f0\u00e1": 3531, "\u00bd|": 3532, "\u0004\u00fd": 3533, "%\u00fe": 3534, "\u008d\u00bd6\u00ed": 3535, "\u00d3\u00fd": 3536, "2\u00f9": 3537, "\u00b3\u009c3": 3538, "\u0099(\u00c7": 3539, "{\u00fc": 3540, ")h": 3541, "Hg": 3542, "\u00f3\u00ce": 3543, "\u0014\u00b7": 3544, "\u00f6\u00aa": 3545, "d\u009b": 3546, "\u00d5\u00bc;": 3547, "\u001b\u00fd": 3548, "\u00eb\u00c5": 3549, "S\u00d0": 3550, "\u00a7\u00bb": 3551, "^\u00bc": 3552, "\u00f5\u00ce": 3553, "\u009a_\u000e": 3554, "\u00ae\u00fb": 3555, "\u00a6\u00df\u00ee": 3556, "\u0000\u00be": 3557, "\u0086\u00bc": 3558, "\u0005:\u00a4": 3559, "\u00a3\u00c8": 3560, "\u00d3\u00bdy": 3561, "B\u009c\u00e7\r": 3562, "]\u00f7": 3563, "\u00ec\u00ba": 3564, "7\u00a4": 3565, "\u00b7\u00a7": 3566, "i\u007f\u00a6\u00dd": 3567, "\u00d1#": 3568, "W\f": 3569, "\u0018\u00f0": 3570, "\n%": 3571, "E\u00a2": 3572, "\u00f6!": 3573, "\u0017\u00dd": 3574, "-\u00d9": 3575, "\u00d7\u0091\u00d7\u00b4TW": 3576, "g8k": 3577, "B<": 3578, "\u0081\u001b": 3579, "\u0082{": 3580, "\u000e\u00e3": 3581, "\u00eb\u00cf": 3582, "A\u00c0": 3583, "\u009f\u00fc": 3584, "x\u0082\u009e": 3585, "\u00ba\u009c": 3586, "4x": 3587, "\u00abS": 3588, "\u00a2\u00f8N": 3589, "\u00ecH": 3590, "Tz": 3591, "\u008a\u00a8": 3592, "r\u00fe": 3593, "\u00d1\u00e9": 3594, "\u0090[": 3595, "\u00e4\u00dd\u00fd": 3596, ";\u00b8": 3597, "\u00f8S": 3598, "\u000ep": 3599, "\u00b7\u00fa": 3600, "j\u00c8": 3601, "[\u00a5": 3602, "\u00d8\u008fM\u00bb": 3603, "\u00e6\u0097\u00f9": 3604, "s\u00dd": 3605, "/\u00f2": 3606, "f\u00c5\u001e": 3607, ":T": 3608, "\u00a8\u00cc": 3609, "8\u00a5": 3610, "\u0081\u0004": 3611, "\u00ado": 3612, "\u008b\u00fc": 3613, "\u00a2\u00e9": 3614, "Y\u00e1\u00bdw\u001e": 3615, "N\u001c": 3616, "\"s\u0086": 3617, "\u009d\u00fe": 3618, "\u00f1\u0006": 3619, "\u00af\u00a5": 3620, "\u00d2\u00bam\u00d9": 3621, "nt": 3622, "w\u0088": 3623, "u\u009e": 3624, "\u00bdu\u00cf\u00e0v": 3625, "\u00d3n\u0015": 3626, "zp": 3627, "\u00bc\u0092\u0098": 3628, "\u0013\u00c7": 3629, "Y|\u000e": 3630, "\u00ac\u00b1": 3631, "6\u00fa\u00f8\u00dd": 3632, "\u00f5\u00d3": 3633, "\u00a0\u00df": 3634, "\u00e4\u00dd\u00fc": 3635, "z\u00e9": 3636, "\u0012\"": 3637, "\u00d7\u00df": 3638, "\u00ad\u00c6v": 3639, "\u0094\u00f5": 3640, "\u0000_": 3641, ">>": 3642, "\u00be\u00ce": 3643, "\u008a\u00f5": 3644, ">\u00fe\u00fe": 3645, "\u00de\u008e": 3646, "\u008a\u009e": 3647, "j\u000f": 3648, "\u000bt": 3649, "\u00cf\u00e8": 3650, "\u00d5'": 3651, "\u00f2Ja": 3652, "\u0016\u00f6": 3653, "z\u00ff": 3654, "\u00a2\u00ac": 3655, "\u0010\u00aa": 3656, "\u00bf\u00cd": 3657, "\u00d5\u009c": 3658, "\u00a6\u00cez": 3659, "\u000b/\u0091\u0086": 3660, "\u009f ": 3661, "x\u00c4": 3662, "\u00df&\u00ed": 3663, "AY": 3664, "\u00d6_\u0003": 3665, "x\u008f": 3666, "\u00c4\u00dd": 3667, "\u00f7\u009e": 3668, "\u00f4\u0004": 3669, "\u00de\u009c": 3670, "V\u00b4\u00db\u00b2": 3671, "\u00f5\u00d2\u00cfq": 3672, "\u0098\u00f0": 3673, "\u0007J": 3674, "\u009c\u00f7": 3675, "\u0089L\u00c7": 3676, "\u0014\u00e9": 3677, "Vs": 3678, "\u00e8+'": 3679, "\u00b2\u00d7": 3680, "\u00f4\u00b3": 3681, "_\u0086": 3682, "{\u00fa": 3683, "\u009d6\u00e1": 3684, "\u00d3\u00a6\u00dd": 3685, "t4\u00ae": 3686, "z\u0018": 3687, "\u00d6\u00ec\u00cb\u0086": 3688, "\u00f5\u0017": 3689, "\u0097\u0001": 3690, "~\u0004": 3691, "J\u00b0": 3692, "\u00c8}": 3693, "\u00e8w": 3694, "z\u00e26": 3695, "\u0087\u0091": 3696, "1H": 3697, "\u00e6\\3": 3698, "\u00ab\u00f0'": 3699, "\ns\u009c3": 3700, "w\u00de": 3701, "\u00919\u00c3": 3702, "T\u00e78": 3703, "\u00a3\u0010\u00aa": 3704, "\u008f\u0004": 3705, "\u00e9]\u00eb": 3706, "\u0015\u00bcc": 3707, "l\u00bf": 3708, "h\u00f0": 3709, "\u00f42": 3710, "\u00ab\u00ef": 3711, "\n\u0005": 3712, "\u00d9\u00ce\u0019": 3713, "\u00f4x": 3714, "\u0097H": 3715, "\u00cf\u00a1": 3716, "j}": 3717, "\u00e1\u0086\u00ac": 3718, "\u00a7\u00bf": 3719, "\u00a32\u00e1": 3720, "(p": 3721, "\u00e3v": 3722, "~\u00a9": 3723, "\u00cb\u009c": 3724, "\u00ce\u0082": 3725, "\u00f6\u0086": 3726, "(\u0094": 3727, "\u00ff\r": 3728, "\u00ee\u0000": 3729, "3=\u00fe": 3730, "\u00a0P:\u00a4": 3731, "\u00f4\u00eb": 3732, "$\u00d7": 3733, "YF$\u00a7": 3734, "\u00c3\u00afh": 3735, "u\u00ea": 3736, "\u001dC": 3737, "N\u008d": 3738, "\u00f6u": 3739, "\u00dbm\u00b6\u00dbm": 3740, "\u00d4#": 3741, "\u00d4T": 3742, "oh": 3743, "r\u009c": 3744, "\u00e9`": 3745, "\u00dc\u009b\u00bf": 3746, "\u0013\u00f2": 3747, "\u001d*": 3748, "d\u0016": 3749, "\u001c\u009e": 3750, "\u00aa\u00fd": 3751, "\u00cf\u00f4": 3752, "\u0095\u000e": 3753, "\u0014\u00d9\u00e7": 3754, "\u00abr": 3755, "\u0007\u001c": 3756, "k\u00c2": 3757, "\n\u00a0": 3758, "W\u00df": 3759, "\u00a0@": 3760, "^\u001e": 3761, "\u00a8\u00f3": 3762, "4_": 3763, "\u0019\u00e7": 3764, "V\u00f1": 3765, "\u0002\u00f9": 3766, "\u0014\u00b2": 3767, "\u008f8": 3768, "\u0084m": 3769, "\u0002=": 3770, "\u00e2\u009a": 3771, "\u00ce\u0018\u009a": 3772, "\u00d5\u00e1": 3773, "\u00eb\u00e0": 3774, "\u00a5r": 3775, "'\u00bf": 3776, "G\"": 3777, "\u00a8N": 3778, "6#\u0019": 3779, "\u008f\u0080": 3780, "lF\u00d8": 3781, "\u00f5\u00d8": 3782, "\u00d1|'": 3783, "|\u00ae": 3784, "\n\u00a6": 3785, "\u0099_\u008c": 3786, "\u00cf\u00f9": 3787, "\u00bf\u00f3": 3788, "\u009b\u00ff<": 3789, "y\u00ff": 3790, "[\u0084": 3791, "\u0083\u00c3": 3792, "\u00d3g\u0091": 3793, "z\u0002": 3794, "Yc": 3795, "\u00d8\u008c": 3796, "\u0086\u009b<": 3797, "2G": 3798, "\u00ea\u00b5": 3799, "\u00dfv": 3800, "\u00d5\u00e1\u00e0\u0084\u009c": 3801, "\u00fc\u00b8": 3802, "\u00cf\u00e9|\u009c": 3803, "\u00da\u00be": 3804, "7\u00f9": 3805, "\u001b\u00c4": 3806, "\u00f8\u00dd": 3807, "\u00d8\u00d6": 3808, "T\u00bf": 3809, "\u00a0y": 3810, "\u0082\u009f": 3811, "\u00ad\u00d2": 3812, "o^": 3813, "\u00c3V": 3814, "\u0004\u0094c": 3815, "\u00aa\u00dc": 3816, "\u00f3\u0086": 3817, "N ": 3818, "}\u00f0": 3819, "g8f": 3820, "\u00d3\u00c6": 3821, "\u00c0\u0082": 3822, "W\u00d8": 3823, "\u0086i\u007f": 3824, "U\u00f7": 3825, "\u0083\u000b": 3826, "d\u001c": 3827, "\u009dY": 3828, "W\u00b7": 3829, "\u00b9|": 3830, "\u0004wv": 3831, "c\u00cc": 3832, "NS": 3833, "H\u0097": 3834, "_t": 3835, "\u00e6!": 3836, ">\u0085": 3837, "OO": 3838, "^\u00fb": 3839, "w\u00b3": 3840, "\u00bf\u00ec": 3841, "\u00f4_": 3842, "G\u00a6\u00dc": 3843, "\u0084\u00f7": 3844, "\u00b4z": 3845, "\u0088\u00f4": 3846, ":\u00ef": 3847, "\u00ba\u00ce": 3848, "\u00b74": 3849, "\u00e2=6\u00ec": 3850, "\u00e8fJm": 3851, "8k": 3852, "\u00ec\u00e7\r": 3853, "\u00e8\u0094\u00cc{": 3854, "\u009b<z": 3855, "\u00ae\u00f9": 3856, "\u0010g": 3857, "6\u00a7": 3858, "\u00f4\u00ae\u009bv": 3859, "\u009ck": 3860, "\u009c2": 3861, "\u00a6\u009c": 3862, "\u00ef_": 3863, "\u00e3V": 3864, "\u009ex": 3865, "\u00f5\u00fe": 3866, "\u00db\u00e0": 3867, "\u001d\u00fc": 3868, "\u0007\u009f": 3869, "\u00e7\u00f4\u00beN": 3870, "\u00fa_": 3871, "\u00af\u000f": 3872, "\u0089z": 3873, "B.": 3874, "U\u00ed": 3875, "\u00b3_Z": 3876, "\u00ac\u00e9": 3877, "\u0099)": 3878, "\u009b/\u008d\u00db": 3879, "b\u009a": 3880, "q\u001e\u009bv": 3881, "M\u00c1": 3882, "\u00d3g<": 3883, "\u00af\u00a1": 3884, "\u0014\u00e6\\": 3885, "\u00bc\u00f9": 3886, "\u0011\u00dd": 3887, "Ni\u007f": 3888, "\u00ab\u00c3": 3889, "\u001d\u00f2": 3890, "i|8": 3891, "4G": 3892, "4\u00be\u001c": 3893, "c\r": 3894, "0.": 3895, "|\u00fe": 3896, "\u00e2\u001a": 3897, "\n\u00a7": 3898, "\u009f\u00ff": 3899, "\u00fa%3\u001e": 3900, "\u0007q": 3901, "\u00f2n": 3902, "\u009d6\u00e4": 3903, "\u0083\u009e": 3904, "+'": 3905, "4\u00eb": 3906, "\u00dcs": 3907, "z\u00e8": 3908, "\u0006\u009bv": 3909, "\u00ae\u008c": 3910, "s\u0015": 3911, "\u00fa\u0011": 3912, "\u00f5\u00bc": 3913, ")\u00b3\u00ce": 3914, "\u00ac\u00ff": 3915, "\u00fdy": 3916, "\u00cd\u00a9": 3917, "\u00a9\u00d3n": 3918, "V\u00ff": 3919, "G\u0082": 3920, "<\u00e7\f": 3921, "U\u00fd": 3922, "#\u00ec": 3923, "I\u00ae": 3924, "\u001a\u00b2": 3925, "\u0091\u0018": 3926, "_\u00c8": 3927, "\u00be\b": 3928, "{\u0015": 3929, "V\u00b4\u00db\u00b3": 3930, "\u008cx!": 3931, "#\u00d6 ": 3932, "`r\u0086": 3933, "\u00ce_": 3934, "\u00c6)": 3935, "\u00fe\u00be\u001c": 3936, "3\u00ff": 3937, "\u0004z\u00fdn": 3938, "\u0095\u00d5": 3939, "\u0017\t": 3940, "\u00a3\u00c1": 3941, "\u0097?": 3942, "\u00ec\u00e7\f": 3943, "\u0005\u00fe": 3944, "\u00c8\u00a8": 3945, "\u00ceb": 3946, "\u00d7\u00fb": 3947, "z$": 3948, "\u00a3\u00d7\u00ebv": 3949, "\u00f7\u00dd": 3950, "\u00d7\u00f9": 3951, "{\u00a2": 3952, "\u00ed\r": 3953, "\u0018\u00f2": 3954, "LH": 3955, "\u000f\u00b1": 3956, "\u0089\u00ec": 3957, "\u0013\u00d9": 3958, "\u00e8X": 3959, "H\u00f5": 3960, "k\u00e0": 3961, "\u00b5n": 3962, "\u00e4\u00dd\u00f4": 3963, "\u00af\u00d2": 3964, "L\u00f1": 3965, "\u00de\u0006": 3966, "\u0012k": 3967, "\u0088\u00f5\u0088": 3968, "\u00e7M\u00bb": 3969, "\u0017\u00fb": 3970, "\u00b97\u001e": 3971, "\u00f4\u00a8": 3972, "\u00af\u00ady": 3973, "\u007f\u00d7": 3974, "\u009e\u009bv": 3975, "\u00a1F": 3976, "9C": 3977, "i\u00b7d": 3978, "E!": 3979, "a\u0086\u00ac": 3980, "\u00bd\u00a7": 3981, "\u0087~": 3982, "\u00ac\u00b5": 3983, "\u00f0'": 3984, "\u00c0\u00ba": 3985, "\u00ae_#\f": 3986, "F!_": 3987, " \u00b6": 3988, "w\u00a4": 3989, "\u00f5\u00cf": 3990, "\u00b9L": 3991, "]\u0018": 3992, "\u000b\u00f9": 3993, "\u00ce\u0013": 3994, "\u0015@": 3995, "\u00f5\u00b9": 3996, "\u0093\u009e": 3997, "[\u00b5\u009e": 3998, "\u009e\u00bc": 3999, "+x\u00c7": 4000, "\u0011\u00b7\u00a6\u00dd": 4001, "ks\u00fe": 4002, "\u00b7=": 4003, "\f#": 4004, "\u009b\u0014{": 4005, "\u008as.": 4006, "\u008a\u00bc": 4007, "\u009bpv": 4008, "\u008d9": 4009, "\u0005\u00af\u00a6\u00c4m": 4010, "\nq": 4011, "4\u00db\u00bf": 4012, "LR": 4013, "\u009a\u00ee": 4014, "\u00bf\u00c8": 4015, "\u0014\u0084": 4016, "#\u00c9": 4017, "\u00cc\u00f7": 4018, "\u00e7\u00fe": 4019, "\u00f0\u00e0": 4020, "\u00ef\u0086": 4021, "\u00bdp": 4022, "8\u007f": 4023, "\u00fa\u00be": 4024, "\u0087\u00b7": 4025, "S\u0081": 4026, "\u0083}": 4027, "B\u00c4": 4028, "j/": 4029, "1\u0006": 4030, "\u00cd\u00bb\u00fa": 4031, "\u009c5F": 4032, "\u009e1\u00d3n": 4033, "\u00d7\u00a8": 4034, "\u00efa": 4035, "\u0002\t": 4036, "3.": 4037, "\u00ef\u00d3": 4038, "\u00a7<": 4039, "\u0082\u009dR": 4040, "\u00be\u00e3": 4041, "i~": 4042, "\u00d2*": 4043, "W9": 4044, "\u008f'*": 4045, ";\u00da": 4046, "\u00beH": 4047, "N\u0005": 4048, "\u00af\u0094": 4049, "\u00e8kw": 4050, "\u0091=": 4051, "\u0012(": 4052, "\u00e8\u0088": 4053, "\u00a3\u00e3": 4054, "u\u00ed": 4055, "\u00d5}": 4056, "\u00a2\u000b": 4057, "\u000b\u00fd": 4058, "\u008a\u009f": 4059, "\u00f1\u008e\u009bv": 4060, "\u00e2\u0015": 4061, "P7": 4062, "\u00af\u00cb\u00ad": 4063, "o\u00fc\u00f3": 4064, "=jm": 4065, "\u00c3+Z": 4066, "\u00ea\u00fa": 4067, "\u00d2\u00ffM\u00bb": 4068, "5F": 4069, "\u00ff\u00da": 4070, "\u00d6&\u00ed": 4071, "t\u00db\u00b3": 4072, "^,": 4073, "\u00d2\u00bc": 4074, "#o>": 4075, "\u00d3n\u00de": 4076, "/\u00fe": 4077, "\u000b\u00e4": 4078, "\u00cb\u00e1": 4079, "\f5d": 4080, "\u00b4\u00db\u0092": 4081, "\u00d7-h": 4082, "\u00efk": 4083, "\u001am\u00d8": 4084, "\u00a2M": 4085, "\u00ab4": 4086, "t\u00d8\u0083": 4087, "r\u0098": 4088, "t{": 4089, "y\u00a5\u00fe": 4090, "\u00a1\u00d0": 4091, "\u009c\u00c5": 4092, "\u00b59": 4093, "\u008a\u00b2": 4094, "\u00b1\u001bz": 4095, "\u0084x": 4096, "\u0007\u009e": 4097, "m\u00e3": 4098, "\nuI": 4099, "\u00c4{": 4100, "\u00b9M": 4101, "\u0003\u00a5": 4102, "\u00c9M\u0097\u00c9": 4103, "\u0081k\u00ec": 4104, "\u00cd\u00aa\u00c3": 4105, "\u0090\u00ff\u0007\u001c": 4106, "\u00fdt": 4107, "\u001bzW": 4108, "\u009b}": 4109, "V*": 4110, ")f": 4111, "\u00d6\u00edg\u0086": 4112, "\f\u00e1": 4113, "\u00e9Q": 4114, "\\\u00f5\u00f6": 4115, "\u00f8w": 4116, "\u00c3^": 4117, "F!U": 4118, "\u001d9": 4119, "\u00c1\u0083": 4120, "|\f": 4121, "!\u00c7": 4122, "\u00a1\u00d9": 4123, "4\n": 4124, "1\u00e0\u0084\u009c": 4125, "#\u0010\u00af": 4126, "\u00beF": 4127, "\u0011\u0088": 4128, "E*": 4129, "\u0087\u00de": 4130, "\u00f4\u00fd": 4131, "\u000f=": 4132, "a\u00bf": 4133, "\u00e5\u00fc": 4134, "\u00cc\u00d8\u00a7": 4135, "\u00b7\u00b4": 4136, "\u00a1\u00bd": 4137, "\u00de\u00c4\u00ab": 4138, "\u00a4L": 4139, "\u00e7\u0000": 4140, "\u00f2\u008c": 4141, "\u00a9\u00e3": 4142, "\u007ft": 4143, "<\u008b": 4144, "\u000eE": 4145, "\u0091X": 4146, "\u009e?": 4147, "`\u00c0": 4148, ":\u00f3": 4149, "\u00dbm\u00b6\u00dbm\u00b6": 4150, "\u00d7\u00ee\u0000": 4151, "K\u00fa": 4152, "\u00d7\u00fd": 4153, "j\u00b4": 4154, "\u008e\u0081": 4155, "\u00ac\u009e": 4156, "LQ": 4157, "\u00d5\u00f7": 4158, "\u00f0\u00e7": 4159, "qK": 4160, "=\u001e": 4161, "\u009a#": 4162, "7\u00fey": 4163, "\u00f5\u00bb\u00fd": 4164, "\u00abP": 4165, "\u00d7\u00c6\u00ed": 4166, "O~": 4167, "\u008b\u00fa": 4168, "Z\u00fa": 4169, "\u0012\u0019\u00d9": 4170, "\u00ad\u00e3": 4171, "\u0087\u00d6": 4172, "\u00e8S\u009c\u00e1": 4173, "\u00aaN": 4174, "\u00ab'": 4175, "\u00d2+": 4176, "\u00fa\u001c": 4177, "\u00eb\u0088\u00db": 4178, "\u009b/": 4179, "\u00c6\u001a": 4180, "3\u00d9": 4181, "#\u00cd": 4182, "\u00ff\u00bd": 4183, "\u00d5g": 4184, "k6\u00ef": 4185, "\u00be\u00e9": 4186, "\u00c6\u0011\u00b7": 4187, "\u00f5\u00c2": 4188, "\u0014\u00e8": 4189, "Y|": 4190, "\u00be\u00f3": 4191, "\u0019\u00b5": 4192, "\u00e0\u009f": 4193, "\u008f\u0006": 4194, "\u00da\u00a3": 4195, "V\u00e3;": 4196, "qJ": 4197, "\u00b4\u00b5": 4198, "\f\u00cf\u007f": 4199, "d\"": 4200, "P4": 4201, "\u0011\u00eb\u0010": 4202, "\u0012>": 4203, "8\u00d6": 4204, "\u0011\u00c3": 4205, "\u00f7\f": 4206, "\u00c8E": 4207, "\u00d5Z": 4208, "\u00fa\u00ad": 4209, "\u0019\u009e\u00ff": 4210, "\u0089\u001b": 4211, "\u00e8\u0087": 4212, "\u00f2n\u00d3": 4213, "x\u00c7M\u00bb": 4214, "s\u009c4": 4215, "\u009d:": 4216, "\u00d6\u00ef\u00f6": 4217, "\u00c5\"": 4218, "k\u0096\u00be": 4219, "5\u0015": 4220, "\u00aa\u00d7": 4221, "\u00c4zm\u00db": 4222, "{\u00e1": 4223, "\u00e7\u00f9": 4224, "\u00ce\u00df": 4225, "+\u009c": 4226, "\u00bf\u00a8\u00f6": 4227, "\u00fa\u00e7": 4228, "\u009b\u00a1": 4229, "\u00d5a": 4230, "JyZ": 4231, "\u00839\u00c3": 4232, "\u00a9\u00bb\u00fa": 4233, "d<": 4234, "\u00f0N": 4235, "\u0096\u00ba": 4236, "3\u00ce": 4237, "\u00e9\u007f": 4238, "\u009a\u007f": 4239, "\u00d2\u00ab": 4240, "_\u00ee": 4241, "_C": 4242, "f\u00dd": 4243, "IM": 4244, "gC": 4245, "/\u00f6": 4246, "\u00aau": 4247, "+\u00b8": 4248, "[\u0091": 4249, "\u00c6\u00b9": 4250, "\u00e4\u00dc": 4251, "G\u0093\u0095": 4252, "z\u00f9": 4253, "\u00aa\u00e7": 4254, "x\u00a9\u00b7": 4255, "E\u00ef": 4256, "\u0083\n": 4257, "\u00fdS": 4258, "o\u0094": 4259, "\u00f4I": 4260, "\u00a0\u00bf": 4261, "\u008a\u0087": 4262, "\u00ff\u007f": 4263, "\u00889": 4264, "\u0083\u00d3\u00df": 4265, "\u007f\u00af\u0087": 4266, "|}": 4267, "0a": 4268, "\u008a\u00c4": 4269, "\u00d4\u0017": 4270, "/q": 4271, ":\u0086": 4272, "S\u00ef": 4273, "LT": 4274, "\u0087^\u00a2": 4275, "\u008b\u00df": 4276, "\u00d7\u0091\u00d7\u00b4H\u0097": 4277, "*}": 4278, "\u00ff\u0000": 4279, "\u00d4'": 4280, "sK\u00fc": 4281, "b\u0012r": 4282, "c\u00c1": 4283, "\u001b8": 4284, "\u001ej": 4285, ":\u00bf": 4286, "\u00fa\u00e9": 4287, "\u00e7\u0088": 4288, "\u00af\u00fb": 4289, "\u008f>": 4290, "\u00a7>": 4291, "\u00fd-": 4292, "\u0015g": 4293, "\u00fa\u00dc\u0096": 4294, "\u00ca|": 4295, "\u00eb\u00c3": 4296, "\u0000\u00a7": 4297, "\u0090p": 4298, "\u00928": 4299, "2\u009f": 4300, "\u00bd\u00ae": 4301, "\u008fj": 4302, "\u00dd\u00fa": 4303, "\u008f\u001c": 4304, "\u0084R": 4305, "\u009bU\u0086": 4306, "\u0081u": 4307, "\u0003\u00a1": 4308, "\u00ca\u00fe": 4309, "\u00bb\u00ee": 4310, "e\u00c3>": 4311, "\u00b7\u00b7": 4312, "\u00d5\u00f5": 4313, "}\u00da": 4314, "ks": 4315, "f\u009d": 4316, "\u009b\u0014": 4317, "\u00a7$\u00be": 4318, "\u0089\u00ad": 4319, "tb": 4320, "\u00f3\u00ef": 4321, "\u00f4\u00f7": 4322, "W)": 4323, "\u000f_": 4324, "\u00dfN": 4325, ";\u00fd": 4326, "\u00c59\u0097\f": 4327, "\u00d1h": 4328, "\u00bc9": 4329, "\u00c2\u009c\u00e7\r": 4330, "\ns\u009c0": 4331, "\u00ac\u00f0\u00de\u00bb\u008f": 4332, "lF\u00de": 4333, "M\u00ba\u00ba": 4334, "\u00d3\u00dc3": 4335, "\u00ffn": 4336, "\u00cb\u00e0": 4337, "\u00b7f\\": 4338, "M\u0094;": 4339, "\u00dfy": 4340, "\u00b8\u00e1": 4341, ">\u00fe": 4342, "\u00f2\u000e": 4343, "\u00de\u0007": 4344, "\u000f'": 4345, "}\u00ef": 4346, "\u00ee\u00bf": 4347, "LF\u00de": 4348, "\u00cb\u00e4a": 4349, "5\u009d7": 4350, "U\u0086": 4351, "T\u00fb": 4352, "gM\u00da": 4353, "U\u00de": 4354, "\u00f0\u00db": 4355, "\u000b\u00fc": 4356, "\u0004;": 4357, "\u0084\\": 4358, "\u00ad\u00d1": 4359, "#\u0010\u0093\u0095": 4360, "\u007f\u00b8": 4361, "\u00f3\u00a6\u00dd": 4362, "\u001d ": 4363, "r\u009e": 4364, "J\u00eb": 4365, "\u0005o\u0018": 4366, "q\u009c": 4367, "%\u00ce": 4368, "\u00f9H": 4369, "\b\u00f8": 4370, "\bU": 4371, "6p": 4372, "\u00f5\u0014": 4373, "\u0007\u0000": 4374, "\u00f3\u009c0": 4375, "\u0017\u00fa": 4376, "\u00ac\u00e7\u0000": 4377, "\u00e6/": 4378, "\u00e9\u00b7i": 4379, "y%=": 4380, "W\u00b4": 4381, "B9": 4382, "\u008a\u00f7": 4383, "D\u00c5": 4384, ">\u00c5": 4385, "\u00dbm\u00b6\u00dbm\u00b6\u00db": 4386, "\u00a8\u00a9": 4387, "Q\u00ec": 4388, "h\u0082": 4389, "\u00cdw": 4390, "W\u00d1": 4391, "\u00c8-": 4392, "\u0091\u00b7\u00a6\u00dd": 4393, "\u00a8\u00ce": 4394, "\u00df\u00f9\u00e7": 4395, "F<": 4396, "\u00fc\u00ba": 4397, "#\u00bb": 4398, "\u00a8\u00ab": 4399, "\u00cc\u00bc\u00f7": 4400, "\u00a6\u00df_\u001b\u00b6": 4401, "\u00d4\u00e6": 4402, "\u00e9\u00b7\u0017": 4403, "\u00bd%\u00a6\u00dd": 4404, "\u00ed\u00f0": 4405, "\u00d7\u00d6\u00bd6\u00ec": 4406, "\u00bdu": 4407, "\u000fo": 4408, "VM\u00da": 4409, "T`": 4410, "\u00cb\u00f1": 4411, "|8": 4412, "\u000f>": 4413, "\u00e26": 4414, "\u0094c": 4415, "_\u00fd": 4416, "QP": 4417, "\u00a3\u00ce": 4418, "\u00da\u009f": 4419, "\u00e4\u001c": 4420, "GN": 4421, "\u001a\u00f2": 4422, "zT": 4423, "ZW": 4424, "\u00e4<": 4425, "G\u00aa'": 4426, "z\u007f": 4427, "8)": 4428, "\u00c2\u009c\u00e7\f": 4429, "'\u00be": 4430, "\u000eQ": 4431, "\u00c1e\u00f20": 4432, "+\u00bb": 4433, "\u00a3\u00d5w\u0093": 4434, "\u0088\u00f4\u00db\u00b3": 4435, "\u0014\u0085": 4436, "\u00b7\u00fc": 4437, "~\\": 4438, "\u00a8q": 4439, "\u00adk": 4440, "\u00f1N": 4441, "\u00e9\u00ce": 4442, "\u00f2\u00a6\u00ef": 4443, "e\u00af": 4444, "\u00e4\"": 4445, "\u0099_": 4446, "\u00f1\u00ac": 4447, "5\u00e7": 4448, "\u00a6\u00cf:\u00dd": 4449, "\u008fU\u00deN": 4450, "\u0003\u00a4": 4451, "\u000bp": 4452, "\u00af\u00b4": 4453, "D\u008f": 4454, "\u00af'": 4455, "pw": 4456, "\u00d0\u00d3n": 4457, "\u00fa\u00fe": 4458, "\u0002\u00a9": 4459, "\u009f\u00d2\u00f9:": 4460, "(\u00f6": 4461, "\u00efb": 4462, "\nw\u00af'": 4463, "\u008f\u001a": 4464, "R'8": 4465, "\u00f0:": 4466, "\u001e\u00a9": 4467, "j|": 4468, "\u00be\u00f7": 4469, "\u00d1\u0005": 4470, "\u0002\u008f": 4471, "\u00c5\u00ee": 4472, "\u00efi": 4473, "\u00efO": 4474, "\u00ea\u000f": 4475, "\u00d7q": 4476, "w\u00fc": 4477, "g8h": 4478, "\u0096\u00bc": 4479, "\u0081@\u00ea\u0093": 4480, "9\u00e2": 4481, "\u00d4H": 4482, "\u00bd\u00af": 4483, "\u00bb\u00cf": 4484, "\u00af\u00c0": 4485, "\u001eF": 4486, "\u00a3\u0010\u00af": 4487, "\u00ef\u00b8": 4488, "^\u001e\bI\u00ca": 4489, "\u007f\u007f": 4490, "\u00f2\u009c": 4491, "\u00d1(": 4492, "[\u00da": 4493, "oG": 4494, "8~": 4495, "B\u008b": 4496, "==": 4497, "\u00a0\u00f4\u00f7": 4498, "\u007fg": 4499, "a\u00d7\u00b4": 4500, ";\u00d9": 4501, "\u00f5\u00e4u\u00ed": 4502, "\u00bc\u00d4": 4503, "\u00f5\u00e7": 4504, ".\u0090": 4505, "\u00db\u00da": 4506, "\u0099)\u00b6}": 4507, "W\u00dd": 4508, "\u00b3n\u00f8": 4509, "u}": 4510, "|\u0013": 4511, "\u00d4|": 4512, "\u00ca\u00d6}": 4513, "]\u00e7": 4514, "\u00fc\u00a5": 4515, "\u009c4\u00db": 4516, "fl\u00f1": 4517, "\u00cd\u00ff\u009e": 4518, "\u00c7\u00af": 4519, "\u009f\u007f": 4520, "U\u00fe": 4521, "\u00cd\u001e": 4522, "\u00ab\u00ee": 4523, "\u00bd<": 4524, "y\u0017": 4525, "\u00a8\u00f6": 4526, "n\u0086": 4527, "M\u00ba\u00bd": 4528, "An": 4529, "\u0095\u0093": 4530, "\u00c1\u00cf": 4531, "|\u009c\u00ad": 4532, "+\u00ac": 4533, "\u00eb\u009f": 4534, "\u001a\u00be": 4535, "\u00da\u00a0": 4536, "\u00d3e\u000e": 4537, "d\u008d\u00bc": 4538, "W\u00ce": 4539, "\u0004\u00d9": 4540, "\u0099)\u00b0": 4541, "C\u00e4": 4542, "mH\u00db": 4543, "_\u00ce": 4544, "K\u00e1\u00c3": 4545, "\u0019\u00ce\u0018": 4546, "\u001e}": 4547, "6\u00ffv": 4548, "\u001c\u00f3": 4549, "\u00cd/\u0087": 4550, "\u00ac\u00be\u0007": 4551, "T\u008c": 4552, "!\u0017": 4553, "\u00f7v": 4554, "%\u00d3": 4555, "\u0089\u001bz": 4556, "&\u00ec": 4557, "\u0003\u00b3": 4558, "1\u0018": 4559, "\u00ccR": 4560, "i]\u00eb": 4561, "d\u00a6\u00d8": 4562, "_\u00e9": 4563, "7},": 4564, "-|": 4565, ":\b": 4566, "\u00cc\u00af": 4567, "T\u00de": 4568, "4\u00db\u00b2": 4569, "\u00f2\u00ba": 4570, "\u00e0]": 4571, "\u00c1\u00dc": 4572, "\u00f1\u0005=": 4573, "V\u00f3": 4574, "h\u00aa\u008c": 4575, "J\u00ea": 4576, "%\u00ff": 4577, "*\u009b": 4578, "K\u0083": 4579, "\u00c6\u00b3b6": 4580, "\u00fc\u00f3": 4581, "\u00e7\r6\u00ed": 4582, "\u0006\f": 4583, ")\u00c9": 4584, "\u0011\u001e": 4585, "\u00cf\u00a2": 4586, "k\u00a2": 4587, "\u009f\u00bc": 4588, "\u00bf\u00c0": 4589, "\u00ff\u00e8\u00c6": 4590, "\u00dc}": 4591, "^\u00d7": 4592, "f\u00dd\u00fd": 4593, "Z\u0011": 4594, "\u00e8\u00ac": 4595, "\u00car": 4596, "\u00b7\u00a4": 4597, "\u00d0S\u00aaN": 4598, "\u000b_M\u0088\u00db": 4599, "\u0088\u00c2": 4600, "\ts": 4601, "\u0095\u00dd": 4602, "$\u00e7": 4603, "\u0018j\u00ce": 4604, "=z": 4605, "i\u00c3": 4606, "\u009b<\u00ebv": 4607, "\u00c4w": 4608, "\u0002\u0010": 4609, "\u00fd\u0012": 4610, "\u00b3.\u0019": 4611, "^}": 4612, "\u0088p": 4613, "\u00e6*": 4614, "VQ\u0089)": 4615, "\u001f\u001f": 4616, "\u001c\u0088": 4617, "\u0016\u0085": 4618, "B?": 4619, "E\u00a1": 4620, "B\u0088": 4621, "\u0082\u00ff\u0094": 4622, "^@\u008e\u00ee": 4623, "\u00a1\u001d": 4624, "EO": 4625, "\u00a7\u00d1": 4626, "5\u00f5": 4627, "k\u00eb": 4628, "\u00ce\u001b\u00d7": 4629, "e\u0018": 4630, "\u00fe\u00ac": 4631, "j\u00fa": 4632, "\u00df_\u000e": 4633, "\u00ffu": 4634, "\u00eep": 4635, "b\u009d": 4636, "\u00d2Z": 4637, "W\u00fd": 4638, "e<": 4639, "\u00e0Z\u00fb": 4640, "\u00b7\u00da": 4641, "$3\u00b3": 4642, "\u00c9\u001by": 4643, "\u00efJ": 4644, "\u0015\u00bb": 4645, "\u009dy": 4646, "\u0087\u00d8": 4647, "\u00ae\u00b2": 4648, "\u00a4W": 4649, "[\u0086": 4650, "3g\u009c": 4651, "\u009b<{": 4652, "\u0018\u00aa": 4653, "\u0091\u00f6": 4654, "d\u0097\u00cf": 4655, "h\u001e": 4656, "\u00de\u001c": 4657, "\u00f4\u00b5": 4658, "\u00c4p": 4659, "\u0093v\u009c": 4660, "\u00be\u00ed": 4661, "ek>": 4662, "\u00ffd": 4663, "\u0099\u00b7": 4664, "#\u00dc": 4665, "\u00cf\u00ae": 4666, "<6p": 4667, "t7": 4668, "\u00e9\u00b3\u009e": 4669, "\u001a\u00dd": 4670, "\u00a3\u00d3n": 4671, "'<": 4672, "2n\u00d3": 4673, "\u00a6\u0081": 4674, "*\u001c": 4675, "\u00b6\u00f3": 4676, "\bw": 4677, "\u00ce{": 4678, "\u00ab&\u00ed": 4679, "\u008d\u00b6": 4680, "\u00af\u00eb": 4681, "nM\u00df": 4682, "\u00cd\u00bb\u00f9": 4683, "\u00ab\u00fa": 4684, "s\u009c2": 4685, "\u00cd*": 4686, "\u00a7\u00ef": 4687, "\u0002\u00d7\u00d3b6": 4688, "\u00e6\u00ff": 4689, "}\u00ed": 4690, "\u0092\u009bg": 4691, "\u00fa\u001b": 4692, "\u00b26": 4693, "z\u00d0": 4694, "[\u009f\u00f0": 4695, "\u007f\u0080": 4696, "\u008b\u00fd": 4697, "\u001fC": 4698, "\u009d\u0002": 4699, "U\u00af": 4700, "\u00a2\u00e8": 4701, ":\u00b2": 4702, "\u00b9\u00eb": 4703, "\u0089\u00ce\u001a": 4704, "\u00f3=": 4705, "Tf\\": 4706, "\u0092\u00e9": 4707, "\u00d5\u00f9u": 4708, "]:": 4709, "z\u00f0": 4710, "\u00f4\u00db\u00b2": 4711, "\u00e4b\u0015": 4712, "\u00cc\u0091": 4713, "\u001e\u0086": 4714, "o\u00ce": 4715, "\u00dd\f": 4716, "\u00a8\u0002": 4717, "\u00b7\u0086": 4718, "\u00a0\u00ac": 4719, "\u0087\u001c": 4720, "\u00d7\u00d6\u00bd6\u00ed": 4721, "\u008d\u001e": 4722, "\u0005\u00b8": 4723, "ed": 4724, "\u00a1G": 4725, "\u0081k\u00ed": 4726, "CO": 4727, "\u00d59": 4728, "3b\u008f": 4729, "\u00d4\u00eb": 4730, "\u000f#": 4731, "\u009dP": 4732, "\u0014\u00d3": 4733, "\u00e6W": 4734, "f\u00cf:": 4735, "o]\u00c7": 4736, "\u00b9\u001e": 4737, "z\u00eb": 4738, "\u00b8g": 4739, "\u00eb\u00a7": 4740, ",\u00db\u00be": 4741, "\u00acT": 4742, "$\u0016": 4743, "\u00ea$": 4744, "[m": 4745, "\u0093\u00a3": 4746, "\u0004!": 4747, "?\u00df": 4748, "\u00bd?": 4749, "Xe": 4750, " \u00e4": 4751, "\u00bf\u00b3": 4752, "5>": 4753, "\u000f\u008e": 4754, "\"\u00a2": 4755, "\u0010\u00e1": 4756, "\u0088\u0089": 4757, "\u0011=": 4758, "+\u00d1": 4759, "b\u001f": 4760, "\u00c3\u00bd": 4761, "\u00df\u00d9": 4762, "\u00af\u00dc\u0001": 4763, "\u00b6\u00f0": 4764, "\u00ce\u001am\u00da": 4765, "\u00dbm\u00b6\u00db": 4766, "e\u007f\u0018": 4767, "\u00d7=}": 4768, "\u00b3K\u00fd": 4769, "\u000b\u00e6": 4770, "\u00b7\u00c1": 4771, "\u00cf\u001e": 4772, "#o9\u00c3": 4773, "\u00d4\u001f": 4774, "|\u00b8": 4775, "Ny": 4776, "w\u009f": 4777, "\u00d5\u0090": 4778, "\u00b7k<": 4779, "\u001f?": 4780, "V\u00e9": 4781, "\u00abt": 4782, "i\u00ef": 4783, "\u00fe\u00bc": 4784, "\u0084+": 4785, "\u001e\u001b8": 4786, "\u00b9|9": 4787, "\u0082\u0081": 4788, "\u0014\u00db\u00b5": 4789, "z\u00f8": 4790, "h\u0014": 4791, "Jz": 4792, "\u00a4+": 4793, "\u0083\u0006": 4794, "\u00df\u00f9": 4795, "\u0002\u0086": 4796, "\u00a6\u00dc/": 4797, "!\u00f2": 4798, ";\u00c4": 4799, "\u00bf\u00be": 4800, "\u00ad\u00cf\u00f8": 4801, "V\u00f0": 4802, "Nx": 4803, "@\u00d4": 4804, "\u00fe\t": 4805, "\u0086V\u00b5": 4806, "F<\u0010\u00aa": 4807, "\u00c9\u001bz": 4808, "oJ": 4809, "\t\u00ff": 4810, "\u00d5\u00b8\u00ce": 4811, "s\u009c7": 4812, "\u00e7\rQ": 4813, "\u0097\u00fb": 4814, "\u001byZ": 4815, "\u00ef\u000e": 4816, "i\u00b2\u00f8\u00dd": 4817, "i\u00e3": 4818, "\u00ab\u00e9": 4819, "\u00a5\u00f8": 4820, "\u00a6\u00dd\u0081": 4821, "0\u008d\u00bd": 4822, "C\u00fd": 4823, "\u001a\u00ce\u009b": 4824, "fm\u00c7": 4825, "\u009cM": 4826, "z\u00e1": 4827, "eV": 4828, "\u00e58\u00a5": 4829, "\u008fU\u00de": 4830, "1\b": 4831, ":p": 4832, "\u00ac\u00f3": 4833, ")\r": 4834, "\u00dbj": 4835, "\u0082_": 4836, ")\u00c5,": 4837, "&\u00e8": 4838, "\u009d7": 4839, "\\\u00fe\u0007": 4840, "\u001d,": 4841, "Ns\u0080": 4842, "f\u00fe": 4843, "i\u00b7\u001e": 4844, "\u00f4\u00db\u00ab": 4845, "EC": 4846, "\u0088\u00ee": 4847, "8\f": 4848, "Q\u00ed": 4849, "xv": 4850, "\u0012\u001f": 4851, "\u00fb\u00dd": 4852, "D\u009a": 4853, "\u00f3\u00d4": 4854, "\u00d4\u001e": 4855, "J\u00e9\u00b7": 4856, "\u00f7\u00f9": 4857, "\u00e4b": 4858, "\u0006=": 4859, "\u0082=~\u00b7": 4860, "QK": 4861, "\u00d2\u00f9": 4862, "Nz": 4863, "\u00af\n": 4864, "B\u009c\u00e7\f": 4865, "\u00cd\u00be": 4866, "{T": 4867, "\u00c9\u00f4": 4868, "_\u00ea": 4869, "\u0004\u00bf": 4870, "\u00c0P": 4871, "Q'": 4872, "\u00cc^": 4873, "{\u0017": 4874, "M\u00e3": 4875, "s\u009a": 4876, "*\u0014": 4877, "`\u00c1": 4878, "\u00eb\u00d1": 4879, "\u0015\u00ea": 4880, "^\u008e": 4881, "\u009d~": 4882, "m\u00b6\u00dbm\u00b6\u00dbm": 4883, "_\u00b8\u0003": 4884, "<5": 4885, "\u00a0R": 4886, "s\u0084": 4887, "\u00e0N": 4888, "\u00f1\u00adB": 4889, "\u0007\u00c0": 4890, "\u00fa\u00dd\u00fe": 4891, "\u0092=": 4892, "\u00ae\u00be": 4893, "\u00d4R": 4894, "F!'/": 4895, "P0": 4896, "\u0015\u00d6": 4897, "\u00cd\u009e<": 4898, "\u00bd\u00bf\u0081": 4899, "\u00e6\u00fe": 4900, "\u00ad\u00cd": 4901, "rb": 4902, "\u00c1\u00ce": 4903, "\u00d9C": 4904, "\u00ad\u00c3": 4905, "\u00b6\u00da": 4906, "\u00dc\u009b\u00be\u0096": 4907, "Pz": 4908, "{U": 4909, "\u00acH": 4910, "\u001e\u00bc": 4911, "h\u00ae": 4912, "lF3": 4913, "}\u0012\u0099\u008f": 4914, "E\u00e7": 4915, "\u00b3=\u00fe": 4916, "\u007fQ\u00ec": 4917, "E\u007f": 4918, "\u0017\u00f8": 4919, "\u00bb\u00e5": 4920, "\u007f\u00ae": 4921, "\u00c1\u00d3": 4922, "b\u00ac:-": 4923, "ie": 4924, "V\u00a1": 4925, "dp": 4926, "}\u00d0": 4927, "\u00c8\u00f0": 4928, "\u00e0\u009c": 4929, "\u00d5\u0094bJ": 4930, "\u0010r": 4931, "\u007fQ\u00ed": 4932, "\u0094\u00a5": 4933, "o\u00f0": 4934, "5\u0017": 4935, "g\u00ba": 4936, "\u00eb\u00bc": 4937, "\u00ad\u00e2": 4938, "\u00c7\u00c9\u00bb": 4939, "\u0018\u0085~\u00b7": 4940, "\u00cf\"": 4941, "#oX\u0083": 4942, "\u00a6\u00ec": 4943, "oO": 4944, "gM\u00d9": 4945, "\u00e5\u00c3": 4946, "\u00c1/": 4947, "s\u00d0": 4948, "\t\u00e7": 4949, "8\u008e": 4950, "\u00bc;": 4951, "l\u00be": 4952, "#\u00e0": 4953, "\u00f1H": 4954, "\u00a1\u00f2": 4955, "`\u0092\u008c": 4956, "Ne\u00c3": 4957, "\u00cb\u00ff": 4958, "\u00aa4": 4959, "\u0093v\u009a": 4960, "\u008e\u009c": 4961, "\u00f3_Z": 4962, "\u00fb\u00c3": 4963, "\u00b9~": 4964, "G\u0081": 4965, "\u00e0v": 4966, "\u000ex": 4967, "\u00dc\u00e1": 4968, "\u001au": 4969, "\u00a8\u00aa": 4970, "\u00bf\u00ec\u00f3": 4971, "\u00aa_": 4972, "\u00bf_": 4973, "\u00db\u00ec": 4974, "\u00b5>": 4975, "\u00cf\u009f": 4976, "\u008cx!'*": 4977, "\u00e50": 4978, "\u00c9M\u00b4\u00db": 4979, "\u0018\u00f0B": 4980, "2Sm6\u00ed": 4981, "\u00b5k\u00fe": 4982, "\u009e\u001d": 4983, "2\u009e\u009bv": 4984, "G\u00aa\u00cb": 4985, "|u": 4986, "s\u009c4\u00db": 4987, "\u00af\u000e": 4988, "\u00a9\u00ba": 4989, "\u00cd\u0017\u00c2": 4990, "\u00e5kM\u00b8": 4991, "f\u00d6": 4992, "t\u00fd": 4993, "\u0089Z": 4994, "\u0095\u001e": 4995, "]\r": 4996, "\u0010\u00af": 4997, "\u009e8": 4998, "\u00ec\u00adi\u00b7": 4999, "\u00b9k\u00ec": 5000, "(\u00a8": 5001, "[\u00a3": 5002, "Yk": 5003, "\u009c\u00db": 5004, "\u00e9R": 5005, "{C": 5006, "\u0019]": 5007, "D\u0088": 5008, ">?": 5009, "\u000e\u00a2": 5010, "\u00180": 5011, "\u0089\u0014": 5012, "$D": 5013, "+\u00d4": 5014, "\u0010\u00f8": 5015, "B\u009e": 5016, "\u0098\u0098": 5017, "\u0087^\u00d1": 5018, "m\u00b6\u00dbm\u00b6\u00dbm\u00b6": 5019, "\u00bc\u008e\u00bd\u00a2\u00a2": 5020, "m\u00b6\u00dbm\u00b6\u00db": 5021, "\u00ef\u0094": 5022, "T;": 5023, "\u001b\u00da": 5024, "?\u00f3": 5025, "~\u0019": 5026, "g=": 5027, "\u00d7\u00d7": 5028, "\u009bS": 5029, "\u000b\u00d7": 5030, "\u0002\u00d7\u00d9": 5031, "\u00d9\u007f": 5032, "\u007f\u0082": 5033, "x\u00e1": 5034, "5}": 5035, "\u009e\u00be": 5036, "\u00ea\u00d7\u00fd": 5037, "n3": 5038, "}\u00fc": 5039, "\u00a5\u00f0\u00e1": 5040, "\u00ad\u00c8": 5041, "\u008cI": 5042, "gM": 5043, "\u00cam": 5044, "{\u00d8": 5045, ")\u00e7": 5046, "K\u0004": 5047, "\u00c0)": 5048, ";nG": 5049, "\u00f2\u00ff": 5050, "\u00a6)": 5051, "\u00ab\u00e1": 5052, "\u00ef'": 5053, "\u00e74": 5054, "2K\u00e6": 5055, "U\u00f1": 5056, "\u001b\u00c4\u0014": 5057, "\u00d5w": 5058, "\u00a8=": 5059, "\u00b4\u00ae\u009bv": 5060, "\u00d7\u00c3": 5061, "n9": 5062, "\u00d6s\u0086": 5063, "\u00ee\u00e0": 5064, "Y\\": 5065, "\u008a\u00b7": 5066, "%\u000e": 5067, "\nt\u00db": 5068, "[\u00a2": 5069, "/\u0011": 5070, "\u0015h": 5071, "\u00cf}": 5072, "\u00cf\u001a": 5073, "\u00aeZ\u00d0": 5074, "u\u00b8": 5075, "S\u009a_": 5076, "\u00a6\u00cey": 5077, "\u00d3\u0081": 5078, "m\u00df\u00ed": 5079, "\u008f09C": 5080, "\u00ca\u00fc": 5081, "O\u00fb": 5082, "V\u00bf\u00ec": 5083, "\u00f8\u0016": 5084, "Am": 5085, "\u00fd8": 5086, "5\u009b\u0011\u00b7": 5087, "\u0005\u007f": 5088, "\u00cb\u00c7": 5089, "z\u00ee": 5090, "\u00d3\u00f2": 5091, "\u00ed6y": 5092, "\u00b3\u00a6": 5093, "\u009d*": 5094, "\u00ffv": 5095, "q5": 5096, "\u00cd\u00f4": 5097, "\u00d6xo]\u00c7": 5098, "\u00a3\u00de\u00bc\u009c": 5099, "\u00c3U": 5100, "#\u0010\u0093": 5101, "f\u00dcz": 5102, "\u00f2JyZ": 5103, "_\u00f6y": 5104, "!\u001e": 5105, "sK\u00fd": 5106, "\u00af\u00b0": 5107, "\u00bdE\u00ee\u0019": 5108, "c\u00c1\t9": 5109, "\u00eat": 5110, "\u009e5\u00a8N": 5111, "\u00abY": 5112, "\u008f_\u00ad\u00d9": 5113, "\u00ban": 5114, "+\u009f": 5115, "V\u00bf\u00ed": 5116, "k\u00c5": 5117, "\n\u0006": 5118, "(\u00a5": 5119, "i]6\u00ec": 5120, "\u008f\u0099": 5121, "y\u00ec": 5122, "\u00f0\u00ee": 5123, "\u000f\u0080": 5124, "\u008cH": 5125, "\u00f7\u00fa": 5126, "\u00d5\u00f8\u0013": 5127, "\u00e7\u00fc": 5128, "4\u00db\u0092": 5129, "+\u00ad": 5130, "\u00a8\u00f2": 5131, "\nW": 5132, "`\\": 5133, "\u00a5W": 5134, "\u00ea\u00bf": 5135, "+\u00f2": 5136, "<T\u00db": 5137, "\u001a*": 5138, "L^": 5139, "2\u00e7": 5140, "\u00f6/": 5141, "\u00e7\u000e": 5142, "\u00cdy": 5143, "\u0097J": 5144, "\u00b3\u00c0": 5145, "1#": 5146, "\u008bz": 5147, "w\u00b5": 5148, "\u0010u": 5149, "\u00f7F": 5150, "\u00ac^": 5151, "\u00acC": 5152, "^\u00b1": 5153, "1\u000e": 5154, "\u00a2{": 5155, "Ez": 5156, "\u000f\u00d1": 5157, "\u0089>": 5158, "+\u00db": 5159, "\u009f\u007f\u007f": 5160, "\u000f\u00b3": 5161, "!\u009c\u00e1": 5162, "[\u00d7": 5163, "V\u00a6": 5164, "s\u00df": 5165, "\u00d7[": 5166, "\u00e4a": 5167, "\u00d1\u00ef^N": 5168, "M\u009et": 5169, "\u00c2\u0091": 5170, "\u001e\u00f6": 5171, "\u00aey": 5172, "R!": 5173, "\u00f8p": 5174, "\u0007#": 5175, "\u00bd\u00b7\u0085": 5176, "\u00fb\u00fa": 5177, "V\u00e1": 5178, "/\u00e7": 5179, "\u00e9]6\u00ed": 5180, "]*": 5181, "\u0082\u00dc": 5182, "\u00ab(\u00c4\u0094": 5183, "o\\\u00d2\u00ff": 5184, "\u0019\u00c3": 5185, "\u00a5,": 5186, "\u00df{": 5187, "n\u00bf\u0090": 5188, "\u00a2S1\u00ed": 5189, "\b\u0010": 5190, "P)": 5191, "\u00aa\u00ef": 5192, "N\u00bc\u0092\u009b\u00c7": 5193, "\u00e4z\u00fdn": 5194, "\u00a2s.": 5195, "\u009d\u000e": 5196, "\u00e3Z\u0084": 5197, "\u0082\u00b2z": 5198, "\u00ab\u00f2\u00eb": 5199, "\u0088\u0004": 5200, "\u00cazm\u00d9": 5201, "\u00add": 5202, "\u00d9|n": 5203, "\u00cf\u001a\u00d4'": 5204, "W\u00e4": 5205, "/\u0018": 5206, "\u00a5\u00fe\u009bv": 5207, "\u00fd+": 5208, "\u00ad\u00fe": 5209, "\u00ae\u00f3": 5210, "\u00bf\u00ce": 5211, "\u00f43%6": 5212, "#\u00cc": 5213, "E\u00eb": 5214, "\u00aa\u00fc": 5215, "\u0085\u0002": 5216, "r\u00fd": 5217, "A\u00fe": 5218, "\u0014\u00db\u00bf": 5219, "\u00a9\u00b6": 5220, "#\u00cc\u000eP": 5221, "\u00f41\u001e": 5222, "\u0010[": 5223, "\u001e]l": 5224, "\u00aeZ": 5225, "\u00ea\u00de": 5226, "8\u0010": 5227, "\u00c0\u00aa": 5228, "ekX\u0083": 5229, "=n": 5230, "`]": 5231, "\u00e9\u00bb": 5232, "\u00ad\b": 5233, "t\u00db\u00b7": 5234, "\u00ad\u00cf\u00f9": 5235, "\u00ef\u00ee": 5236, "F\u00db": 5237, "A\u00e7": 5238, " \u00e0": 5239, "\u0088\u00f4\u00db\u00b0": 5240, "\u009b\u008f": 5241, "\u008dj\u0013": 5242, "\u00e0\u00e7": 5243, "?\u00e0": 5244, "\u009f\u0004": 5245, "%v": 5246, "6\u00ef\u00f5": 5247, "\u009c5\u00bb": 5248, "Q\u00ef^N": 5249, "*n\u00fe\u009bv": 5250, "o\u00ee": 5251, "\u0091\u00eb\u00f5\u00bb": 5252, "\u00f3\u009c5": 5253, "\u001cs": 5254, "\u0088-": 5255, "\u0017\u00cf": 5256, "\u0019%\u00f3": 5257, ")\u00c0": 5258, "s=": 5259, "\u00df\u00eb": 5260, "\u00d1p": 5261, "J\u00ac": 5262, "\u008e\u001d": 5263, "wp": 5264, "\u00a9\u001e": 5265, "i]6\u00ed": 5266, "\u00abq\u009d": 5267, "i\u00b7\n": 5268, "\u0082\u0091": 5269, "\u00df\u007f": 5270, "2Sm6\u00ec": 5271, "\u008cx!'": 5272, "7\u00e1": 5273, "o\u00a7": 5274, "\u0092\u00f9\u00fd": 5275, "\u00d7,": 5276, "\u00cek6\u00ef": 5277, "\u001b\u00d4": 5278, "\u00cc{": 5279, "\bW": 5280, "|\u0082": 5281, "\u00e9\u00fe": 5282, "\u00958": 5283, "\u00e1\u00da": 5284, "\u00bc\u008c": 5285, "\u00c7\"": 5286, "\u0097\u0092S": 5287, "!\u0017#": 5288, "\u00efh": 5289, "\u00e4uI": 5290, "xr": 5291, ")\u00d7": 5292, "\u00f8m": 5293, "\u008a9": 5294, "Vx": 5295, "\u00b7\u00d0": 5296, "LC": 5297, "\u001dt": 5298, "\u0093\u00d8": 5299, "\u009bT\u00dd\u00f3\u00af\u008e": 5300, "\u0082\u00dd\u00ac\u00f0": 5301, "\u0087\u000f": 5302, "\u00d1\u0007": 5303, "(\u00fd": 5304, "\u00dbm\u00b6\u00dbm\u00b6\u00dbm": 5305, "\u009dy%7\u008e": 5306, "\u0015\b": 5307, "\u00de\u00db\u00c2": 5308, "CM\u00bb": 5309, "\u0082\u001d": 5310, "\u00ea\u00fd": 5311, "\u00ed\u00b6": 5312, "Y\u00d0": 5313, "\u009c\u00ee": 5314, "\u00aa\u00d6": 5315, "\u00be\u00bc": 5316, "_\u00e8": 5317, "\u0099Z": 5318, "\u00e6l\u00f1": 5319, ";\u00d2": 5320, "\u008f_\u00ad\u00c9": 5321, "\u00af\u008f": 5322, "0\u008e": 5323, "\ns\u009c5": 5324, "\u009f\u0000": 5325, "<\u00f0": 5326, "9\u0097\f": 5327, "qH": 5328, "\u0099\u00b1O": 5329, "\u00c3+Y": 5330, "\u00af\u00be": 5331, "\u009e=": 5332, "\u0095\u00adb\r": 5333, "\u0088)": 5334, "X\u008f": 5335, "W\u00d4": 5336, "\u00c1<": 5337, "\u00a2G": 5338, "6\u00f0": 5339, "\u000e\u00ea": 5340, "\u00f5\u00f6": 5341, "\u0018G": 5342, "\u00ff\u00b3\u00ce": 5343, "l@": 5344, "E\u00d2": 5345, "\u00e8\u00f3\u009c": 5346, "\u00ba\u00dc": 5347, "$p": 5348, "\u00d0(\u001dR": 5349, "G\u009b": 5350, "\u007fQ": 5351, "?\u00e7": 5352, "\u009c\u00adi\u00b7": 5353, ")\u00dd": 5354, "2Se\u00f2": 5355, "\u00d5\u00f3": 5356, "\u00e5\u00f3": 5357, "6\u00ab": 5358, "CC": 5359, "VC": 5360, "\nm\u00da": 5361, "\u001b\u00d7q": 5362, "\u0006\u008d": 5363, "\u00f4\u00beN": 5364, ")\u00f0": 5365, "\u00c3J": 5366, "s\u0082": 5367, "\u0090\u008b\u00dd": 5368, "\u00cd\u008a{": 5369, "<G": 5370, "E\u00fe": 5371, "\u009b\u00ad": 5372, "\u00cd\u00ae": 5373, "\u00d9|n\u00d3": 5374, "\u00a6\u00c4\u0018": 5375, "\u00de\u00df\u00c0": 5376, "k<7\u00ae\u00e3": 5377, "\u00e5\u00f0": 5378, "g\u008b": 5379, "\u00ef>": 5380, "\u00bb\u00c0": 5381, "\u00859\u00ce\u0018": 5382, "r\u000f\u00f9": 5383, "^#": 5384, "\u008a\u00ac": 5385, "\u00c97": 5386, "V\u00b4\u00db\u00ab": 5387, "U\u00f0": 5388, "\u00c1\u00e7": 5389, "\u0091T": 5390, "K\u009c": 5391, "\u00b9\u00d3": 5392, "\u00b8\u00e4": 5393, "\u00af\u00a2": 5394, "\u00e8\u00aa\u008c": 5395, "\u00b1!": 5396, "\u009a\u00f2": 5397, "\u0094\u00f8": 5398, "\u00dfP": 5399, "5\u00dd": 5400, "ES": 5401, "\u00d2\u00b8;": 5402, "\u00c9\u00b6": 5403, "\u0004\u0016": 5404, "\u00da\u00dd": 5405, "\u00e3\u009d": 5406, "\u0018\u0017": 5407, "Y\u00fe": 5408, "\u00e8\u00b5": 5409, "\u001aWM\u00bb": 5410, "\u00bf\u00d5": 5411, "P2": 5412, "S\u009c\u00e0": 5413, "6_": 5414, "\u00a2S1\u00ec": 5415, "!\u00d0": 5416, "\u00a5\u00c6v": 5417, "\u00a3\u00de\u00bc": 5418, "\u00a7\u001a": 5419, "$J": 5420, "\u0091\u00e1": 5421, "\u000e\u00ec": 5422, "\u00d1v": 5423, "\u00e9_": 5424, "\u000f\u00f9": 5425, "2\u00beF": 5426, ">\u00f6": 5427, "\u00f2F\u00de": 5428, "\u0091\u0088U": 5429, "=\u00c7": 5430, "=\u00bc": 5431, "\u00e1\u00c3\u00bf": 5432, "A\u00e3": 5433, "B\u00a8": 5434, "|2": 5435, "V\u00be": 5436, "\b\u00e1": 5437, "/\u0091": 5438, "\u008f\u0002": 5439, "\u000fj": 5440, ">\u009e": 5441, "\u00aa\u00de": 5442, "+\u00b5": 5443, "\u00bd:": 5444, "0`": 5445, "\u000f\u00bd": 5446, "K\u00e5": 5447, "\u00eaz": 5448, "D\u001f": 5449, "<~": 5450, "\u0016\u0086": 5451, "\u00ea\u0011": 5452, "\u00b7\u00a3": 5453, "\u0015\u00e8": 5454, "\u00eb\u00db": 5455, "\u00bd\u0085": 5456, "\u0017\u00d9": 5457, "\u0001\b": 5458, "k\u00c8\u00eb\u00da": 5459, "6\u00a9\u00bb\u00e7_\u001c": 5460, "\u00af#\u00afh\u00a8\u00af": 5461, "\u00af Gw": 5462, "1\u00e1\u00d4": 5463, ";\u00df": 5464, "_O": 5465, "\u00b7\u009e": 5466, "\u00e5k>": 5467, "\u00d9%\u00f3": 5468, "\u00d2\u00e3;": 5469, "\u00a7M\u00b8": 5470, "\u00b1\u00ae": 5471, "\u00ad\t": 5472, "\u009bx": 5473, "\u000f\u00bb": 5474, "1s": 5475, "\u00ea\u00d4": 5476, "\u00ebt": 5477, "&\u00ed4": 5478, "'\u00fc": 5479, "^\u00bb": 5480, "U_": 5481, ",\u00beF": 5482, "\u0083\u00fc": 5483, "`\u00b2\u00f9\u0018": 5484, "\u0083\u00c4\u0010": 5485, "\u0081T": 5486, "\u0089\u008b": 5487, "4\u00ae\u009bv": 5488, "%N": 5489, "{\u00ad": 5490, "\u00ff\u00d9": 5491, "\\\u00ee": 5492, "\u000e\u00fa": 5493, "j\u00c9\u00bbN": 5494, "?\u00c0": 5495, "\u0002\u00d7\u00da": 5496, "\u00e1\u0081": 5497, "\u00ad`": 5498, "s6\u00e3": 5499, "\u0081k": 5500, "\u00d5n": 5501, "<\u00e7\r": 5502, "B\u0091": 5503, "\u009c\u0005": 5504, "\u00dd\u00be": 5505, "\u00e3\u009c": 5506, "\b\u00bd\u00dd": 5507, "\u0081|": 5508, "\u00cf\u0080": 5509, "fW": 5510, "6\u00fa": 5511, "\u0088\u00f2": 5512, "\u008at": 5513, "\u009c\u00d2\u00ff": 5514, "*\u00b0": 5515, "\u00c1,": 5516, "\u00cd\u0011": 5517, "\u00cc\u0094\u00d8": 5518, "\u0013%6": 5519, "\u00f7\u00c3": 5520, "@\u008d\u00bd": 5521, "\u00c0\u008d\u00bc": 5522, "#n\u009c": 5523, "&Jm": 5524, "36": 5525, "\u00d7\u00d0": 5526, "s\u00c4": 5527, "\u009b%": 5528, "\u0099\u00b1G": 5529, "\u0005\u0018": 5530, ":\u00a2": 5531, "\u00a2\u00e7": 5532, "2\u00bf\u008c": 5533, "\u0091\u00e6\u0007(": 5534, "F<\u0010\u0093": 5535, "\u00e8\u00b8": 5536, "\u009aU": 5537, "w\u00fb": 5538, "4j": 5539, "\u00aa\u00c3": 5540, "\u00af\u00b5": 5541, "7\u00f5": 5542, "\u00cd\u00bc": 5543, "r]": 5544, "*\u00a3\b\u00db": 5545, "\u00e7\u00be": 5546, "\u00cds": 5547, "j*": 5548, "\u00d0\u00d2\u00ba": 5549, "\u000e\u00f9": 5550, "\u008c^": 5551, "c]": 5552, "\u00cd-": 5553, "\u000f+": 5554, "k<3": 5555, "\u0092M": 5556, "\u009e\u007f": 5557, "\u00d0\u00d0": 5558, "\u00abV": 5559, "&\\": 5560, "\u008dd": 5561, "\u00c3F": 5562, "\u00dc\u009b\u008f": 5563, "3\u00c6": 5564, "\u00c0\u00a7": 5565, "Y\u001c": 5566, "\u009bw\u00fa": 5567, "k\u00ee": 5568, "x\u00f0": 5569, "\u00cc\u00f4c": 5570, "6\u00f1": 5571, "\u0089J": 5572, "\u001f\u00e0": 5573, "x\u008c": 5574, "\r*": 5575, "oo": 5576, "\u0001\u00d0": 5577, "\u00f4\u00b2": 5578, "\u009e\u00b2": 5579, "7R": 5580, "$\u00f1": 5581, "&+": 5582, "\u00d3g\u009dn": 5583, "\u0004b\u0012r": 5584, "\u00c4a": 5585, "\u00d3\u0087": 5586, "7\u008e": 5587, "\u008d\u007f": 5588, "!\u009d": 5589, "\u00e4\u0097": 5590, "\u00b49": 5591, "Wv": 5592, "\u00a4I": 5593, "^\u00d5": 5594, "|p": 5595, "\u00c3_": 5596, "x\u00d6\u00a1": 5597, "/Q": 5598, "\u00cf\u00ff": 5599, "\u0017\u00f2": 5600, "\u00a1\u00c1": 5601, "\u00f9\u00eb": 5602, "\u00d1_": 5603, "\u00aa\u00ff\u001d\u00d6": 5604, "\u00d7\u00b7": 5605, "C\u00eb": 5606, "\u000bm": 5607, "1\u00ef": 5608, "\u00b4H": 5609, "\u0088W": 5610, "\u00bd\u0017": 5611, "\u0098\u00f3": 5612, "\u001a\u0007\u0082\u0012r": 5613, "\u009dn\u00fe": 5614, "\u00b2\u00f8\u001d": 5615, "\u0012 ": 5616, "#\u001e\bI\u00ca": 5617, "\u00d5\u0001\u00178": 5618, "\u0015\u0012": 5619, "D?": 5620, "\u00fa-": 5621, "+\u00da": 5622, "\u0084u": 5623, ">\u00c4": 5624, "\u0015\n": 5625, "(\u00ef": 5626, "\u00ea-": 5627, "\u0088C": 5628, "T\u0004\\\u00e0": 5629, "\u00af\u000b\u00e1\u00dcQ": 5630, "\u00a7\u000f": 5631, "\u00f4\u00fb\u00fb\u00fb": 5632, "m\u00b6\u00dbm\u00b6": 5633, "\u008a\u00b6": 5634, "\u009a\u00fa": 5635, "6\u00ff": 5636, "^\u0016": 5637, "\u00f0\u00ff": 5638, "\u00e4c": 5639, "o\u00ea": 5640, "\u0018\u00af": 5641, "w\u00d5": 5642, "\u0003F": 5643, "\u008cy": 5644, "\u009b]": 5645, "k\u00ac": 5646, "+\u00f1": 5647, "[\u00ca": 5648, "}w": 5649, "c\f": 5650, "r\u00d6": 5651, "\"%": 5652, "*\u009e": 5653, "\u0093t": 5654, "ekM\u00b8": 5655, "\u00df\u00fb": 5656, "\u00d3n\u00c9": 5657, "d\u008d\u00bd": 5658, "\u00ef\u00bb": 5659, "\u008f\u0005": 5660, "*/": 5661, "T\u00dd\u00fc": 5662, "\u00d5\u009a": 5663, "\u0086V\u00b3": 5664, "\u00e9!": 5665, "\u0090\u00ca\u00d6": 5666, "\u00e4\u0015": 5667, "\u00b3\u00a0": 5668, "\u00ac\u008e": 5669, "\u00fb\u00c4": 5670, "\u00b8\u00a5": 5671, "\u00e7m\u00c8": 5672, "\u000ey": 5673, "\u00c56\u00ef": 5674, "4b": 5675, "W\u00d0": 5676, "\u0087\u009f": 5677, "\u00d2U": 5678, "\u00ada": 5679, "r\u00fc": 5680, "\u00cc\u00af\u00e3": 5681, "6\u00a4m": 5682, "\u00fa\u00a6": 5683, "\u00e8\u00a9\u00b7": 5684, "\u0006#": 5685, "C\u00c8": 5686, "P ": 5687, "\u00e56": 5688, ":\u0018": 5689, "\rY": 5690, "\u00c8<": 5691, "\u00de\u00df": 5692, "\u00e9]6\u00ec": 5693, "s\u0006": 5694, "\u00bf\u00fb": 5695, "\u00b7\u00f0'": 5696, "\u00e2\nz": 5697, "Y\u00d3": 5698, "\u00a7M\u0097\u00c6\u00ed": 5699, "\u007f\u00ee": 5700, "\u000b+": 5701, "\u00f6\u00b9": 5702, "\u00bdy9": 5703, "\u00ea\u00ca": 5704, "y\u00ed": 5705, "\u00e4\u0016": 5706, "\u00d6\u00e3": 5707, "2\u00e1\u009f": 5708, "s\u009c\u0005": 5709, "\u00ear": 5710, "\u000b/": 5711, "\u000f\u00f0": 5712, "ZY": 5713, "\u00f40": 5714, "\u007f\u00cf": 5715, "!\u00a7": 5716, "\r+\u00a6\u00dd": 5717, "\u00e5kX\u0083": 5718, "\u00e9-6\u00ed": 5719, "2\u000b": 5720, "9\u00ac\u00db\u00bf": 5721, "\u0099)\u00b6|": 5722, "\u009a+": 5723, "\u001d\u00dc": 5724, "\u00a1\u00cf": 5725, "]\f": 5726, "_\u0097[": 5727, "\u0007u": 5728, "n\u007f\u00c3": 5729, "\u00bc6": 5730, "\u00e8u": 5731, "\u00b1\u001c": 5732, "\u00f0\u00d5": 5733, "\u00eb\u009e": 5734, "\u00ec\u00cb\u0086": 5735, "_\u00d3": 5736, "%>": 5737, "\u008a\u001d": 5738, "I\u00ba": 5739, "1\u00e8": 5740, "\u008a=": 5741, "\u00d5\u00bf": 5742, "\u00ce\u001a\u00dd": 5743, "\u00d7\u00b4": 5744, "1\u00ae": 5745, "\u00de\u00ba\u00e7\u00f0;": 5746, "\u001f\u00e0\u00e3": 5747, "_v": 5748, "\u00b7:": 5749, "\u00e2\u009d": 5750, "\u00f7\u00a8": 5751, "\u009fD\u00a6c": 5752, "\u00b1\u001by": 5753, "\u0002;\u00bb": 5754, "9\u00ce\u0002": 5755, "Dp": 5756, "\u00e5d": 5757, "\u00dc\u00e9": 5758, "\u001b\u00d2Z": 5759, "\"#": 5760, "\u00de\u001d": 5761, "j\u00bf": 5762, "\u00d0\u00cep": 5763, "{o\u001e": 5764, "\u00b3\u00fd": 5765, "e\u00c3M\u00bb": 5766, "\u00c5\u0097H": 5767, "\u0084p": 5768, "f\u00c9": 5769, "\u00cc\u00bc": 5770, "\u00c6v": 5771, "\u00f4\u00b0K": 5772, "\u00e7\u009b": 5773, "\u000e\u00a9": 5774, "\u00d0\u00cf": 5775, "\u00ba(": 5776, "\u00a4^": 5777, "\u00b3\u00c5": 5778, "\u00e0A": 5779, "\u00ba\u00e5": 5780, "\u0082\u00cb\u00f9": 5781, "\u00bf]\u00fc": 5782, "\u00f1\u00e3": 5783, "\u00e9\u00c0": 5784, "5\u009bw": 5785, "\u008f\u008f": 5786, "f\u0097\u00f8": 5787, "\u0015M": 5788, "\u0098\u00a8": 5789, "\n-": 5790, "\u0017\u00bb": 5791, "\\\u00b1": 5792, "\u00d4\u00fb": 5793, "\u00f0\u00a6": 5794, ":\u0091": 5795, "=\u00fe\u0086": 5796, "\u0095d": 5797, "/\u007f": 5798, "\u0091/": 5799, "\u00bd\u0014bJ": 5800, "\u00de\u00de": 5801, "\u00ecC": 5802, "\u00afX": 5803, "P\u00b1": 5804, "\u00af}": 5805, "\u00ea%": 5806, "b\u00a2": 5807, "V!": 5808, "\u0010~": 5809, ";\u00de": 5810, "\u00dfq": 5811, "\u0087#": 5812, "\u00be\bU": 5813, "'F": 5814, "^\u00ce": 5815, "\u00e8\u00a3\u0012S": 5816, "\u00a3b": 5817, "\u00de\u00ce": 5818, "\u0002\u00d7": 5819, "\u0082\u00f9": 5820, "7\u00fa": 5821, "\u00b7E": 5822, "\u00eb\u00fc": 5823, "\u00f1\r": 5824, "\u00af\u00df": 5825, "bk": 5826, "\u00fdn\u00ff": 5827, "s\u009d": 5828, "o\u00ff": 5829, "\u0085}": 5830, "\u0017\u00fb}": 5831, "S\u00e4": 5832, "?\u00a5": 5833, "2\u00ab": 5834, "\u00d3o": 5835, "\u00cazm\u00da": 5836, "E\u00f0": 5837, "W[": 5838, "\u00cd/\u00eb": 5839, "\u00f3\u00d7": 5840, "\u00b3\u00a6\u00ed\u00eb\u00b8": 5841, "e\u001e": 5842, "\u00f7\u00a2": 5843, "\u00d0&": 5844, "\u00d7y": 5845, "\u0007N": 5846, "\u0081\u00d9": 5847, "m\u00db\u00d7": 5848, "J\u00d6\u009bv": 5849, ">A": 5850, "\u00957\u007fM\u00bb": 5851, ",\u00bf": 5852, "\u00a7\u00ee": 5853, "#\u00d5\u0007": 5854, "<\u0012": 5855, "\u00b3\u00cd": 5856, "8\u008fM\u00bb": 5857, "M\u0015": 5858, "k\u009e": 5859, "\u009b$\u00dd": 5860, "\u00ef]s\u00f8\u001d": 5861, "\u00e8b": 5862, "\u00a6\u00ca\u001d": 5863, "j\u00f9": 5864, "\u00cft": 5865, "\u00a6\u00dc*": 5866, "\u0089\u001by": 5867, "\u00cd\u0092": 5868, "\u00d3n\u000e": 5869, "3\u009c4": 5870, "s_Z": 5871, "\u00c9]": 5872, "\u009d\u00b7#\t": 5873, "\u0015L": 5874, "\u0002l": 5875, "\u009c\u00e7\rQ": 5876, "\u00cf\u0082": 5877, "|\u008c": 5878, "g4": 5879, "x\u0082\u009e\u009bv": 5880, "f\\0": 5881, "g8g": 5882, "M\u00db": 5883, ")\u00e9\u00b7": 5884, "\u00be\u00ab": 5885, "V\u0090tZ": 5886, "\u000f\u00f8": 5887, "\u00d4\u00e4": 5888, "\u00c4zm\u00c2": 5889, "\u00ba+": 5890, "\u00db\u00f8\u0013": 5891, "\u00f5\u00e0": 5892, "\u00a2\u00ffo": 5893, "\u0095e": 5894, "\u00a7\u008c": 5895, "\u00aa2": 5896, "C+Z": 5897, "o\u00fc": 5898, "\u00ad\u0007": 5899, "\u000f\u00ba": 5900, "\u00b6\u00e4": 5901, "\u00a2\u00aa3\u00a1": 5902, "\u00cf\r\u00eb\u00b8": 5903, "s\u0086\u00a8": 5904, "\u00caa": 5905, ":\u00b4": 5906, "g\u00b5": 5907, "\u00bds": 5908, " \u00b1": 5909, "DG": 5910, "t\u00e0": 5911, "\n{": 5912, "\u009e ": 5913, "{\u008e": 5914, "\u009d\u007f": 5915, "\u00ee\u00ff": 5916, "\u001d-": 5917, "\u008d\u00b4z": 5918, "@\u00ae": 5919, "U@": 5920, "\u00d9\u00e6": 5921, "\u0004\u0017": 5922, "\u00f1K": 5923, "r\u00f8": 5924, "\u00e7\t": 5925, "\u00aa\u00f6": 5926, "\u00dc\u00e7": 5927, "&\u009c": 5928, "\u00c9/\u0098": 5929, "h\u00ba": 5930, "\u0099\u007f": 5931, "j\u00de\u001d": 5932, "t|": 5933, "Q\u00e6": 5934, "\u00e5\u008c": 5935, "\u00bf\u00c9": 5936, "\u00e8p": 5937, "\u00ef\u0003": 5938, "\u0015H": 5939, "\u00bb\u00c8": 5940, "o\u00fd": 5941, "\u00a8\u00bc": 5942, "\u00d3g=": 5943, "\u00ce\u001a\u00a3": 5944, "\u0004\u00fd\u00cd\u00be": 5945, ">\u0089L\u00c7": 5946, "7[": 5947, "3\u00d1\u008e": 5948, "\u00a7\u00cf": 5949, "\u00a6\u00e3": 5950, "S\u00a8": 5951, "{\u0012": 5952, "\u00f7\u0086": 5953, "xn": 5954, "\u001e\u00a8\u009c\u00cb\u0086": 5955, "\u00caQ": 5956, "\u009buy": 5957, "g/": 5958, "\u0002s": 5959, "\u0012\u00e7": 5960, "\u00de|": 5961, "\u0092_4": 5962, "\u00dcu": 5963, "_\u00d7": 5964, "\u00d3n\u00df": 5965, "\u00e1\u00ed": 5966, "\u00f4\u0090": 5967, "\u0002\u009d": 5968, "=:": 5969, "ER": 5970, "$4": 5971, "}\u00fa": 5972, "U\u00fe;\u00ad": 5973, "\u0088\u009e": 5974, "zs": 5975, ",2": 5976, "\u00e8\u00fd": 5977, "AN\u00a9": 5978, "*-": 5979, "|~": 5980, "\u00f7\u00f7\u00f7": 5981, "\u000bv\u00b3\u00c3": 5982, "'\u00d1": 5983, "Q\u000f": 5984, "B\u0089": 5985, "\u00e4T": 5986, "\u00ec^": 5987, "w\u00ba": 5988, "\u0014~": 5989, "\u00d1}": 5990, "\u00c9\u00fe": 5991, "^h": 5992, "\u00f2\u009dS": 5993, "\u00ef\u0086W": 5994, "\u00f2:\u00f6": 5995, "\u0081\u00d2\u00061\t9": 5996, "\u00a1\u00d1": 5997, "\u00d05": 5998, "\u00c8,": 5999, "-\u00ed": 6000, "k\u00c3": 6001, "\u0012\u0094": 6002, "G\u00b4": 6003, "\u00a8/": 6004, "\u00a7\u009f": 6005, "\u00e6\u00d4": 6006, "\u001e\u00bf[\u0092": 6007, "\u0092\u00e7\u00f8": 6008, "`A": 6009, "\u0083\u009f": 6010, "\u009b\u0014\u00f6": 6011, "\u00b3=": 6012, ":\u0005": 6013, "\u0081\u0002": 6014, "\u00bf\u00dd": 6015, "{\u00bb": 6016, "\u0081\u001by": 6017, "U\u00be\u009bw": 6018, "\u00d5>": 6019, "\u00cd?": 6020, "\u001d\u00f4": 6021, "\u00dd\r": 6022, "o\u00f5": 6023, "\u00a3\u001d": 6024, "7\u00fe": 6025, "\u00e9\u00b2\u00f8\u00dd": 6026, "\u00acU\u00d3": 6027, "T\u00dd\u00fd": 6028, "O\u00c9": 6029, "Og": 6030, "l\u00be7l": 6031, "#\u0095\u00d3n": 6032, "\u009c\u0087": 6033, "\u0011\u0089": 6034, "8\u009a": 6035, "\u00b7K": 6036, "\u00ad\u007f\u00d9": 6037, "o\r": 6038, "\u008cB\u001b": 6039, "\u00d3g\u009dQ": 6040, " \u009e": 6041, "T\u009d": 6042, "Z\u00f2": 6043, "4\u0014\u00ea\u0093": 6044, "\b\u00c4*": 6045, "\u008e{": 6046, "4\u00e4": 6047, "\u00c58\u0083": 6048, "\u00dck\u00e3v": 6049, "\u00f9\u0002": 6050, "M\u00bf": 6051, "^\u00a3": 6052, "J}": 6053, "\u00a7C": 6054, "\u009br": 6055, "\u00beS\u00aa": 6056, "u\u0095": 6057, "\t\u00fb\u009b}": 6058, "\f\u00f3": 6059, "\u00b2\u009e": 6060, "\u0005\u00e0": 6061, "\u00cc\u00f1\u00ce": 6062, "_9": 6063, "\u00e6\u00d5a": 6064, "*\u00fe": 6065, "<k": 6066, "\u00bdt\u00cf\u007f": 6067, "\u0097\u00c9\u00ca\u00d6": 6068, "M\u00c6": 6069, "\u00b5\u00cb": 6070, ")\u00f2": 6071, "\u00d1\u007f": 6072, "\u00eb8": 6073, "S\u008aY": 6074, "\u009aE": 6075, "u\u008a": 6076, "\u00b3+\u00f8": 6077, "\u00a8\u00c4": 6078, "\u00fb\u00fc": 6079, "\u00c8\u00f5F": 6080, "k\u00a3": 6081, "A\u000e": 6082, ";\u00c3": 6083, "\u009d\u00be": 6084, "\u00a4\u00ab\u00ed": 6085, "h)\u00d5'": 6086, "\u00d3\u00f5": 6087, "\u00e8o\u0010": 6088, "l\u00be7m": 6089, "c\\": 6090, "_\u001b": 6091, "\u00bd\u00ba": 6092, "v\u00f8": 6093, "*\u00fb": 6094, "\u00d0V": 6095, "\u00dc~": 6096, "W\u00e0": 6097, "\u0083\u00df": 6098, "{\\": 6099, "\u00bd,\u0012": 6100, "\u009a\u008f": 6101, "\u00d3n\u0013": 6102, "b9": 6103, "Y\u0092\u009b": 6104, "\u00e4\u00e5": 6105, "\u00c3R": 6106, "\u00ac\u0083": 6107, "\u009d6_\u001b\u00b6": 6108, "w\u00d2": 6109, "dz": 6110, "\u00de\u00bc\u009d": 6111, "\u0090v": 6112, "kve\u00c3": 6113, "F\u00da": 6114, "\u00ea\u00f0": 6115, "\u00be\u00ff": 6116, "@\u008d\u00bc": 6117, "\u00a3\u001f": 6118, "\u0093\u0014": 6119, "\u00a4\u00b8": 6120, "\u009e\u00b56": 6121, "\u00e8\t": 6122, "\u008b\u00f9": 6123, "\u00c9/\u0094": 6124, "\u00db\u00be": 6125, "\u00b4\u00fd": 6126, "\u0081p": 6127, "J\u00ff": 6128, " \u00e1": 6129, "\u00ef\u0010S": 6130, "G\u00b5": 6131, ";\u008f": 6132, "\u00e1\u009c\u00e1": 6133, "{{": 6134, "G\u00c0": 6135, "\u00ee\u00ea": 6136, "\u009e\u00ce": 6137, "R\u0019": 6138, "\u00c1[\u00c6": 6139, "\u0007T\u009c": 6140, "\u00ca\u0087": 6141, ")]": 6142, "y\u00e0": 6143, "\u00f4\u00f4": 6144, "\u00f4\u0015\u0093": 6145, "\u0011\u0088U": 6146, "i\u00d7": 6147, "9\u00dd": 6148, "\f\u00e7\u0001": 6149, "\u0013\u00fe": 6150, "t9": 6151, "\u00de\u0092\u00d3n": 6152, "/\u00bd": 6153, "\u0089\u00e3": 6154, "\u00c8\u00ea\u0093": 6155, "\u00c2)": 6156, "j\u00ff": 6157, "V\u00ef": 6158, "\u00a3\u0011": 6159, "\u0095\u00cd": 6160, "\u00aet": 6161, "4\u00e6": 6162, "\u0086\u009e": 6163, "\u00f4\u00e0": 6164, "\u009d\u0004": 6165, "O\u00fa": 6166, "R\u001a": 6167, "\u009e\u00e3": 6168, "\u001d\u00ec": 6169, "\u00e8\u0093": 6170, "\u00d6\u00e4": 6171, "\u009b<\u00e0\u00b7": 6172, "\u00f0\u00ef": 6173, "\u00bfT": 6174, "Oq": 6175, "T\u00e4": 6176, "\u00f7\u00f6": 6177, "\u00de\u00b1": 6178, "\u008a?": 6179, "^\u00fe": 6180, "\u00c5z": 6181, "\u0013\u00de": 6182, "\u0087\u00ef": 6183, "9=": 6184, "w\u00bd": 6185, ":\u0087": 6186, "\u00bd\u00ae\u00adn\u00fb\u00c9]": 6187, "\u00bc\u008e\u00bd\u00a2D": 6188, "\u00d5_": 6189, "\u00bc8": 6190, "\u0017\u009e": 6191, "\u00f1\u00bb": 6192, "U\u00df": 6193, "\u0084*": 6194, "<6": 6195, "\u00cf\u00e4": 6196, "\u00dc\u0097\u0006": 6197, "\u00897": 6198, "\u008a\u00b5": 6199, "W}": 6200, "\u00ad|": 6201, "f\u00ff": 6202, "\u00b3K\u00fc": 6203, "\u0012b": 6204, "\u00cc\u00af\u00c6": 6205, "\u00bf\u00ed": 6206, "e\u00e7\u00bf": 6207, "\u0007g": 6208, "\u009brX": 6209, "B\u0015": 6210, "\u00c5\u00ce": 6211, "\u00b4\u00db\u00ab": 6212, "?\u00cf": 6213, "\u009a ": 6214, "\u00f5k": 6215, "\u008am\u00da": 6216, "3\u009c2": 6217, "\u00d52": 6218, "\u001b\u00d2Y": 6219, "\nG": 6220, "\u00e8k\u0015": 6221, "\u0095\u00c2": 6222, "\u00d5\u0007": 6223, "Y7i": 6224, "\u0017\u00fe": 6225, "\u0011\u00e6": 6226, "\u001c\u00e0": 6227, "\u007f\u00d9\u00e7": 6228, "\u0001\u00c1": 6229, "\u00c9\u001b": 6230, "\u00ed\u00fc": 6231, "{u": 6232, "\u00a79": 6233, "\u00bf.\u00b6": 6234, "t4": 6235, "]e": 6236, "\u0097\u00e2": 6237, "\u0007\u00a7\u00bf": 6238, ":A": 6239, "|n": 6240, "iS": 6241, "\u00ef\u00a6": 6242, "<c\u00a6\u00dd": 6243, "\u00ba>": 6244, "\u00c2\u008c": 6245, "2Sa": 6246, "~\u0091": 6247, "<=": 6248, "u\u009d7": 6249, "\u00d6\u00ef\u00ef": 6250, "\u00d2\u00a8": 6251, "\u00c0\u00b9": 6252, "\u00eb\u0010f": 6253, "\u00ec|": 6254, "}\u00e8": 6255, "\u00efo": 6256, "Nm": 6257, "\u00d1S": 6258, "\u00c5\u00ff": 6259, "\u00b7_": 6260, "\u00be|": 6261, "\u00f2\n": 6262, "g\u00fc": 6263, "M\u00885": 6264, "\u00adS": 6265, "\u0086\u008d": 6266, "@\u00a0uI": 6267, "a\u001bz": 6268, "\u001e\u00df": 6269, "\u0016V": 6270, "X\u00ab\u000e\u008b": 6271, "}?": 6272, "\u00cc\u00b9": 6273, "\u00ddb6": 6274, "\u0013\u00f7": 6275, "\u00dby": 6276, "\u00d9\u00cf": 6277, "\u000e0": 6278, "\u00aa\u00d5": 6279, "\u00e6\u00dc": 6280, "\u0086#\u00d3n": 6281, "_\u001e": 6282, "\u00ae\u00e3": 6283, "\u0097N": 6284, "x\u001d": 6285, "\u00d1\u00eb\u00f5\u00bb": 6286, "h\u00c5": 6287, "P\u00e0": 6288, "w\u00b1": 6289, "{\u00d7\u0093": 6290, "\u00eb\u00a4": 6291, "\u0011\u00eb\u00f5\u00bb": 6292, "\u00dc\u00ee": 6293, "\u008a\u00b0\u00e8\u00b5": 6294, "\u00ee\u00b6": 6295, "O\u00f9": 6296, "ny": 6297, "\u009et\u00db": 6298, "\u00c5(\u00f5": 6299, "\u0099 ": 6300, "Jf=": 6301, "6+\u00ad": 6302, "_.": 6303, "\u00bf\u00f7": 6304, "A\u00178": 6305, "\u00fa\u0002": 6306, "\u00f4\u00db\u0092": 6307, "\u00bc\u00f0": 6308, "9}": 6309, "C\u0095\b\u00f6": 6310, "\u00fb\u00c0": 6311, "\u00ff\\": 6312, "i\u007f\u009f": 6313, "\u0095\u00adn\u00fe": 6314, "\u00aa\u00f0\u00f0BN": 6315, "\u000e\u00ed": 6316, "s\u0087": 6317, "\u0095\u00da": 6318, "?\u00e1": 6319, "\u009d6\u00e3": 6320, "\u00ad\u00d9\u0097\f": 6321, "S\u00bb": 6322, "\u00f1\u00f4": 6323, "\u008f0": 6324, "\u0019\u00df": 6325, "\u00e0\\": 6326, "\u00b3\u009c4": 6327, "\"\u0015": 6328, "}\u00fe": 6329, "\u009bU": 6330, "\u00c6\u00ba": 6331, "w%": 6332, "eks": 6333, "t\u0017": 6334, "j\u00fc\t": 6335, "o\u00a1": 6336, "\u00aeX": 6337, "[\u00fd": 6338, "\u0095o": 6339, "o\u008e": 6340, "8t": 6341, "U\u0000": 6342, "\u0090\u00f9": 6343, "\u00cas": 6344, "/$\u00a7": 6345, "\u00e6\u0088": 6346, "\u0090\u00cep": 6347, "3\u0086": 6348, "^IL": 6349, "\u00c1\u0082": 6350, "xy": 6351, "\u00ff\u00a3\u001a": 6352, "}\u00e3": 6353, "\u00e6=": 6354, "\u00fb\u00c7": 6355, "\u00bc\u00d5": 6356, "\u00b4#": 6357, "^\u001c": 6358, "\u0011\u00e4\u00e5": 6359, "\u001c\u009f": 6360, "\u00aaZ": 6361, "j\u00ca1": 6362, "\n\"": 6363, "*=": 6364, "\u008a\u00a4": 6365, "P\u0005\u00f3": 6366, "\u00b5M": 6367, "\u00d8\u00f0": 6368, "\b\u00e4": 6369, "'\u00bd": 6370, "$Q": 6371, "\u000eD": 6372, "\u0011\u0012": 6373, "D\u00c4": 6374, "\u007f\u00de": 6375, "\u008a\u00f4": 6376, "\u001d{E{": 6377, "\u00c1n\u00d6x": 6378, "\u0090\u00fa\u00c3\u00cb\u00a4": 6379, "\u0093\u00af$\u00a6\u00f1": 6380, "\u00da\u00a6\u00ef\u009d|s": 6381, "\u00f6r\u00b5": 6382, "\f\u00afJ\u00cb\u00c6": 6383, "\u0099\u007f\u009dR": 6384, "`t\u0081\u008cBN": 6385, "\u00a0S": 6386, "+\u00fe": 6387, "{\u0002": 6388, "\u00db\u00f9": 6389, "\u001a{": 6390, "\u00b7\u00b5": 6391, "\u00cep\u00d3n": 6392, "\u00f1g": 6393, "\u00c4$\u00e5": 6394, "n\u00fa": 6395, "\u00f49": 6396, "\u00f7\u00b0": 6397, "AY<": 6398, "\u00c0\u0087": 6399, "\u00eb\u00e1\u00c3": 6400, ";|": 6401, "s.\u0019": 6402, "[\u00d4": 6403, "\u00d8\u00f5": 6404, "\u00af\u0087": 6405, "\u00b1V\u001d\u0016": 6406, "\u0091\u008a": 6407, "d\u00a6\u00c2": 6408, "\u009d\u00dc": 6409, "2\u00b5\u009f": 6410, "\u00d7G": 6411, "\u00db\u00c7": 6412, "r\u00f8s": 6413, "4\u0014": 6414, "\u00b9\u00e0": 6415, "\u00be\u009d": 6416, "\u007f\u009b": 6417, "\t\u00a7": 6418, "\u0099U": 6419, "\u00af\u009c": 6420, "\u00c6\u00ed": 6421, "x'": 6422, "\u00f4\u00d8\u0083": 6423, "\u0011\u00ea\u00bb\u00c9": 6424, "\u00d9\u00ce\u0018": 6425, "\u00be\u00e8": 6426, "\u00d5\u00ac": 6427, "\u00b3.\u001a": 6428, "\u009aX\u00c5Y": 6429, "\u00ff)": 6430, "k\"": 6431, "\u00059\u00ce\u001a": 6432, "\u00d1U\u0019\u00d0": 6433, "\u00d1\u001f": 6434, "*\u00f8": 6435, "\u00eb\u0096\u00be": 6436, "\u00b3.\u0096": 6437, "\u0099#": 6438, ".wv": 6439, "\u00a7\u00ba": 6440, "\u0014\u00ef": 6441, "\u00ac\u008d": 6442, "\u00e5\u00ae\u00b5": 6443, "\u00b7\u001c": 6444, "i\u00b7c": 6445, "\u00e9\u001e": 6446, "\u00ca\u00ac": 6447, "\u0092S\u00ca\u00d6": 6448, "\u0001\u001d\u00dd": 6449, "/^": 6450, "\u0011\u00ee": 6451, "uk": 6452, "\u00f4Jf=": 6453, "\u00ddl": 6454, ";\u00ad": 6455, "\u00e2\u009c\u00cb\u0086": 6456, "\u009f\u00eb\u00e1\u00c3": 6457, "\u00b4\u00bf": 6458, "9\u009e": 6459, "S\u00e1": 6460, "N#\u00d3n": 6461, "\nuF": 6462, "\u00a0P\u00c6\u00b3": 6463, "iU\u0019": 6464, "\u0087\u0006": 6465, "s\u00cd": 6466, "g\u00f4\u00beN": 6467, "\u00a4y\u0081\u00ca\u001a": 6468, "\u00f3\u009c3": 6469, "\u00c1g": 6470, "_g": 6471, "\u0016\u00ec\u00cb\u0086": 6472, "3e\u008f": 6473, "\u00c5XtZ": 6474, "G\u00d8": 6475, "3K\u00fd": 6476, "f\u00cb\u001e": 6477, "\u00ca\u00e1": 6478, "\u00ff\u00ce": 6479, "\u00ae_\u000e": 6480, ":m\u00d8": 6481, "\u00fc\u00db": 6482, "\u0019\u00ce\u0002": 6483, "\u00bc\u000e": 6484, "]7": 6485, "\u00fb\u00ef": 6486, "2F\u00de": 6487, "yu\u00b3": 6488, "\u00a5*": 6489, "P\u000e": 6490, ")\u00b7\u007f": 6491, "\u0087\u00b5": 6492, "9\u0097\r": 6493, "=\u00ff": 6494, "\u00cc\u008d\u00bd": 6495, "\u00e9\u00ba": 6496, "\u0082\u008f": 6497, "V\u00f0\u00ec": 6498, "\u009b<x": 6499, "\u00fa\u0018": 6500, "\tS": 6501, "\u00e2\u000b": 6502, "\u00afj": 6503, "m\u00c6": 6504, "\u00a8\u00f3\u009c": 6505, "X\u008e": 6506, "\u00ad\u00ff": 6507, "r\u001d": 6508, "oo\u00e0N": 6509, "\u00de\u00e8": 6510, "8\u00ce": 6511, "e\u00f0;": 6512, "\u0095\u00adb\f": 6513, "\u000b\u0017": 6514, "\u0014\u00e6Jm": 6515, "9\u00ce": 6516, "o\u001c": 6517, "\u0004\u0012": 6518, "f\u00d4": 6519, "\u00ca\u00fcf": 6520, "\u00d5\u00ed": 6521, "t7\u00a4": 6522, "\u009c1": 6523, "\u00fb\u00d2": 6524, "\u00a0\u00b9": 6525, "s6y": 6526, "AN": 6527, "\u008a\u00a4c": 6528, "26\u00f3": 6529, "R1": 6530, "\u00d0\\": 6531, "Ja": 6532, "s\u0098": 6533, "Y\u00eb": 6534, "\u001ca": 6535, "\u008cT": 6536, "@\u00f3": 6537, "\u007f\u00f3": 6538, "\u00a1\u00f5": 6539, "a\u00ab'": 6540, "z}\u00fd\u00fd": 6541, "+<": 6542, "\u00e0\u0096": 6543, "\u0085\u0015": 6544, "\u00d7~": 6545, "}Y": 6546, "\u00e9\u00cc": 6547, "W\u00f3": 6548, "\u00c7\u00cc": 6549, "\u00e3]": 6550, "\u00fb\u00db": 6551, "7\u0088": 6552, "\u00de\u00d3": 6553, "\u0091\u008e": 6554, "g8\n": 6555, "\u0011\u008f\u0004$\u00e5": 6556, "\u009dr": 6557, "o\u00ef": 6558, "\u0004\u00ff": 6559, "\u009d\u0097K": 6560, "\u000f\u00b8": 6561, "G\u00af\u00d6\u00e4": 6562, "ok": 6563, "k\u0097\u00c8\u00c3": 6564, "|\u00a7T": 6565, "D\u00a2": 6566, "!\u00f1": 6567, "\u0012*": 6568, "\u00e8\u00e4": 6569, "\u0010}": 6570, " \u00fd": 6571, "\u0089\u0013": 6572, "\u00d4\u001e\u009e\u00fe": 6573, "\u00af#\u00afh\u00afw\u0004\u00a3": 6574, "\u00f6u\u00e4u\u00ed": 6575, "y\u001d{E{": 6576, "P_\u00f2\u0096\u00bc": 6577, "\u00bd\u0089W": 6578, "S\u00e8": 6579, "@\u00a7": 6580, "\u0006\u00fb": 6581, "\u009b\u007f": 6582, "0\u00d5\u0093": 6583, "\u00de\u00c1": 6584, "\u00d1\u0088": 6585, "]\u007f": 6586, "\u00e7\r6\u00ec": 6587, "\u00ea\u00d0": 6588, "\u00a6\u00cf:\u00a3": 6589, "G\u009a_": 6590, "\u00a5D": 6591, "\t\u00fa": 6592, "\u00a0F": 6593, "\u00d5\u00b8": 6594, "e~3": 6595, "c\u00c0": 6596, "\u00e6\u00dd": 6597, "]\u00ff": 6598, "qM": 6599, "\u001f\u00f0": 6600, "9\u00b7": 6601, "\u00f59\u00ce\u001a": 6602, "a\u00d4": 6603, "\u00aaC": 6604, "\u00cf\u007f\u00a1": 6605, "\r~": 6606, "^|": 6607, "\u0080\u00d1": 6608, "\u00e3\u00fe": 6609, "K\u00e1": 6610, "\u00e8b=": 6611, "{\u007f": 6612, "\u0099\u00e8\u00c7": 6613, "\u00ea\u00b3": 6614, "3\u00dd": 6615, "3\u00d0": 6616, "M\u009eq": 6617, "u\u00ba": 6618, "h+'": 6619, "\u0011\u00f0": 6620, "\u0087\u001e": 6621, "\u00bb\u00fe": 6622, "\u00c8*\u00ff": 6623, "\u0097\u00f5\u001e": 6624, "kp": 6625, "\u008a\u00fe": 6626, "\u00be\u009c": 6627, "\u00f1\u0088": 6628, "\u0082\u009e": 6629, "\u001e\u001a": 6630, "\u00ad\u00c6": 6631, "\u009at": 6632, "\u00e6\u00b3n\u00fe": 6633, "\u00bd*": 6634, "J\u00b3": 6635, "Z\u00d7\u00c7": 6636, "\u00fd\u00f7": 6637, "\u00d1\u0088U": 6638, "\u0097#": 6639, "\u00f4\u00db\u0085": 6640, "\u00a2\u00aa3": 6641, "9\u0015": 6642, "\u000b\u00b8": 6643, "Ax": 6644, "V\u00e6\u0096": 6645, "\u00f3\u007f": 6646, "\u00f2\u00ebg": 6647, "\u00b8\u00b8": 6648, "\u008e\u00a9": 6649, ":\u00e5\u00af": 6650, "\u0016_": 6651, "+\u00e4a": 6652, "\u00ae_#": 6653, "\u00d6s\u0080": 6654, "G\u000e": 6655, "/\u000e": 6656, "2\u0094": 6657, "\u00aa5\u009e": 6658, "\u00a2O": 6659, "xo": 6660, "I\u00bbN": 6661, "t\u0004": 6662, "\u0082~\u00e6\u00df": 6663, "\u00cc\u008d\u00bc": 6664, "\u0006\u0095": 6665, "\u009bw\u00fb2\u00e1": 6666, "\u00cf\u00be": 6667, "n\u0019": 6668, "\u00f2K\u00e6": 6669, "ZX": 6670, "8'": 6671, "\u00f41": 6672, "C\u00fc\u001cs": 6673, "z<": 6674, "V\u00ac": 6675, "\u00a6\u00cf4": 6676, "\u00eb\u00fd": 6677, "\u00d6t\u00dc": 6678, "\u00af4": 6679, "K\u00c9)": 6680, ":\u00dd\u00fc": 6681, "\u008c5": 6682, "\u00eb\u00f9": 6683, "WN": 6684, "=\u00d7": 6685, "V\u00ed": 6686, ":\u001d": 6687, "\u00e4\u0094\u00e9": 6688, "\u00bb\u00e5\u00d0": 6689, "w\u00c8\u00db": 6690, "\u00be\u00b9": 6691, "\\\u00be\u001c": 6692, "\u00fb\u0015": 6693, "\u008al\u00f3": 6694, "\u00e5i": 6695, "\u00cd\u00b5": 6696, "\u00f2\u00e9": 6697, "\u00ce\u00cb\u00a5": 6698, "U\u00fc": 6699, "\u00cd=\u00dd": 6700, "\u00c4\u0082": 6701, "\u00e9-6\u00ec": 6702, "\u0082\u0010": 6703, "\u00c8S": 6704, "\u00a3\u00d5_": 6705, "\u0012\u00f8": 6706, "\u00cep\u00c0": 6707, "I\u00b8": 6708, "A\u00e9\u00ef": 6709, "\u00c1b": 6710, "\u00de\u00b8\u008d\u00bc": 6711, "\u00cf<": 6712, "<\u00d4": 6713, "k6#o": 6714, " \u00bf": 6715, "g\u00bf\u00d9": 6716, "\u0016\u00edg\u0086": 6717, "[\u00c0": 6718, "\u00dam\u00d9": 6719, "\u0099p\u00d3n": 6720, ",\u00f1\u008e": 6721, "\u0086\u00ec\u00fe": 6722, "\u0099)\u00b2\u00f9": 6723, "V\u00b5\u00bb": 6724, "\u0082\u00ca": 6725, "\u00e3\u000e": 6726, "j\u00cd": 6727, "\u0017\u00b5": 6728, "T\u0086": 6729, "\u00ab\u00f9": 6730, "\u0091\u008f\u0004$\u00e5": 6731, "4\u000f\u0004$\u00e5": 6732, "#n\u009d": 6733, "\u00ca\u00d6\u00e7": 6734, "\u00f45\u00bb": 6735, "t\u00d8": 6736, "\u00c4s\u00df": 6737, "<\u00f5": 6738, "\u009c\u00e7": 6739, "\u00e6\u00a2": 6740, "\u0082J": 6741, "\u00d3\u0080": 6742, "\u0005\u0003\u00aaN": 6743, "\u00e7\u00bf": 6744, "\u00fc\u00ae": 6745, "\u00b36+\u00ad": 6746, "\u00ea\u009b": 6747, "\u00aa\u00d2": 6748, "\u00bcA": 6749, "Q\u008e": 6750, "M\u00d8": 6751, ":=": 6752, "NI|": 6753, "\u00a1\u00e4": 6754, "\u00cf\u00e9|\u009d": 6755, "\u00c0\u00e5\f": 6756, "\u00b1\u00e4": 6757, "\u00cb\u0094": 6758, "\u0007\u0097[>": 6759, "\u00e38": 6760, "\u00d5\"": 6761, "\u00b1\u00e1": 6762, "\u00e9`\u0096": 6763, "3b\u00ba\u00d8": 6764, "\u0094\u00db": 6765, "\u00f8\u0013": 6766, "HS": 6767, "\u001f\u007f": 6768, "W\u0087\u0082\u0015": 6769, "'=": 6770, "H\u00a8": 6771, "UC": 6772, "\u00fc\u009e": 6773, "z*": 6774, "\u00bd\u008f": 6775, "\u00d6!": 6776, "U\u00a5": 6777, "\u00e4_": 6778, "\u00cb\u00e4`uI": 6779, "=\u0015": 6780, "\u0091o": 6781, "\u00ccC": 6782, "Q1": 6783, "\u00d3\u00d8": 6784, "\u00d1=": 6785, "\u001a\u0014": 6786, "E\u00bd": 6787, "\u00d1\u0011": 6788, "\u00ff\u00c7\u0004": 6789, "?\u00ec": 6790, "\u00b6\u00dbm\u00b6\u00dbm": 6791, "m\u00b6\u00db": 6792, "\u00b2\u008cIO": 6793, "\u00f2\u0091": 6794, "\u00f4Q\u0089)": 6795, "\u00efg": 6796, "\u00d7\u0091\u00d7\u00b4C\u00f7": 6797, "\u00a0\u00bf\u00e5-y": 6798, "z(\u00c4\u0094": 6799, "\u00d7\u0091\u00d7\u00b4W\u00b7": 6800, "\u00f1\u0017\u00ff": 6801, "\u00bcE\u00ff": 6802, "\u001d\u0003": 6803, "\u00ba.": 6804, "\u00a1\u00c0": 6805, "\u00e2\u0091": 6806, "\u00b5Y": 6807, "W\u00e9": 6808, "\u00ab\u00f5": 6809, "M\u00d6": 6810, "\u00e6\u00e2": 6811, "\u008cB\u00ab": 6812, "\u00e4\u0097\u00cf": 6813, "*\u00ce": 6814, "\u00adk\u0010": 6815, "\u00c1\u00e1": 6816, "8\u0016\u00be": 6817, "EM": 6818, "W\u00ea": 6819, "\u00f2r": 6820, "+\u0010": 6821, "\u00d5\u00f4": 6822, "\u00c89": 6823, "\u0012\u0086": 6824, "\u00b2\u00f96": 6825, "\u00c1.p": 6826, "\u00bd\u00bf": 6827, "U\u007f\u008e\u00eb": 6828, "\u0018\u0083": 6829, "\u00df\u00d7\u00c3": 6830, "\u001b\u00c3": 6831, "w\u00ca": 6832, "\u0099\u008f": 6833, "\u00ebw\u00fb": 6834, "\u00adY": 6835, "\u00b7F": 6836, "\u00e2x": 6837, "y\u00ea": 6838, "\u00b2\u001d": 6839, "\u00be\u0096": 6840, "\u00d5e": 6841, "\u00abH:-": 6842, "i*\u00fb": 6843, "\u00de\u009e": 6844, "\u00a8\u00cd": 6845, "\u000f\u001e": 6846, "Y|\u008c": 6847, "\u00b2\u00bb": 6848, "\u00db\u00fd": 6849, "\u00b7`": 6850, "jF\u00de\u0095": 6851, "x\u0003": 6852, "\f\u00cb\u0086": 6853, "Mw": 6854, "l\u0093v": 6855, "\u00ee\u00bf\u0090": 6856, "\u00a6\u00dd\u009a/\u0084": 6857, ")\u001e": 6858, "\u00ad\u00df\u00ec": 6859, "\tU\u0086": 6860, "\u00f3+": 6861, "=\u00d3": 6862, "\u00de\u0096m": 6863, "\u00c4\u008d\u00bd": 6864, "E\u00fe\u00df": 6865, "(u": 6866, "-}6#o": 6867, "g\u00bf\u00d8": 6868, "~]": 6869, "Nf\u00cb": 6870, "\u00a0\u00b8": 6871, "\u0099s": 6872, "Y\u001b": 6873, "_\u00e6": 6874, "g\u00df": 6875, "\u001f3": 6876, "\u00e1\u00a6\u00dd": 6877, "\u009c\u00e7\u0001": 6878, "\u00ae\u008a": 6879, "\u00b7\u0019": 6880, "\u001d\u00fd": 6881, "\u00a5\u009b": 6882, " F\u00de": 6883, "\u0092\u00b8": 6884, "\u001f\u00e9": 6885, "\u00e8\u00ba": 6886, "\u00ac\u00f1": 6887, "\u008f\u009f": 6888, "\u00c1*\u00b0": 6889, "\u001d\u00da": 6890, "\u00d4\u0089": 6891, "r\u009d": 6892, "\u00c26\u00f3": 6893, "3\u009c7": 6894, "_\u00ae": 6895, "q\u0018": 6896, "\u0084{": 6897, "\u0007\u008d": 6898, "w\u00a7": 6899, "\u00e7\u009c": 6900, "\u00c8}S": 6901, "\u00b9\u0018": 6902, "b\u009c\u00cb\u0086": 6903, "\u009f\u00d2": 6904, "y%:": 6905, "\u00f4S": 6906, "|\r": 6907, "d\u00a3\u001c": 6908, "\u00cd\u00bb\u00f8": 6909, "\u00e6\u00de": 6910, "\u00e9\u00b8": 6911, "\u00e7\fM": 6912, "!\u00fe\u000e9": 6913, "\u00e0F\u00de": 6914, "\u0011\u00e9\u00b7h": 6915, "=\u0014": 6916, "\u00e6Jl": 6917, "\u0015O": 6918, "\u00ab(": 6919, "\u00ab\u00f2": 6920, "\u00a2\u00a9": 6921, "\u00eb\u0015t": 6922, "C\u0083": 6923, "A\u00c3": 6924, ";\u00c4\u0014": 6925, ">\u00f8": 6926, "\u0099\u00b1": 6927, "\u00ef\u00f2": 6928, "\u00dc\u0097": 6929, "\u00f6>": 6930, "Y\u00e0": 6931, "\u00db\u009e": 6932, "d\u00ba": 6933, "\u00a0F\u00de": 6934, "g\u00a3\u001c": 6935, "\u00bc)": 6936, "\u00e5=6\u00ec": 6937, "\u00cb\u00e1\u00cf\u00d2": 6938, "\u00cb\u00a1": 6939, "\u00c1e\u00fc": 6940, "\u00e9\u00ef": 6941, "\u00f7G": 6942, "Y]": 6943, "\u00b3n": 6944, "\u00d2U\u00f0": 6945, "\u00e2\r": 6946, "xx!": 6947, "\u00f3\u00e8": 6948, "\u00bd,": 6949, "\\\u00beF": 6950, "V0": 6951, "\u0014\u000b": 6952, "_^": 6953, "\u009e,\u00baA": 6954, "\u00f6\u00de\u0014\u00f6": 6955, "G\u0098\u001c\u00a1": 6956, "\u0081\u00d5'": 6957, "\u008aq\u0006": 6958, "\u00d9~": 6959, "\u009c\u00e9": 6960, "\u0014\u00e9\u00b7": 6961, "J!": 6962, "{\u00a4": 6963, "\u00f3\u008c": 6964, "\u00aar": 6965, "\u00eb<Z": 6966, "\u00deIO": 6967, "tR": 6968, "\u00af\u00e4": 6969, "\u0000\u0094": 6970, "3\u001e": 6971, "\u008a\u00a8\u00ce\u0086": 6972, "\u00ed\u00bc\u007f": 6973, "{\u00d2": 6974, "\u001b\u00b3\u00fa": 6975, "\u00c9\u001c": 6976, "\u00cd\u0018": 6977, "pK": 6978, "K\u009f": 6979, "y%1": 6980, "\u000f\u0002": 6981, "\u001e\u00d4": 6982, ":\u001c": 6983, "\u0089 ": 6984, "\u00dfr": 6985, "x\u00c5": 6986, "d\u0015": 6987, "np": 6988, "]\u00f5": 6989, "\u00cep\u00c3": 6990, ">\u00ec": 6991, "44": 6992, "@\u00f0B": 6993, "J\u00ed": 6994, "\u00aa\u00af": 6995, "\u00f5\u00e5": 6996, "\u008b\u00a3": 6997, "\u00b7\u00f2": 6998, "\u0088s": 6999, "\u00c1\u0080": 7000, "\u0083\u0001": 7001, "\u00a9\u00c8": 7002, "'\u00b1": 7003, "\u00fa%": 7004, "\u001c:": 7005, "\u00a2\u00fb": 7006, "\u00a2\u00bd": 7007, "\u001fE": 7008, "z%": 7009, "\b\u00fd": 7010, ",C": 7011, "\u0005\u00bb2\u00e1": 7012, "\u00c8}a\u00e5\u00d2": 7013, "\u00d2\u00b2\u00f1": 7014, "\u00aa\u000e": 7015, "\f\u0018": 7016, "\u00a08": 7017, "\u001c\u008d": 7018, "S\u0087#": 7019, "\u00bc\u0081\u001d\u00dd": 7020, "^o": 7021, "\u00c3+\u00d2\u00b2\u00f1": 7022, "\u0013\rA\u00e5B<*\n\u00a1\u00e4^IM": 7023, "\u00d7\u0091\u00d7\u00b4": 7024, "y\u001d{EE": 7025, "y\u001d{D\u0089": 7026, "\u00bfp\u0006": 7027, "\u0086\u00ae": 7028, "k\u00f2": 7029, "\u00f0\u00b5": 7030, "\u00c3\u007f": 7031, "\u0012n\u00d2": 7032, "}_": 7033, "\u00d5\u00fa": 7034, "j\u00be": 7035, "fJ1": 7036, "\u00c7\u0080": 7037, "o\u0082": 7038, "\u00c1\u009c\u00e1": 7039, "9|": 7040, "\u00c0\u00b8": 7041, "\u00a2\u008c": 7042, "6\u00e4\u00b5": 7043, "\u00f7\u00a7": 7044, "\u00e4\u00dd\u00f4\u00b4": 7045, "\u0097\u009e\u00fe": 7046, "A\u00c8": 7047, "Y\u00ce\u001a": 7048, "<\u008c": 7049, "\u00bb\u00f9": 7050, "\u0092\u00af\u0083": 7051, "Y\u00e2": 7052, "\u00f7\u00fc": 7053, "\u008a>": 7054, "3\u00cf": 7055, "6\u00e0\u00ec": 7056, "\u00d6$": 7057, "\u00d7\u00f4": 7058, "s\u009c\u0004": 7059, "~\u00b7\u007f": 7060, "t:": 7061, "\u00fb\u00a0": 7062, "\u007fV": 7063, "lF\u00dd": 7064, "om\u00e1": 7065, "\u00ad \u00e8\u00b5": 7066, "\u00cd+": 7067, "\u00f5\u0094": 7068, "\u00e5\u00d6": 7069, "\u00c9\u00bbM": 7070, "+\u00fa": 7071, "w\u00ae\u00b9\u00fc\u000e": 7072, "\u000e\u00ba": 7073, "fJ": 7074, "\b\u00f6": 7075, ":s": 7076, "\u0006\u0011": 7077, "\u00a8\u00d6x": 7078, "\u007f\u008c": 7079, "=\u00c3": 7080, "\u0089\u00ac": 7081, ">\u00e8": 7082, "\u0083\u00ba\u00be\u0086": 7083, "\u000f\"": 7084, "\u0081J": 7085, "\u000f\u00f3": 7086, "d\u008e": 7087, "K\u00e4": 7088, "\u00aca": 7089, "\u00d1&": 7090, "\u00e0\u00ca\u00d6": 7091, "\u00b3\u00d7": 7092, "\u00c5\u000e": 7093, "\u00c7\u00a1": 7094, "\u0095\u00a1M\u00bb": 7095, "\u00d7\u0091\u008e": 7096, "\u00ac\u008c": 7097, "\u00be7i": 7098, "\b\u00f2r": 7099, "P\u00e8": 7100, "^\u00ba": 7101, "\u0090\u008b": 7102, "\u0092\u00f9\u00fc": 7103, "\u0080a": 7104, "1\n\u00fdn": 7105, "G\u00aa'2\u00e1": 7106, "ER1": 7107, "v],": 7108, "\u00abP\u009c": 7109, "\u00f3j\u00b0": 7110, "\u00bd\u00b7\u0085=": 7111, "+\u00f8": 7112, "\u00ca\u00d6)": 7113, "\u0095:\u00a4": 7114, "\u00a2\u00ff": 7115, "\u00bcAOM\u00bb": 7116, "\u00bfK": 7117, "\u00f8\u00ee": 7118, "\u0016/": 7119, "\u0015~": 7120, "\u00ba1V": 7121, "\u00b9\u00eb\u00ec": 7122, "f\u00a2": 7123, "Q\u0088U": 7124, "\u001ba": 7125, "\u00da\u009c": 7126, "A\u0018\u0084\u009c": 7127, "Q\u009d": 7128, "\u00ae\u00b1F": 7129, "\u00f1M": 7130, "\u00ee\u0018": 7131, "\u00ed\u00b9": 7132, "\u00e7\u00fd": 7133, "A\u00c2": 7134, "4\u000f": 7135, "\u0084}": 7136, "%)": 7137, "\u00eb\u00a6": 7138, "\u00bd\u007f": 7139, "2\u00bf\u0019": 7140, "\u0017?": 7141, "\u00c8\u007f\u00a6R": 7142, "\u00db\u00d2": 7143, "\u00e87": 7144, "K\u00a1": 7145, "\u007f\u00ba": 7146, "\u00cd=": 7147, "\u00d3v": 7148, "\u00f9&": 7149, "]\u0015": 7150, "\u00a7}": 7151, "\u001a\u008d": 7152, "x\u007f": 7153, "#Y": 7154, "K\u00fa\u008f": 7155, "\u0081\u007f": 7156, "Ns\u0086\u009bq": 7157, "\u00c8\u007f\u0083\u008e": 7158, "_\u00e7": 7159, "\u00bd/": 7160, "\u00819": 7161, "\u0089\f": 7162, "\u00c2\u0081": 7163, "^IO": 7164, ")\u00c3": 7165, "o\u00f1": 7166, "\u00a7\u00e5": 7167, "\u00cd/\u00f4\u00db": 7168, "\u00c5Y": 7169, "`r": 7170, "\u00d55": 7171, "\u00ea\u00ce": 7172, "<z": 7173, "V\u00b5\u00f1\u00ce": 7174, "\u0005\u0002": 7175, "g8j": 7176, "\u00adk\u00e3": 7177, "\u00a5-": 7178, "s\u00fem": 7179, "+\u0015": 7180, "\u001d\u00c7": 7181, "F!\r": 7182, "\u00e78`": 7183, "\u009b\u00fa": 7184, "\u009a\u008b": 7185, "\u0089?": 7186, "0w": 7187, "@\u00a1\u008dg": 7188, "jF\u00de": 7189, "\u0017\u00b0": 7190, "\u00fb\u00c9": 7191, "j\u0083": 7192, "w\u00cb": 7193, "\b\u00f5\u00fa\u00dd": 7194, "\u001fv": 7195, "{\u00f4": 7196, "\u00b2\u00fe": 7197, "\u0007\u00f8": 7198, "\u0015n": 7199, "%\u00da": 7200, "3d": 7201, ">\u00fb": 7202, "\u0089O": 7203, "\u008cx!'/": 7204, "\u00bf.": 7205, "\u00f0B\u00a8": 7206, "\u00f1So": 7207, "\u009c\u00d6m\u00df": 7208, "\u00fe\u0004": 7209, "\u00c9v": 7210, "\u0085\u001es\u0086": 7211, "\u008e\u009d": 7212, "\u00d6*\u00f3": 7213, "\u00b9|\u008c1\u00ac": 7214, "\u00de\u001f": 7215, "I\u001bz": 7216, "\u00abp": 7217, "\u00c0\u0094": 7218, "\u00ab\u00fc": 7219, "\b\u00c4$\u00e5": 7220, "U\u00ac": 7221, "\u00a6\u00d8": 7222, "x\u00e0": 7223, "\u00bd\u00a5": 7224, "D\u0090": 7225, "\u00b0a": 7226, "\u00b5\u00d6": 7227, "Nf\u00c5u": 7228, "\u00c0\u008d\u00bd": 7229, "{o": 7230, "\u00e8\u00f8": 7231, "}\u00e7": 7232, "\u0004\u00aa\u00c3": 7233, "ev": 7234, ").": 7235, "X\u00bd": 7236, "o\u00bf": 7237, "[\u00b3+\u00e4a": 7238, "\u0094\u00a3": 7239, "\u00d3\u00d0": 7240, "\u00e1\u00af": 7241, "&=": 7242, "\u00c3\u00db": 7243, "$>": 7244, "\u00e6\u00fa": 7245, "\u00c5\u00fe": 7246, "R9": 7247, "M\u00b9,\u00cf\u007f": 7248, "\u00db\u00c3": 7249, ">g": 7250, "g\u00bf\u00da": 7251, "\u00fd\u00d8": 7252, "$}": 7253, "\u00a8?": 7254, "\u00de\u00c7": 7255, "h\u00f2": 7256, "O\u00f8": 7257, "\u009c'": 7258, "2\u00beF\u001b\u00d7": 7259, "\u00a0\u00d4": 7260, "\u00fb\u0091": 7261, "\u00d1\u0018": 7262, "\u0005\u00f3": 7263, "\u0093\u00e8": 7264, "\t\u00cf": 7265, "Z\u009c": 7266, "W\u00a8": 7267, "\u00039\u00c3": 7268, "\u00c5Z\u000b\u00f9": 7269, "\u0084~": 7270, "\u00bc\u00fb": 7271, "\u00c3\u0087": 7272, "\u00cc\u00adn": 7273, "D\u00a1": 7274, "P\u00a7": 7275, "@\u00b9\u00c3": 7276, "\u00de\u00a7": 7277, "\u00c2\u0010": 7278, "&!": 7279, "OG": 7280, "\u00a0x!": 7281, "\u001b\u00d1": 7282, "\u00b4(": 7283, "$T": 7284, "\u00f4~": 7285, "\u00efG": 7286, "?z": 7287, "\u00c3\u00a8": 7288, "\u000bve\u00c3": 7289, "P\u0011s\u0080": 7290, "\u00d7X\u00a3\u000f\u00f1\u00efK\u00f3\u00a9\u00e6V\u00b7=y\u001d{{\u00ef|\u0010\u0093\u00af$\u00a6\u00f1)I\u008f\u001a\u00f8l\u0018": 7291, "\u00eb\u0094\u00d6\u00b4": 7292, ":7": 7293, "\u0016\u00ac\u00a3\u0012S": 7294, "\u00a8/\u00f9K": 7295, "\u0005\u00ff)": 7296, "*\u0011": 7297, "\u00e1k": 7298, "\u00aa\u00c8": 7299, "\u009f?\u00c1": 7300, "\u0095\u00fa": 7301, "\u00e78j": 7302, "\u00eb\u0086": 7303, "\u00b7\u0081": 7304, "\u00dfC": 7305, "oi": 7306, "\u001e\u009bq": 7307, "\u00db\u008f": 7308, "\u00bf\u00f3\u00ce": 7309, "\u00ff\u00e8": 7310, "\u0083\u009c": 7311, "\u00ab\u00f7": 7312, "\u008eWM\u00bb": 7313, "W\u00ef": 7314, "T\u00ff": 7315, "Uj": 7316, "*\u00fa": 7317, "*n": 7318, "a\u00b3": 7319, "\u000e\u008b": 7320, "\u00ea\u00fe": 7321, "+\u0084": 7322, "\u00a72Sl": 7323, "\u00a1\u009c\u00e1": 7324, "b0": 7325, "T\u00cb": 7326, "%w": 7327, "\rg\u0086": 7328, "gM\u00db\u00d7q": 7329, "\u00f0.": 7330, "\u00c9s\u00fc": 7331, "\u00af\u00ae": 7332, "\f\u00a7\u00a6\u00dd": 7333, "w\u0088)": 7334, "\u008b\u00fd\u00be": 7335, "R\u00ba": 7336, "w\u0091": 7337, "\u0088\u00e1": 7338, "\nm\u00d9": 7339, "\u008b\u00e1": 7340, "\u0014\u00b1": 7341, "!\u00c8": 7342, "\u00eb\u00ea": 7343, "w\u0099": 7344, "e\u00ce": 7345, "\u00cf\u0016] ": 7346, "\u00a9\u00bc": 7347, "i\u00b7\u0017": 7348, "\u00c8?\u00e7": 7349, "\u000f.": 7350, "_\u0000": 7351, "z\u00ee<": 7352, "\u00a5t\u00db\u00b5": 7353, "\u00af\u00ad": 7354, "\u00a5Tf": 7355, "\u00af\u00fe": 7356, "\t\u00b3": 7357, "\u00f7p": 7358, "\u0083\u00c4": 7359, "*\u00c8": 7360, "\u008b\u00a5": 7361, "J\u00ae": 7362, "m\u00f5": 7363, "\u000e\u00f8)": 7364, "t3%6": 7365, "\u00f9\u0007": 7366, "\u0099_\u00c6": 7367, "\u000f\u00f1": 7368, "k\u009e1": 7369, "Jl": 7370, "\u00d0\u00ef": 7371, "n.": 7372, "Y\u00e2\u00d6": 7373, "\u00f6\u00ef": 7374, "O\u00f6": 7375, "j\u00ca": 7376, "\u00f1\u00a6": 7377, "u\u00cb": 7378, "\u0013Z": 7379, "\u00d7\u00f3": 7380, "e\u00f1\u00bb": 7381, "8\u00d7": 7382, "j\u00de": 7383, "\u00b1M": 7384, "\u00b9\u007f": 7385, "\u00aaF": 7386, "}\u007f": 7387, "\u007f\u00f0": 7388, "[\u00b7": 7389, "\u00e4\u008d\u00bc": 7390, "1\u00f2n\u00fe": 7391, "\u00b97": 7392, "H\u008d\u00bc": 7393, "\u008d\u00eb": 7394, "\u00d5:": 7395, "\u0010S": 7396, "\u00c1?so": 7397, "\u00f2Jy": 7398, "\ns6": 7399, "Ns\u0086\u00b7": 7400, "3n=": 7401, "\u0007\u0087": 7402, "\u00d4\u008a": 7403, "TU": 7404, "\u00a9/": 7405, "\u00dc\u00ff\u009b": 7406, "\u00aeW": 7407, "m\u00df\u00ec\u00cb\u0086": 7408, "\u009bw\u00f8": 7409, "\u00f6\u00ea": 7410, "\u00d8\u008d\u00bc": 7411, "M\u009et\u00db": 7412, "\u00af\u00bb": 7413, "\u00cep\u00cd": 7414, "\u00a7\u00d9": 7415, "\u001f\u00f2": 7416, "\u00c4$": 7417, "w\u00b0": 7418, "=\r+": 7419, "\u0007\u0086": 7420, "C;": 7421, "z\u00ca": 7422, "\u0082\u00ff": 7423, "\u00b2n": 7424, "\u00ef\u0097": 7425, "\u00c0Gw": 7426, "\r\u000e": 7427, "\u00dc^": 7428, "2\u00beF\u001a": 7429, "\\\u00e8": 7430, "\u00b17": 7431, "/\u001a": 7432, "\u0081]": 7433, "\u001d\u00fe": 7434, "\u00c6\u00bf": 7435, "!_": 7436, "i\u00ae\u00ba": 7437, "\u00bc\r": 7438, "\u000eT#": 7439, "'\u00c0": 7440, "W\u0087": 7441, "\b.": 7442, "3b\u00ba\u00d9": 7443, "x\u00d3": 7444, "\u00bc\u0092": 7445, "e=6\u00ec": 7446, "\u00e9\u00f7": 7447, "\u00f4\u00db\u0089\u0005": 7448, "\u00b2\u008c": 7449, "\u00bc\u00ff": 7450, "\u00f22": 7451, "\u00e9\u00b7c": 7452, "\u00d6x\u00b5": 7453, "g\u00d7": 7454, "\u00a6\u00e8": 7455, "\u001b\u00db": 7456, "\u00af\u008ei": 7457, "\u001d\u00f4\u00c5w": 7458, "t1\u001e": 7459, "\u0082.p": 7460, "\u00d1\u001b": 7461, "\u00eb\u00e5": 7462, "F4": 7463, "AY=": 7464, "G\u00aa0": 7465, "\u00eeM\u00df": 7466, "\u00b5=\u00fd": 7467, "\u00ee\u0086": 7468, "\u0081\u00ca\u001a": 7469, "\u00f26\u00f3": 7470, "\u00eb\u00e1": 7471, "G\u00af\u00fe": 7472, "\u00f8\u0012": 7473, "J\u00ef": 7474, "(\u00c7\u0082\u0012r": 7475, "\u00bc<\u0010\u0093": 7476, "\u00dc\u0001": 7477, "J\u008a": 7478, "\u00ebw\u00f3": 7479, "L\u00b8": 7480, "\u00b5j": 7481, "\u00a9\u0018": 7482, "\u00aex\u00c7": 7483, "\u00af\u00c8": 7484, "\u0004*": 7485, "\u00ee8": 7486, "\u00c9\u00d5": 7487, "\u0013\u00d0": 7488, "\u00ffz": 7489, "\u00d5-": 7490, "\u007f\u00a4": 7491, "\u00db\u00c4": 7492, "\u0087?": 7493, "o+": 7494, "\u0086\u007f\u00f6": 7495, "\u0014\b": 7496, "\u007f\u00bb": 7497, "v\u009a": 7498, "\u0085\u0012": 7499, "\u0097\u008e": 7500, "\u00bd9": 7501, "\u00bbS": 7502, "o\u00be": 7503, "\u0012\u001a": 7504, "\u00b1\u00eb": 7505, "\u00be\u00fd": 7506, "\u00c56\u00ed": 7507, "a\u00d7": 7508, "U\u00f3": 7509, ";\u00e9": 7510, "o=": 7511, "\u00d0(cY": 7512, "Q#": 7513, "\u00c1e": 7514, "\u00ac\u009b\u00b4": 7515, "\u0097(": 7516, "W\u0085": 7517, "D;": 7518, "'V": 7519, "\u00b3+\u00e4a": 7520, "\u00f1\u00f1": 7521, "E\u00d9": 7522, "\u0088\u00f7": 7523, "\u00ef\u00a8": 7524, "n\u00a4": 7525, "=\u00d2": 7526, "\u00df(": 7527, "\u00f4>": 7528, "\u0085=": 7529, "\u00d9O": 7530, "-\u00d8": 7531, "Z\u0014": 7532, "\u007f\u00d6": 7533, "\u00a2\u00ec": 7534, "\u0002\u0081\u00d5'": 7535, "\u00c9S": 7536, "\u001a\u0007\u0082\u0015": 7537, "\u00b2u": 7538, "*z": 7539, "\u00f4r": 7540, "x\u00fd": 7541, "\u00a8\u0087": 7542, "hh": 7543, "\u00f7\u00be": 7544, "P\u00d1": 7545, "H\u0083": 7546, "\u00c7\u00c7": 7547, "\u001dE": 7548, "\u00a1O": 7549, "\u0082\u00dd\u0099p": 7550, "\"\u00a9": 7551, "@\u0017\u00cc": 7552, "\u00d9\u00b7\u00d1": 7553, "U_s\u00bb": 7554, "8{": 7555, "\u0007\u00fc\u0005\u000e9": 7556, "\u00ee\u008d": 7557, "a\u00c8": 7558, "\u00df\u00eb\u0086)": 7559, "\u009e\u00fb": 7560, "\u009e\u00fa": 7561, "{\u00f8": 7562, "\u00a9\u007f": 7563, "\u00d1T\u00dd": 7564, "\u0095\u00ce": 7565, "\f\u00ff\u00ec": 7566, "\u00d6_": 7567, ":WM\u00bb": 7568, "[\u008c": 7569, "\u0085_": 7570, "\u00e8\u00b9": 7571, "\u00d1$\u00dd": 7572, "\u009e\u00ee": 7573, "4\u00e0": 7574, "gj": 7575, "\u0015\u00fd": 7576, "\u00be\u00ec": 7577, "\u00de\u00dd": 7578, "\u00b7\u008c": 7579, "\u00e3\u0081": 7580, "\u00ba\u00cf": 7581, "[\u00cc\u00f7": 7582, ")\u00d3n": 7583, "s\u0085": 7584, "Z\u00dc": 7585, "\u00aaE": 7586, "\u00ac\u00bf": 7587, "\u00f5\u00cb": 7588, "\u00c4\u008d\u00bc": 7589, "\u00f2n\u00fe": 7590, "\u00b8\u00bf": 7591, "y]": 7592, "\u00bf\u00dc": 7593, "\u00c3\u00bf": 7594, "M\u00882": 7595, "\u0087\u00dc": 7596, "\u00b6\u00f1\u00ff": 7597, "\u0088\u00f4\u00db\u00b4": 7598, "\u00d5\u00af\u00fbM\u009c": 7599, "\f\u00ee": 7600, "\u0082\u00e7": 7601, "\u00fd\u00d6": 7602, "\u0093p": 7603, "m\u00c1": 7604, "]\u00df": 7605, "\u00bdt\u00b3\u00dcz": 7606, "6\u009d": 7607, "\u00b3\u00c6:": 7608, "\u00d5\u009d": 7609, "G+": 7610, "\u00f9u": 7611, "\u00b4\u00db\u0084": 7612, "\u0017\u00c3": 7613, "\u0017\u00c9": 7614, "4\u00bf\u00ed": 7615, "\u0084z": 7616, "\u0087\u00f88": 7617, "\u0089\u0005": 7618, ")\u00cep\u00d3n": 7619, "1\u00ab": 7620, "/\u00fa": 7621, ",J": 7622, "z\u00e0": 7623, "i\u00d3n": 7624, "\u00a6\u00e0": 7625, "\u00ce\u0018\u0017": 7626, "\u009c\u000b": 7627, "\u001e ": 7628, "\u009b\u00ffq": 7629, "\u00a0\u00ff\u0019": 7630, "\u0001\u009c\u00e1": 7631, "\u009c\u00be": 7632, "\u00be\u00e4": 7633, "\u00fb\u00f9": 7634, ";.\u0096": 7635, "w\u00d3": 7636, "\u00e4\u00c4": 7637, "\u00eb\u0096": 7638, "\u00f5\"": 7639, "\u0082Ua": 7640, "5f": 7641, "\t\u00fb": 7642, "\\0": 7643, "\u00126\u00f3": 7644, "\u00f1\u0004": 7645, "?\u00c6": 7646, "kv\u00b3\u00c3": 7647, "h\u0094\u00cc{": 7648, "\u0085n": 7649, "@\u00f0BN": 7650, "\u009b\u00c7": 7651, "\u00cd\u0096": 7652, "eC": 7653, "7}-": 7654, "%1": 7655, "\u00ad\u00da\u00cf\f": 7656, "U\r": 7657, "\u0094b\u0015": 7658, "\u0082\u009c\u00e7\f": 7659, "T\n": 7660, "?\u00fe": 7661, "\u00e9\u00b7\u0007": 7662, ".\u0018": 7663, "\u008ci": 7664, "\u00b1 ": 7665, "\u00e7\u0004": 7666, "\u0091\u00ea\u00bb\u00c9": 7667, "\u0017K": 7668, "O\u0080": 7669, "\u0091\u0088": 7670, "V ": 7671, "gA": 7672, "\u00f0K": 7673, "\u00a6\u00dct": 7674, "\u0014\n": 7675, "\u0015\u009e": 7676, ";\u00d7\\\u00fe\u0007": 7677, "T\u0010": 7678, "\u00cf\u0001": 7679, ".\u00e3": 7680, "\u00acG": 7681, "\u00f7\u00ba": 7682, "\u00d7-|": 7683, "\u0095\u0015": 7684, "\u0014\u00ef^N": 7685, "9\u00e3": 7686, "\u0088v": 7687, "(\u0010": 7688, "\u00b7\u00d8": 7689, ";\u00b9": 7690, "G\u00aa\u000f": 7691, "I]": 7692, "\u0015\u0093": 7693, "Hgg": 7694, "\u009f|": 7695, "\u0095\u00ff": 7696, "g\u00b3": 7697, "7\u0017": 7698, "\u00bf\u00c6": 7699, "\u00d1s": 7700, "\u00e9\u00c9": 7701, "U\u0094": 7702, "\u001b\u00cf\u009fx": 7703, "\u00e6<": 7704, "\u0097\u009e": 7705, "\u00de\u001c;\u00fa": 7706, "S\u00da": 7707, "\u009f\u00d2\u00f99": 7708, "fJm\u00a6\u00dd": 7709, ")\u00e3": 7710, "\u00b9\u00ee\u00b6": 7711, "\r\u00c6": 7712, "\u0011\u0088I\u00ca": 7713, "\u00c7\u0082\u0012r": 7714, "Nt": 7715, "\u0094c\u00c1\t9": 7716, "\u00ac\u00e9\u0088\u00db": 7717, "M\u009euF": 7718, "P&": 7719, "\u00a8\u00cc\u00b8": 7720, "\u00ef\\\u00d2\u00ff": 7721, "\u00f0;": 7722, "WM\u00bb": 7723, "{\u00e6": 7724, "\u00a9\u00ef": 7725, "\u00ebv\u00b3\u00c3": 7726, "4\u00db\u00ab": 7727, "$\u00a7\u0095\u00ad": 7728, "e~": 7729, "\u00a73e": 7730, "\u00d7\u00dc": 7731, ">\u00f5": 7732, "wu": 7733, "D\u00ae": 7734, "\u0081|8": 7735, "\u0010\u00fb": 7736, "\u00e1\u00bf": 7737, "9\u0012": 7738, "\u00aeZ\u00f8": 7739, "%\u00cf\u00f0": 7740, "\u00fa)": 7741, "R\\": 7742, "\u000f\u00f4": 7743, "\u00de\u008a": 7744, "\u00f5i": 7745, "g\u0080": 7746, "~\u00f0": 7747, "w!": 7748, "\u0019\u0097\f": 7749, "\u001c\u00f1": 7750, "\u009e\u00ffC": 7751, "& ": 7752, "G\u00804\u00d9\u00cf": 7753, "\u009a1": 7754, "=|": 7755, "\u00c4\u00c5": 7756, "\u0086V\u00b4\u00db": 7757, "\u008a:": 7758, "\u00f7\u008e": 7759, "-}%_\u0006": 7760, "\u00b9\u00d0": 7761, "\u001c\u00ff": 7762, "\u001b\u00c0": 7763, "\u00d3o\u00af\u008d\u00db": 7764, "\u008cSn": 7765, "\u00a9\u00d4": 7766, "\u009e\u0088": 7767, "] ": 7768, "q/\u0081": 7769, "\u00ca\u00d6\u00b7\u007f": 7770, "_\u00e1": 7771, "\u00bcw": 7772, "#\u00c9\u00ca": 7773, "\u00ab,": 7774, "\u0087|\u0014": 7775, "\u00aap": 7776, "\u00ee\u00a7": 7777, "T5": 7778, "\nx": 7779, "\u0006\u0015": 7780, "\u00a1\u00c8": 7781, "\u00fa\u00bc": 7782, "\u00b9k\u00ed": 7783, "t\u0092\u009e": 7784, "x\u001b": 7785, "<\u0019": 7786, "T7": 7787, "\u00b4y": 7788, "\u00899": 7789, "\u00e1\u00d7": 7790, "\u009e\u0089": 7791, "W\u00a3": 7792, "\u0014}": 7793, "\u001f\u00a2": 7794, "\"\u00fb": 7795, "p\u0019\u00d0": 7796, "h\u0014\u000e\u00a9": 7797, "K\u009f\u00e1\u009a\u00ea\u00de=\u00af#\u00afo}\u00ef\u0082\u0015\u00f9e\u00e3\u009a\u00ef\u00c9D\u00a5-\u00f7\u009e": 7798, "\u00df\u0004+": 7799, "\u00c7\u008dO": 7800, "A\u00e5B=@p": 7801, "\u009d\u00bf\u0095\u00deF|\u00ff": 7802, "\u00a7\u00a3\u00c8YO": 7803, ">\u00ce": 7804, "\u009a_\u00f0Ns\u0086eV\u0011s\u0085\u001e": 7805, "\u00af#\u00afo}\u00ef\u0082\u0015\\_\u009bo\u00bc\u00f3\u001e": 7806, "\u00a5\u00f6": 7807, "2\u00ff:\u00a4": 7808, "\u00eb\u00f7\u0000": 7809, "wG": 7810, "{]": 7811, "V@": 7812, "\u00f7t": 7813, "}+": 7814, "W\u00cf": 7815, "\u009e\u00bf": 7816, "v\u007f": 7817, "\u00ddm": 7818, "\u00dd\u00f4": 7819, "\u0094y": 7820, "u_": 7821, "\u00f5H": 7822, "_\u0002": 7823, "*\u00de": 7824, "\u00eeM\u00c7": 7825, "\u00c4\u00f1": 7826, "o\f": 7827, "\u00a5Y\u007f\u00c0": 7828, "\u00eb/": 7829, "\u00af\u00cf": 7830, "\u00a3\u0010\u0093\u0095": 7831, "e\u00e3": 7832, "\u008aD": 7833, "\u00e3\u0098\u00a5": 7834, "\u00eaD": 7835, "\u00e9O": 7836, "\u00a3\u001a": 7837, "\u000b<c": 7838, "\u00a6X": 7839, "\u00fd\u00e1": 7840, "7\u001c": 7841, "m\u00b0": 7842, "O\u0090": 7843, "\u00acM\u00db": 7844, "o\u00fd\u00c7": 7845, "\u00a2C;>": 7846, "\u00eb\u0018": 7847, "{w": 7848, "\u00d7\u00f5": 7849, "_~": 7850, "\f\u00fa": 7851, "\u0094\u00f9": 7852, "P\u00d6": 7853, "\u00af\u000b": 7854, "8\u00e7": 7855, "\u00d1]": 7856, "\u00b4\u00db\u00b2": 7857, "\u00ff\u00b2": 7858, "\u00ec\u00bf": 7859, "\u0007>": 7860, "\u00f2M\u00df": 7861, "V\u0090": 7862, "\u001b\u00d7\u0093": 7863, "\u00f3\u00c6": 7864, "L\u0091\u00b7": 7865, "\u009bq\u00d3": 7866, "{_": 7867, "\u000f\u00f2": 7868, "\u0002\u00e0": 7869, "\u0004\u00dd": 7870, "M\u00880": 7871, "\u00a9\u00bb\u00f9": 7872, "!'": 7873, "$\u00a3\u001c": 7874, "\u0017\u00ff": 7875, "W\u00c8": 7876, "\u00de\u009e\u00e1": 7877, "\u00d7\u00ef": 7878, "\u00e8j": 7879, "\u007f\u00fc": 7880, "\u0080p": 7881, "+\u00cd": 7882, "hp": 7883, "\u00ac\u00b5\u00f6": 7884, "\u000b\u00e7": 7885, "k\u00bc": 7886, "\u00af\u00c0\u009d": 7887, "\u00d7\u00d3": 7888, "tT\u00db": 7889, "?\u00e4": 7890, ";\u00e1": 7891, "\u00ddw": 7892, "F)\u00b7": 7893, "\u009a/\u0084": 7894, "\u00bf\u00ab": 7895, "Wy:": 7896, "\u0004\u00aa": 7897, "K\u00e6": 7898, "\u00f9\u00e6": 7899, "\u00ea\u0099": 7900, "O\u00d2": 7901, "<\u00ba\u00d9": 7902, "+s": 7903, "F\u008d": 7904, "4\u00e9": 7905, "\u00cc\u00f7\u00f8": 7906, "\u00d2\u00aa3": 7907, "\u001a\u00f8\u00dd": 7908, "\u00a0M": 7909, "oK": 7910, "\u00eb\u0095": 7911, "g\u00fd": 7912, "*\u00dc": 7913, "Y\u00b7~": 7914, "\u00bdx": 7915, "qNe\u00c3": 7916, "\u0088\u00da": 7917, "ETf": 7918, "ET": 7919, "\u0005j": 7920, "\u00d6xg": 7921, "\u00d3\u00d1\u008e": 7922, "#\u00d5\u001a": 7923, "\u00ae_#\r": 7924, "\u00fd\u001e": 7925, "\b\u00f5]\u00e4": 7926, "b\u00e6": 7927, "[\u0099": 7928, "k\u0096": 7929, "x\u001e": 7930, "\u00cc\u00f1": 7931, "`\u00e7": 7932, "m\u00c8": 7933, "\u00c3q": 7934, "\u009em\u00df": 7935, "\u00d7\u00e1": 7936, "\u009e\u0086\u0095": 7937, "*\u001d": 7938, "\u00af\u00a0": 7939, "\u00f8%": 7940, "tT": 7941, "\u0005\u00d0": 7942, "\u0095\"": 7943, "s\u00fd\u00b5": 7944, "\u00ac\u00a3": 7945, "\u00fb\u00e1": 7946, "\u00d7\u00f2": 7947, "sY\u00b7\u007f": 7948, "\u00d5i": 7949, "`\u00b2": 7950, "\u00e9_\u00f0": 7951, "&\u00be\u00b5": 7952, "\u00a3\u00ce\u009b": 7953, "\u00ed\u00e2": 7954, "\u0002\u00ff": 7955, "\u00cc\u00aa": 7956, "\u009brY\u009e\u00ff": 7957, "\u009b<\u00d3": 7958, "\u0007\u00af": 7959, "\u00b4\u00b2": 7960, "\u00f0\u00e8": 7961, "\u00d5\u0094": 7962, "\u0097\u009e\u00fd": 7963, "\u00daWM\u00bb": 7964, "\u000eG": 7965, "\u00ef\u0002": 7966, "\u00eb+": 7967, ")\u0015": 7968, "\u0019\u00b7": 7969, ",z": 7970, "\u008f\u007f": 7971, "6#n": 7972, "\u00fc\u00e0": 7973, "\u00f3\u001e": 7974, "\u00d1\u008f\u0004$\u00e5": 7975, "\u0092_0": 7976, "\u0091\u00e6\u00b7": 7977, "\u00e9\u00f9": 7978, "\u0005;": 7979, "4]": 7980, "i\u0015": 7981, "x\u00b2\u00e9\u0006": 7982, "p.": 7983, "\u0095\u00fe": 7984, "c\u00c1\n": 7985, "\u00b5i": 7986, "\u00a6\u00dd\u0082": 7987, "d}": 7988, "YO": 7989, "w\u0087": 7990, "M\u00ba": 7991, "\b\u00c7\u0082\u0012r": 7992, "k\u00fc": 7993, "3\u00a1": 7994, "\r\u00ed": 7995, "\u00af\u00d6": 7996, "\u00dd\u00f1": 7997, "\u00a8S": 7998, "\u00f5\u00d2": 7999, "OY": 8000, "\bu": 8001, "\u00a7\u00e4": 8002, "\u000e\u00fab\u00bb": 8003, "\u00c00": 8004, "\u001a=": 8005, "\u00b3\u0080": 8006, "g\u0082": 8007, "\u00f6\n": 8008, "{o\n{": 8009, "\u00f9\u00b6": 8010, "\u00df\u00ff": 8011, "N\u00ee": 8012, "\u0086\u00f5": 8013, "\u001f}": 8014, "'\u008f": 8015, "\u009c\u00cf": 8016, "\u008d\u00b4": 8017, "+B\u009bv": 8018, "\u00e4\u0094\u00f2\u00b5": 8019, "\u00821": 8020, "\r^": 8021, "~\u001b": 8022, "K=\u00c7": 8023, "s\u009f": 8024, "\u00ea\u00b4": 8025, "\n\u00fa": 8026, "\u00afu": 8027, "\u00ec5": 8028, "\u00cd\u0092n": 8029, "~W": 8030, "\u00bb\u00a9": 8031, "\u001e\u0095": 8032, "\u001e\u00de": 8033, "}\u00c8": 8034, "M\u00d1": 8035, "=\u00f4": 8036, "o\u001d": 8037, "\u00d9\u0097\r": 8038, "\u00e8k\u0010": 8039, "w\u00dd": 8040, "\u00b1\u00ef": 8041, "\u00cf\u00f5\u00f0\u00e1": 8042, "S\u0090": 8043, "\u0088\u00e7\u00be": 8044, "O<": 8045, "\u0095h": 8046, "\u00a79\u00c3M\u00b8": 8047, "\u00b7\u00b0": 8048, "\u00e8\u00f6": 8049, "\u0016\u00bc": 8050, "\u00f6\u009d": 8051, "\u00f5\u00dcz": 8052, "V\u00a9": 8053, "\u00fa\u001d": 8054, "h\u0093v": 8055, "\u00e5=6\u00ed": 8056, "t\u000b": 8057, "\u00aa\u0002.p": 8058, "\u00f8$": 8059, "\u000f\u0010": 8060, "U}\u00ce\u00ee": 8061, "\u00e8\u00f4": 8062, "\u00f4\u00e4": 8063, "\u00c9\u00e8": 8064, "\u00ee\u00d4": 8065, "hQ": 8066, ",^": 8067, "{B": 8068, "\u00fa}": 8069, "1\u000f": 8070, "\u00efX": 8071, "D\u00bd": 8072, "\u0089\u008a": 8073, "?\u00ef": 8074, "\u0098\u0087": 8075, "\u0084r": 8076, "\u00a1\u00f7\u00f7": 8077, "J\u00ebw": 8078, "\u00d2!": 8079, "\u000f\u00ac<\u00ba": 8080, "\u00d7\u0094": 8081, "\u0087^\u00d1Q": 8082, "\u00c1\b{\u007f \u00bf\u0090c\u00d5": 8083, ":\u00f2:\u00f6": 8084, "\u00d8\u00f8}": 8085, "\u0010\u00d5": 8086, "P\u007f\u00c0P\u00e3": 8087, "\u00d8\u0095": 8088, "\u001d\u0002": 8089, ":\u0006": 8090, "\u009e<": 8091, "r9": 8092, "k\u00f3": 8093, "\u00e8\u0011": 8094, "k\u00c7": 8095, "F\u00dd\u001e": 8096, "U\u008d": 8097, "\u008e\u00af": 8098, "[\u00c4": 8099, "\u00baA": 8100, "\u00ce\u001d": 8101, "xm": 8102, "\u00c1g\u008c": 8103, "\u0005\u009e1": 8104, "\u0085;": 8105, "?\u00e6": 8106, "\u00b2n\u00d3": 8107, "\u0098\u00f6": 8108, "\u00cf\u0019": 8109, "\u00ae\u00e9": 8110, "\u00b36x\u00f6": 8111, "M\u009eu\u00bb": 8112, "\u00a8i": 8113, "\u00de\u00db\u00c7": 8114, "\u0097\u00f0": 8115, "\u00fd~": 8116, "k\u0096\u00b4": 8117, "\u00de\u00c5l": 8118, "+Zm\u00d5": 8119, "\u00e0\u0084\u009c": 8120, "\u008am\u00df": 8121, ":-": 8122, "\u001d\u001e": 8123, "\u00bd\u00bb": 8124, "\u00ad\u00e0": 8125, "\u00b0\u00df": 8126, "\u0001\u001bz": 8127, "\u00bc\u0092n": 8128, "\u00f8u": 8129, "\u00f4\u00b1": 8130, "\u00cc\u0094\u00d9|": 8131, "\u00a3\u0010\u0093": 8132, "\u00d7\u00d2": 8133, "T\u00dc": 8134, "\u00f2\u0010\u00e3": 8135, "s\u00fd": 8136, "\u00c8*": 8137, "\u00f2\u00e0": 8138, "f=": 8139, "{\u00ac": 8140, "\u00eb\u009a_\u00f6": 8141, "\u00a9\u0013": 8142, "\u00cax": 8143, "6K": 8144, "\u0004z\u00ae\u00f2": 8145, "=+": 8146, "\u00ac\u00e7\f": 8147, "\u00f9t": 8148, "\u00a7\u0010": 8149, "\u00a0Y": 8150, "\u00aa\u00aa": 8151, "(\u00f7\u00af'": 8152, "\u00c3\u00a1": 8153, "\u00f1\u00ae": 8154, "\u00b4\u00b3": 8155, "h\u00d5": 8156, "\u00d4b": 8157, "3b": 8158, "p\u00c1": 8159, "\u00e9\u00b3": 8160, "\u008b\u00c9)": 8161, "\u00df\u00d4{": 8162, "\u00d5\u00fc": 8163, "m\u00fe\u00ed": 8164, "`\u00f2\u00eb": 8165, "2\u00beF\u0019": 8166, "G\u00b9": 8167, "\u00fa\u001aW": 8168, "\u00ad\u00d1\u0086": 8169, "\u00b1\u00ed": 8170, "\u009a{": 8171, "\u00ce\u00db\u0091\u0084": 8172, "P\u00ef": 8173, "\u0018\u00d7": 8174, "\u0089\u00cc\u00b8": 8175, "\u0004c\u00c1\t9": 8176, "\u00d2\u00ba\u000b": 8177, "4\u00bf\u00cf": 8178, "\u001c\u00f0": 8179, "\u00d1j": 8180, "\u009e\u0080": 8181, "m\u00d8\u001e\u00be": 8182, "\u0083\u0084": 8183, "8bk": 8184, "|\u0000": 8185, "S\u00aaN": 8186, "G\u00a7": 8187, "\u00c1\u00dd_C": 8188, "'y": 8189, "i\u00b3\u00cd": 8190, "5\u0091": 8191, "[\u00a1": 8192, "x\u00c6": 8193, "?\u00a8\u00f6": 8194, "\u00ea\u00f6": 8195, "\u007f\u00fd": 8196, "g\u0084": 8197, "P_": 8198, ")\u00ec": 8199, "\u00a9\u00b8": 8200, "E\u00e0": 8201, "8;": 8202, "i\u00b7W": 8203, "\u0015\u00f4": 8204, "\u00ae\u00b3\u009b}": 8205, "y\u00e7": 8206, "\u0002n\u00d3": 8207, "\u00edP": 8208, "\u0092\u00b9\u00e3": 8209, "\f\u00fe\u0097\u00c9": 8210, "\u00e6Jm\u00a6\u00dd": 8211, "\u000f\u00ab": 8212, "!\u0095\u00ad": 8213, "\u00f4\u00d8": 8214, "\u0083\u0091": 8215, "\u00f5\u0017\u00b8f": 8216, "\u00af\u008d\u00da": 8217, "\u0095\u00fd": 8218, "\u0010Y": 8219, "\u0086\u00bf": 8220, "\u0014\u00a5": 8221, "\u00f6\u00depI)": 8222, "\u00a7\u00b8": 8223, "C\u00cf": 8224, "T\t": 8225, "#\u00c1": 8226, "IF:": 8227, "\n<\u00e7\f": 8228, "\u00af\u0097\u001c": 8229, "gm\u00c8": 8230, "r\u009b": 8231, "F\u00dcR": 8232, "\u0086v": 8233, "\u00d6\u00e0": 8234, "O\u009f>\u0086": 8235, "\u00c0\u00be\u001c": 8236, "=\u0012": 8237, "G\u00acA": 8238, "\u00c5[": 8239, "Gw": 8240, "\u00de\u00d2": 8241, "\u0005\u0097\u00f3": 8242, "\b\u00c4+": 8243, "<\u00ba": 8244, "\u00e3\u001d6\u00ed": 8245, "\u00b9\u00cd": 8246, "\u00e9*": 8247, "(\u00f3\u009c": 8248, "\u0000\u00e8": 8249, "g9": 8250, "\u009c\u00e7\r6\u00e3": 8251, "\u0092\u00f8m": 8252, "\u0086p": 8253, "\u0090R9": 8254, "\u009f\u00e8": 8255, "\u00ba<\u00ff": 8256, "E\u00ff": 8257, "\u0081C\u001a\u00ce": 8258, "\u00dcx": 8259, "\u00cdE": 8260, "\u00a8+": 8261, "\u00cd\u008a": 8262, "$c": 8263, "\u00ab\u00f0": 8264, "\u00e9Y": 8265, "S\u008aZ": 8266, "<\u00f9": 8267, "zx": 8268, "\u00b4:": 8269, "un": 8270, "\u00c0\u00e5\r": 8271, "\u0087j": 8272, "4b\u0015": 8273, "h\u00f3\u009c": 8274, "\u0013\u009e": 8275, "\u00d3b1": 8276, "\u0092S\u00a7": 8277, "\u0086\u00ff": 8278, "\u00b3\u009c0": 8279, "\u00bd\u00c3": 8280, "\u0090\u00fa\u00a6": 8281, "]\u0015\u000e": 8282, "7\u00ae\u00e3": 8283, "\u00ac\u00a2": 8284, "\u00a4\u00a3\u001d": 8285, "\u0095\u00de": 8286, "\u008cB\u00a8": 8287, "\u00a4H": 8288, "\u00ad\u00ca": 8289, "Ty": 8290, "nM\u00dfK": 8291, "\u00ae\u008a\u0087": 8292, "\u00e4x": 8293, "\u00de\u00ba\u00c4p": 8294, "EM\u00bc": 8295, "\u0014\u00db\u00b0": 8296, "\u00ad\u00df\u000e\u008b": 8297, "D\u009b": 8298, "\u00dbr0": 8299, "\u00b3\u009c7": 8300, "\u0013X": 8301, "&l": 8302, "z\u00b4": 8303, "\u0089V": 8304, "\u00eb\u00a5\u009e\u00e3": 8305, "\u0090X": 8306, "\u0004+": 8307, "4A": 8308, "\u00abU": 8309, "5\u00cf": 8310, "<\u001a": 8311, "\b-": 8312, "$\u00c5": 8313, "\u00d5\u00aa": 8314, "\u00e6\u00d7": 8315, "\u0015Q": 8316, "\u00e9|": 8317, "\u0090\u00d3\u00d0": 8318, "\u00a99": 8319, "\u009c\u00e7\r6\u00ec": 8320, "{E": 8321, "\u00b7\u00de": 8322, "[\u00c6": 8323, "\u0080ek": 8324, "\u00bf\u00af\u0087": 8325, "\u0087]": 8326, "!\u00a7\u00a1": 8327, "gM\u00d8": 8328, "\u00e9e": 8329, ":\u00e9": 8330, "\u00abB": 8331, "\u00f7o": 8332, "T\u00e1": 8333, "\u00d1\\": 8334, "\u0097\u00fe": 8335, "U!": 8336, "c\u00de": 8337, "\u0090\u00d2": 8338, "=t": 8339, "\u00d0\u00e4": 8340, "LI": 8341, "^z": 8342, "U\u0096": 8343, "\u0099_#\r\u00eb": 8344, "\u00cf\u0010": 8345, "\u00c8|": 8346, "\u00cd\u00f1": 8347, "C\u00fe": 8348, "\u0095\u00d6": 8349, "D\u0086": 8350, "\u00f5\u00d1.": 8351, "\u0095\u00dc": 8352, "\u0014\u00fb": 8353, "\u009e\u008b": 8354, "\u00f4;": 8355, "5\u00bb\u00f9": 8356, "\u00f5x": 8357, "\u00d1G": 8358, "\u009e\u00c4": 8359, "\u00bd\u008b": 8360, "r\u00f9\u0018\u001dR": 8361, "q\u00c8": 8362, "\u00ba\u00e55\u00ac\u00ae": 8363, "\u00b5#oJ": 8364, "\u001c>": 8365, "\u00a2\"": 8366, "\u00a2E": 8367, "D\u008b": 8368, "\u00f4u": 8369, "\u0014r": 8370, "P\u00de": 8371, "?C": 8372, ":\u00f7": 8373, "ru": 8374, "\u00fa\u00a7": 8375, "\u00f6\u00ba\u00b5\u00bb\u00ef%v": 8376, "\n\u00fas\u0086\u00f09": 8377, "A\u007f\u00ca": 8378, "\u00c9\u00d1": 8379, "\u001fg": 8380, "\u008f1": 8381, "\u00ba\u00feA\u007f": 8382, "\u00bc\u008e\u00bd\u00a2\u00bd": 8383, "\u00d7\u0085\u00f0\u00ee(": 8384, "`\u00c2.\u0013\u00ad\u00d1\u0086": 8385, "]y": 8386, "\u00ea\u000b\u00feR": 8387, "1\u00e1\u00c8": 8388, "\u00980": 8389, "\u00e2/\u00fe": 8390, "\u00ces\u0086": 8391, "\u00e1\u009f": 8392, "\u00a9\u00f2": 8393, "t\b": 8394, "Lx": 8395, "=U": 8396, "{N": 8397, "\u007f\u0093": 8398, "\u00f1J": 8399, "\u0099\u00e8": 8400, "\\\u00beF\u001a": 8401, "8\u0006": 8402, "\u001a\u00cf\f": 8403, "\u00cb\u00c6": 8404, "\u0016x\u00c7": 8405, "\u0012\u00bf": 8406, "\u00b9D": 8407, "\u00f5\u00c1": 8408, "g8d": 8409, "{\u0005": 8410, "?K": 8411, "\u00c49": 8412, "\u00e4)": 8413, "\u00f3\u00fe": 8414, "t\u00ae\u009bv": 8415, "T\u009e": 8416, "\u00eb\u00a1": 8417, "\u00ab.": 8418, "Ua": 8419, "u\u00ce": 8420, "\u00af\u00adzm\u00da": 8421, "\u00e0S": 8422, "\u00ac\u00db\u00bf": 8423, "i\u00b7\u00d7\u00c6\u00ed": 8424, "\u00efK": 8425, "\u0002\u00f5\u001e": 8426, "\u00e4\u001f": 8427, "-[": 8428, "#\u00c0": 8429, "#\u00d5\u0013": 8430, "W\u00f9": 8431, "\u009c\u0012": 8432, "*\u00f6": 8433, "\u00cb\u00cf\u007f": 8434, "\u00a79\u00c3>": 8435, "\u00f7\u00af'": 8436, "\u00a5pw": 8437, ":Z": 8438, "\u008fS": 8439, "\u00d1\u000e": 8440, "\u001d\u00f4\u00dd": 8441, "\u00b9\u00ff6": 8442, "\u008b\u00cf": 8443, "\u00a4\u00ab\u00ec": 8444, "\u00f3K\u00fd": 8445, "f\u00dd\u00f0": 8446, "\u008as.\u0019": 8447, "A=": 8448, "J\u00fe": 8449, "o^N": 8450, "\u00cc\u00ad": 8451, "\u0089|": 8452, "\u00d2\u00ac\u00bf\u00e0": 8453, "\u00cc\u00af\u00e0": 8454, "\u0083+Z": 8455, "\u0004\u00d3": 8456, ";\u00dbx": 8457, "$m\u00e7": 8458, "\u009b\u00ad\u00d0": 8459, "+\u00c2": 8460, "\u0094\u00e9": 8461, "\u00b1H": 8462, "\b\u00a4": 8463, "\u00d5\u00a1": 8464, "\u00b9^": 8465, "\u00be\u00f3n\u00fe": 8466, "\u00cb\u0091": 8467, "{\u00a7": 8468, "\u00a6\u009d": 8469, "3\u00d1": 8470, "^1": 8471, "\u00a2F\u00de": 8472, "\u0099S": 8473, "\u00f3\u00e6": 8474, "/\u00ea=": 8475, "I\u001by": 8476, "\u001d\u00d6": 8477, "3K\u00fc": 8478, "\u009b<\u00e7": 8479, "\u00c4r": 8480, "\u00b9c": 8481, "\u008aH": 8482, "o<": 8483, "Ns\u0086\u00a8": 8484, "2\u00f1": 8485, "!\u00df\u00b3\u00a0": 8486, "\u00cbT": 8487, "xs": 8488, "\u0015J": 8489, "_\u00d4{": 8490, "\u00d3g\u009a\u00a0": 8491, "\u00be\u00a0": 8492, "\u00f8\u0083": 8493, "\u008a\u009bz": 8494, "\u0012\u00ab": 8495, "\u000f\u00f0q": 8496, "\u00fa\u00b7": 8497, "\\\u00be": 8498, "\u00ba\u0018": 8499, "\u00cbZ": 8500, "C\u00eb\u000f.": 8501, "dm\u00d3": 8502, "\u00e8e\u00f2": 8503, "\u0094\u00b5": 8504, "\u00e9\u00b3\u00c8": 8505, "&/": 8506, "\u00cd,b\u00ac": 8507, "\u001b{\u00c4": 8508, "\u00b6\u00e4a": 8509, "\u0080\u008e\u00ee": 8510, "\u00e6~": 8511, "\n=\u00eb\u00c9": 8512, "\u0018\u00a4": 8513, "\u00b2\u00f8\u00dd": 8514, "^n": 8515, "\b\u00f3": 8516, "k\u00e1": 8517, "\u00b5@": 8518, "\u00e6H": 8519, "]\u00df\u0097#": 8520, "\u00be7": 8521, "\u00fd*": 8522, "\u00cep\u00cf": 8523, "\u00eb\u0010k": 8524, "\u008b\u00e2": 8525, "\u001e\u00ab.": 8526, "\u0097\u00e7": 8527, "IW\u00c1": 8528, "\u00f4\u00af\u00f8": 8529, "_\u00aa": 8530, "\u00f3n": 8531, "\u009et": 8532, "\u0019\u00ce\u001b": 8533, "h\u00af": 8534, "\u00d5\u00a8N": 8535, "7\u00b5": 8536, "\u00f8\u00f1": 8537, "\u00d9\u00e4": 8538, "\u00be\u0004R": 8539, "\u00f5d": 8540, "\u00aae": 8541, "\u0080t": 8542, "\u0090\u00ef\u00d9\u00d0": 8543, "\u00db\u00d8": 8544, "_\u001b\u00b4": 8545, "\u009b\u0017": 8546, "h\u00f4": 8547, "\u00b5=\u00fc": 8548, "\u00cd\u0096=": 8549, "\u00c3\u00a2": 8550, "\u00a6\u00dc(": 8551, "\u008fM\u00b8": 8552, "\u00de\u00c3": 8553, "\u00ea\u0006": 8554, "m\u00c5\u00f1": 8555, "Q\u0099": 8556, "\u00016": 8557, "\u0099#o": 8558, "\u0083\u000f": 8559, "Nd\u00a6\u00d9": 8560, "\u00f9k": 8561, "}\u00fdG": 8562, "\u00b5\u00e2": 8563, "zX": 8564, "K\u00ff": 8565, "\u00f5\u00885": 8566, "'\u008c": 8567, "\u00e8e=": 8568, "\u00b7\u00a5y": 8569, "U\u00f8": 8570, "\u00ce\u0003": 8571, "\u00f4\u00db\u00b7": 8572, "=\u00f1": 8573, "w\u00b7": 8574, "lF": 8575, "\u00e5\u00c1": 8576, "\u00af\u00ab\u00f5\u00df": 8577, "ETgC": 8578, "\u00cer": 8579, "\u0014R": 8580, "3\u00c1": 8581, "\u00ee\u00b7C": 8582, "D\u00dd": 8583, "\u00abX": 8584, "\u00b0-}": 8585, "\u00a8\u00a5": 8586, "Y\u00e7": 8587, "A\u00cf": 8588, "\u00baW": 8589, "8<": 8590, "\u00aa\u00fe": 8591, "\u00cf\u0016": 8592, "n\u00d2": 8593, "o\u00e4": 8594, "\u0080\u009b": 8595, "d\u0082": 8596, "\u0005\u00af\u00a4\u00ab\u00e0": 8597, "\u000eF": 8598, "\u00c4\u0017": 8599, "F\u00des\u0086": 8600, "\b\u00c5": 8601, "\u00d7<c\u00d0": 8602, "F\u00b3": 8603, "\u00a3\u0013": 8604, "\u001aT": 8605, "M/": 8606, "\u00b2S": 8607, "*(": 8608, "y9": 8609, "R&": 8610, "3\u00fe": 8611, "\u00f0O": 8612, "\u00dc\u00db": 8613, "\u00a4T": 8614, "\u0017\u00c8": 8615, "\u00aa\u001d": 8616, "\u00de\u00df\u00c0\u009c": 8617, "\u00e7:\u00a4": 8618, "\u00ce\u0095": 8619, "\u001a\u00fc": 8620, "\u00c6\u00b8": 8621, "\u0005\u00df": 8622, "\u00021": 8623, "\u00a1\u001e": 8624, "8\u00a4": 8625, "D\u008d": 8626, "\u008a\u00b4\u0017\u00f2": 8627, "k\u00e3": 8628, "\u00bd\u0087": 8629, "\u00959\u00ce\u001a": 8630, "\u0095|": 8631, "w\u0081": 8632, "\u008du": 8633, "\u0095\u00d3": 8634, "j\u0099": 8635, "O\u00cb": 8636, "UQ": 8637, "\u00e6l\u00ba": 8638, "\bt": 8639, "\u00cab": 8640, "\u0095\u00ad6\u00ea": 8641, "\u00fa.": 8642, "\u00d1\u00f2": 8643, "\u00fa+": 8644, "\u0003\u00aaN": 8645, "q<": 8646, "\u00d3g\u009d6\u00ec": 8647, "\u00fb\u00f4": 8648, "\u0005\u00f0\u00e1": 8649, "\u0019\u00ff": 8650, "\u0082\\\u00e1": 8651, "_@": 8652, "d\u00a6\u00dam\u00da": 8653, "\u00ad\u00d9\u0095\u00f20": 8654, "\u00dfV": 8655, "V^": 8656, "\u001am\u00db": 8657, "\u00de\u008a1": 8658, "\u00e6\u00d6": 8659, "/\u00ba": 8660, "\u00d4\u0015": 8661, "\f\u00adg": 8662, "\u00e71": 8663, "=9": 8664, "\u001a\u0007": 8665, "\u0087\u00d51": 8666, "V\u00f1\u008e": 8667, "\u00aeZ\u00c8\u00db": 8668, "\u00a2S": 8669, "\u009a{\u00bb": 8670, "\u00c1\u00e3": 8671, "\u00f8\u00e6=": 8672, "\u00b5\u00e5": 8673, "\u00ab\u00be": 8674, "C\u00ea\u0098": 8675, "\b,": 8676, "\u00f4M": 8677, "\u0082u": 8678, "\u00adi\u00b7j": 8679, "\u00f3\u009a": 8680, "\t\u0004\u00f5": 8681, "\u00d6m\u00df": 8682, "<\u00e7": 8683, "#\u0087\u0081?": 8684, "_5": 8685, "\u00f6\u00f1": 8686, "\u0016!": 8687, "\u00b11": 8688, "\u00de\u00fe": 8689, "\u00b44": 8690, "^\u008f": 8691, "\u00f4}": 8692, "\u00a8\u0098": 8693, "D>": 8694, "\u00f4K": 8695, "\u001d{EE": 8696, "b\u00f7\u00f7": 8697, "\u00d57|\u00eb\u00e3": 8698, "\u00c7\u0091": 8699, "\u00ce\u00df\u00ca\u00ef#>\u007f": 8700, "y\u001d{": 8701, "\u00af#\u00afh\u0087\u00ef": 8702, "\u00d7\u0091\u00d7\u00b4W\u00bb\u0082Q\u00df\u0004": 8703, "\u00af>\u00c7\u00c8\u00a5\u0087^\u00de\u00fb\u00df)\u00cd\u00fdY\u009bo\u00bc\u00f6": 8704, "\u00bc\u008e\u00bd\u00a2\u001f": 8705, "\u00f4\u00ac\u00bc": 8706, "0\u00d57+\u007ft,\u0090\u00af\u00cb/\u001c\u00ff\u00e7": 8707, "M\u00edP": 8708, "Q\u0089\u0007\u00fc\u009f|\u00180": 8709, "\u00d4\u0017\u00fc\u00a5": 8710, "w\u00d3\u0015\u00dc": 8711, "c\u00d4(": 8712, "\u00a3\u00a1": 8713, "\u00dbm\u00b6\u00dbm\u00b6\u00dbm\u00b6": 8714, "\u00cb\u00fc\u00ea\u0093": 8715, "\u001d c\u0010\u0093": 8716, "\u0005\u00bbY\u00e1": 8717, "k\u00f7\u0000": 8718, "\u00c3\u00da": 8719, "_]": 8720, "\u00d5O": 8721, "oa": 8722, "}P": 8723, "{\u00e2": 8724, "\u00af\u00fb<": 8725, "\u0001\u00bc": 8726, "\u00f6\u0005": 8727, "\u009b}|n": 8728, "W\u00f5": 8729, "\u00d3\u009f": 8730, "\u00e7q": 8731, "\u00d7-u": 8732, "mO": 8733, "zl\u00f3": 8734, "\u00a76": 8735, "K\u008c": 8736, "\u00a5\u00fc": 8737, "\u00cb\u00e4\u00e5k": 8738, "/h": 8739, "\u009e\u00bd": 8740, "\u00fa\u00f8": 8741, "\u00c7\u0082": 8742, "\\\u00f1\u008fC": 8743, "\u0019\u007f": 8744, "d\u00a3\u001d": 8745, "d\u009a": 8746, "\u001e\u0004": 8747, "\u001am\u00c2": 8748, "a_": 8749, "\u00f1'": 8750, "IO+Z": 8751, "\u00ba0": 8752, "\u0010\u0093": 8753, "b8": 8754, "H'": 8755, "\u0005#": 8756, "\u00ab\u00f4": 8757, "t\n": 8758, "\u0092\u0087": 8759, "\u00f8\u00a5": 8760, "\u00f5\u00e1": 8761, "\u00c8)\u001c": 8762, "W\u00f0": 8763, "cF": 8764, "\u000eM\u00df": 8765, "\u0081)": 8766, "\u0013Y": 8767, "w\u001e": 8768, "\u00ff\u00bb": 8769, "\u0088I": 8770, "$\u00c4m": 8771, "\u00e3\u0092": 8772, "o\u0010S": 8773, "\u00ea)": 8774, "\u00a0k": 8775, "\u00b1\u001d": 8776, "M}k": 8777, "\u00abH": 8778, "\u00fbo": 8779, "M\u009ei": 8780, "(\u0014": 8781, "\u00fe\u0095": 8782, "H\u00f0": 8783, "&)": 8784, "j\u00d4": 8785, "+\u00bdv": 8786, "\u009d\u00eb\u00ae\u007f\u0003": 8787, "\u007f\u0090": 8788, "\u00983\u00df": 8789, "\u00c6!'": 8790, "\u0095\u00ac\u00fa": 8791, "<b\u0096": 8792, "\u008d\u0003": 8793, "'\u00ee": 8794, "gLF\u00de": 8795, "\u001f\u00e3": 8796, "\u00cd\u00bb\u00fc": 8797, "\u00b5\u00ca": 8798, "\u00ea\u0080": 8799, "\u0093v\u009d": 8800, "`\u0095X": 8801, "\u00eb<3": 8802, "\u00a0_": 8803, "\u009b\u008b": 8804, "\u00aa\u00ff": 8805, "\u00ae\u009d": 8806, "\u00f4\u00ac": 8807, "U\u0093": 8808, "En": 8809, "y:": 8810, "\u00c6*": 8811, "x\u00f3": 8812, "\u00ac\u00e5": 8813, "V\u00f0\u00ed": 8814, "\u001a\u00c8": 8815, "Q\u00ea\u008c": 8816, "\u00bf?": 8817, "\u00e8b<": 8818, "\u00d3n\u00cd\u0017\u00c2": 8819, "\u0087r": 8820, "\u008f_\u00ad\u00d8": 8821, "\u0097I": 8822, "\u0017<": 8823, "\ns\u009c4\u00db": 8824, "._": 8825, "\u0010t": 8826, "\u008aq": 8827, "5d": 8828, "\u009b-": 8829, ";\u00e4": 8830, "\u00d4\u00ef^N": 8831, "\u00b4\u00d8\u0083": 8832, "i\u00b1\u0018": 8833, "\u00d6#": 8834, "\u00a5V": 8835, "e|\u008c5\u009d7": 8836, "\u00f2\u001d": 8837, "t\u00d9|n": 8838, "\u00e3\u001a": 8839, "U\u00e1": 8840, "Z\u00de": 8841, "v\u00dc": 8842, "Tk:n": 8843, "\u00eb\u00e9": 8844, "\u00cdtg": 8845, "\u00a6\u00dc ": 8846, "D\u008d\u00bc": 8847, "rn<": 8848, "\u00ca\u00f9\u0018o]": 8849, "\u00e3\b\u00db": 8850, "\u0015e": 8851, "Y=": 8852, "*n\u00fd": 8853, "S\u00e0": 8854, "\b'": 8855, "\u0099\u001by": 8856, "]9": 8857, "\u00d3n\u00c3": 8858, "<\u00e1": 8859, "\u00fb:\u0001": 8860, "\u0080\u009b\u00b4": 8861, "\u00b9\u00e2": 8862, "\u0081\u00a8": 8863, "\u00e5y": 8864, "m\u00ff": 8865, "\u00a6\u00dd\u00fc": 8866, "\u00a7\u00be": 8867, "\u00a4Sn": 8868, "\u00b1\u000e": 8869, "\u0087\u00fa": 8870, "\u00af\u00ba": 8871, "K\u00f6": 8872, "\u009b,": 8873, "\ns%6": 8874, "\u00bc\u0092\u009d": 8875, "{o\u000b": 8876, "\u0087E": 8877, "\u00e6Jm\u009f": 8878, "O\u00ca": 8879, "Y\u00ce\u0019": 8880, "X\u0094": 8881, "\u0019\u00ee": 8882, "\u009c15": 8883, "n\u00df": 8884, "EZ": 8885, "\u0088\u00e0": 8886, "\u00d9\u00ce\u0002": 8887, "z\u00ef": 8888, "\u00b8N": 8889, "\u00a6\u00ed": 8890, ",\u00ac": 8891, "m\u00db\u00fc": 8892, "p\u0019": 8893, "\u00b4\u00db\u00b7": 8894, "9\u00ce\u001b": 8895, "\u00b2\u00ff\u0080": 8896, "^\u0014": 8897, "\u00af\u00f5": 8898, "\u00d5\u0093": 8899, "\u00e2\n": 8900, "+v": 8901, ")\f": 8902, "2\u00beF\u0018": 8903, "\u00ca\u00d6\u00a9": 8904, "\u00f0\u00ec": 8905, "QW": 8906, "\u00ae\u00e0": 8907, "\u00df ": 8908, "r\u009cR": 8909, "4\u00db\u00b7": 8910, "\u0004\b\u00db": 8911, "#F": 8912, "\u00d3\u00e7": 8913, "\u0004\u00a6": 8914, "/\\": 8915, "\u00f0\u00f3": 8916, "\u009b\u00e3": 8917, "\u00a7\u00cf\u009fC": 8918, "\u0080/": 8919, "\u00be\u00e7": 8920, "K\u00f1": 8921, "[\u00b3.\u0019": 8922, "#\u0019": 8923, "S\u0080": 8924, "\u00c7\u0082\u0015": 8925, "\u00c9\u0005": 8926, "\u00ba\u00c5\u0018": 8927, "\u00d3\u0099\u00b2": 8928, "7\u009f>\u00f1": 8929, "\u00cb\u00cd\u00d6": 8930, "\u001fz": 8931, "\n\u00e5": 8932, "f<": 8933, "\u008d\u00bau": 8934, "\u00ce\u00e4": 8935, "Ip": 8936, "s\u00e0": 8937, "\u00a6\u00dd\u00a0": 8938, "\u0095;": 8939, ".\u00ff": 8940, "F\u00a8": 8941, "\f>g": 8942, "5\u00f7": 8943, "\u00a6\u00c4m\u0086": 8944, "\u0081\u000e": 8945, "\u00f7\u0087": 8946, "\u00a0\u001c": 8947, "t\u00e4": 8948, "\u0087\u00df": 8949, "\u0004\u0014": 8950, "'W": 8951, "z\u00e9\u009e\u00fe": 8952, "\u0094\u0003": 8953, "Y\u001f": 8954, "\u001c\u00a0": 8955, "\u00cc\u00bcF": 8956, "w\u00f8": 8957, "\u00d1\u00aa": 8958, "#n)": 8959, "\u0082T": 8960, "\u00d1\u007f\u00b7": 8961, "\u00f8\u00fb\u00ef": 8962, "\u00f36+\u00ad": 8963, "{o8": 8964, "\u00d4\u00f1": 8965, "\u00b4\u00d8": 8966, "t>": 8967, "C\u00e5": 8968, "\u0082\u00cb": 8969, "I\u009e": 8970, "\u0091_": 8971, "\u00d7EC": 8972, "\u00efm\u00e1": 8973, "\u00eb\u00e3v": 8974, "_%": 8975, "'\u00b8": 8976, "\u0005\u00ea=": 8977, "\u00aa\u009e": 8978, "\u00c8i": 8979, "\u0090O": 8980, "~\u009d": 8981, "\u00b3\u00c3z\u00ee<": 8982, "\u00f4\u0014": 8983, "\u00e6\u0097\u00f8": 8984, "\u00b7\u0099\u00ef": 8985, "\u00ab\u007f\u008c": 8986, "\u00ac\u00e9\u00b8": 8987, "+\u00e3": 8988, "\u0014u": 8989, "Tb": 8990, "\u00de\u001c;": 8991, "o\u008f\u00be\u00f1": 8992, "Z\u00falF\u00de": 8993, "\n\u0004": 8994, "8n": 8995, "C\u00b9": 8996, "/\u00b0": 8997, "|\u0012": 8998, "u\"": 8999, "\u00de\u0096\t": 9000, "\u00f3\u00df": 9001, "\u009c\u0004": 9002, "}k": 9003, "Pp'": 9004, "\u00b8\u00c7": 9005, "\u008fU\u0097": 9006, "{\u00ff": 9007, "tC": 9008, "\u0012\u00f9": 9009, "q\u00ae": 9010, "\u00c28": 9011, "\u00c1\u0087": 9012, "\u0099\u00e0": 9013, "\u00f5\u000e": 9014, "\u00e6{\u00fd": 9015, "$|": 9016, "3\u009c\u0005": 9017, "\u00ef\u001d": 9018, "\u0004\u00ff\u00cb\u0086": 9019, "\u00d7/\u009f\u000e": 9020, "\u00ea\u001d": 9021, "]b\u008c?\u00c7": 9022, "\u00d7p": 9023, "\u0004\b": 9024, "T^": 9025, "\u00c1\u0084": 9026, "\u00f5Y": 9027, "\t\u00e3": 9028, "\r\u0015": 9029, "\u001a.": 9030, "I\u00cf": 9031, "GT": 9032, "\u00aa\u00bf\u00c7u": 9033, "\u0088\"\u00e7\u0000": 9034, "\u00b0`": 9035, "z\u00e7": 9036, "\u00f1\u00de": 9037, "\u00f2Jb": 9038, "s}": 9039, "\u009c\u0006": 9040, "x\u00be": 9041, "\u00821\t9": 9042, "B\u0010": 9043, "\u008d\u00fe": 9044, "\r\u00df": 9045, "[\u00d1": 9046, "j\u0093": 9047, "\u00a2\u00af": 9048, "G\u00ae": 9049, "\u00abK\u00cf": 9050, "\u00a8.": 9051, "1\u00e0\u0085": 9052, "\b\u00ee\u00ed": 9053, "\u00bd\u00d8": 9054, "\u001f\u00a1": 9055, "\u00c8\u0088": 9056, "z-": 9057, "b\u00a1": 9058, "\u00d4C": 9059, "\u0016\u00f5": 9060, "_q": 9061, ":\u00f4": 9062, "\u00e1\u00d7\u00b4": 9063, "C{": 9064, "\u00eb\u00da*": 9065, "r\u0086": 9066, "\u0083R": 9067, "\u00a8\b\u00b9\u00c0": 9068, "\u00a0\"\u00e7\u0000": 9069, ":\u00f2": 9070, "\u00b6\u00dbm": 9071, "\u00d5)": 9072, "K\u00ec": 9073, "\u00bc/\u0087qG": 9074, "\u0083\u00ca\u0084z\u0080\u00e1": 9075, "\u001dJ": 9076, "N\u00a9j": 9077, "}YF$\u00a7": 9078, "\u00eb\u00c8\u00eb\u00da": 9079, "C\u00eb\u000f.\u0090": 9080, "|\u0010\u00af": 9081, "\u00a9}": 9082, "\u0084\u00c3PyP\u008f\n\u0082\u00a8y\u0017\u0092S": 9083, "\u00de\u00d7V\u00b7}\u00e4\u00ae": 9084, "\u0098\u00a9": 9085, "\u0087\u00d9": 9086, "\u00e5\"": 9087, "\u0019^": 9088, "\u0083\u00fe\u0002\u0087\u001c": 9089, "^\u0016\u00ba\u00fc2\t": 9090, "\u00b1*": 9091, "e|\u008c\u000e\u00a9": 9092, ":@\u00c6!'": 9093, "^\u0092": 9094, "\u00c0\u00be": 9095, "V\u009f=z": 9096, "P{\u00dbx\u00b0": 9097, "+\u0094": 9098, "t\u00db\u0084": 9099, "JR": 9100, "T\u00b5": 9101, "C\u009f": 9102, "26\u00e9": 9103, "qp": 9104, ";\u0093q": 9105, "\u009c\u00e7\r6\u00ed": 9106, "\u00ba\u00c4m": 9107, "W\u00f4": 9108, "\u00e3\\": 9109, "C\u008c": 9110, "15": 9111, "?\u00e9": 9112, "\u008b\u00f8": 9113, "/\u00eb": 9114, "M\u009es.": 9115, "\u00e8i]\u00eb": 9116, "\u009c\u00cd\u008a\u00eb": 9117, "J\u009f": 9118, "\u00bd\u00d6": 9119, "\u0086\u0011\u00b7": 9120, "\u00ba\u0014": 9121, "d\u00a7": 9122, "\u00a3\u001c": 9123, "xa": 9124, "\u00cb]": 9125, "d\u00a6\u00dam\u00d9": 9126, "#\u009e\u00ff\u0004": 9127, "G\u0090": 9128, "\u00bf[\u00bf": 9129, "-\u00c2": 9130, "\u00d15": 9131, "\u0082\u0004m": 9132, "\u009brB": 9133, "\u00d1y": 9134, "ehSn": 9135, "{\u001f": 9136, "f\u00dcy": 9137, "U\u0018": 9138, "\u00a5\u00af#": 9139, "\u001f+": 9140, "^\u00df": 9141, "\u0097\u008c": 9142, "\u00e0r": 9143, "e)": 9144, "J\u00e9": 9145, "\u00b3\u00a6#o": 9146, "6_\u001b\u00b6": 9147, "\u00a5ui": 9148, "\u008fTNe\u00c3": 9149, "Dz": 9150, "\u00db\u00ea": 9151, "\u00b5\u00e0": 9152, "+\u00f4": 9153, "r\u00c6": 9154, "\u00ef\u0091\u00b7": 9155, "\u00b4\u00a8": 9156, "\u00bb\u00e9": 9157, "rr": 9158, "\u00d7\u008f": 9159, "\u00e4\b\u00db": 9160, "\u0014\u0088": 9161, "\u00ad5": 9162, "\u00be}": 9163, "Fq": 9164, "\u00a3O": 9165, "o>": 9166, "A\u0018\u0085": 9167, "\u009b<\u00ea": 9168, "\u0015\u00c3": 9169, "49": 9170, "\u00cc\u00fc": 9171, "\u00eeK": 9172, "\u00feR": 9173, "\u009e\u0010": 9174, "\u00de\u00bag\u00bf": 9175, "\u0082Z": 9176, "\u00e7\u00fa": 9177, ".r": 9178, "e\u00e6\u00eb": 9179, "\u0082\u007f": 9180, ")\u00ed": 9181, "\u00b9kA": 9182, "\u00cb\u00e0v": 9183, "d\u0014": 9184, "\u00ac\u00a0": 9185, "\u00a5\u00fdG": 9186, "\u0005\f": 9187, "\u00d3n<": 9188, ">\u00a8": 9189, "\u0083M\u00bb": 9190, "_$": 9191, ">\t": 9192, "\u00eb\u00a0": 9193, "\u001d\u0018": 9194, "\u0080g": 9195, "W\u00c2": 9196, "\u008aj\u0081": 9197, "Sl": 9198, "\u00f8\u001d": 9199, "\u0018\u0085Q": 9200, "W\u00eb\u00bf": 9201, "\u00d7tH\u00db": 9202, "\u008aW": 9203, "\u0081\u001bx": 9204, "\u00c1\u00e4!\u00c7": 9205, "b=6\u00e1": 9206, "\u0003y\u00dd\u00ed\u00bc\u00e6": 9207, "\u0082\\": 9208, "U\u00ad": 9209, "\u00d0\u00ff": 9210, "e\u00c2": 9211, "1J": 9212, "\u0015\u00bc": 9213, "\u009aZ": 9214, "B)": 9215, "\u00a7Y\u00e1": 9216, "6\u00ab\r": 9217, "\u00a8\u00bd\u00c3": 9218, "I\u00ff": 9219, "\u0097\u00f5": 9220, "\u0081s\u0086": 9221, "\u00fb\u008e": 9222, "\u00ac\u00fe": 9223, "}\u00eb": 9224, "\u00cf6": 9225, "M\u00884": 9226, "A\u00ce": 9227, "\u00a7\u00ea": 9228, "\u0089\u0092\u009b": 9229, "rn\u00faZ": 9230, "+\u00fc": 9231, "t\u00db\u00ab": 9232, "\u00e8\u000b": 9233, "\u00ca{": 9234, "\rF": 9235, "&\u00fe": 9236, "M9\u00ce\u001a": 9237, "ni": 9238, "\u00d7\u009f\u009bw": 9239, "\u00d7\u00ff": 9240, "\u00bb\u00a3": 9241, "\u0015\u00ca": 9242, "\u00f7\u0081": 9243, "\u00f4:": 9244, "\u001dS": 9245, "\u008d\u00be": 9246, "j\u0080": 9247, "m\u00e0": 9248, "\u00a28": 9249, "\u00d7\u00fc": 9250, "\u009c\u00f2": 9251, "\u00cd\u00b8\u00f5\u00bb": 9252, "\u00e5\u00f4": 9253, "\u00cazm\u00d8": 9254, "\u00c59\u0097\r": 9255, "Uk": 9256, "C\u00bfg@": 9257, "\u00cd\u0088\u00db": 9258, "\u00a2\u00a9\u0018": 9259, "\u00cew": 9260, "WY": 9261, "\u00c7:": 9262, "\u0095g": 9263, "\u00f7O": 9264, "]\u00be": 9265, "\u009ay\u00b7\u007f": 9266, "\u00e6\f\u00f7": 9267, "F\u00dd:": 9268, "h\u00141\u00ac": 9269, "\u00c8r\u00a1\u001e": 9270, "B\u0081": 9271, "\u00d3g\u009a": 9272, "Y\u00ce\u0001": 9273, "\u00a6\u00df_\u001b\u00b6\u009bv": 9274, "<i": 9275, "m\u00fe\u00ec": 9276, "\u00e4\u00dd\u00a7": 9277, "\u0089&": 9278, "\u00fc\u0013": 9279, "M\u00bb\u00fd\u0099p": 9280, "\u00c6w": 9281, "\u00f9\u00b7": 9282, "\u00d1\u0086": 9283, "m\u00c1\u00da": 9284, "\u00f48": 9285, "\u0001\u001b": 9286, "\u00b3+": 9287, "\u008a\u00a8\u00c26": 9288, "xx!'*": 9289, "\u00a3\u00d5\u001a": 9290, "\u00d2\u00bam\u00c2": 9291, "\u00fa\u007f": 9292, "\u00e8\u00f9": 9293, "+\u00e4": 9294, "s\u00cf": 9295, "Z\u00faJ\u00be": 9296, "\u00ffg\u00ff": 9297, "\u009f\u00c8": 9298, "j\u00f8": 9299, "$\"": 9300, "3.\u0019": 9301, "\u0018\u00a6": 9302, "m\u00e1": 9303, "\u00e7\u0086": 9304, "\u00a8\u0097": 9305, "\u00a7V\u0096": 9306, "\u00821\u00e0\u0084\u009c": 9307, "JZ": 9308, "7\u00aei\u007f": 9309, "3n<": 9310, "\u00d5`": 9311, "o3\u00df": 9312, "\u001e\u001d": 9313, "\u00d6\u00f0": 9314, "\u001fT": 9315, "y\u009e": 9316, "T\u009c": 9317, "\u00aa\u009d": 9318, "\u00fa\u00f9": 9319, "\u00c4y\u009b\u0015\u00d6": 9320, "\u00ee\u008c": 9321, "\u00bc<\u0010\u0093\u0095": 9322, "eX": 9323, "\u009deg": 9324, "z\u009c": 9325, "\u00c8\u00c3": 9326, "{~": 9327, "g\u0001": 9328, "{o;": 9329, "\u00b5\u008c": 9330, "\u00cb\u00a5N": 9331, "}\u0002": 9332, "\u008a\u00bd": 9333, "\u00d2Zm\u00da": 9334, "\u00dfx": 9335, "\u0098\u00a4": 9336, "\u00dd\u0006": 9337, "\u0085\u0003": 9338, "\u00ac\u00a6": 9339, "jp": 9340, "\u00dc\\": 9341, "\u00e1\u009c": 9342, "D\u00a6c": 9343, "\u00ae)": 9344, "\u00b4\n": 9345, "z\u00ee=": 9346, "\u00d4\u000b": 9347, "\fA": 9348, "#\u00d5\u0019": 9349, "=~\u00b7\u007f": 9350, "\u00bcF": 9351, "\u00b5\u001e": 9352, "\u009d6\u00ea": 9353, "Hi": 9354, "\u001f_\u00d3": 9355, "\u00bf\u00cfu": 9356, "\u0011\u00b7N": 9357, "\u0099\u001bz": 9358, "\u00a0\u00ba": 9359, "\u00abq": 9360, "|\u0010\u00aa": 9361, "\u0011\u00ed": 9362, "\u0014\u00f6": 9363, "f\u00dcx": 9364, "\u00f5\u00dcy": 9365, "\u00ce\u0016": 9366, "\u00c1=": 9367, "|\u009c": 9368, "\u00c9\u00d7": 9369, "+\u00e9": 9370, "\u0092\u000b": 9371, "\u00d8\u00f2": 9372, "\u00b28": 9373, "\u0087\u00fc": 9374, "_>": 9375, "\u00ebr": 9376, "e\u007f\u0000": 9377, "A\u00ff%w\u0091\u007f": 9378, "\nq\u001e": 9379, "/\u0099": 9380, "=\u00a9": 9381, "\u00ab\u00fcw[": 9382, "g8a": 9383, "js": 9384, "\u00af\u00d7": 9385, "\u001b\u008c": 9386, "\u0004U": 9387, "\u0014J": 9388, "\u00e7\u00c0": 9389, "z\u008f\u009d": 9390, "\u0017\u00df": 9391, "\u009b\u008e": 9392, "TA": 9393, ";\u00e9\u008a\u00ee": 9394, "\u00bfp": 9395, "\u00e8\u00e1": 9396, "\u009fM": 9397, "AP\u00f2/$\u00a7": 9398, "fx\u00e7": 9399, "\u00ea\u00ca1": 9400, "|\u00ce": 9401, "\u0089\u00ef": 9402, "z\"": 9403, "$K": 9404, "\u00c5C": 9405, "\u008f\u00de": 9406, "DE": 9407, "p\u00e1": 9408, "\u0084\u007f": 9409, "C\u00f7": 9410, "7\u00a3": 9411, "\u000e\u00bdD": 9412, "\u00c3\u00afo": 9413, "\u00ff\u00e3\u0082": 9414, "[\u00be\u001d\u0016": 9415, "'\u00b3": 9416, "}^": 9417, "\u001dM": 9418, "\u00f2\u008f": 9419, "T\u00d5%\u00fa\u00a7": 9420, "\u00d7\u0094#\u00e7\u00de,\u0018": 9421, "\u00b4\u00ea": 9422, "\u0084|\u00fb\u00c5": 9423, "w\u001c\u00f7": 9424, "A\u007f\u00caZ\u00f3": 9425, "\u00bej": 9426, "\u00b8\u009e": 9427, "\u00c3W\u00fd\u00d6": 9428, "tl": 9429, "\u001b6\u00fa": 9430, "\u00b9|\u008c\u000e\u00a9": 9431, "/\u00f3\u00aaN": 9432, "e\u00feuI": 9433, "x\u00b3": 9434, "\u00bf[\u00b5": 9435, "o`": 9436, "\u00af\u00ca": 9437, "\u0082\u00d7": 9438, "\u0004\u00e7": 9439, "{^": 9440, "m\u00b6\u00dbm": 9441, "M\u00be\u00be7m": 9442, ".9": 9443, "\u000b\u001e": 9444, "1V": 9445, "\u00c8\u00c0": 9446, "|\u0083": 9447, "\u0088I\u00cb": 9448, "\u00d2\u00bam\u00d8": 9449, "JY": 9450, "\u0083\u009d": 9451, "}\u0001": 9452, "|\u0090": 9453, "\u0011\u00e9\u00b7f": 9454, "\u00cawv": 9455, "\u00d2\u00ff>": 9456, "\u0003\u00e0": 9457, "\u007f\u00e7\u009c": 9458, "\u0087C)": 9459, "\u00be\u00be": 9460, "\u0096\u00a9": 9461, "w\u00e9": 9462, "\u0083\u00c8": 9463, "\u00eeM\u00dfK": 9464, "\u00d1\u0089": 9465, "\u00f2I\u00bb": 9466, "x\u00f5": 9467, "\u0002\u00bf": 9468, "\bB": 9469, "\u00ad\u00e6{": 9470, "\u00d3g\u009d6\u00ed": 9471, "\u00ef$\u00a7": 9472, "z\u0014": 9473, "\u00d0S": 9474, "\t9": 9475, "\u00eb\u00fe": 9476, "I1": 9477, "<x": 9478, "\n\u00f2": 9479, "\u0005\u0096": 9480, "\u00b7~\u009c": 9481, "\u000e\u00ce": 9482, "tT;": 9483, "\u00b2\u00c6\u001a": 9484, "\u00d1\u001c": 9485, "?\u00c9": 9486, "\u0081\u008f": 9487, "\u0011\u00e9\u00b7`": 9488, "\u0088\u0005": 9489, "\u0004{\u0090": 9490, "\u00adM": 9491, "!\u0095\u00ac": 9492, "\u00bes": 9493, "\u0081\u0007": 9494, "9\u00c3>": 9495, "\u00d7-": 9496, "7\u00f2": 9497, "g8\u0006": 9498, "D\u00b97": 9499, "=\u00f6": 9500, "F<\u0010\u00af": 9501, "\u00a5u}": 9502, "\u00881": 9503, "\u007fK": 9504, "\u00e8d": 9505, "\u00cb\u00fe\u0001": 9506, "\nt\u00d9\u00e7": 9507, "Z\u00fd": 9508, "$\u00dd\u00a4": 9509, "\u00de\u00a2\u00f7\f": 9510, "UF\u0011\u00b7": 9511, "\u0092\u00af\u00a9": 9512, "\u00a0'": 9513, "\u008cB\u00ab\u00bc": 9514, "\u00ebw\u00fa": 9515, "\u00958w": 9516, " \u00f1": 9517, "O\u00b0": 9518, "\u00c9/\u0086\u00de": 9519, ")\u00ea": 9520, "\u00ef\f": 9521, "s\u00c6:": 9522, "\u0013g": 9523, "\u00d6*\u00c3\u00a2\u00d6": 9524, "!G": 9525, "\u00c8\u00de": 9526, "=\f\u00c9M": 9527, "[\u00b2": 9528, "K\u008c\u00ec": 9529, "\u00c0\u00b5": 9530, "g\u00b0": 9531, "f\\5": 9532, "\u00d3t": 9533, "\u00d7\u00d6\u00b1": 9534, "R\u008e": 9535, ")\\": 9536, "\u00dcc": 9537, "\u0017\u001c": 9538, "[\u009f\u00f3": 9539, "D:": 9540, "\u008f4\u00bf": 9541, "\u00bb\u00f2": 9542, " \u00a1": 9543, "\u0010\u00e3": 9544, "A\u000e\u0086": 9545, "\u0018j\u00c9": 9546, "\u00d3n\u00cb6\u00ef": 9547, "$m\u00d3": 9548, "s\u009dR": 9549, "{\u00ae_\u000e": 9550, "\u00ceuI": 9551, "(s": 9552, "\u00d6t\u00dd\u00bdw\u001e": 9553, "#\u00aa": 9554, "9~": 9555, "\u007f\u00d9*": 9556, "/\u00fb": 9557, "ta": 9558, "\u0011\u00e9\u00b7k": 9559, "\u00ab\u00c3\u00c1\n": 9560, ".F": 9561, "\u00ee\u00e8": 9562, "\u00d7\u00c3\u0086": 9563, "e|\u008c3": 9564, "\u0015Q\u0084m": 9565, "\u0006\u00bc": 9566, "\u00f3\u00ed": 9567, "\u0011\u008c": 9568, ")\u00b7h": 9569, "\u008d\u00bd6y": 9570, "\u00c3\u00e6": 9571, "sn": 9572, "\u00f58": 9573, "/Q\u00ec": 9574, "\u00a8\u00f7\u00af'": 9575, "\u0090\u00ffL\u00a5": 9576, "Y\u00d3\u0011\u00b7": 9577, "\u00ac\u008f": 9578, "a\u009c\u00e1": 9579, "O}": 9580, "Fv": 9581, "\u0080/\u009a": 9582, "\u00cf\u00a0": 9583, "|y": 9584, "\u00de\u00db\u00c2\u009e": 9585, "c\u00df": 9586, "\u0012\u001d": 9587, "\\\u00ab": 9588, "\u00a5t\u0017": 9589, "Sm": 9590, "\u00e1Ns\u0086": 9591, "\u00a5y": 9592, "U\u00a0": 9593, "\u00f5\u00a9\u00b7": 9594, "\u0091\u00f0": 9595, "\u00d8n": 9596, "Tk<": 9597, "\u00a7\u009bw": 9598, "\u00f9J": 9599, "\u0002\u00d7\u00d8": 9600, " \u00b3": 9601, "uL": 9602, "\u0082\u00cf\u0018": 9603, "\u009e\u00e8": 9604, "\u0019\u00fd/\u0093": 9605, "\u0015H\u00c7": 9606, "X%": 9607, "R\u001d\u0016": 9608, "\u0087\u00ca": 9609, "\u00d6(": 9610, "\u0012s": 9611, "|\u00e6": 9612, "\u00ff\u00d1": 9613, "e\u00e7\u00be": 9614, "\u0087\u00c8": 9615, "\u0004\u001c": 9616, "i\u0013": 9617, "\u00d7\u00fa": 9618, "\u00f6\u0095": 9619, "\u00e5(": 9620, "\u00bb\u00fa": 9621, "Z\u00ff\u00b4\u00d9\u00cf": 9622, "\u00ad\u00e5": 9623, "O@": 9624, "\u00b5\u00f0": 9625, "\u0095\u00d0": 9626, "\f>": 9627, "C\u00a2": 9628, "U\u00bf": 9629, "PV": 9630, "\u009a\u00f9": 9631, "\u00b2z": 9632, "\u00e9~": 9633, "\u0090\u00ce": 9634, "\u00c0\u00ed": 9635, "\u008aZW": 9636, "\u00e3_": 9637, "\u0083\u00be": 9638, "o\u00eb\u00e1": 9639, "\u00b8\u00ee": 9640, "]+": 9641, "\u00ca\u009b\u00be": 9642, "\u00aa\u0080": 9643, "\u00b5\u00df": 9644, "\u00cc\u00bf": 9645, "\u0082\u00a9": 9646, "\u0091\u001by": 9647, "k\u00f0": 9648, "\u00e2\u00cb\u00a4": 9649, "z\u00ff8": 9650, "\u00f7\\\u00be\u001c": 9651, "\u00c1-": 9652, "n\t": 9653, "\u00d3\u009a_": 9654, "\u00d2Q": 9655, "9\u0007\u00fc": 9656, "K\u00c4": 9657, "\u00b0w": 9658, "\u0091\u00c3": 9659, "6I\u00b8": 9660, "5\u00f0": 9661, "3g\u009d": 9662, "N&": 9663, "\u0011\u00dd\u00da": 9664, "\u00cb\u0018j": 9665, "\u00b5\u009e\u0019": 9666, "8S": 9667, "_'+Z": 9668, "\u00cf:m\u00da": 9669, "iU": 9670, "\u00d6\u00f2": 9671, "K\u00cf": 9672, "r:\u00a4": 9673, "\u009c\u00e7\rn": 9674, "F3": 9675, "4\u00e7": 9676, "\f\u00adk\u0010": 9677, "S\u0099\u00b2": 9678, "\u0007I": 9679, "\u0005\u00af\u00b0": 9680, "on": 9681, "!\u00df\u0005": 9682, "\"\u00e7": 9683, "\u0083\u008e": 9684, "s\u00f8\u001d": 9685, "|\u00e7": 9686, "[\u00fb": 9687, "\u00b9\u00b7": 9688, "5\u00cb_": 9689, "\u00bdq\u001bz": 9690, "\u00f0)": 9691, "_s": 9692, "\u0014\u00ea\u0093": 9693, "\u0096=": 9694, "\u009aD": 9695, "fz1": 9696, "}\u000e": 9697, "\b\u00ab": 9698, "\n\u00de": 9699, "\u00d6\u00ef\u00eb": 9700, "k\u00f7": 9701, "\u009e\u00eb\u0097\u00c3": 9702, "\u009f\u00aa": 9703, "\u00de \u00a7\u00a6\u00dd": 9704, "\u0084\u0016": 9705, "\u0084y": 9706, "u\u008a0": 9707, "\f\u00adj": 9708, "h\u008e": 9709, "\u00b5\u00e1": 9710, "\u0087\u00f8": 9711, "\u00c3>": 9712, "\u00aa\u00a2": 9713, "\u00b5\u00f2": 9714, ",`": 9715, "\u00c3v\u007f": 9716, "3\u00b9": 9717, "\u00ec\u00fe": 9718, "\u00a6\u00dd\u0080": 9719, "\u009b}|n\u00da": 9720, "\u008fQ": 9721, "#o4\u00bf": 9722, "#\u00d6\u00ef": 9723, "\u0081\u00d0": 9724, "\u008f\u0018\u00a5": 9725, "\u00bf\u00d7\fS": 9726, ";\u00ef": 9727, "\u00d2\u00bf": 9728, "\u0007\u0095": 9729, "\u009et\u00db\u00b4": 9730, "\u0088\u00f5\u00bb": 9731, "/\u00a9": 9732, "\u00ca\u009b\u00bf\u00a6\u00dd": 9733, "x!": 9734, "_\u0097": 9735, "\u0091U": 9736, "}\u00d8": 9737, "\n\u00f3": 9738, "\u00fa(": 9739, "\u00bcx": 9740, "\u00b5\u00bc": 9741, "\u00f8\u00e5": 9742, "\u0087h": 9743, "\u00d4g": 9744, "\u00a0\u00f7": 9745, "\u008dO": 9746, "\u00c8\u0094": 9747, "P#o": 9748, "q\u0087": 9749, ")\u00c8": 9750, "\u00ad\u007f\u00da": 9751, "a\u00af": 9752, "\u0003\u0006": 9753, "H\u00fb": 9754, "\u00ea\u0092": 9755, "\u00ea\u0091": 9756, "\u00f7 ": 9757, "\u00c1O": 9758, "\u00ea\u00f9": 9759, "\u008f:n": 9760, "E\u00ce\u0001": 9761, "\u0095\u00f3": 9762, "\u000e\u001d": 9763, "\u000e\u00b9N": 9764, "\u00b8%": 9765, "\u00a0\u00a7T": 9766, "\u00c9/\u0095": 9767, "V\u00bf\u00ed6s": 9768, "J\u00e9\u00b7f": 9769, "z(": 9770, "\u0001|": 9771, "\u0099_\u00c0": 9772, "o\u00b9": 9773, "?{": 9774, "d\u0097\u00ca": 9775, "\u0015\u00e6": 9776, "\u0085\u0017": 9777, "_\u00fc": 9778, "\u00f4V": 9779, "\u00b1\u00ad": 9780, "\u00ff\u00d1\u008d": 9781, "\u00fa&": 9782, "\u00af\u00b9\u00dd": 9783, "\u00e4\u00e5F": 9784, "&\u00db\u00ef": 9785, "\u00d1)": 9786, "\u001c\u008a": 9787, "9\u0011": 9788, "C\u00bd": 9789, "*%": 9790, "\u00bdD\u00f7": 9791, "^\u00e3": 9792, "\u00ea!": 9793, "\u00d4>": 9794, "\u00abU\u0019": 9795, "/\u00b3": 9796, "\u00ee\u008f]": 9797, "\u0007\u0095\b\u00f5\u0001\u00c3": 9798, "\u0087^\u00de\u00fb": 9799, "\u000b\u0018\u00bf": 9800, "\u00cd\u00aan\u00f9\u00d7\u00c7": 9801, "\u0080\u00e1": 9802, "\u00a3D": 9803, "S\u00ef\u00ef\u00ef": 9804, "\u00ba.U": 9805, "\u00a0\u00ff\u0080\u00a1\u00c7": 9806, "\u00df(\u00f5": 9807, "\u00aaZ\u00b6": 9808, "'^IM\u00e3": 9809, "\u00d7)\u00adi": 9810, "\u00d1\u0005\u0088\u00db": 9811, "\u00e8\u00d8": 9812, "\u008e\u00f6": 9813, "1\u00ea\u001a": 9814, "\u00af#\u00afh\u0091/\u0094": 9815, "\u001a\u00bf\u00ee\u00b6": 9816, "\u00bd\u008f\u0091K": 9817, "V\u00fe\u00dd\u007f": 9818, "\u00eb\u00f9\u0005\u00fc": 9819, "\u009c\u008b": 9820, "\u00f0\u00b5\u00d7\u00e1\u0090N": 9821, "|2\u00bc": 9822, "!\u00f5\u0087\u0097HS": 9823, "L\u00180`\u00c1\u0083\u0006\f\u00180`\u00c1\u0083\u0006\f\u00180`\u00c1\u0083\u0006\f\u00180`\u00c1\u0083\u0006\f\u00180`\u00c1\u0083\u0006\f\u00180`\u00c1\u0083\u0006\f\u00180`+\u00c2\u00f8s\u00f4\u0098\u00f6": 9824, "\u00e4>\u00b0\u00f2\u00e9": 9825, "v\u00bc": 9826, "VQ\u0089)\u00e1\u0097\u00fd\u00b2\u001fXywB\u0091": 9827, "\u00ef\u00ec\u00e5k": 9828, "\u00a0\u00bf\u00e5": 9829, "\u00af#\u00afh\u00afo": 9830, "\u0085\u00f3": 9831, "\u0003\u00a4\fb\u0012r": 9832, "\u00c0\u00e9\u0003\u0018\u0084\u009c": 9833, "x\u008b\u00ff": 9834, "D+": 9835, "G@": 9836, "B:": 9837, "\u008fJ": 9838, "7g\u00f5": 9839, "\u00a3\u00d8": 9840, "\u00abO\u009e\u00bd": 9841, "\u00a9\u00fa": 9842, "t\r": 9843, "\u00b3\u00fa": 9844, "d\u001e": 9845, "\u00fb\u00ac": 9846, "a\u001b": 9847, "u|": 9848, "\u000fS": 9849, "\u00cd\u00fdY": 9850, "Z\u001d": 9851, "\u00c5M": 9852, "\u00d3b\u0001": 9853, "\u00c7\u00c9": 9854, "\u00d5\u00a9": 9855, "\u00b9\u00e6": 9856, "b9\\": 9857, "\u00f5\u0003": 9858, "W\u00c6": 9859, "\u0083\u00ba": 9860, "\u00d3n\u00cc\u00d9\u00e3": 9861, "\u001d\u00c8": 9862, "\u00eb\u00acG": 9863, "\u00dcy": 9864, "6\u00e4\u00b0": 9865, "k\u00c1": 9866, "\u00a4i": 9867, "\u0014\u00e9\u00b3\u00ce": 9868, "f~": 9869, "S\u00d9": 9870, "\u00f4\u00b4": 9871, "\u00f2x": 9872, "\u00ee\u00b9|9": 9873, "_\u00ad": 9874, "\u00a0I": 9875, "wS": 9876, "\u00ea\u0090": 9877, "\u00ea\u0005": 9878, "\u00d5\u0000": 9879, "\u00f5\u00bb\u00f9": 9880, "g\u0086\u00f5\u00dc": 9881, ">\u00bc": 9882, "\u00cc\u0090[": 9883, "\u0081k\u00e9*\u00f8": 9884, "G\u0093\u0097": 9885, "\u00c9\u008a": 9886, "\u00cf\b": 9887, "]l": 9888, "l\u00f3\u00a6\u00dd": 9889, "\u00b9\u00c1": 9890, "\f\u00d7\u00d6\u00bd": 9891, "X\u009b\u00b6": 9892, "~p": 9893, "w\u00c3": 9894, "\u00d3n\u00d5\u00a8N": 9895, "\u00aeY": 9896, "4\u00fd": 9897, "nK": 9898, "\b\u0094": 9899, "\u00e1\u00b6": 9900, "\u00e8.": 9901, "I\u001d": 9902, "\u00f7\u00f5\u001e": 9903, "\u00a2\u00fd": 9904, "o\u00f8": 9905, "~O": 9906, "\u0083\u0004": 9907, "\u0086\u00ac": 9908, "AH": 9909, "\u0083\u00ff": 9910, "\u0099\u00b2\u00c7": 9911, "\u00b3\u009c2": 9912, "\u00d3n\u00c0\u00f5\u00f6": 9913, "g\u00f5": 9914, "A\u001eN": 9915, "\u0095\u00ad6 ": 9916, "\u0002s\u0086": 9917, "\u00b8\u00e7": 9918, "\u00a6\u00c5": 9919, "\u0001\u001by": 9920, "\nl\u00f3": 9921, ".\t": 9922, "\u001e\u00ab\u00bc\u009c": 9923, "i\u00b7\t": 9924, "\u00dcs\u00df": 9925, ")\u00a7": 9926, "$\u00dd\u00a7": 9927, "\u0090\u008f": 9928, "\r\u00e9-": 9929, "\u009b<\u00e0": 9930, "\u00a9\u00d1": 9931, "\u00c7?": 9932, "\u00b6\u00f1": 9933, "\u008eD": 9934, "\u0016\u00be\u009b\u0011\u00b7": 9935, "\u00bcu": 9936, "\u0092_*": 9937, "\u0005\u00fe\u00ba": 9938, "\u00e0\u00e9": 9939, "H\u00f3\u0003\u00945": 9940, "\u000b\u00c1": 9941, "\u00ef\u00f6": 9942, "\u009f\u00a5": 9943, "ob": 9944, "\u008fr": 9945, "(\u00f5F": 9946, "\u00aa\u00cb": 9947, "\f\u00db": 9948, "\u00e3_\u001b\u00b6": 9949, "\u00d3n\u0010": 9950, "\u00f0 ": 9951, ";nF\u0013": 9952, "\u00acA\u00ad\u00cf": 9953, "\u00b9Z": 9954, "\u00dc\u0012": 9955, "uM": 9956, "g\u00af": 9957, "\u0090)": 9958, "\u00fe\u0000": 9959, "6\u00e7": 9960, "[\u00aa\u0081": 9961, "\u00d7+": 9962, "\u0006y": 9963, "%p": 9964, "U\u00deN": 9965, "\u00d5\u00b9\u00a5": 9966, "5\u00e5": 9967, "\u008b\u00a1": 9968, "\u0014y\u00ce\u001a": 9969, "\u00b6F\u00de": 9970, "\n<\u00e7\r": 9971, "\u0087P": 9972, "\u00adi": 9973, "\u00e4z\u00ae\u00f2": 9974, "\u00957|": 9975, "\u00891": 9976, "\u0086\u009e\u0086": 9977, "\u00e3\u0011": 9978, "m\u00db\u00d2": 9979, "\u008d\u00b8\u00a5": 9980, "N\u008f": 9981, "4Hg": 9982, "\u00f7\u00e9": 9983, "9\u00ee": 9984, "}c": 9985, "\u00cd\u00ff\u00b8": 9986, "\u0091\u0086": 9987, "\u008a\u00a8\u00cc": 9988, "\u00a5\u001a": 9989, "y\u00ce\u0019": 9990, "\u0095\u00cf\u001d": 9991, "zH": 9992, "h\u008f": 9993, "6\u00e2": 9994, "T\u001e": 9995, "\u00c8\u00f5\u00fa\u00dd": 9996, "T\u0097": 9997, "\u00ea1": 9998, "\u00bf\r": 9999, "\u0007&\u00ef": 10000, "\u00d0\u007f": 10001, "zX%": 10002, "\u00e6J1": 10003, "`\u0095": 10004, "7\u0088)": 10005, "\u00f4\u00db\u0084": 10006, "\u00e6W\u00e3": 10007, "k\u00c8\u00c7": 10008, "VP": 10009, "L\u0094": 10010, "\u0014\u00e78`": 10011, "@\u00a5": 10012, "'\u00eeM\u00da": 10013, "M\u00883": 10014, "\u00e1\u00a3": 10015, "4\u00f7v": 10016, "\u00dc\u00f7[": 10017, "\u0006\u007f\u00f6": 10018, "M\u0097": 10019, "?\u00c1": 10020, "@\u0087": 10021, "|\u00f8": 10022, "i\u00b3\u00c8": 10023, "k\u00e5\u00c7": 10024, "\u00cc\u0094a": 10025, "\u009f\u00fa": 10026, "\u00cf\u00f2": 10027, "\u009e\u00f9\u00bc": 10028, "\u00f7I": 10029, "\u00ebu": 10030, "8\u00a6": 10031, "\u00b2b": 10032, "\b\u00bd": 10033, "#\u0010\u0086": 10034, "\u00ef\u00f8": 10035, "J\u00e1": 10036, "\u00b97},": 10037, " \u00f3": 10038, "e\u00f9": 10039, "6\u00e0\u00ed": 10040, "z_": 10041, "\u00ab\u00f3": 10042, "\u00a4\u00a3\u001c": 10043, "\u00cf\u00bf": 10044, "k\u00eas": 10045, "#\u00aaN": 10046, "x\u00c5Y": 10047, "\u000b\u00fe": 10048, "4\u0017": 10049, "\u00fd|8": 10050, "\u0017\u0087": 10051, "\u00f4\u00a7": 10052, "j=": 10053, "\u00e4\u00bb": 10054, "\u00ff\u0081": 10055, "\u0099\u00e7": 10056, "\u00cd\u00aa": 10057, "\u00d2\u00b9\u00b5": 10058, "@o": 10059, "\u00e5~": 10060, "\u00f4]": 10061, ";\u00fa": 10062, "\u00e0\u00cep": 10063, "\u00c1\u0012": 10064, "b9]": 10065, "\u00c4`": 10066, "Z\u00b3": 10067, "65": 10068, "\u00f9K": 10069, "\u000e\u008an": 10070, "\u00c69": 10071, "\u00d0<\u0010\u0093": 10072, "\u00dbxW\f": 10073, "VF": 10074, "\u00c0S": 10075, "G\u00a6\u00dd\u00fe": 10076, "\u00a4z": 10077, "\u00e1\u00c1": 10078, "\u00f5\u001f;": 10079, "\u00c9/\u009b": 10080, "q\u00c9": 10081, " \u00b7": 10082, "\u007fJ\u009b": 10083, "z\u008b\u00dc3": 10084, "sN": 10085, "Z\u00f9": 10086, "z\u00dd": 10087, "\u00f7j": 10088, "\u00eby": 10089, "#o)": 10090, "\u00dd\u0099p": 10091, "\u0087R": 10092, "\u00f5k\u00fe": 10093, "\u0083\u00be\u0098\u00ae": 10094, "\u00d3n\u00c1b": 10095, "\u00f2\u009e\u009bv": 10096, "\u00ff@": 10097, "P\u00e1": 10098, "Ac\u0017\u00f8": 10099, "<\u0010\u0093": 10100, "\f\u00eeC": 10101, "\u00ff8)": 10102, "9\u0017": 10103, "~\u00b7%": 10104, "\u00ef\u00b9": 10105, "_\u00e4": 10106, "o>}\u00e3": 10107, "\u00a4\u00ab\u00e0": 10108, "O\u00fd": 10109, "\u009d\u00bf": 10110, "\u00d7<c": 10111, "\u00aa\u00d3\u00e7\u00af": 10112, "K\u00e1\u00b7": 10113, "ek[\u00bf": 10114, "i\u00b2\u0087": 10115, "\u0097\u00af": 10116, "\u00b9\u00c8": 10117, "k+": 10118, "\u00c5\u00f5": 10119, "\u00ff\u00cf": 10120, "\u00bf\u00fa1": 10121, "36+\u00ad": 10122, "\u0082=Q": 10123, "\u0089\u0018": 10124, "\u009e\u0086\u00f4\u0096": 10125, "\u001a\u00ff": 10126, "\n\u00b2": 10127, "\u00ed\u00ad": 10128, "\u00e6\f": 10129, "T\u00a6": 10130, "U\u00fb": 10131, "\u0097[": 10132, "\u00f8\u0002": 10133, "V\u00e4": 10134, "\u00be\u00a8": 10135, "\u00ae\u00b1F\u001f\u00e3": 10136, "y\bq": 10137, "\r=": 10138, "\u009aSb6": 10139, "*t": 10140, "(\u00f7": 10141,
[...]
